{
  "version": "1.0",
  "truncation": null,
  "padding": null,
  "added_tokens": [
    {
      "id": 0,
      "content": "<s>",
      "single_word": false,
      "lstrip": false,
      "rstrip": false,
      "normalized": false,
      "special": true
    },
    {
      "id": 1,
      "content": "<pad>",
      "single_word": false,
      "lstrip": false,
      "rstrip": false,
      "normalized": false,
      "special": true
    },
    {
      "id": 2,
      "content": "</s>",
      "single_word": false,
      "lstrip": false,
      "rstrip": false,
      "normalized": false,
      "special": true
    },
    {
      "id": 3,
      "content": "<unk>",
      "single_word": false,
      "lstrip": false,
      "rstrip": false,
      "normalized": false,
      "special": true
    },
    {
      "id": 4,
      "content": "<mask>",
      "single_word": false,
      "lstrip": false,
      "rstrip": false,
      "normalized": false,
      "special": true
    }
  ],
  "normalizer": {
    "type": "NFD"
  },
  "pre_tokenizer": {
    "type": "Sequence",
    "pretokenizers": [
      {
        "type": "ByteLevel",
        "add_prefix_space": false,
        "trim_offsets": true,
        "use_regex": true
      },
      {
        "type": "Split",
        "pattern": {
          "String": "([A-Za-z0-9]+|[^A-Za-z0-9])"
        },
        "behavior": "Isolated",
        "invert": false
      }
    ]
  },
  "post_processor": null,
  "decoder": null,
  "model": {
    "type": "BPE",
    "dropout": null,
    "unk_token": "<unk>",
    "continuing_subword_prefix": null,
    "end_of_word_suffix": null,
    "fuse_unk": false,
    "byte_fallback": false,
    "ignore_merges": false,
    "vocab": {
      "<s>": 0,
      "<pad>": 1,
      "</s>": 2,
      "<unk>": 3,
      "<mask>": 4,
      "!": 5,
      "\"": 6,
      "$": 7,
      "%": 8,
      "&": 9,
      "'": 10,
      "(": 11,
      ")": 12,
      "*": 13,
      "+": 14,
      ",": 15,
      "-": 16,
      ".": 17,
      "/": 18,
      "0": 19,
      "1": 20,
      "2": 21,
      "3": 22,
      "4": 23,
      "5": 24,
      "6": 25,
      "7": 26,
      "8": 27,
      "9": 28,
      ":": 29,
      ";": 30,
      "=": 31,
      "?": 32,
      "@": 33,
      "A": 34,
      "B": 35,
      "C": 36,
      "D": 37,
      "E": 38,
      "F": 39,
      "G": 40,
      "H": 41,
      "I": 42,
      "J": 43,
      "K": 44,
      "L": 45,
      "M": 46,
      "N": 47,
      "O": 48,
      "P": 49,
      "Q": 50,
      "R": 51,
      "S": 52,
      "T": 53,
      "U": 54,
      "V": 55,
      "W": 56,
      "X": 57,
      "Y": 58,
      "Z": 59,
      "[": 60,
      "\\": 61,
      "]": 62,
      "_": 63,
      "a": 64,
      "b": 65,
      "c": 66,
      "d": 67,
      "e": 68,
      "f": 69,
      "g": 70,
      "h": 71,
      "i": 72,
      "j": 73,
      "k": 74,
      "l": 75,
      "m": 76,
      "n": 77,
      "o": 78,
      "p": 79,
      "q": 80,
      "r": 81,
      "s": 82,
      "t": 83,
      "u": 84,
      "v": 85,
      "w": 86,
      "x": 87,
      "y": 88,
      "z": 89,
      "{": 90,
      "}": 91,
      "Ċ": 92,
      "Ġ": 93,
      "on": 94,
      "ti": 95,
      "te": 96,
      "la": 97,
      "en": 98,
      "ml": 99,
      "co": 100,
      "li": 101,
      "os": 102,
      "ca": 103,
      "in": 104,
      "ag": 105,
      "ac": 106,
      "tion": 107,
      "ep": 108,
      "nac": 109,
      "cep": 110,
      "cept": 111,
      "naccept": 112,
      "zi": 113,
      "xt": 114,
      "text": 115,
      "xml": 116,
      "er": 117,
      "ec": 118,
      "de": 119,
      "ost": 120,
      "ap": 121,
      "lica": 122,
      "app": 123,
      "lication": 124,
      "application": 125,
      "80": 126,
      "host": 127,
      "ng": 128,
      "age": 129,
      "ht": 130,
      "def": 131,
      "late": 132,
      "Ġ(": 133,
      "HT": 134,
      "Ġx": 135,
      "zip": 136,
      "gzip": 137,
      "deflate": 138,
      "html": 139,
      "ĠK": 140,
      "or": 141,
      "lo": 142,
      "ie": 143,
      "con": 144,
      "im": 145,
      "agen": 146,
      "ncon": 147,
      "enco": 148,
      "da": 149,
      "le": 150,
      "us": 151,
      "ok": 152,
      "cook": 153,
      "lang": 154,
      "SI": 155,
      "pa": 156,
      "cal": 157,
      "uage": 158,
      "language": 159,
      "local": 160,
      "localhost": 161,
      "ES": 162,
      "SES": 163,
      "SESSI": 164,
      "lla": 165,
      "cookie": 166,
      "com": 167,
      "ke": 168,
      "ing": 169,
      "Mo": 170,
      "ko": 171,
      "/*": 172,
      "user": 173,
      "ux": 174,
      "TP": 175,
      "nec": 176,
      "ding": 177,
      "Lin": 178,
      "nuser": 179,
      "ecko": 180,
      "agent": 181,
      "encoding": 182,
      "Gecko": 183,
      "nhost": 184,
      "Ġ/": 185,
      "Ġen": 186,
      "ĠHT": 187,
      "Ġlocalhost": 188,
      "ĠMo": 189,
      "ĠLin": 190,
      "ĠGecko": 191,
      "zilla": 192,
      "nconnec": 193,
      "ĠHTTP": 194,
      "ĠMozilla": 195,
      "ĠLinux": 196,
      "nconnection": 197,
      "*/*": 198,
      "Ġgzip": 199,
      "Ġdeflate": 200,
      "ncookie": 201,
      "Ġtext": 202,
      "*/*;": 203,
      "ID": 204,
      "ON": 205,
      "JSESSI": 206,
      "ĠJSESSI": 207,
      "ONID": 208,
      "ĠJSESSIONID": 209,
      "los": 210,
      "image": 211,
      "qu": 212,
      "ble": 213,
      ",*/*;": 214,
      "pla": 215,
      "png": 216,
      "plain": 217,
      "xhtml": 218,
      "quer": 219,
      "tien": 220,
      "Ġc": 221,
      "tienda": 222,
      "8080": 223,
      "like": 224,
      "compa": 225,
      "onquer": 226,
      "lose": 227,
      ")\\": 228,
      "ML": 229,
      "tible": 230,
      "HTML": 231,
      "ĠKonquer": 232,
      "ĠKHTML": 233,
      "Ġclose": 234,
      "compatible": 235,
      "ĠKonqueror": 236,
      "et": 237,
      "get": 238,
      "ar": 239,
      "js": 240,
      "jsp": 241,
      "re": 242,
      "st": 243,
      "ub": 244,
      "mb": 245,
      "ubli": 246,
      "publi": 247,
      "publico": 248,
      "di": 249,
      "ww": 250,
      "ci": 251,
      "gi": 252,
      "01": 253,
      "nt": 254,
      "ro": 255,
      "es": 256,
      "ss": 257,
      "al": 258,
      "ri": 259,
      "38": 260,
      "42": 261,
      "mo": 262,
      "rec": 263,
      "17": 264,
      "rar": 265,
      "gist": 266,
      "Ġapplication": 267,
      "36": 268,
      "an": 269,
      "ur": 270,
      "do": 271,
      "car": 272,
      "40": 273,
      "ros": 274,
      "mie": 275,
      "mbros": 276,
      "imagen": 277,
      "miembros": 278,
      "imagenes": 279,
      "at": 280,
      "no": 281,
      "ty": 282,
      "99": 283,
      "pe": 284,
      "gin": 285,
      "86": 286,
      "41": 287,
      "for": 288,
      "tent": 289,
      "post": 290,
      "ncontent": 291,
      "type": 292,
      "el": 293,
      "form": 294,
      "45": 295,
      "ded": 296,
      "url": 297,
      "www": 298,
      "encoded": 299,
      "urlencoded": 300,
      "modo": 301,
      "98": 302,
      "11": 303,
      "46": 304,
      "as": 305,
      "00": 306,
      "83": 307,
      "ent": 308,
      "ch": 309,
      "25": 310,
      "ni": 311,
      "cia": 312,
      "20": 313,
      "57": 314,
      "eb": 315,
      "dad": 316,
      "91": 317,
      "FB": 318,
      "login": 319,
      "mbre": 320,
      "regist": 321,
      "31": 322,
      "nombre": 323,
      "registro": 324,
      "47": 325,
      "CC": 326,
      "DD": 327,
      "22": 328,
      "BA": 329,
      "97": 330,
      "to": 331,
      "io": 332,
      "06": 333,
      "87": 334,
      "37": 335,
      "mi": 336,
      "pro": 337,
      "85": 338,
      "me": 339,
      "96": 340,
      "27": 341,
      "sec": 342,
      "26": 343,
      "carri": 344,
      "ED": 345,
      "carrito": 346,
      "gif": 347,
      "ma": 348,
      "142": 349,
      "95": 350,
      "il": 351,
      "35": 352,
      "FA": 353,
      "21": 354,
      "dis": 355,
      "nsec": 356,
      "fet": 357,
      "fetch": 358,
      "ref": 359,
      "miss": 360,
      "stat": 361,
      "status": 362,
      "dismiss": 363,
      "FC": 364,
      "81": 365,
      "34": 366,
      "64": 367,
      "jp": 368,
      "EA": 369,
      "71": 370,
      "cor": 371,
      "Re": 372,
      "90": 373,
      "jpg": 374,
      "30": 375,
      "DA": 376,
      "aci": 377,
      "wor": 378,
      "tar": 379,
      "lid": 380,
      "adi": 381,
      "FE": 382,
      "bal": 383,
      "sswor": 384,
      "ssword": 385,
      "sa": 386,
      "vin": 387,
      "ra": 388,
      "udad": 389,
      "ema": 390,
      "password": 391,
      "cion": 392,
      "direc": 393,
      "nti": 394,
      "cp": 395,
      "glo": 396,
      "email": 397,
      "82": 398,
      "apel": 399,
      "ntc": 400,
      "recio": 401,
      "adir": 402,
      "aciar": 403,
      "global": 404,
      "ZR": 405,
      "dni": 406,
      "nmodo": 407,
      "precio": 408,
      "ciudad": 409,
      "gistrar": 410,
      "entrar": 411,
      "provin": 412,
      "Registrar": 413,
      "lidos": 414,
      "direccion": 415,
      "apellidos": 416,
      "provincia": 417,
      "BC": 418,
      "70": 419,
      "ue": 420,
      "FD": 421,
      "EC": 422,
      "39": 423,
      "56": 424,
      "AA": 425,
      "BB": 426,
      "517": 427,
      "ner": 428,
      "ja": 429,
      "ser": 430,
      "55": 431,
      "au": 432,
      "BD": 433,
      "Go": 434,
      "EE": 435,
      "si": 436,
      "Web": 437,
      "nue": 438,
      "Goat": 439,
      "WebGoat": 440,
      "mv": 441,
      "5173": 442,
      "32": 443,
      "66": 444,
      "CA": 445,
      "FF": 446,
      "51": 447,
      "44": 448,
      "Ij": 449,
      "92": 450,
      "CD": 451,
      "tos": 452,
      "EB": 453,
      "mvc": 454,
      "50": 455,
      "men": 456,
      "EF": 457,
      "CB": 458,
      "48": 459,
      "Wx": 460,
      "67": 461,
      "br": 462,
      "61": 463,
      "07": 464,
      "Jl": 465,
      "sI": 466,
      "33": 467,
      "88": 468,
      "94": 469,
      "vi": 470,
      "ox": 471,
      "ve": 472,
      "Co": 473,
      "Fi": 474,
      "201": 475,
      "id": 476,
      "ori": 477,
      "AD": 478,
      "ate": 479,
      "ali": 480,
      "001": 481,
      "93": 482,
      "60": 483,
      "77": 484,
      "les": 485,
      "52": 486,
      "Mj": 487,
      "\":": 488,
      "ons": 489,
      "CI": 490,
      "DC": 491,
      "ND": 492,
      "AB": 493,
      "mode": 494,
      "{\"": 495,
      "tp": 496,
      "DB": 497,
      "US": 498,
      "wel": 499,
      "Ijo": 500,
      "site": 501,
      "AC": 502,
      "PH": 503,
      "rv": 504,
      "refox": 505,
      "Ġke": 506,
      "ĠFi": 507,
      "Ġrv": 508,
      "encia": 509,
      "erer": 510,
      "201001": 511,
      "alive": 512,
      "Ġkeep": 513,
      "ĠFirefox": 514,
      "20100101": 515,
      "Code": 516,
      "iec": 517,
      "state": 518,
      "same": 519,
      "Ġg": 520,
      "Ġsame": 521,
      "tinue": 522,
      "origin": 523,
      "anner": 524,
      "zst": 525,
      "Ġbr": 526,
      "Ġzst": 527,
      "continue": 528,
      "Ġzstd": 529,
      "={\"": 530,
      "PSESSI": 531,
      "};": 532,
      "Ġcook": 533,
      "Ġlanguage": 534,
      "Ġwel": 535,
      "ĠPH": 536,
      "Ġcontinue": 537,
      "comeb": 538,
      "onsent": 539,
      "ieconsent": 540,
      "PSESSID": 541,
      "Ġcookieconsent": 542,
      "Ġwelcomeb": 543,
      "ĠPHPSESSID": 544,
      "ĠcontinueCode": 545,
      "Ġwelcomebanner": 546,
      "http": 547,
      "10": 548,
      "//": 549,
      "://": 550,
      "nref": 551,
      "Ġhttp": 552,
      "nreferer": 553,
      "84": 554,
      "go": 555,
      "aj": 556,
      "bm": 557,
      "Ii": 558,
      "GM": 559,
      "cors": 560,
      "62": 561,
      "Ms": 562,
      "less": 563,
      "Ijoi": 564,
      "sti": 565,
      "lesson": 566,
      "tas": 567,
      "yO": 568,
      "cas": 569,
      "CE": 570,
      "wd": 571,
      "89": 572,
      "zm": 573,
      "BE": 574,
      "edi": 575,
      "red": 576,
      "DO": 577,
      "iO": 578,
      "12": 579,
      "nov": 580,
      "43": 581,
      "Ent": 582,
      "teri": 583,
      "mber": 584,
      "65": 585,
      "DE": 586,
      "AE": 587,
      "+&": 588,
      "pag": 589,
      "CF": 590,
      "VA": 591,
      "inde": 592,
      "reme": 593,
      "CJ": 594,
      "DF": 595,
      "ror": 596,
      "EQ": 597,
      "canti": 598,
      "correc": 599,
      "Bbm": 600,
      "Cred": 601,
      "KyO": 602,
      "Lzm": 603,
      "PJ": 604,
      "QDO": 605,
      "Vaciar": 606,
      "Xk": 607,
      "YVA": 608,
      "gYVA": 609,
      "pwd": 610,
      "qPJ": 611,
      "vaciar": 612,
      "wWx": 613,
      "zZR": 614,
      "tenti": 615,
      "inser": 616,
      "incorrec": 617,
      "acteri": 618,
      "reZR": 619,
      "alND": 620,
      "anadir": 621,
      "caracteri": 622,
      "nid": 623,
      "autenti": 624,
      "JlGM": 625,
      "enciales": 626,
      "Msg": 627,
      "sticas": 628,
      "editar": 629,
      "novp": 630,
      "Entrar": 631,
      "pagar": 632,
      "index": 633,
      "remember": 634,
      "rorMsg": 635,
      "cantidad": 636,
      "BbmzZR": 637,
      "Credenciales": 638,
      "KyOqPJ": 639,
      "LzmXk": 640,
      "gYVAJlGM": 641,
      "wWxalND": 642,
      "insertar": 643,
      "incorrectas": 644,
      "reZRLzmXk": 645,
      "caracteristicas": 646,
      "autenticar": 647,
      "BbmzZRb": 648,
      "ZX": 649,
      "AF": 650,
      "BF": 651,
      "bf": 652,
      "15": 653,
      "49": 654,
      "iJ": 655,
      "16": 656,
      "Ġcors": 657,
      "360": 658,
      "MT": 659,
      "LCJ": 660,
      "FBE": 661,
      "05": 662,
      "29": 663,
      "art": 664,
      "74": 665,
      "ce": 666,
      "76": 667,
      "75": 668,
      "menu": 669,
      "28": 670,
      "24": 671,
      "9899": 672,
      "23": 673,
      "4199": 674,
      "start": 675,
      "989941": 676,
      "wi": 677,
      "json": 678,
      "ul": 679,
      "101": 680,
      "cri": 681,
      "YW": 682,
      "pt": 683,
      "283": 684,
      "vas": 685,
      "cript": 686,
      "am": 687,
      "58": 688,
      "hi": 689,
      "53": 690,
      "Ġq": 691,
      "Ġ*/*;": 692,
      "63": 693,
      "54": 694,
      "ir": 695,
      "javas": 696,
      "javascript": 697,
      "ey": 698,
      "59": 699,
      "13": 700,
      "MD": 701,
      "servi": 702,
      "79": 703,
      "7098": 704,
      "service": 705,
      "NT": 706,
      "dbf": 707,
      "28336": 708,
      "7098101": 709,
      "dbfd": 710,
      "68": 711,
      "ZW": 712,
      "14": 713,
      "72": 714,
      "Nz": 715,
      "du": 716,
      "18": 717,
      "GF": 718,
      "mar": 719,
      "09": 720,
      "Iiwi": 721,
      "78": 722,
      "02": 723,
      "nB": 724,
      "176": 725,
      "73": 726,
      "eyJ": 727,
      "19": 728,
      "387": 729,
      "69": 730,
      "03": 731,
      "08": 732,
      "zd": 733,
      "Mz": 734,
      "786": 735,
      "04": 736,
      "por": 737,
      "of": 738,
      "fo": 739,
      "062": 740,
      "Ym": 741,
      "ack": 742,
      "tu": 743,
      "dCI": 744,
      "zar": 745,
      "duc": 746,
      "css": 747,
      "og": 748,
      "GV": 749,
      "3483": 750,
      "alle": 751,
      "sIm": 752,
      "jack": 753,
      "erra": 754,
      "Con": 755,
      "Pas": 756,
      "iLCJ": 757,
      "0057": 758,
      "9122": 759,
      "4642": 760,
      "Ġhi": 761,
      "363483": 762,
      "176363483": 763,
      "38725": 764,
      "7860057": 765,
      "06238725": 766,
      "464206238725": 767,
      "Ġhijack": 768,
      "1763634839122": 769,
      "7860057464206238725": 770,
      "produc": 771,
      "ono": 772,
      "off": 773,
      "RB": 774,
      "Iw": 775,
      "stro": 776,
      "8082": 777,
      "Nj": 778,
      "stra": 779,
      "iOiJ": 780,
      "cre": 781,
      "Calle": 782,
      "nV": 783,
      "logo": 784,
      "fir": 785,
      "titu": 786,
      "esti": 787,
      "fotos": 788,
      "castro": 789,
      "sali": 790,
      "bul": 791,
      "tierra": 792,
      "caja": 793,
      "Pasar": 794,
      "credi": 795,
      "productos": 796,
      "cmen": 797,
      "errorMsg": 798,
      "nerrorMsg": 799,
      "auz": 800,
      "nuestra": 801,
      "menum": 802,
      "zarauz": 803,
      "ogono": 804,
      "titulo": 805,
      "estilos": 806,
      "salir": 807,
      "creditos": 808,
      "cmenbul": 809,
      "nuestratierra": 810,
      "Confir": 811,
      "Confirmar": 812,
      "ls": 813,
      "Rl": 814,
      "ea": 815,
      "ver": 816,
      "za": 817,
      "ino": 818,
      "dX": 819,
      "MTE": 820,
      "ab": 821,
      "Qu": 822,
      "Rio": 823,
      "100": 824,
      "ZWRB": 825,
      "ZWRBdCI": 826,
      "pY": 827,
      "De": 828,
      "lIjoi": 829,
      "tYW": 830,
      "pb": 831,
      "sb": 832,
      "che": 833,
      "Rioja": 834,
      "na": 835,
      "Ġt": 836,
      "Man": 837,
      "YX": 838,
      "fa": 839,
      "ha": 840,
      "bG": 841,
      "657": 842,
      "Ny": 843,
      "452": 844,
      "ad": 845,
      "lessonmenu": 846,
      "466": 847,
      "Vino": 848,
      "ZGF": 849,
      "sInV": 850,
      "ow": 851,
      "ran": 852,
      "Lj": 853,
      "eso": 854,
      "MjU": 855,
      "ta": 856,
      "iI": 857,
      "rico": 858,
      "Queso": 859,
      "chego": 860,
      "Manchego": 861,
      "Ib": 862,
      "MjA": 863,
      "Al": 864,
      "Uz": 865,
      "Ju": 866,
      "WF": 867,
      "mU": 868,
      "vie": 869,
      "Jam": 870,
      "uri": 871,
      "Vi": 872,
      "ol": 873,
      "cm": 874,
      "Yz": 875,
      "ne": 876,
      "Zj": 877,
      "va": 878,
      "view": 879,
      "man": 880,
      "Sa": 881,
      "hc": 882,
      "over": 883,
      "ada": 884,
      "OT": 885,
      "tMTE": 886,
      "IjIw": 887,
      "IjoiIiwi": 888,
      "MjUtMTE": 889,
      "IjIwMjUtMTE": 890,
      "IjIwMjUtMTEt": 891,
      "pYy": 892,
      "overview": 893,
      "lessonoverview": 894,
      "ia": 895,
      "he": 896,
      "Ar": 897,
      "Pa": 898,
      "aea": 899,
      "6575": 900,
      "45297": 901,
      "ZWx": 902,
      "kZWx": 903,
      "Ex": 904,
      "ed": 905,
      "OW": 906,
      "ona": 907,
      "tYWls": 908,
      "pos": 909,
      "jJ": 910,
      "cH": 911,
      "sv": 912,
      "Gd": 913,
      "MCI": 914,
      "cy": 915,
      "MDU": 916,
      "hZ": 917,
      "FN": 918,
      "sw": 919,
      "/\\": 920,
      "XA": 921,
      "urity": 922,
      "security": 923,
      "IC": 924,
      "253": 925,
      "oken": 926,
      "La": 927,
      "Zl": 928,
      "Ġ*/*": 929,
      "Ġ*/*\\": 930,
      "gu": 931,
      "ru": 932,
      "LB": 933,
      "My": 934,
      "MDow": 935,
      "MjAg": 936,
      "IjIwMjUtMTEtMjAg": 937,
      "swMDow": 938,
      "ICswMDow": 939,
      "ICswMDowMCI": 940,
      "Mv": 941,
      "lb": 942,
      "mO": 943,
      "QiO": 944,
      "Jv": 945,
      "sible": 946,
      "so": 947,
      "impos": 948,
      "872": 949,
      "impossible": 950,
      "ciO": 951,
      "KV": 952,
      "MiOiJ": 953,
      "NiJ": 954,
      "QiLCJ": 955,
      "SUz": 956,
      "WNj": 957,
      "YSI": 958,
      "ZCI": 959,
      "eXA": 960,
      "hYm": 961,
      "hbG": 962,
      "pZCI": 963,
      "zL": 964,
      "zZX": 965,
      "SIsI": 966,
      "ZXNz": 967,
      "iJSUz": 968,
      "IiwiZGF": 969,
      "eyJzd": 970,
      "eyJpZCI": 971,
      "zdWNj": 972,
      "iOiJKV": 973,
      "dXMiOiJ": 974,
      "Ġtoken": 975,
      "sInVzZX": 976,
      "JuYW": 977,
      "ciOiJSUz": 978,
      "QiLCJhbG": 979,
      "eXAiOiJKV": 980,
      "ZXNzIiwiZGF": 981,
      "eyJzdGF": 982,
      "zdWNjZXNzIiwiZGF": 983,
      "dXMiOiJzdWNjZXNzIiwiZGF": 984,
      "sInVzZXJuYW": 985,
      "ciOiJSUzI": 986,
      "QiLCJhbGciOiJSUzI": 987,
      "ga": 988,
      "Ġsecurity": 989,
      "del": 990,
      "834": 991,
      "Cu": 992,
      "Ub": 993,
      "Bar": 994,
      "WU": 995,
      "nR": 996,
      "uM": 997,
      "Pg": 998,
      "fi": 999,
      "ght": 1000,
      "UiLCJ": 1001,
      "eGV": 1002,
      "tlb": 1003,
      "IiLCJ": 1004,
      "WFn": 1005,
      "eGVUb": 1006,
      "tlbiI": 1007,
      "ba": 1008,
      "jo": 1009,
      "ll": 1010,
      "Val": 1011,
      "Ca": 1012,
      "ge": 1013,
      "is": 1014,
      "Gu": 1015,
      "yb": 1016,
      "era": 1017,
      "Mar": 1018,
      "RzL": 1019,
      "Car": 1020,
      "un": 1021,
      "Fk": 1022,
      "light": 1023,
      "RlZ": 1024,
      "Ad": 1025,
      "Le": 1026,
      "San": 1027,
      "heme": 1028,
      "Ġtheme": 1029,
      "all": 1030,
      "NB": 1031,
      "sImRl": 1032,
      "sImRlb": 1033,
      "Bsb": 1034,
      "xpYy": 1035,
      "ZXMv": 1036,
      "ZXRzL": 1037,
      "NzZXRzL": 1038,
      "YmxpYy": 1039,
      "dXBsb": 1040,
      "pbWFn": 1041,
      "YXNzZXRzL": 1042,
      "Fkcy": 1043,
      "ZXMvdXBsb": 1044,
      "pbWFnZXMvdXBsb": 1045,
      "Ch": 1046,
      "aX": 1047,
      "jcm": 1048,
      "se": 1049,
      "sIml": 1050,
      "MzY": 1051,
      "jcmV": 1052,
      "IiI": 1053,
      "Qx": 1054,
      "RlZEF": 1055,
      "ltYW": 1056,
      "ltYWd": 1057,
      "Cas": 1058,
      "Na": 1059,
      "Ro": 1060,
      "ara": 1061,
      "TE": 1062,
      "Se": 1063,
      "hh": 1064,
      "th": 1065,
      "hd": 1066,
      "ana": 1067,
      "bd": 1068,
      "sZ": 1069,
      "ZS": 1070,
      "jw": 1071,
      "yd": 1072,
      "Lm": 1073,
      "wf": 1074,
      "Gls": 1075,
      "dd": 1076,
      "ter": 1077,
      "web": 1078,
      "kq": 1079,
      "pd": 1080,
      "Mb": 1081,
      "Rw": 1082,
      "Rpd": 1083,
      "UltYWd": 1084,
      "VjcmV": 1085,
      "ZV": 1086,
      "Zml": 1087,
      "bnV": 1088,
      "hdCI": 1089,
      "oF": 1090,
      "wZGF": 1091,
      "ciLCJ": 1092,
      "iOnR": 1093,
      "MTc": 1094,
      "ZWF": 1095,
      "MzYz": 1096,
      "sImNy": 1097,
      "sbH": 1098,
      "sInVwZGF": 1099,
      "mUiOnR": 1100,
      "IjoiIiwiaX": 1101,
      "cHJv": 1102,
      "WUsImNy": 1103,
      "NBY": 1104,
      "sImRlbGV": 1105,
      "sImlhdCI": 1106,
      "sZUltYWd": 1107,
      "ydWUsImNy": 1108,
      "RwU": 1109,
      "RpdmUiOnR": 1110,
      "ZmlsZUltYWd": 1111,
      "bnVsbH": 1112,
      "IjoiIiwiaXNBY": 1113,
      "cHJvZmlsZUltYWd": 1114,
      "ydWUsImNyZWF": 1115,
      "RpdmUiOnRydWUsImNyZWF": 1116,
      "cHJvZmlsZUltYWdlIjoi": 1117,
      "Wr": 1118,
      "AAA": 1119,
      "BM": 1120,
      "DQ": 1121,
      "Lbr": 1122,
      "MWr": 1123,
      "Pea": 1124,
      "XV": 1125,
      "YRl": 1126,
      "ZMWr": 1127,
      "gjJ": 1128,
      "lw": 1129,
      "nmv": 1130,
      "wK": 1131,
      "ora": 1132,
      "NyXV": 1133,
      "ExW": 1134,
      "mOLbr": 1135,
      "kqYRl": 1136,
      "BMNyXV": 1137,
      "PeaBMNyXV": 1138,
      "ZMWrX": 1139,
      "gjJwK": 1140,
      "nmvd": 1141,
      "mOLbrgjJwK": 1142,
      "kqYRlExW": 1143,
      "ina": 1144,
      "pbk": 1145,
      "Jh": 1146,
      "Jk": 1147,
      "Nv": 1148,
      "QGd": 1149,
      "Rj": 1150,
      "RMb": 1151,
      "Vzd": 1152,
      "ZTE": 1153,
      "bSIsI": 1154,
      "db": 1155,
      "dpbk": 1156,
      "lhYm": 1157,
      "tZX": 1158,
      "wYW": 1159,
      "xlIjoi": 1160,
      "xhc": 1161,
      "ero": 1162,
      "8081": 1163,
      "JlNT": 1164,
      "IjoiZTE": 1165,
      "NTlhYm": 1166,
      "nBhc": 1167,
      "Mzk": 1168,
      "sImxhc": 1169,
      "IwZj": 1170,
      "ZjIwZj": 1171,
      "OWJh": 1172,
      "tYWlsLm": 1173,
      "ZlMDU": 1174,
      "UiLCJyb": 1175,
      "IiLCJkZWx": 1176,
      "IiIsImxhc": 1177,
      "JkIjoiZTE": 1178,
      "NvbSIsI": 1179,
      "QGdtYWlsLm": 1180,
      "RjMzk": 1181,
      "VzdG": 1182,
      "dpbklw": 1183,
      "tZXIiLCJkZWx": 1184,
      "wYWRjMzk": 1185,
      "xlIjoiY": 1186,
      "JlNTZlMDU": 1187,
      "NTlhYmJlNTZlMDU": 1188,
      "ZjIwZjg": 1189,
      "OWJhNTlhYmJlNTZlMDU": 1190,
      "JkIjoiZTEwYWRjMzk": 1191,
      "NvbSIsInBhc": 1192,
      "QGdtYWlsLmNvbSIsInBhc": 1193,
      "401": 1194,
      "ili": 1195,
      "ano": 1196,
      "Fr": 1197,
      "res": 1198,
      "25320": 1199,
      "bff": 1200,
      "avi": 1201,
      "MjB": 1202,
      "edf": 1203,
      "bffc": 1204,
      "Nk": 1205,
      "NmU": 1206,
      "zH": 1207,
      "QiOi": 1208,
      "697": 1209,
      "Villa": 1210,
      "Eu": 1211,
      "HY": 1212,
      "HZ": 1213,
      "nj": 1214,
      "Ġno": 1215,
      "To": 1216,
      "kr": 1217,
      "gos": 1218,
      "lu": 1219,
      "Sant": 1220,
      "ho": 1221,
      "rw": 1222,
      "tor": 1223,
      "be": 1224,
      "MjM": 1225,
      "Ci": 1226,
      "Jc": 1227,
      "361": 1228,
      "877": 1229,
      "dH": 1230,
      "po": 1231,
      "242": 1232,
      "380": 1233,
      "CX": 1234,
      "EDa": 1235,
      "svg": 1236,
      "Es": 1237,
      "cel": 1238,
      "hha": 1239,
      "471": 1240,
      "Mon": 1241,
      "zc": 1242,
      "Ax": 1243,
      "Bur": 1244,
      "HO": 1245,
      "VtYWls": 1246,
      "bml": 1247,
      "wQGdtYWlsLmNvbSIsInBhc": 1248,
      "ya": 1249,
      "SIsIm": 1250,
      "raGls": 1251,
      "Ijoibml": 1252,
      "lIjoiQ": 1253,
      "LjY": 1254,
      "MzYwQGdtYWlsLmNvbSIsInBhc": 1255,
      "MjMsInVzZXJuYW": 1256,
      "hhaSIsIm": 1257,
      "VtYWlsIjoibml": 1258,
      "raGlsLjY": 1259,
      "hhaSIsImVtYWlsIjoibml": 1260,
      "hhaSIsImVtYWlsIjoibmlraGlsLjY": 1261,
      "des": 1262,
      "iq": 1263,
      "ling": 1264,
      "997": 1265,
      "470": 1266,
      "341": 1267,
      "337": 1268,
      "396": 1269,
      "485": 1270,
      "327": 1271,
      "440": 1272,
      "926": 1273,
      "uel": 1274,
      "zg": 1275,
      "326": 1276,
      "Ye": 1277,
      "Yo": 1278,
      "cza": 1279,
      "rU": 1280,
      "yw": 1281,
      "457": 1282,
      "CDA": 1283,
      "lL": 1284,
      "cic": 1285,
      "pYe": 1286,
      "940": 1287,
      "BV": 1288,
      "Fw": 1289,
      "bX": 1290,
      "oim": 1291,
      "yq": 1292,
      "461": 1293,
      "BZV": 1294,
      "Gb": 1295,
      "HMo": 1296,
      "IuM": 1297,
      "MX": 1298,
      "OQ": 1299,
      "Oa": 1300,
      "Pyw": 1301,
      "QR": 1302,
      "Qv": 1303,
      "SQR": 1304,
      "TZ": 1305,
      "Ts": 1306,
      "Tw": 1307,
      "UoF": 1308,
      "Vx": 1309,
      "WQ": 1310,
      "WYo": 1311,
      "WlL": 1312,
      "ZHY": 1313,
      "ZbX": 1314,
      "__": 1315,
      "bCX": 1316,
      "fz": 1317,
      "kd": 1318,
      "kHO": 1319,
      "mAx": 1320,
      "qx": 1321,
      "wbm": 1322,
      "yPa": 1323,
      "yMy": 1324,
      "zjJ": 1325,
      "onQv": 1326,
      "okFC": 1327,
      "urV": 1328,
      "456": 1329,
      "jpgyPa": 1330,
      "saurV": 1331,
      "MjEu": 1332,
      "NDMy": 1333,
      "MTIuM": 1334,
      "MDc": 1335,
      "NTU": 1336,
      "NzUz": 1337,
      "RBne": 1338,
      "YzbCX": 1339,
      "IjoiIiwicHJvZmlsZUltYWdlIjoi": 1340,
      "pYyHMo": 1341,
      "svVx": 1342,
      "LByq": 1343,
      "LBRBne": 1344,
      "IjIwMjUtMTEtMjAgMTE": 1345,
      "IjIwMjUtMTEtMjAgMDc": 1346,
      "ICswMDowMCIsInVwZGF": 1347,
      "ICswMDowMCIsImRlbGV": 1348,
      "PgLBRBne": 1349,
      "Adqx": 1350,
      "hhmAx": 1351,
      "MzYzNzUz": 1352,
      "dpbklwIjoiIiwicHJvZmlsZUltYWdlIjoi": 1353,
      "FrjpgyPa": 1354,
      "zHzjJ": 1355,
      "HZBZV": 1356,
      "njrU": 1357,
      "iqnjrU": 1358,
      "YeGd": 1359,
      "czaoim": 1360,
      "cicB": 1361,
      "pYeOa": 1362,
      "BVTs": 1363,
      "FwsvVx": 1364,
      "Gbjw": 1365,
      "OQiqnjrU": 1366,
      "PywWlL": 1367,
      "SQRpYyHMo": 1368,
      "TZPgLBRBne": 1369,
      "Twzg": 1370,
      "UoFTZPgLBRBne": 1371,
      "WYoG": 1372,
      "ZbXGbjw": 1373,
      "fzkr": 1374,
      "kHOFrjpgyPa": 1375,
      "wbmciLCJ": 1376,
      "onQvrw": 1377,
      "okFCkHOFrjpgyPa": 1378,
      "MjEuNDMy": 1379,
      "MTIuMDA": 1380,
      "LByqcicB": 1381,
      "AdqxsaurV": 1382,
      "hhmAxZHY": 1383,
      "MzYzNzUzMX": 1384,
      "dpbklwIjoiIiwicHJvZmlsZUltYWdlIjoiYXNzZXRzL": 1385,
      "zHzjJM": 1386,
      "HZBZVH": 1387,
      "czaoimCu": 1388,
      "pYeOaLByqcicB": 1389,
      "FwsvVxhhmAxZHY": 1390,
      "PywWlLYzbCX": 1391,
      "UoFTZPgLBRBneFwsvVxhhmAxZHY": 1392,
      "okFCkHOFrjpgyPaTwzg": 1393,
      "MjEuNDMyICswMDowMCIsInVwZGF": 1394,
      "897": 1395,
      "467": 1396,
      "200": 1397,
      "437": 1398,
      "827": 1399,
      "177": 1400,
      "451": 1401,
      "342": 1402,
      "811": 1403,
      "825": 1404,
      "BEA": 1405,
      "EEC": 1406,
      "306": 1407,
      "435": 1408,
      "MF": 1409,
      "Tor": 1410,
      "800": 1411,
      "171": 1412,
      "236": 1413,
      "942": 1414,
      "911": 1415,
      "927": 1416,
      "var": 1417,
      "Burgos": 1418,
      "ber": 1419,
      "ente": 1420,
      "que": 1421,
      "BAD": 1422,
      "967": 1423,
      "901": 1424,
      "027": 1425,
      "386": 1426,
      "918": 1427,
      "486": 1428,
      "NS": 1429,
      "it": 1430,
      "ida": 1431,
      "ka": 1432,
      "ago": 1433,
      "805": 1434,
      "091": 1435,
      "311": 1436,
      "397": 1437,
      "477": 1438,
      "871": 1439,
      "ECC": 1440,
      "EFA": 1441,
      "FK": 1442,
      "xM": 1443,
      "501": 1444,
      "506": 1445,
      "895": 1446,
      "CEC": 1447,
      "Mw": 1448,
      "Yj": 1449,
      "bo": 1450,
      "yMF": 1451,
      "yNS": 1452,
      "FCD": 1453,
      "IjoiMjA": 1454,
      "YXRlZEF": 1455,
      "OTM": 1456,
      "allen": 1457,
      "QxMT": 1458,
      "xMS": 1459,
      "yMFQxMT": 1460,
      "IjoiMjAyNS": 1461,
      "299": 1462,
      "441": 1463,
      "957": 1464,
      "UT": 1465,
      "EAA": 1466,
      "340": 1467,
      "442": 1468,
      "497": 1469,
      "495": 1470,
      "EED": 1471,
      "per": 1472,
      "367": 1473,
      ".+": 1474,
      "Cor": 1475,
      "bar": 1476,
      "ket": 1477,
      "261": 1478,
      "celona": 1479,
      "480": 1480,
      "842": 1481,
      "921": 1482,
      "166": 1483,
      "300": 1484,
      "446": 1485,
      "FDA": 1486,
      "dv": 1487,
      "mer": 1488,
      "FEE": 1489,
      "LjA": 1490,
      "087": 1491,
      "301": 1492,
      "395": 1493,
      "=%": 1494,
      "AFB": 1495,
      "BCC": 1496,
      "lin": 1497,
      "sta": 1498,
      "BAB": 1499,
      "/?": 1500,
      "317": 1501,
      "899": 1502,
      "Ma": 1503,
      "/*;": 1504,
      "381": 1505,
      "051": 1506,
      "211": 1507,
      "836": 1508,
      "980": 1509,
      "925": 1510,
      "906": 1511,
      "allenge": 1512,
      "ig": 1513,
      "Ġimage": 1514,
      "475": 1515,
      "BCA": 1516,
      "webp": 1517,
      "avif": 1518,
      "335": 1519,
      "595": 1520,
      "917": 1521,
      "rid": 1522,
      "316": 1523,
      "221": 1524,
      "320": 1525,
      "499": 1526,
      "498": 1527,
      "886": 1528,
      "Cam": 1529,
      "DED": 1530,
      "EEA": 1531,
      "FCC": 1532,
      "810": 1533,
      "297": 1534,
      "399": 1535,
      "417": 1536,
      "DEA": 1537,
      "ic": 1538,
      "ly": 1539,
      "ena": 1540,
      "FCB": 1541,
      "106": 1542,
      "El": 1543,
      "QsInVzZXJuYW": 1544,
      "Ww": 1545,
      "tr": 1546,
      "250": 1547,
      "377": 1548,
      "307": 1549,
      "FDF": 1550,
      "MjQsInVzZXJuYW": 1551,
      "haWw": 1552,
      "286": 1553,
      "496": 1554,
      "556": 1555,
      "885": 1556,
      "Oj": 1557,
      "lan": 1558,
      "191": 1559,
      "235": 1560,
      "696": 1561,
      "986": 1562,
      "EBC": 1563,
      "FDD": 1564,
      "alla": 1565,
      "pol": 1566,
      "315": 1567,
      "227": 1568,
      "FEC": 1569,
      "042": 1570,
      "357": 1571,
      "491": 1572,
      "Del": 1573,
      "cu": 1574,
      "FAA": 1575,
      "ulner": 1576,
      "055": 1577,
      "880": 1578,
      "900": 1579,
      "BDD": 1580,
      "FED": 1581,
      "Ter": 1582,
      "las": 1583,
      "int": 1584,
      "251": 1585,
      "FBB": 1586,
      "FAC": 1587,
      "FDC": 1588,
      "Challenge": 1589,
      "447": 1590,
      "898": 1591,
      "CED": 1592,
      "DBC": 1593,
      "Po": 1594,
      "bi": 1595,
      "gy": 1596,
      "hu": 1597,
      "366": 1598,
      "and": 1599,
      "256": 1600,
      "216": 1601,
      "597": 1602,
      "587": 1603,
      "896": 1604,
      "941": 1605,
      "ADA": 1606,
      "tran": 1607,
      "FBA": 1608,
      "FCE": 1609,
      "FCF": 1610,
      "127": 1611,
      "527": 1612,
      "727": 1613,
      "Pl": 1614,
      "FAD": 1615,
      "086": 1616,
      "240": 1617,
      "245": 1618,
      "296": 1619,
      "596": 1620,
      "817": 1621,
      "BBA": 1622,
      "abili": 1623,
      "Sala": 1624,
      "186": 1625,
      "287": 1626,
      "490": 1627,
      "557": 1628,
      "857": 1629,
      "CAA": 1630,
      "DBD": 1631,
      "LR": 1632,
      "LT": 1633,
      "PW": 1634,
      "XQiO": 1635,
      "ties": 1636,
      "ell": 1637,
      "371": 1638,
      "267": 1639,
      "EBE": 1640,
      "280": 1641,
      "217": 1642,
      "331": 1643,
      "483": 1644,
      "An": 1645,
      "ABA": 1646,
      "FEA": 1647,
      "Im": 1648,
      "vulner": 1649,
      "port": 1650,
      "abilities": 1651,
      "vulnerabilities": 1652,
      "338": 1653,
      "438": 1654,
      "546": 1655,
      "CBD": 1656,
      "ud": 1657,
      "lar": 1658,
      "415": 1659,
      "FCA": 1660,
      "336": 1661,
      "345": 1662,
      "840": 1663,
      "CBC": 1664,
      "DCC": 1665,
      "DCA": 1666,
      "llo": 1667,
      "370": 1668,
      "EDn": 1669,
      "FEF": 1670,
      "185": 1671,
      "547": 1672,
      "946": 1673,
      "947": 1674,
      "ADD": 1675,
      "EBD": 1676,
      "gs": 1677,
      "112": 1678,
      "226": 1679,
      "FAB": 1680,
      "Barcelona": 1681,
      "085": 1682,
      "157": 1683,
      "130": 1684,
      "487": 1685,
      "500": 1686,
      "841": 1687,
      "845": 1688,
      "826": 1689,
      "935": 1690,
      "Fe": 1691,
      "Zar": 1692,
      "iL": 1693,
      "FDB": 1694,
      "BBE": 1695,
      "sid": 1696,
      "180": 1697,
      "135": 1698,
      "391": 1699,
      "445": 1700,
      "586": 1701,
      "591": 1702,
      "ACB": 1703,
      "CEA": 1704,
      "En": 1705,
      "Lu": 1706,
      "Pla": 1707,
      "026": 1708,
      "035": 1709,
      "197": 1710,
      "599": 1711,
      "690": 1712,
      "887": 1713,
      "BEC": 1714,
      "EI": 1715,
      "EDD": 1716,
      "pi": 1717,
      "FBC": 1718,
      "FAF": 1719,
      "soc": 1720,
      "125": 1721,
      "298": 1722,
      "247": 1723,
      "285": 1724,
      "481": 1725,
      "891": 1726,
      "AEC": 1727,
      "Fa": 1728,
      "dm": 1729,
      "121": 1730,
      "542": 1731,
      "536": 1732,
      "520": 1733,
      "945": 1734,
      "AED": 1735,
      "Hu": 1736,
      "ph": 1737,
      "FEB": 1738,
      "237": 1739,
      "347": 1740,
      "535": 1741,
      "Si": 1742,
      "mc": 1743,
      "mas": 1744,
      "vo": 1745,
      "trans": 1746,
      "037": 1747,
      "136": 1748,
      "248": 1749,
      "398": 1750,
      "325": 1751,
      "436": 1752,
      "585": 1753,
      "890": 1754,
      "ABC": 1755,
      "yo": 1756,
      "837": 1757,
      "FBF": 1758,
      "310": 1759,
      "FFF": 1760,
      "095": 1761,
      "220": 1762,
      "321": 1763,
      "511": 1764,
      "526": 1765,
      "838": 1766,
      "936": 1767,
      "AZ": 1768,
      "ACA": 1769,
      "BDA": 1770,
      "har": 1771,
      "EEF": 1772,
      "038": 1773,
      "122": 1774,
      "541": 1775,
      "525": 1776,
      "686": 1777,
      "820": 1778,
      "822": 1779,
      "ACC": 1780,
      "ACD": 1781,
      "jara": 1782,
      "zZ": 1783,
      "BBF": 1784,
      "Navar": 1785,
      "socket": 1786,
      "140": 1787,
      "199": 1788,
      "156": 1789,
      "161": 1790,
      "295": 1791,
      "620": 1792,
      "766": 1793,
      "937": 1794,
      "BED": 1795,
      "BhZ": 1796,
      "BhYm": 1797,
      "CJl": 1798,
      "Dg": 1799,
      "Do": 1800,
      "UiOiJ": 1801,
      "UiL": 1802,
      "ZGV": 1803,
      "bWF": 1804,
      "cGF": 1805,
      "dCB": 1806,
      "hAZ": 1807,
      "lIjo": 1808,
      "nJv": 1809,
      "tIiwi": 1810,
      "tZS": 1811,
      "uY": 1812,
      "wNT": 1813,
      "zLj": 1814,
      "zOT": 1815,
      "arr": 1816,
      "CBtZS": 1817,
      "JlMT": 1818,
      "FiYm": 1819,
      "idGV": 1820,
      "GMzOT": 1821,
      "NThAZ": 1822,
      "Nzgy": 1823,
      "YmE": 1824,
      "pbCI": 1825,
      "sbCBtZS": 1826,
      "bGUiOiJ": 1827,
      "cmQiOi": 1828,
      "manca": 1829,
      "OTk": 1830,
      "OWFiYm": 1831,
      "mODg": 1832,
      "SIsInJv": 1833,
      "uMC": 1834,
      "MjBmODg": 1835,
      "NmUwNT": 1836,
      "dvcmQiOi": 1837,
      "haWwuY": 1838,
      "Salamanca": 1839,
      "dmMjBmODg": 1840,
      "zZSIsInJv": 1841,
      "BhZGMzOT": 1842,
      "CJlbWF": 1843,
      "UiLCJlbWF": 1844,
      "cGFzc": 1845,
      "lIjoidGV": 1846,
      "tIiwicGFzc": 1847,
      "zLjk": 1848,
      "JlMTBhZGMzOT": 1849,
      "NzgyNThAZ": 1850,
      "sbCBtZSBhYm": 1851,
      "OWFiYmU": 1852,
      "NmUwNTdmMjBmODg": 1853,
      "dvcmQiOiJlMTBhZGMzOT": 1854,
      "zZSIsInJvbGUiOiJ": 1855,
      "UiLCJlbWFpbCI": 1856,
      "lIjoidGVsbCBtZSBhYm": 1857,
      "NmUwNTdmMjBmODgzZSIsInJvbGUiOiJ": 1858,
      "dvcmQiOiJlMTBhZGMzOTQ": 1859,
      "080": 1860,
      "151": 1861,
      "540": 1862,
      "581": 1863,
      "640": 1864,
      "650": 1865,
      "ki": 1866,
      "son": 1867,
      "987": 1868,
      "Guada": 1869,
      "EIO": 1870,
      "transport": 1871,
      "607": 1872,
      "881": 1873,
      "920": 1874,
      "tz": 1875,
      "images": 1876,
      "polling": 1877,
      "107": 1878,
      "281": 1879,
      "521": 1880,
      "642": 1881,
      "627": 1882,
      "681": 1883,
      "DBA": 1884,
      "DCD": 1885,
      "set": 1886,
      "FBD": 1887,
      "agoza": 1888,
      "195": 1889,
      "930": 1890,
      "AEA": 1891,
      "BBB": 1892,
      "291": 1893,
      "292": 1894,
      "846": 1895,
      "wid": 1896,
      "lajara": 1897,
      "175": 1898,
      "via": 1899,
      "Guadalajara": 1900,
      "146": 1901,
      "196": 1902,
      "190": 1903,
      "238": 1904,
      "330": 1905,
      "580": 1906,
      "606": 1907,
      "656": 1908,
      "BBC": 1909,
      "Can": 1910,
      "EBA": 1911,
      "Ijp": 1912,
      "Pal": 1913,
      "ZSI": 1914,
      "wLjA": 1915,
      "tes": 1916,
      "410": 1917,
      "007": 1918,
      "Iiwid": 1919,
      "NjM": 1920,
      "198": 1921,
      "126": 1922,
      "167": 1923,
      "346": 1924,
      "611": 1925,
      "683": 1926,
      "AFE": 1927,
      "der": 1928,
      "mon": 1929,
      "EDC": 1930,
      "183": 1931,
      "147": 1932,
      "598": 1933,
      "531": 1934,
      "670": 1935,
      "799": 1936,
      "FFD": 1937,
      "ck": 1938,
      "FAE": 1939,
      "EAE": 1940,
      "DAC": 1941,
      "328": 1942,
      "Caste": 1943,
      "225": 1944,
      "431": 1945,
      "695": 1946,
      "883": 1947,
      "BFE": 1948,
      "DEC": 1949,
      "DEB": 1950,
      "dor": 1951,
      "131": 1952,
      "230": 1953,
      "322": 1954,
      "545": 1955,
      "637": 1956,
      "755": 1957,
      "ABD": 1958,
      "min": 1959,
      "osa": 1960,
      "rest": 1961,
      "EDF": 1962,
      "210": 1963,
      "Navarra": 1964,
      "056": 1965,
      "117": 1966,
      "155": 1967,
      "601": 1968,
      "AFC": 1969,
      "CFE": 1970,
      "Mad": 1971,
      "lor": 1972,
      "sh": 1973,
      "enca": 1974,
      "ledo": 1975,
      "EEE": 1976,
      "CBE": 1977,
      "vig": 1978,
      "oria": 1979,
      "097": 1980,
      "564": 1981,
      "636": 1982,
      "BEF": 1983,
      "CBA": 1984,
      "Da": 1985,
      "wZ": 1986,
      "eni": 1987,
      "ura": 1988,
      "CCB": 1989,
      "DDD": 1990,
      "907": 1991,
      "vila": 1992,
      "099": 1993,
      "096": 1994,
      "538": 1995,
      "583": 1996,
      "698": 1997,
      "635": 1998,
      "ABB": 1999,
      "CBB": 2000,
      "EFE": 2001,
      "EFD": 2002,
      "CCC": 2003,
      "323": 2004,
      "507": 2005,
      "022": 2006,
      "137": 2007,
      "241": 2008,
      "246": 2009,
      "GY": 2010,
      "Gir": 2011,
      "Mi": 2012,
      "gr": 2013,
      "ts": 2014,
      "cha": 2015,
      "CCD": 2016,
      "Zaragoza": 2017,
      "057": 2018,
      "138": 2019,
      "192": 2020,
      "747": 2021,
      "797": 2022,
      "785": 2023,
      "847": 2024,
      "Ba": 2025,
      "DFC": 2026,
      "FFA": 2027,
      "FFC": 2028,
      "mu": 2029,
      "BDE": 2030,
      "187": 2031,
      "181": 2032,
      "439": 2033,
      "685": 2034,
      "626": 2035,
      "671": 2036,
      "844": 2037,
      "892": 2038,
      "Av": 2039,
      "AFA": 2040,
      "BEB": 2041,
      "DFB": 2042,
      "DBB": 2043,
      "nte": 2044,
      "ern": 2045,
      "DDC": 2046,
      "Toledo": 2047,
      "046": 2048,
      "090": 2049,
      "430": 2050,
      "522": 2051,
      "680": 2052,
      "646": 2053,
      "600": 2054,
      "651": 2055,
      "717": 2056,
      "798": 2057,
      "922": 2058,
      "Pu": 2059,
      "QXQiO": 2060,
      "So": 2061,
      "gar": 2062,
      "kQXQiO": 2063,
      "zo": 2064,
      "Ġna": 2065,
      "BCE": 2066,
      "ECF": 2067,
      "AAF": 2068,
      "GVkQXQiO": 2069,
      "vigate": 2070,
      "Ġnavigate": 2071,
      "020": 2072,
      "390": 2073,
      "494": 2074,
      "641": 2075,
      "625": 2076,
      "621": 2077,
      "701": 2078,
      "757": 2079,
      "Ja": 2080,
      "MDA": 2081,
      "Valencia": 2082,
      "025": 2083,
      "092": 2084,
      "141": 2085,
      "145": 2086,
      "120": 2087,
      "931": 2088,
      "AFF": 2089,
      "BFF": 2090,
      "CEF": 2091,
      "EBB": 2092,
      "Ra": 2093,
      "bu": 2094,
      "iel": 2095,
      "407": 2096,
      "EAC": 2097,
      "BCF": 2098,
      "AAD": 2099,
      "php": 2100,
      "047": 2101,
      "691": 2102,
      "687": 2103,
      "AEB": 2104,
      "Gran": 2105,
      "Per": 2106,
      "oz": 2107,
      "EDB": 2108,
      "ECD": 2109,
      "BDB": 2110,
      "ABF": 2111,
      "045": 2112,
      "290": 2113,
      "645": 2114,
      "711": 2115,
      "796": 2116,
      "781": 2117,
      "821": 2118,
      "938": 2119,
      "944": 2120,
      "CEE": 2121,
      "DFD": 2122,
      "EFB": 2123,
      "Mm": 2124,
      "Qz": 2125,
      "BAE": 2126,
      "BAF": 2127,
      "ECB": 2128,
      "BDF": 2129,
      "098": 2130,
      "482": 2131,
      "638": 2132,
      "699": 2133,
      "780": 2134,
      "DFE": 2135,
      "FG": 2136,
      "ass": 2137,
      "eres": 2138,
      "ECE": 2139,
      "324": 2140,
      "ACF": 2141,
      "Teruel": 2142,
      "070": 2143,
      "193": 2144,
      "162": 2145,
      "537": 2146,
      "736": 2147,
      "791": 2148,
      "BFA": 2149,
      "CFB": 2150,
      "CFA": 2151,
      "CEB": 2152,
      "aga": 2153,
      "170": 2154,
      "DAD": 2155,
      "BCD": 2156,
      "329": 2157,
      "CAD": 2158,
      "164": 2159,
      "334": 2160,
      "588": 2161,
      "692": 2162,
      "Id": 2163,
      "Zam": 2164,
      "fr": 2165,
      "ns": 2166,
      "esca": 2167,
      "DDF": 2168,
      "EAB": 2169,
      "DAA": 2170,
      "631": 2171,
      "787": 2172,
      "AFD": 2173,
      "AEE": 2174,
      "Br": 2175,
      "Nl": 2176,
      "Valla": 2177,
      "DDE": 2178,
      "BAC": 2179,
      "DAE": 2180,
      "392": 2181,
      "CAB": 2182,
      "CAE": 2183,
      "DCE": 2184,
      "040": 2185,
      "144": 2186,
      "534": 2187,
      "590": 2188,
      "617": 2189,
      "655": 2190,
      "756": 2191,
      "750": 2192,
      "760": 2193,
      "934": 2194,
      "939": 2195,
      "DEE": 2196,
      "Zh": 2197,
      "ler": 2198,
      "cio": 2199,
      "ECA": 2200,
      "Santa": 2201,
      "Zamora": 2202,
      "036": 2203,
      "094": 2204,
      "530": 2205,
      "sf": 2206,
      "ets": 2207,
      "CDF": 2208,
      "DCF": 2209,
      "UTF": 2210,
      "031": 2211,
      "021": 2212,
      "160": 2213,
      "231": 2214,
      "544": 2215,
      "592": 2216,
      "746": 2217,
      "737": 2218,
      "795": 2219,
      "882": 2220,
      "932": 2221,
      "sp": 2222,
      "CCE": 2223,
      "DDA": 2224,
      "DDB": 2225,
      "277": 2226,
      "EDE": 2227,
      "394": 2228,
      "ADC": 2229,
      "ADE": 2230,
      "Cuenca": 2231,
      "030": 2232,
      "771": 2233,
      "BEE": 2234,
      "DCB": 2235,
      "Fj": 2236,
      "Fl": 2237,
      "Uw": 2238,
      "qui": 2239,
      "dolid": 2240,
      "EDA": 2241,
      "ACE": 2242,
      "Valladolid": 2243,
      "083": 2244,
      "082": 2245,
      "688": 2246,
      "731": 2247,
      "735": 2248,
      "FFB": 2249,
      "Lle": 2250,
      "char": 2251,
      "BAA": 2252,
      "AAB": 2253,
      "CAC": 2254,
      "CAF": 2255,
      "CDB": 2256,
      "villa": 2257,
      "DBF": 2258,
      "Madrid": 2259,
      "150": 2260,
      "148": 2261,
      "152": 2262,
      "742": 2263,
      "725": 2264,
      "761": 2265,
      "948": 2266,
      "BFB": 2267,
      "DEF": 2268,
      "em": 2269,
      "lio": 2270,
      "ria": 2271,
      "113": 2272,
      "CCA": 2273,
      "EBF": 2274,
      "Girona": 2275,
      "081": 2276,
      "071": 2277,
      "288": 2278,
      "738": 2279,
      "700": 2280,
      "706": 2281,
      "OS": 2282,
      "FDE": 2283,
      "AAC": 2284,
      "233": 2285,
      "652": 2286,
      "BFC": 2287,
      "Bada": 2288,
      "DFA": 2289,
      "DFF": 2290,
      "Gl": 2291,
      "Ri": 2292,
      "459": 2293,
      "BDC": 2294,
      "Juan": 2295,
      "assets": 2296,
      "050": 2297,
      "132": 2298,
      "188": 2299,
      "282": 2300,
      "493": 2301,
      "647": 2302,
      "770": 2303,
      "AEF": 2304,
      "OC": 2305,
      "jm": 2306,
      "pc": 2307,
      "ine": 2308,
      "ley": 2309,
      "CBF": 2310,
      "Lleida": 2311,
      "041": 2312,
      "722": 2313,
      "726": 2314,
      "721": 2315,
      "Or": 2316,
      "je": 2317,
      "wa": 2318,
      "lia": 2319,
      "public": 2320,
      "DAF": 2321,
      "134": 2322,
      "582": 2323,
      "630": 2324,
      "751": 2325,
      "767": 2326,
      "848": 2327,
      "CFF": 2328,
      "FFE": 2329,
      "UMTE": 2330,
      "WiI": 2331,
      "ez": 2332,
      "ry": 2333,
      "420": 2334,
      "400": 2335,
      "409": 2336,
      "373": 2337,
      "BCB": 2338,
      "uela": 2339,
      "NTI": 2340,
      "IjIwMjUtMTEtMjB": 2341,
      "Huesca": 2342,
      "IjIwMjUtMTEtMjBUMTE": 2343,
      "189": 2344,
      "249": 2345,
      "622": 2346,
      "634": 2347,
      "790": 2348,
      "AyO": 2349,
      "AuMC": 2350,
      "BT": 2351,
      "Bk": 2352,
      "CFC": 2353,
      "DZh": 2354,
      "EFF": 2355,
      "GUiLCJ": 2356,
      "GUw": 2357,
      "IsI": 2358,
      "Ln": 2359,
      "MmU": 2360,
      "MWU": 2361,
      "Nm": 2362,
      "Rk": 2363,
      "SW": 2364,
      "Swi": 2365,
      "TG": 2366,
      "Tk": 2367,
      "UiO": 2368,
      "VhZ": 2369,
      "XBk": 2370,
      "YTk": 2371,
      "Zy": 2372,
      "Zhd": 2373,
      "aWF": 2374,
      "cd": 2375,
      "dGl": 2376,
      "eGUiLCJ": 2377,
      "fQ": 2378,
      "han": 2379,
      "kZW": 2380,
      "lSW": 2381,
      "ms": 2382,
      "sZX": 2383,
      "sYX": 2384,
      "vYXNzZXRzL": 2385,
      "vdH": 2386,
      "wcm": 2387,
      "xND": 2388,
      "yNj": 2389,
      "zNj": 2390,
      "agu": 2391,
      "daIiwid": 2392,
      "174": 2393,
      "179": 2394,
      "114": 2395,
      "cho": 2396,
      "maWx": 2397,
      "AAE": 2398,
      "Ijox": 2399,
      "IjMw": 2400,
      "IjAuMC": 2401,
      "Wxsf": 2402,
      "JlYXRlZEF": 2403,
      "oxMz": 2404,
      "oxOC": 2405,
      "FiMWU": 2406,
      "ADB": 2407,
      "MjRk": 2408,
      "ZXQiOi": 2409,
      "wiY": 2410,
      "NTFiMWU": 2411,
      "ZWNy": 2412,
      "NzYz": 2413,
      "NzMw": 2414,
      "IiwiZGV": 2415,
      "Mzg": 2416,
      "MzNk": 2417,
      "YmM": 2418,
      "iLCJsYX": 2419,
      "iLCJwcm": 2420,
      "NjAyO": 2421,
      "NjoxOC": 2422,
      "naW": 2423,
      "owNjoxOC": 2424,
      "iIvYXNzZXRzL": 2425,
      "ZlNmU": 2426,
      "nRvdH": 2427,
      "IiLCJpc": 2428,
      "QxYmM": 2429,
      "ZSwiY": 2430,
      "NkMmU": 2431,
      "JcCI": 2432,
      "dHJ": 2433,
      "YjVhZ": 2434,
      "YjNkMmU": 2435,
      "yMFQxMToxMz": 2436,
      "yMFQxMTowNjoxOC": 2437,
      "udWxsf": 2438,
      "FaIiwiZGV": 2439,
      "NmUwNTdmMjBmODgzZSIsInJvbGUiOiJkZWx": 2440,
      "IjpudWxsf": 2441,
      "wLjAiLCJwcm": 2442,
      "wZGUw": 2443,
      "ozOS": 2444,
      "MmQz": 2445,
      "FjdGl": 2446,
      "BTZWNy": 2447,
      "DZhYjVhZ": 2448,
      "IsInRvdH": 2449,
      "LnN": 2450,
      "NmZlNmU": 2451,
      "SwiaWF": 2452,
      "UiOiIvYXNzZXRzL": 2453,
      "XBkYXRlZEF": 2454,
      "YTkiLCJsYX": 2455,
      "ZyIsInRvdH": 2456,
      "ZhdWx": 2457,
      "eGUiLCJkZWx": 2458,
      "kZWZhdWx": 2459,
      "sZXRlZEF": 2460,
      "xNDQxYmM": 2461,
      "yNjFaIiwiZGV": 2462,
      "zNjdaIiwid": 2463,
      "maWxlSW": 2464,
      "IjoxNzYz": 2465,
      "IjMwOTM": 2466,
      "MjRkYTkiLCJsYX": 2467,
      "ZXQiOiIiLCJpc": 2468,
      "NTFiMWUxNDQxYmM": 2469,
      "NzMwMmQz": 2470,
      "MzNkNjAyO": 2471,
      "YjNkMmUwZGUw": 2472,
      "yMFQxMToxMzozOS": 2473,
      "IjpudWxsfSwiaWF": 2474,
      "BTZWNyZXQiOiIiLCJpc": 2475,
      "DZhYjVhZGY": 2476,
      "ZyIsInRvdHBTZWNyZXQiOiIiLCJpc": 2477,
      "yNjFaIiwiZGVsZXRlZEF": 2478,
      "zNjdaIiwidXBkYXRlZEF": 2479,
      "IjoxNzYzNjM": 2480,
      "MjRkYTkiLCJsYXN": 2481,
      "NzMwMmQzMzNkNjAyO": 2482,
      "YjNkMmUwZGUwNzMwMmQzMzNkNjAyO": 2483,
      "YjNkMmUwZGUwNzMwMmQzMzNkNjAyODZhYjVhZGY": 2484,
      "244": 2485,
      "CFD": 2486,
      "EFC": 2487,
      "Fu": 2488,
      "den": 2489,
      "173": 2490,
      "408": 2491,
      "263": 2492,
      "EAD": 2493,
      "CDC": 2494,
      "CDE": 2495,
      "153": 2496,
      "Alb": 2497,
      "Palencia": 2498,
      "139": 2499,
      "492": 2500,
      "745": 2501,
      "dra": 2502,
      "018": 2503,
      "178": 2504,
      "318": 2505,
      "270": 2506,
      "EAF": 2507,
      "ADF": 2508,
      "DBE": 2509,
      "joz": 2510,
      "Badajoz": 2511,
      "052": 2512,
      "741": 2513,
      "FH": 2514,
      "Pi": 2515,
      "gen": 2516,
      "ju": 2517,
      "ste": 2518,
      "208": 2519,
      "352": 2520,
      "BBD": 2521,
      "EEB": 2522,
      "943": 2523,
      "133": 2524,
      "165": 2525,
      "234": 2526,
      "532": 2527,
      "548": 2528,
      "720": 2529,
      "734": 2530,
      "BFD": 2531,
      "Gar": 2532,
      "Lo": 2533,
      "tra": 2534,
      "eta": 2535,
      "405": 2536,
      "406": 2537,
      "413": 2538,
      "252": 2539,
      "CCF": 2540,
      "266": 2541,
      "212": 2542,
      "ABE": 2543,
      "Castell": 2544,
      "289": 2545,
      "Du": 2546,
      "QW": 2547,
      "aI": 2548,
      "ach": 2549,
      "Sego": 2550,
      "Granada": 2551,
      "184": 2552,
      "149": 2553,
      "433": 2554,
      "Be": 2555,
      "Ho": 2556,
      "Soria": 2557,
      "don": 2558,
      "ff": 2559,
      "hor": 2560,
      "licante": 2561,
      "110": 2562,
      "060": 2563,
      "375": 2564,
      "850": 2565,
      "DAB": 2566,
      "684": 2567,
      "Bo": 2568,
      "Cab": 2569,
      "by": 2570,
      "let": 2571,
      "428": 2572,
      "404": 2573,
      "863": 2574,
      "870": 2575,
      "275": 2576,
      "260": 2577,
      "213": 2578,
      "309": 2579,
      "ruz": 2580,
      "Segovia": 2581,
      "782": 2582,
      "752": 2583,
      "Alicante": 2584,
      "No": 2585,
      "806": 2586,
      "par": 2587,
      "389": 2588,
      "115": 2589,
      "469": 2590,
      "068": 2591,
      "374": 2592,
      "279": 2593,
      "355": 2594,
      "814": 2595,
      "908": 2596,
      "449": 2597,
      "123": 2598,
      "name": 2599,
      "730": 2600,
      "Fm": 2601,
      "JU": 2602,
      "TU": 2603,
      "rer": 2604,
      "010": 2605,
      "388": 2606,
      "576": 2607,
      "910": 2608,
      "916": 2609,
      "268": 2610,
      "958": 2611,
      "333": 2612,
      "629": 2613,
      "034": 2614,
      "434": 2615,
      "539": 2616,
      "LI": 2617,
      "ela": 2618,
      "est": 2619,
      "illa": 2620,
      "sal": 2621,
      "eri": 2622,
      "ares": 2623,
      "427": 2624,
      "414": 2625,
      "914": 2626,
      "476": 2627,
      "223": 2628,
      "815": 2629,
      "158": 2630,
      "194": 2631,
      "543": 2632,
      "744": 2633,
      "Ber": 2634,
      "CM": 2635,
      "Cb": 2636,
      "IdX": 2637,
      "Ily": 2638,
      "JP": 2639,
      "JcH": 2640,
      "JLR": 2641,
      "Lk": 2642,
      "Los": 2643,
      "OV": 2644,
      "PLe": 2645,
      "QM": 2646,
      "QOV": 2647,
      "Rm": 2648,
      "Tra": 2649,
      "YE": 2650,
      "aa": 2651,
      "bU": 2652,
      "bPLe": 2653,
      "cG": 2654,
      "cQ": 2655,
      "ella": 2656,
      "eId": 2657,
      "eFm": 2658,
      "hRm": 2659,
      "jq": 2660,
      "jz": 2661,
      "mat": 2662,
      "mJLR": 2663,
      "pq": 2664,
      "sq": 2665,
      "su": 2666,
      "tFe": 2667,
      "van": 2668,
      "yMD": 2669,
      "809": 2670,
      "365": 2671,
      "402": 2672,
      "008": 2673,
      "830": 2674,
      "312": 2675,
      "313": 2676,
      "473": 2677,
      "970": 2678,
      "977": 2679,
      "969": 2680,
      "264": 2681,
      "489": 2682,
      "MseId": 2683,
      "iOH": 2684,
      "IwcQ": 2685,
      "owJU": 2686,
      "iIyMD": 2687,
      "ExLT": 2688,
      "OWhRm": 2689,
      "hdGVkQXQiO": 2690,
      "hdjq": 2691,
      "CiZ": 2692,
      "Jcj": 2693,
      "FKi": 2694,
      "UTJcj": 2695,
      "LRgs": 2696,
      "LTExLT": 2697,
      "PWK": 2698,
      "PWBr": 2699,
      "Nlp": 2700,
      "FlA": 2701,
      "aImo": 2702,
      "TUjm": 2703,
      "LIQOV": 2704,
      "IdXLIQOV": 2705,
      "JPUTJcj": 2706,
      "JcHeFm": 2707,
      "LkIdXLIQOV": 2708,
      "aaowJU": 2709,
      "jzhdjq": 2710,
      "mJLRH": 2711,
      "tFeL": 2712,
      "MseIdI": 2713,
      "iIyMDI": 2714,
      "OWhRmIwcQ": 2715,
      "hdGVkQXQiOiIyMDI": 2716,
      "LRgsCiZ": 2717,
      "LTExLTIw": 2718,
      "PWBrLkIdXLIQOV": 2719,
      "JcHeFmTUjm": 2720,
      "aaowJUFKi": 2721,
      "jzhdjqpq": 2722,
      "PWBrLkIdXLIQOVNlp": 2723,
      "232": 2724,
      "294": 2725,
      "584": 2726,
      "Cer": 2727,
      "cf": 2728,
      "gra": 2729,
      "804": 2730,
      "dio": 2731,
      "991": 2732,
      "996": 2733,
      "450": 2734,
      "983": 2735,
      "571": 2736,
      "319": 2737,
      "478": 2738,
      "874": 2739,
      "214": 2740,
      "393": 2741,
      "923": 2742,
      "124": 2743,
      "128": 2744,
      "Bu": 2745,
      "CDD": 2746,
      "Sal": 2747,
      "Tarr": 2748,
      "mor": 2749,
      "pin": 2750,
      "807": 2751,
      "384": 2752,
      "364": 2753,
      "403": 2754,
      "867": 2755,
      "004": 2756,
      "577": 2757,
      "479": 2758,
      "229": 2759,
      "mil": 2760,
      "950": 2761,
      "954": 2762,
      "816": 2763,
      "909": 2764,
      "sion": 2765,
      "PgW": 2766,
      "032": 2767,
      "023": 2768,
      "549": 2769,
      "682": 2770,
      "632": 2771,
      "765": 2772,
      "Ga": 2773,
      "Mor": 2774,
      "ceres": 2775,
      "gh": 2776,
      "dia": 2777,
      "383": 2778,
      "455": 2779,
      "985": 2780,
      "118": 2781,
      "835": 2782,
      "254": 2783,
      "255": 2784,
      "203": 2785,
      "207": 2786,
      "472": 2787,
      "972": 2788,
      "953": 2789,
      "956": 2790,
      "350": 2791,
      "349": 2792,
      "884": 2793,
      "528": 2794,
      "109": 2795,
      "154": 2796,
      "029": 2797,
      "694": 2798,
      "933": 2799,
      "Ast": 2800,
      "Las": 2801,
      "Par": 2802,
      "eo": 2803,
      "ld": 2804,
      "sch": 2805,
      "esa": 2806,
      "429": 2807,
      "172": 2808,
      "860": 2809,
      "416": 2810,
      "458": 2811,
      "228": 2812,
      "879": 2813,
      "853": 2814,
      "566": 2815,
      "Pe": 2816,
      "ix": 2817,
      "sd": 2818,
      "um": 2819,
      "enti": 2820,
      "423": 2821,
      "368": 2822,
      "411": 2823,
      "454": 2824,
      "465": 2825,
      "573": 2826,
      "819": 2827,
      "305": 2828,
      "510": 2829,
      "888": 2830,
      "239": 2831,
      "Ti": 2832,
      "bra": 2833,
      "fer": 2834,
      "cos": 2835,
      "info": 2836,
      "802": 2837,
      "803": 2838,
      "016": 2839,
      "017": 2840,
      "4560": 2841,
      "111": 2842,
      "460": 2843,
      "006": 2844,
      "572": 2845,
      "222": 2846,
      "873": 2847,
      "960": 2848,
      "961": 2849,
      "272": 2850,
      "273": 2851,
      "952": 2852,
      "359": 2853,
      "813": 2854,
      "668": 2855,
      "ull": 2856,
      "048": 2857,
      "182": 2858,
      "739": 2859,
      "az": 2860,
      "her": 2861,
      "rat": 2862,
      "ose": 2863,
      "012": 2864,
      "rio": 2865,
      "369": 2866,
      "866": 2867,
      "418": 2868,
      "119": 2869,
      "464": 2870,
      "468": 2871,
      "000": 2872,
      "258": 2873,
      "314": 2874,
      "978": 2875,
      "372": 2876,
      "379": 2877,
      "859": 2878,
      "964": 2879,
      "965": 2880,
      "966": 2881,
      "269": 2882,
      "351": 2883,
      "344": 2884,
      "515": 2885,
      "443": 2886,
      "624": 2887,
      "ador": 2888,
      "143": 2889,
      "Fran": 2890,
      "Jo": 2891,
      "gue": 2892,
      "iz": 2893,
      "ky": 2894,
      "mp": 2895,
      "agona": 2896,
      "808": 2897,
      "roduc": 2898,
      "426": 2899,
      "990": 2900,
      "992": 2901,
      "994": 2902,
      "982": 2903,
      "855": 2904,
      "358": 2905,
      "219": 2906,
      "712": 2907,
      "904": 2908,
      "567": 2909,
      "518": 2910,
      "929": 2911,
      "104": 2912,
      "654": 2913,
      "LjM": 2914,
      "Tarragona": 2915,
      ",\"": 2916,
      "Ped": 2917,
      "Ur": 2918,
      "bel": 2919,
      "ment": 2920,
      "ves": 2921,
      "api": 2922,
      "nton": 2923,
      "116": 2924,
      "257": 2925,
      "204": 2926,
      "919": 2927,
      "224": 2928,
      "875": 2929,
      "854": 2930,
      "218": 2931,
      "304": 2932,
      "mente": 2933,
      "678": 2934,
      "613": 2935,
      "077": 2936,
      "108": 2937,
      "764": 2938,
      "Ben": 2939,
      "Ru": 2940,
      "ban": 2941,
      "net": 2942,
      "yr": 2943,
      "cios": 2944,
      "363": 2945,
      "984": 2946,
      "989": 2947,
      "463": 2948,
      "259": 2949,
      "579": 2950,
      "912": 2951,
      "915": 2952,
      "974": 2953,
      "376": 2954,
      "858": 2955,
      "262": 2956,
      "902": 2957,
      "707": 2958,
      "513": 2959,
      "924": 2960,
      "488": 2961,
      "675": 2962,
      "772": 2963,
      "779": 2964,
      "523": 2965,
      "103": 2966,
      "105": 2967,
      "168": 2968,
      "Fuente": 2969,
      "093": 2970,
      "084": 2971,
      "762": 2972,
      "Mu": 2973,
      "ete": 2974,
      "fb": 2975,
      "ira": 2976,
      "jar": 2977,
      "nes": 2978,
      "tt": 2979,
      "ting": 2980,
      "tel": 2981,
      "sty": 2982,
      "011": 2983,
      "385": 2984,
      "998": 2985,
      "861": 2986,
      "865": 2987,
      "453": 2988,
      "831": 2989,
      "570": 2990,
      "ill": 2991,
      "354": 2992,
      "718": 2993,
      "302": 2994,
      "823": 2995,
      "560": 2996,
      "444": 2997,
      "484": 2998,
      "614": 2999,
      "889": 3000,
      "949": 3001,
      "775": 3002,
      "529": 3003,
      "Vila": 3004,
      "Torre": 3005,
      "Er": 3006,
      "Por": 3007,
      "cb": 3008,
      "cl": 3009,
      "ces": 3010,
      "ron": 3011,
      "801": 3012,
      "ard": 3013,
      "015": 3014,
      "424": 3015,
      "993": 3016,
      "864": 3017,
      "869": 3018,
      "419": 3019,
      "971": 3020,
      "975": 3021,
      "955": 3022,
      "818": 3023,
      "828": 3024,
      "551": 3025,
      "554": 3026,
      "514": 3027,
      "672": 3028,
      "073": 3029,
      "\":\"": 3030,
      "Cant": 3031,
      "Plaza": 3032,
      "charset": 3033,
      "088": 3034,
      "664": 3035,
      "732": 3036,
      "Bas": 3037,
      "Hi": 3038,
      "bre": 3039,
      "bro": 3040,
      "dEn": 3041,
      "td": 3042,
      "pan": 3043,
      "ald": 3044,
      "868": 3045,
      "412": 3046,
      "002": 3047,
      "009": 3048,
      "832": 3049,
      "973": 3050,
      "876": 3051,
      "274": 3052,
      "265": 3053,
      "959": 3054,
      "356": 3055,
      "215": 3056,
      "348": 3057,
      "715": 3058,
      "824": 3059,
      "076": 3060,
      "043": 3061,
      "533": 3062,
      "fY": 3063,
      "nu": 3064,
      "pen": 3065,
      "rie": 3066,
      "zK": 3067,
      "ont": 3068,
      "ari": 3069,
      "422": 3070,
      "839": 3071,
      "878": 3072,
      "851": 3073,
      "968": 3074,
      "271": 3075,
      "812": 3076,
      "713": 3077,
      "903": 3078,
      "905": 3079,
      "703": 3080,
      "928": 3081,
      "EFdEn": 3082,
      "679": 3083,
      "849": 3084,
      "169": 3085,
      "059": 3086,
      "AAAg": 3087,
      "horas": 3088,
      "yrAAAg": 3089,
      "EFdEnyrAAAg": 3090,
      "593": 3091,
      "693": 3092,
      "Cruz": 3093,
      "Di": 3094,
      "Pin": 3095,
      "Ya": 3096,
      "cbf": 3097,
      "gas": 3098,
      "jan": 3099,
      "kin": 3100,
      "mos": 3101,
      "pu": 3102,
      "tH": 3103,
      "ton": 3104,
      "erman": 3105,
      "981": 3106,
      "005": 3107,
      "913": 3108,
      "979": 3109,
      "962": 3110,
      "illo": 3111,
      "308": 3112,
      "517918": 3113,
      "550": 3114,
      "667": 3115,
      "448": 3116,
      "Password": 3117,
      "PgX": 3118,
      "cdac": 3119,
      "cbfc": 3120,
      "728": 3121,
      "893": 3122,
      "Int": 3123,
      "mac": 3124,
      "ure": 3125,
      "IDEx": 3126,
      "019": 3127,
      "382": 3128,
      "421": 3129,
      "206": 3130,
      "976": 3131,
      "856": 3132,
      "EDo": 3133,
      "714": 3134,
      "acion": 3135,
      "702": 3136,
      "662": 3137,
      "669": 3138,
      "777": 3139,
      "NyAr": 3140,
      "file": 3141,
      "Mont": 3142,
      "OjA": 3143,
      "OjE": 3144,
      "MDAiLCJ": 3145,
      "LTExLTIwIDEx": 3146,
      "NyArMDA": 3147,
      "LTExLTIwIDExOjA": 3148,
      "339": 3149,
      "740": 3150,
      "789": 3151,
      "Fzc": 3152,
      "HMv": 3153,
      "Jsa": 3154,
      "Mva": 3155,
      "Vw": 3156,
      "VzL": 3157,
      "WJsa": 3158,
      "WMva": 3159,
      "fran": 3160,
      "ret": 3161,
      "tZ": 3162,
      "425": 3163,
      "362": 3164,
      "uren": 3165,
      "862": 3166,
      "988": 3167,
      "065": 3168,
      "343": 3169,
      "829": 3170,
      "563": 3171,
      "505": 3172,
      "604": 3173,
      "608": 3174,
      "524": 3175,
      "wdWJsa": 3176,
      "products": 3177,
      "hZHMv": 3178,
      "VwbG": 3179,
      "WMvaW": 3180,
      "wdWJsaWMvaW": 3181,
      "ala": 3182,
      "dy": 3183,
      "sy": 3184,
      "tin": 3185,
      "dal": 3186,
      "das": 3187,
      "rete": 3188,
      "sto": 3189,
      "elli": 3190,
      "003": 3191,
      "833": 3192,
      "chi": 3193,
      "205": 3194,
      "064": 3195,
      "278": 3196,
      "709": 3197,
      "561": 3198,
      "661": 3199,
      "663": 3200,
      "665": 3201,
      "078": 3202,
      "602": 3203,
      "753": 3204,
      "Vic": 3205,
      "mann": 3206,
      "And": 3207,
      "039": 3208,
      "089": 3209,
      "733": 3210,
      "793": 3211,
      "749": 3212,
      "AR": 3213,
      "Mas": 3214,
      "af": 3215,
      "gan": 3216,
      "ras": 3217,
      "vio": 3218,
      "yu": 3219,
      "tis": 3220,
      "eno": 3221,
      "014": 3222,
      "209": 3223,
      "578": 3224,
      "474": 3225,
      "061": 3226,
      "569": 3227,
      "615": 3228,
      "619": 3229,
      "079": 3230,
      "129": 3231,
      "653": 3232,
      "163": 3233,
      "gui": 3234,
      "roduction": 3235,
      "Introduction": 3236,
      "243": 3237,
      "432": 3238,
      "794": 3239,
      "Fer": 3240,
      "Ni": 3241,
      "TR": 3242,
      "fe": 3243,
      "gre": 3244,
      "mus": 3245,
      "rh": 3246,
      "sco": 3247,
      "tri": 3248,
      "uG": 3249,
      "ecmas": 3250,
      "ette": 3251,
      "013": 3252,
      "462": 3253,
      "574": 3254,
      "067": 3255,
      "mad": 3256,
      "951": 3257,
      "303": 3258,
      "562": 3259,
      "502": 3260,
      "677": 3261,
      "616": 3262,
      "658": 3263,
      "159": 3264,
      "053": 3265,
      "urias": 3266,
      "Sevilla": 3267,
      "Asturias": 3268,
      "ecmascript": 3269,
      "049": 3270,
      "024": 3271,
      "743": 3272,
      "894": 3273,
      "Bor": 3274,
      "Cla": 3275,
      "Ge": 3276,
      "In": 3277,
      "Te": 3278,
      "sha": 3279,
      "ven": 3280,
      "onte": 3281,
      "nge": 3282,
      "999": 3283,
      "575": 3284,
      "066": 3285,
      "069": 3286,
      "963": 3287,
      "353": 3288,
      "648": 3289,
      "609": 3290,
      "aje": 3291,
      "639": 3292,
      "633": 3293,
      "788": 3294,
      "For": 3295,
      "Il": 3296,
      "Men": 3297,
      "oli": 3298,
      "pr": 3299,
      "up": 3300,
      "ens": 3301,
      "als": 3302,
      "995": 3303,
      "202": 3304,
      "660": 3305,
      "503": 3306,
      "674": 3307,
      "676": 3308,
      "610": 3309,
      "612": 3310,
      "074": 3311,
      "594": 3312,
      "784": 3313,
      "724": 3314,
      "Mur": 3315,
      "NU": 3316,
      "Ouren": 3317,
      "bas": 3318,
      "bAd": 3319,
      "hil": 3320,
      "iN": 3321,
      "my": 3322,
      "uk": 3323,
      "uer": 3324,
      "ines": 3325,
      "aggs": 3326,
      "pass": 3327,
      "rome": 3328,
      "276": 3329,
      "716": 3330,
      "705": 3331,
      "559": 3332,
      "666": 3333,
      "618": 3334,
      "778": 3335,
      "623": 3336,
      "759": 3337,
      "Ourense": 3338,
      "044": 3339,
      "293": 3340,
      "284": 3341,
      "589": 3342,
      "Anton": 3343,
      "OR": 3344,
      "ati": 3345,
      "bb": 3346,
      "cur": 3347,
      "fre": 3348,
      "ols": 3349,
      "sK": 3350,
      "ut": 3351,
      "zsK": 3352,
      "laga": 3353,
      "eros": 3354,
      "dez": 3355,
      "ris": 3356,
      "ante": 3357,
      "ento": 3358,
      "063": 3359,
      "mit": 3360,
      "Real": 3361,
      "iderman": 3362,
      "102": 3363,
      "763": 3364,
      "758": 3365,
      "Coru": 3366,
      "spiderman": 3367,
      "028": 3368,
      "723": 3369,
      "Bw": 3370,
      "DU": 3371,
      "Eli": 3372,
      "ETR": 3373,
      "HI": 3374,
      "HV": 3375,
      "Hp": 3376,
      "Hq": 3377,
      "Hrh": 3378,
      "IsImRlb": 3379,
      "Jt": 3380,
      "KM": 3381,
      "KMT": 3382,
      "LKM": 3383,
      "OCo": 3384,
      "OoF": 3385,
      "PL": 3386,
      "Res": 3387,
      "Rva": 3388,
      "SXA": 3389,
      "Ttz": 3390,
      "UY": 3391,
      "UNk": 3392,
      "UHo": 3393,
      "Vu": 3394,
      "Vsd": 3395,
      "WTP": 3396,
      "Xtz": 3397,
      "Yd": 3398,
      "Yr": 3399,
      "Zg": 3400,
      "bs": 3401,
      "bGF": 3402,
      "dos": 3403,
      "ehh": 3404,
      "fB": 3405,
      "iIw": 3406,
      "jdX": 3407,
      "kL": 3408,
      "lci": 3409,
      "lns": 3410,
      "met": 3411,
      "mYX": 3412,
      "mciLCJ": 3413,
      "ncH": 3414,
      "oETR": 3415,
      "qg": 3416,
      "uNTI": 3417,
      "vZ": 3418,
      "vel": 3419,
      "vil": 3420,
      "wj": 3421,
      "whi": 3422,
      "wIiwi": 3423,
      "xab": 3424,
      "xjw": 3425,
      "yWiI": 3426,
      "can": 3427,
      "ani": 3428,
      "553": 3429,
      "555": 3430,
      "512": 3431,
      "508": 3432,
      "509": 3433,
      "776": 3434,
      "DBHI": 3435,
      "MsS": 3436,
      "iOiIw": 3437,
      "MTgu": 3438,
      "MDY": 3439,
      "MDk": 3440,
      "zdEx": 3441,
      "zdmciLCJ": 3442,
      "Njk": 3443,
      "abria": 3444,
      "Dev": 3445,
      "YXoETR": 3446,
      "Zjq": 3447,
      "IjoiIiwibGF": 3448,
      "Carrer": 3449,
      "NBUY": 3450,
      "GlsXtz": 3451,
      "ZVRva": 3452,
      "MzYzNjk": 3453,
      "cHJvZmlsZUltYWdlIjoiL": 3454,
      "luSXA": 3455,
      "Ciudad": 3456,
      "JcNU": 3457,
      "LjAuMC": 3458,
      "Plza": 3459,
      "Plxab": 3460,
      "ZGVmYX": 3461,
      "NmUwNTdmMjBmODgzZSIsInJvbGUiOiJjdX": 3462,
      "WiIsInVwZGF": 3463,
      "NTIuNTI": 3464,
      "DuUHo": 3465,
      "QWi": 3466,
      "sqJcNU": 3467,
      "styles": 3468,
      "tHwj": 3469,
      "tZDBHI": 3470,
      "hZHMvZGVmYX": 3471,
      "uGQWi": 3472,
      "bAdUNk": 3473,
      "aggsYr": 3474,
      "romeDev": 3475,
      "Bwtd": 3476,
      "DUkL": 3477,
      "HpNBUY": 3478,
      "HrhDUkL": 3479,
      "IsImRlbHV": 3480,
      "KMTncH": 3481,
      "LKMfa": 3482,
      "OCoqg": 3483,
      "OoFbAdUNk": 3484,
      "Ttzlns": 3485,
      "VuIjoiIiwibGF": 3486,
      "VsdC": 3487,
      "WTPR": 3488,
      "YdK": 3489,
      "ZgGlsXtz": 3490,
      "ehhfB": 3491,
      "lciIsImRlbHV": 3492,
      "wIiwicHJvZmlsZUltYWdlIjoiL": 3493,
      "xjwE": 3494,
      "yWiIsImRlbGV": 3495,
      "iOiIwLjAuMC": 3496,
      "MTguMzY": 3497,
      "zdExvZ": 3498,
      "YXoETRtHwj": 3499,
      "luSXAiOiIwLjAuMC": 3500,
      "PlxabOoFbAdUNk": 3501,
      "NmUwNTdmMjBmODgzZSIsInJvbGUiOiJjdXN": 3502,
      "NTIuNTIyWiIsImRlbGV": 3503,
      "DuUHoHrhDUkL": 3504,
      "tZDBHIYXoETRtHwj": 3505,
      "hZHMvZGVmYXVsdC": 3506,
      "aggsYrS": 3507,
      "HpNBUYF": 3508,
      "VuIjoiIiwibGFzdExvZ": 3509,
      "ZgGlsXtztZDBHIYXoETRtHwj": 3510,
      "PlxabOoFbAdUNkGe": 3511,
      "729": 3512,
      "Fre": 3513,
      "Sar": 3514,
      "bor": 3515,
      "cn": 3516,
      "cs": 3517,
      "ex": 3518,
      "ger": 3519,
      "gal": 3520,
      "hy": 3521,
      "ip": 3522,
      "lon": 3523,
      "uda": 3524,
      "ze": 3525,
      "zca": 3526,
      "ima": 3527,
      "username": 3528,
      "ession": 3529,
      "profile": 3530,
      "710": 3531,
      "719": 3532,
      "568": 3533,
      "519": 3534,
      "072": 3535,
      "774": 3536,
      "628": 3537,
      "lessoninfo": 3538,
      "058": 3539,
      "Vizca": 3540,
      "\",\"": 3541,
      "332": 3542,
      "783": 3543,
      "748": 3544,
      "Hor": 3545,
      "Li": 3546,
      "Ol": 3547,
      "jos": 3548,
      "kX": 3549,
      "ny": 3550,
      "rdo": 3551,
      "tte": 3552,
      "unt": 3553,
      "val": 3554,
      "ye": 3555,
      "lie": 3556,
      "ini": 3557,
      "imi": 3558,
      "llas": 3559,
      "644": 3560,
      "704": 3561,
      "708": 3562,
      "673": 3563,
      "603": 3564,
      "Almer": 3565,
      "Vizcaya": 3566,
      "792": 3567,
      "Ab": 3568,
      "Fil": 3569,
      "Ht": 3570,
      "Ta": 3571,
      "VX": 3572,
      "ado": 3573,
      "cli": 3574,
      "gor": 3575,
      "hs": 3576,
      "hint": 3577,
      "mes": 3578,
      "ren": 3579,
      "dela": 3580,
      "ieta": 3581,
      "lex": 3582,
      "ubi": 3583,
      "378": 3584,
      "649": 3585,
      "504": 3586,
      "054": 3587,
      "769": 3588,
      "Sierra": 3589,
      "ernan": 3590,
      "Cantabria": 3591,
      "Ang": 3592,
      "Her": 3593,
      "Me": 3594,
      "Ne": 3595,
      "cla": 3596,
      "gat": 3597,
      "ku": 3598,
      "nat": 3599,
      "od": 3600,
      "ral": 3601,
      "tec": 3602,
      "lom": 3603,
      "Ġchar": 3604,
      "sse": 3605,
      "ata": 3606,
      "ato": 3607,
      "852": 3608,
      "643": 3609,
      "552": 3610,
      "605": 3611,
      "onso": 3612,
      "768": 3613,
      "Jui": 3614,
      "ChromeDev": 3615,
      "Tools": 3616,
      "Ġcharset": 3617,
      "Gen": 3618,
      "Mer": 3619,
      "On": 3620,
      "Ser": 3621,
      "dro": 3622,
      "tw": 3623,
      "ws": 3624,
      "oso": 3625,
      "cat": 3626,
      "ers": 3627,
      "deFil": 3628,
      "ies": 3629,
      "entSi": 3630,
      "may": 3631,
      "558": 3632,
      "773": 3633,
      "843": 3634,
      "659": 3635,
      "754": 3636,
      "amar": 3637,
      "Casti": 3638,
      "tering": 3639,
      "Pedro": 3640,
      "deFiltering": 3641,
      "entSideFiltering": 3642,
      "689": 3643,
      "Bel": 3644,
      "Cal": 3645,
      "Est": 3646,
      "Gi": 3647,
      "Is": 3648,
      "Jb": 3649,
      "MC": 3650,
      "RhdGVkQXQiOiIyMDI": 3651,
      "Zpb": 3652,
      "ay": 3653,
      "ami": 3654,
      "bur": 3655,
      "cnV": 3656,
      "cFN": 3657,
      "ctor": 3658,
      "dri": 3659,
      "ges": 3660,
      "jE": 3661,
      "kar": 3662,
      "lY": 3663,
      "lLCJ": 3664,
      "nIiwid": 3665,
      "pp": 3666,
      "spa": 3667,
      "uMCI": 3668,
      "ys": 3669,
      "zan": 3670,
      "zQW": 3671,
      "tell": 3672,
      "lis": 3673,
      "eras": 3674,
      "aldo": 3675,
      "ath": 3676,
      "nueva": 3677,
      "075": 3678,
      "JldCI": 3679,
      "sInB": 3680,
      "IjoiMC": 3681,
      "LCJpY": 3682,
      "hiper": 3683,
      "GVJb": 3684,
      "bGx": 3685,
      "Alde": 3686,
      "kZWxld": 3687,
      "ZlIjp": 3688,
      "WFnZSI": 3689,
      "aXZlIjp": 3690,
      "sImlzQW": 3691,
      "jcmVhdGVkQXQiOiIyMDI": 3692,
      "IiIsImlzQW": 3693,
      "dpbklwIjoiMC": 3694,
      "Villanueva": 3695,
      "Camino": 3696,
      "XQiOjE": 3697,
      "wLjAuMCI": 3698,
      "GVkQXQiOm": 3699,
      "Traves": 3700,
      "cGRhdGVkQXQiOiIyMDI": 3701,
      "cfda": 3702,
      "Antonio": 3703,
      "rdoba": 3704,
      "ZpbGVJb": 3705,
      "cnVlLCJ": 3706,
      "cFNlY": 3707,
      "nIiwidG": 3708,
      "sInByb": 3709,
      "LCJpYXQiOjE": 3710,
      "kZWxldGVkQXQiOm": 3711,
      "IiIsImlzQWN": 3712,
      "wLjAuMCIsInByb": 3713,
      "ZpbGVJbWFnZSI": 3714,
      "cnVlLCJjcmVhdGVkQXQiOiIyMDI": 3715,
      "033": 3716,
      "Don": 3717,
      "Sab": 3718,
      "eu": 3719,
      "hel": 3720,
      "lt": 3721,
      "mag": 3722,
      "np": 3723,
      "ola": 3724,
      "tal": 3725,
      "col": 3726,
      "imon": 3727,
      "dar": 3728,
      "leta": 3729,
      "516": 3730,
      "Alf": 3731,
      "Pala": 3732,
      "Doctor": 3733,
      "Reset": 3734,
      "Bi": 3735,
      "By": 3736,
      "Cri": 3737,
      "EN": 3738,
      "Pr": 3739,
      "Va": 3740,
      "Ve": 3741,
      "Vir": 3742,
      "bla": 3743,
      "cul": 3744,
      "gn": 3745,
      "gran": 3746,
      "ica": 3747,
      "mm": 3748,
      "nie": 3749,
      "pto": 3750,
      "tur": 3751,
      "ui": 3752,
      "ong": 3753,
      "tele": 3754,
      "tero": 3755,
      "tions": 3756,
      "cial": 3757,
      "any": 3758,
      "sia": 3759,
      "Feli": 3760,
      "PasswordReset": 3761,
      "ChromeDevTools": 3762,
      "+%": 3763,
      "Au": 3764,
      "Ala": 3765,
      "Ig": 3766,
      "Km": 3767,
      "SP": 3768,
      "Sub": 3769,
      "iy": 3770,
      "mal": 3771,
      "yn": 3772,
      "ins": 3773,
      "inform": 3774,
      "inter": 3775,
      "ore": 3776,
      "iego": 3777,
      "nik": 3778,
      "565": 3779,
      "WebGoatIntroduction": 3780,
      "ater": 3781,
      "vera": 3782,
      "Cami": 3783,
      "Bri": 3784,
      "Cap": 3785,
      "HAAA": 3786,
      "JJ": 3787,
      "PX": 3788,
      "Sol": 3789,
      "ben": 3790,
      "ds": 3791,
      "hol": 3792,
      "ila": 3793,
      "op": 3794,
      "sen": 3795,
      "tn": 3796,
      "wo": 3797,
      "lada": 3798,
      "lina": 3799,
      "arro": 3800,
      "ajes": 3801,
      "verde": 3802,
      "Alco": 3803,
      "ZlHAAA": 3804,
      "trPX": 3805,
      "rypto": 3806,
      "iNmc": 3807,
      "Travesia": 3808,
      "JJtrPX": 3809,
      "ZlHAAAc": 3810,
      "JJtrPXZlHAAAc": 3811,
      "Bra": 3812,
      "Fra": 3813,
      "Ger": 3814,
      "Huel": 3815,
      "Jose": 3816,
      "Pra": 3817,
      "Ros": 3818,
      "bos": 3819,
      "dj": 3820,
      "ee": 3821,
      "ei": 3822,
      "hen": 3823,
      "kp": 3824,
      "nc": 3825,
      "nos": 3826,
      "om": 3827,
      "pre": 3828,
      "sel": 3829,
      "tan": 3830,
      "wil": 3831,
      "xl": 3832,
      "yf": 3833,
      "lano": 3834,
      "logi": 3835,
      "imo": 3836,
      "pal": 3837,
      "nto": 3838,
      "rique": 3839,
      "ash": 3840,
      "work": 3841,
      "vic": 3842,
      "ajunt": 3843,
      "ament": 3844,
      "Monte": 3845,
      "Huelva": 3846,
      "ajuntament": 3847,
      "FI": 3848,
      "Fg": 3849,
      "Gor": 3850,
      "Llo": 3851,
      "Mart": 3852,
      "Ponte": 3853,
      "Qk": 3854,
      "Sec": 3855,
      "Sil": 3856,
      "ai": 3857,
      "bj": 3858,
      "bus": 3859,
      "bes": 3860,
      "bia": 3861,
      "cA": 3862,
      "cr": 3863,
      "dz": 3864,
      "fu": 3865,
      "gura": 3866,
      "ji": 3867,
      "lcy": 3868,
      "win": 3869,
      "ene": 3870,
      "acio": 3871,
      "ario": 3872,
      "anda": 3873,
      "urce": 3874,
      "chu": 3875,
      "acia": 3876,
      "Quint": 3877,
      "Manuel": 3878,
      "Carrete": 3879,
      "grap": 3880,
      "Murcia": 3881,
      "Carretera": 3882,
      "Ale": 3883,
      "Bon": 3884,
      "Beni": 3885,
      "Cli": 3886,
      "Des": 3887,
      "Gra": 3888,
      "IJ": 3889,
      "RP": 3890,
      "Ram": 3891,
      "Su": 3892,
      "bg": 3893,
      "dr": 3894,
      "dep": 3895,
      "ham": 3896,
      "kn": 3897,
      "ks": 3898,
      "lj": 3899,
      "mF": 3900,
      "ot": 3901,
      "sc": 3902,
      "sky": 3903,
      "token": 3904,
      "ones": 3905,
      "ett": 3906,
      "cisco": 3907,
      "dol": 3908,
      "2740": 3909,
      "FAz": 3910,
      "admin": 3911,
      "source": 3912,
      "dell": 3913,
      "Esp": 3914,
      "Francisco": 3915,
      "graphy": 3916,
      "AQk": 3917,
      "BK": 3918,
      "BES": 3919,
      "Bet": 3920,
      "Bal": 3921,
      "BYa": 3922,
      "DS": 3923,
      "Dk": 3924,
      "FY": 3925,
      "Gal": 3926,
      "Hh": 3927,
      "HQu": 3928,
      "Iq": 3929,
      "JN": 3930,
      "KJui": 3931,
      "LJ": 3932,
      "LV": 3933,
      "NX": 3934,
      "Of": 3935,
      "Oo": 3936,
      "ODk": 3937,
      "PV": 3938,
      "Pq": 3939,
      "PKJui": 3940,
      "Uo": 3941,
      "Vz": 3942,
      "Za": 3943,
      "ZnIiwidG": 3944,
      "bau": 3945,
      "bHQu": 3946,
      "cc": 3947,
      "dB": 3948,
      "dera": 3949,
      "eg": 3950,
      "gus": 3951,
      "gxl": 3952,
      "hIJ": 3953,
      "ico": 3954,
      "iFY": 3955,
      "jyf": 3956,
      "jFg": 3957,
      "kw": 3958,
      "kDo": 3959,
      "lle": 3960,
      "mun": 3961,
      "nz": 3962,
      "ning": 3963,
      "nHY": 3964,
      "oad": 3965,
      "pX": 3966,
      "ps": 3967,
      "pBES": 3968,
      "qhs": 3969,
      "qDS": 3970,
      "rus": 3971,
      "shi": 3972,
      "sGY": 3973,
      "sPKJui": 3974,
      "tre": 3975,
      "tro": 3976,
      "tch": 3977,
      "ucy": 3978,
      "uFK": 3979,
      "uqhs": 3980,
      "vq": 3981,
      "vYW": 3982,
      "vUo": 3983,
      "wal": 3984,
      "xvYW": 3985,
      "ysi": 3986,
      "yic": 3987,
      "zu": 3988,
      "zfr": 3989,
      "ten": 3990,
      "coa": 3991,
      "liver": 3992,
      "ace": 3993,
      "acete": 3994,
      "org": 3995,
      "ime": 3996,
      "llar": 3997,
      "riz": 3998,
      "ross": 3999,
      "aspe": 4000,
      "ioAQk": 4001,
      "EDas": 4002,
      "EEOf": 4003,
      "vedra": 4004,
      "DOp": 4005,
      "iOuqhs": 4006,
      "AFvUo": 4007,
      "NTc": 4008,
      "IiwiZW": 4009,
      "MzEEOf": 4010,
      "iOiJucy": 4011,
      "lIjoiIiwiZW": 4012,
      "bGlj": 4013,
      "VibGlj": 4014,
      "OTR": 4015,
      "ExO": 4016,
      "cHjFg": 4017,
      "cHVibGlj": 4018,
      "MvcHVibGlj": 4019,
      "RlZmF": 4020,
      "ltYWdlcy": 4021,
      "ther": 4022,
      "ZSsGY": 4023,
      "zHBYa": 4024,
      "HZysi": 4025,
      "lujyf": 4026,
      "CiBK": 4027,
      "dHMvcHVibGlj": 4028,
      "barcelona": 4029,
      "haWwiOiJucy": 4030,
      "Luis": 4031,
      "wZqDS": 4032,
      "NldHMvcHVibGlj": 4033,
      "Albacete": 4034,
      "juIq": 4035,
      "cGxvYW": 4036,
      "MDAiLCJkZWxldGVkQXQiOm": 4037,
      "kXwZqDS": 4038,
      "VXdv": 4039,
      "KmhIJ": 4040,
      "SPkDo": 4041,
      "iyiOuqhs": 4042,
      "informati": 4043,
      "FIkXwZqDS": 4044,
      "HhExO": 4045,
      "LVFIkXwZqDS": 4046,
      "PVdB": 4047,
      "VzZSsGY": 4048,
      "bHQuc": 4049,
      "iFYy": 4050,
      "nHYOo": 4051,
      "oadLJ": 4052,
      "pBESuFK": 4053,
      "sPKJuiioAQk": 4054,
      "zfrVXdv": 4055,
      "AFvUojuIq": 4056,
      "MzEEOfzHBYa": 4057,
      "cHjFgPq": 4058,
      "HZysiKmhIJ": 4059,
      "lujyfVzZSsGY": 4060,
      "CiBKcHjFgPq": 4061,
      "NldHMvcHVibGljL": 4062,
      "cGxvYWRzL": 4063,
      "SPkDoyic": 4064,
      "iyiOuqhszfrVXdv": 4065,
      "sPKJuiioAQkN": 4066,
      "AFvUojuIqNX": 4067,
      "MzEEOfzHBYaH": 4068,
      "HZysiKmhIJSPkDoyic": 4069,
      "Ay": 4070,
      "Ari": 4071,
      "Agu": 4072,
      "Ce": 4073,
      "Jor": 4074,
      "Mag": 4075,
      "Mal": 4076,
      "Mir": 4077,
      "Nd": 4078,
      "Os": 4079,
      "Pan": 4080,
      "Pab": 4081,
      "Ven": 4082,
      "bn": 4083,
      "cke": 4084,
      "eh": 4085,
      "lv": 4086,
      "ney": 4087,
      "tE": 4088,
      "tc": 4089,
      "uy": 4090,
      "tino": 4091,
      "cam": 4092,
      "ere": 4093,
      "eral": 4094,
      "8056": 4095,
      "ort": 4096,
      "quin": 4097,
      "stor": 4098,
      "8627": 4099,
      "ase": 4100,
      "viajes": 4101,
      "alia": 4102,
      "ader": 4103,
      "Valde": 4104,
      "Maria": 4105,
      "Rom": 4106,
      "Lugo": 4107,
      "Pueb": 4108,
      "Salv": 4109,
      "madrid": 4110,
      "Virgen": 4111,
      "ryptography": 4112,
      "Fab": 4113,
      "Gas": 4114,
      "It": 4115,
      "Jara": 4116,
      "Ll": 4117,
      "Lla": 4118,
      "Nar": 4119,
      "Ob": 4120,
      "Tam": 4121,
      "eS": 4122,
      "ef": 4123,
      "eda": 4124,
      "gm": 4125,
      "ite": 4126,
      "pf": 4127,
      "py": 4128,
      "pet": 4129,
      "wen": 4130,
      "ert": 4131,
      "ech": 4132,
      "dea": 4133,
      "load": 4134,
      "usa": 4135,
      "ril": 4136,
      "ande": 4137,
      "4021": 4138,
      "8716": 4139,
      "prof": 4140,
      "EDs": 4141,
      "Rey": 4142,
      "mari": 4143,
      "Pasaje": 4144,
      "Alcal": 4145,
      "Valverde": 4146,
      "Santi": 4147,
      "Escri": 4148,
      "16638": 4149,
      "linos": 4150,
      "bypass": 4151,
      "upload": 4152,
      "spain": 4153,
      "nikhil": 4154,
      "Pontevedra": 4155,
      "Pablo": 4156,
      "Bern": 4157,
      "Cue": 4158,
      "Cha": 4159,
      "Ing": 4160,
      "Nue": 4161,
      "Rab": 4162,
      "Ver": 4163,
      "Zu": 4164,
      "ccfda": 4165,
      "fd": 4166,
      "gon": 4167,
      "iro": 4168,
      "jon": 4169,
      "jol": 4170,
      "pon": 4171,
      "sj": 4172,
      "vol": 4173,
      "xe": 4174,
      "tia": 4175,
      "lani": 4176,
      "enla": 4177,
      "eria": 4178,
      "lot": 4179,
      "leares": 4180,
      "comer": 4181,
      "inguda": 4182,
      "losa": 4183,
      "ardo": 4184,
      "aria": 4185,
      "rell": 4186,
      "stri": 4187,
      "stru": 4188,
      "esp": 4189,
      "ator": 4190,
      "asa": 4191,
      "3485": 4192,
      "sab": 4193,
      "sala": 4194,
      "rada": 4195,
      "4899": 4196,
      "crip": 4197,
      "versal": 4198,
      "Passe": 4199,
      "gua": 4200,
      "Vall": 4201,
      "Guip": 4202,
      "Villar": 4203,
      "Este": 4204,
      "087683": 4205,
      "Campo": 4206,
      "Baleares": 4207,
      "Avinguda": 4208,
      "Illes": 4209,
      "white": 4210,
      "ClientSideFiltering": 4211,
      "FAzcoa": 4212,
      "Passeig": 4213,
      "Cub": 4214,
      "Fernan": 4215,
      "Gon": 4216,
      "Lor": 4217,
      "Pro": 4218,
      "Pau": 4219,
      "RF": 4220,
      "SRF": 4221,
      "cz": 4222,
      "gl": 4223,
      "gri": 4224,
      "hal": 4225,
      "ice": 4226,
      "ker": 4227,
      "lI": 4228,
      "len": 4229,
      "pio": 4230,
      "sl": 4231,
      "sm": 4232,
      "yl": 4233,
      "tio": 4234,
      "enida": 4235,
      "ertas": 4236,
      "osta": 4237,
      "quera": 4238,
      "ston": 4239,
      "4626": 4240,
      "nico": 4241,
      "mir": 4242,
      "bru": 4243,
      "3311": 4244,
      "vis": 4245,
      "Conde": 4246,
      "adas": 4247,
      "Carlos": 4248,
      "hoja": 4249,
      "Torres": 4250,
      "bert": 4251,
      "Avda": 4252,
      "Avenida": 4253,
      "emp": 4254,
      "Joan": 4255,
      "essional": 4256,
      "Submit": 4257,
      "professional": 4258,
      "Mac": 4259,
      "Mat": 4260,
      "Medi": 4261,
      "Sam": 4262,
      "Valle": 4263,
      "cI": 4264,
      "cT": 4265,
      "ctions": 4266,
      "dec": 4267,
      "ek": 4268,
      "edo": 4269,
      "fiel": 4270,
      "lue": 4271,
      "mul": 4272,
      "nl": 4273,
      "nas": 4274,
      "ope": 4275,
      "rf": 4276,
      "rep": 4277,
      "sun": 4278,
      "tA": 4279,
      "woff": 4280,
      "who": 4281,
      "lad": 4282,
      "lava": 4283,
      "8000": 4284,
      "loca": 4285,
      "tienes": 4286,
      "ree": 4287,
      "gil": 4288,
      "3841": 4289,
      "rosa": 4290,
      "atge": 4291,
      "pez": 4292,
      "4156": 4293,
      "foro": 4294,
      "els": 4295,
      "mis": 4296,
      "adio": 4297,
      "5516": 4298,
      "auto": 4299,
      "auth": 4300,
      "6025": 4301,
      "teria": 4302,
      "zales": 4303,
      "Quin": 4304,
      "olf": 4305,
      "guer": 4306,
      "fit": 4307,
      "May": 4308,
      "andro": 4309,
      "mont": 4310,
      "monte": 4311,
      "Garcia": 4312,
      "ness": 4313,
      "Vicente": 4314,
      "csrf": 4315,
      "Http": 4316,
      "Vega": 4317,
      "Puebla": 4318,
      "cripting": 4319,
      "whoami": 4320,
      "\"}": 4321,
      "Am": 4322,
      "Ada": 4323,
      "Cross": 4324,
      "Dal": 4325,
      "Iz": 4326,
      "Lar": 4327,
      "Muri": 4328,
      "Pad": 4329,
      "Pera": 4330,
      "Ron": 4331,
      "Sel": 4332,
      "Session": 4333,
      "Scripting": 4334,
      "Wolf": 4335,
      "bon": 4336,
      "cro": 4337,
      "eza": 4338,
      "gf": 4339,
      "hn": 4340,
      "hin": 4341,
      "if": 4342,
      "mg": 4343,
      "nd": 4344,
      "nr": 4345,
      "open": 4346,
      "pis": 4347,
      "ring": 4348,
      "sn": 4349,
      "ster": 4350,
      "we": 4351,
      "zal": 4352,
      "one": 4353,
      "teScripting": 4354,
      "lino": 4355,
      "iner": 4356,
      "erta": 4357,
      "nga": 4358,
      "confi": 4359,
      "are": 4360,
      "rei": 4361,
      "reu": 4362,
      "redirec": 4363,
      "0106": 4364,
      "4220": 4365,
      "ann": 4366,
      "urn": 4367,
      "4150": 4368,
      "8701": 4369,
      "8747": 4370,
      "3797": 4371,
      "8598": 4372,
      "8107": 4373,
      "3496": 4374,
      "vir": 4375,
      "vela": 4376,
      "6020": 4377,
      "2825": 4378,
      "oftw": 4379,
      "zaro": 4380,
      "jackSession": 4381,
      "guel": 4382,
      "bot": 4383,
      "Pobla": 4384,
      "SiteScripting": 4385,
      "lores": 4386,
      "Miguel": 4387,
      "Puig": 4388,
      "HijackSession": 4389,
      "authbypass": 4390,
      "CrossSiteScripting": 4391,
      "Ara": 4392,
      "Cryptography": 4393,
      "Em": 4394,
      "Far": 4395,
      "JY": 4396,
      "Les": 4397,
      "Lab": 4398,
      "Llor": 4399,
      "Ph": 4400,
      "Path": 4401,
      "Spo": 4402,
      "VDA": 4403,
      "aw": 4404,
      "ax": 4405,
      "bera": 4406,
      "ct": 4407,
      "cer": 4408,
      "die": 4409,
      "fj": 4410,
      "far": 4411,
      "ful": 4412,
      "font": 4413,
      "hk": 4414,
      "iano": 4415,
      "jP": 4416,
      "jet": 4417,
      "kor": 4418,
      "ming": 4419,
      "oPh": 4420,
      "rac": 4421,
      "sca": 4422,
      "sey": 4423,
      "tk": 4424,
      "tm": 4425,
      "xss": 4426,
      "mlTam": 4427,
      "cant": 4428,
      "inc": 4429,
      "inas": 4430,
      "erro": 4431,
      "desi": 4432,
      "8091": 4433,
      "8067": 4434,
      "orn": 4435,
      "lez": 4436,
      "IDOR": 4437,
      "aran": 4438,
      "rez": 4439,
      "stan": 4440,
      "3835": 4441,
      "movil": 4442,
      "cars": 4443,
      "8667": 4444,
      "9820": 4445,
      "4676": 4446,
      "4672": 4447,
      "8356": 4448,
      "ebra": 4449,
      "9199": 4450,
      "9190": 4451,
      "3146": 4452,
      "4799": 4453,
      "4746": 4454,
      "2231": 4455,
      "mira": 4456,
      "8587": 4457,
      "2725": 4458,
      "2771": 4459,
      "2681": 4460,
      "3596": 4461,
      "3491": 4462,
      "adilla": 4463,
      "sant": 4464,
      "7099": 4465,
      "5601": 4466,
      "WebWolf": 4467,
      "0527": 4468,
      "amas": 4469,
      "1301": 4470,
      "Paseo": 4471,
      "creacion": 4472,
      "Arqui": 4473,
      "ller": 4474,
      "under": 4475,
      "Roble": 4476,
      "AAAi": 4477,
      "pering": 4478,
      "ics": 4479,
      "land": 4480,
      "vooPh": 4481,
      "Flori": 4482,
      "travio": 4483,
      "Traversal": 4484,
      "LTExLTIwVDA": 4485,
      "more": 4486,
      "guez": 4487,
      "HtmlTam": 4488,
      "Bypass": 4489,
      "Alame": 4490,
      "Igle": 4491,
      "guration": 4492,
      "cTMm": 4493,
      "configuration": 4494,
      "redirect": 4495,
      "JYvooPh": 4496,
      "PathTraversal": 4497,
      "Spoof": 4498,
      "travioleta": 4499,
      "HtmlTampering": 4500,
      "JYvooPhK": 4501,
      "=.": 4502,
      "Amin": 4503,
      "Cos": 4504,
      "Gr": 4505,
      "Ha": 4506,
      "Hen": 4507,
      "Hino": 4508,
      "Ofi": 4509,
      "Prat": 4510,
      "Que": 4511,
      "RA": 4512,
      "SC": 4513,
      "TI": 4514,
      "Ten": 4515,
      "aq": 4516,
      "bet": 4517,
      "bir": 4518,
      "brid": 4519,
      "cv": 4520,
      "edu": 4521,
      "ffi": 4522,
      "gd": 4523,
      "gg": 4524,
      "hon": 4525,
      "hos": 4526,
      "ib": 4527,
      "ist": 4528,
      "kz": 4529,
      "ken": 4530,
      "pl": 4531,
      "qa": 4532,
      "rent": 4533,
      "rera": 4534,
      "sol": 4535,
      "tv": 4536,
      "tab": 4537,
      "ua": 4538,
      "udi": 4539,
      "ueta": 4540,
      "yas": 4541,
      "tivo": 4542,
      "lag": 4543,
      "8057": 4544,
      "oro": 4545,
      "iela": 4546,
      "cons": 4547,
      "dan": 4548,
      "lea": 4549,
      "lef": 4550,
      "llana": 4551,
      "comp": 4552,
      "arri": 4553,
      "star": 4554,
      "mba": 4555,
      "0126": 4556,
      "esc": 4557,
      "albe": 4558,
      "3656": 4559,
      "3677": 4560,
      "anti": 4561,
      "doc": 4562,
      "ford": 4563,
      "4640": 4564,
      "8339": 4565,
      "5726": 4566,
      "5705": 4567,
      "3151": 4568,
      "4750": 4569,
      "2217": 4570,
      "2246": 4571,
      "9747": 4572,
      "9787": 4573,
      "9781": 4574,
      "0696": 4575,
      "9638": 4576,
      "max": 4577,
      "9546": 4578,
      "9521": 4579,
      "3587": 4580,
      "6490": 4581,
      "3045": 4582,
      "uelas": 4583,
      "nero": 4584,
      "aul": 4585,
      "EEFE": 4586,
      "6135": 4587,
      "vide": 4588,
      "ACED": 4589,
      "gol": 4590,
      "goog": 4591,
      "6511": 4592,
      "arta": 4593,
      "abo": 4594,
      "nez": 4595,
      "adan": 4596,
      "Cala": 4597,
      "Marqu": 4598,
      "Marcos": 4599,
      "Card": 4600,
      "und": 4601,
      "Leon": 4602,
      "Campos": 4603,
      "bios": 4604,
      "hard": 4605,
      "math": 4606,
      "PgWy": 4607,
      "network": 4608,
      "Passwords": 4609,
      "urePasswords": 4610,
      "basket": 4611,
      "General": 4612,
      "Praza": 4613,
      "SecurePasswords": 4614,
      "hojainformati": 4615,
      "WebWolfIntroduction": 4616,
      "google": 4617,
      "8871": 4618,
      "=-": 4619,
      "Agui": 4620,
      "Blas": 4621,
      "Cin": 4622,
      "Cat": 4623,
      "Dor": 4624,
      "Fla": 4625,
      "Gin": 4626,
      "Hos": 4627,
      "Kar": 4628,
      "Mos": 4629,
      "Mie": 4630,
      "Mes": 4631,
      "Med": 4632,
      "Oro": 4633,
      "Pam": 4634,
      "Reb": 4635,
      "Sali": 4636,
      "Zo": 4637,
      "ak": 4638,
      "ao": 4639,
      "ale": 4640,
      "ama": 4641,
      "blan": 4642,
      "dura": 4643,
      "gq": 4644,
      "gna": 4645,
      "hl": 4646,
      "hr": 4647,
      "mr": 4648,
      "mel": 4649,
      "nin": 4650,
      "pm": 4651,
      "page": 4652,
      "ple": 4653,
      "rs": 4654,
      "rt": 4655,
      "sk": 4656,
      "sie": 4657,
      "ug": 4658,
      "uv": 4659,
      "udio": 4660,
      "vc": 4661,
      "vet": 4662,
      "yan": 4663,
      "zr": 4664,
      "zon": 4665,
      "zas": 4666,
      "zuela": 4667,
      "tie": 4668,
      "tech": 4669,
      "lares": 4670,
      "enci": 4671,
      "coc": 4672,
      "ind": 4673,
      "inal": 4674,
      "indo": 4675,
      "agon": 4676,
      "acruz": 4677,
      "zio": 4678,
      "eck": 4679,
      "8022": 4680,
      "leo": 4681,
      "okie": 4682,
      "para": 4683,
      "arda": 4684,
      "artes": 4685,
      "rey": 4686,
      "diz": 4687,
      "rist": 4688,
      "rich": 4689,
      "4297": 4690,
      "4234": 4691,
      "molinos": 4692,
      "3667": 4693,
      "ans": 4694,
      "ania": 4695,
      "4145": 4696,
      "4501": 4697,
      "4551": 4698,
      "8357": 4699,
      "ents": 4700,
      "2567": 4701,
      "9125": 4702,
      "9127": 4703,
      "9126": 4704,
      "9167": 4705,
      "3117": 4706,
      "CCEE": 4707,
      "2211": 4708,
      "2296": 4709,
      "9755": 4710,
      "8772": 4711,
      "3742": 4712,
      "8507": 4713,
      "8593": 4714,
      "2744": 4715,
      "2626": 4716,
      "8101": 4717,
      "EAEC": 4718,
      "EABD": 4719,
      "8242": 4720,
      "3945": 4721,
      "aud": 4722,
      "audi": 4723,
      "9242": 4724,
      "8842": 4725,
      "vita": 4726,
      "7740": 4727,
      "gob": 4728,
      "ajo": 4729,
      "8941": 4730,
      "1636": 4731,
      "3603": 4732,
      "7501": 4733,
      "2840": 4734,
      "2399": 4735,
      "5487": 4736,
      "1480": 4737,
      "zama": 4738,
      "chev": 4739,
      "adora": 4740,
      "new": 4741,
      "Aren": 4742,
      "Arri": 4743,
      "jobs": 4744,
      "Marti": 4745,
      "Casas": 4746,
      "FCCB": 4747,
      "Luci": 4748,
      "show": 4749,
      "Mira": 4750,
      "stein": 4751,
      "Lopez": 4752,
      "Munt": 4753,
      "brook": 4754,
      "Vict": 4755,
      "mayor": 4756,
      "field": 4757,
      "forohh": 4758,
      "Padre": 4759,
      "At": 4760,
      "Az": 4761,
      "Ali": 4762,
      "Ame": 4763,
      "Aran": 4764,
      "Blan": 4765,
      "Bell": 4766,
      "Clo": 4767,
      "Cre": 4768,
      "Clar": 4769,
      "Diego": 4770,
      "Edu": 4771,
      "Eche": 4772,
      "Font": 4773,
      "Gri": 4774,
      "Iv": 4775,
      "Isa": 4776,
      "Ji": 4777,
      "Nat": 4778,
      "Ret": 4779,
      "Rosa": 4780,
      "Sag": 4781,
      "Sha": 4782,
      "Tro": 4783,
      "Tri": 4784,
      "ame": 4785,
      "bri": 4786,
      "cx": 4787,
      "cpan": 4788,
      "dre": 4789,
      "fru": 4790,
      "ido": 4791,
      "ito": 4792,
      "iana": 4793,
      "mori": 4794,
      "mera": 4795,
      "nf": 4796,
      "pg": 4797,
      "pit": 4798,
      "rE": 4799,
      "rI": 4800,
      "sr": 4801,
      "tg": 4802,
      "uli": 4803,
      "uro": 4804,
      "onsa": 4805,
      "tiv": 4806,
      "lak": 4807,
      "capt": 4808,
      "naci": 4809,
      "dev": 4810,
      "apoli": 4811,
      "8046": 4812,
      "ngel": 4813,
      "orca": 4814,
      "imar": 4815,
      "data": 4816,
      "leda": 4817,
      "oko": 4818,
      "kov": 4819,
      "kova": 4820,
      "quil": 4821,
      "regi": 4822,
      "mbra": 4823,
      "sso": 4824,
      "sson": 4825,
      "3811": 4826,
      "3881": 4827,
      "3866": 4828,
      "4277": 4829,
      "4215": 4830,
      "anes": 4831,
      "anka": 4832,
      "urt": 4833,
      "4105": 4834,
      "ello": 4835,
      "4547": 4836,
      "9871": 4837,
      "4620": 4838,
      "asi": 4839,
      "0047": 4840,
      "8311": 4841,
      "8327": 4842,
      "2500": 4843,
      "2557": 4844,
      "2025": 4845,
      "eback": 4846,
      "3197": 4847,
      "3130": 4848,
      "4747": 4849,
      "4730": 4850,
      "DDDB": 4851,
      "2201": 4852,
      "9766": 4853,
      "0639": 4854,
      "8791": 4855,
      "3711": 4856,
      "3796": 4857,
      "mili": 4858,
      "melo": 4859,
      "9631": 4860,
      "9606": 4861,
      "2716": 4862,
      "maz": 4863,
      "mail": 4864,
      "9590": 4865,
      "3500": 4866,
      "8187": 4867,
      "3499": 4868,
      "6430": 4869,
      "EABA": 4870,
      "DAEF": 4871,
      "tarra": 4872,
      "baldo": 4873,
      "8232": 4874,
      "FDBD": 4875,
      "3925": 4876,
      "3241": 4877,
      "3246": 4878,
      "4499": 4879,
      "CDBC": 4880,
      "4817": 4881,
      "4857": 4882,
      "4849": 4883,
      "3317": 4884,
      "3326": 4885,
      "9446": 4886,
      "9487": 4887,
      "9485": 4888,
      "Col": 4889,
      "9357": 4890,
      "6086": 4891,
      "8430": 4892,
      "6238": 4893,
      "1646": 4894,
      "7496": 4895,
      "2447": 4896,
      "high": 4897,
      "hibrid": 4898,
      "1499": 4899,
      "1817": 4900,
      "0320": 4901,
      "Pascu": 4902,
      "Arg": 4903,
      "Paz": 4904,
      "lba": 4905,
      "soy": 4906,
      "Barr": 4907,
      "Leo": 4908,
      "hop": 4909,
      "Corre": 4910,
      "Cameros": 4911,
      "Poeta": 4912,
      "yola": 4913,
      "Perez": 4914,
      "Hoyo": 4915,
      "sqli": 4916,
      "Pintor": 4917,
      "Sarri": 4918,
      "Castillo": 4919,
      "arroyo": 4920,
      "Quintana": 4921,
      "Salvador": 4922,
      "Alcalde": 4923,
      "uploads": 4924,
      "comercios": 4925,
      "Gonza": 4926,
      "fitness": 4927,
      "cpanel": 4928,
      "hibridos": 4929,
      "3381": 4930,
      "Ag": 4931,
      "AFAA": 4932,
      "Cec": 4933,
      "Chi": 4934,
      "Ew": 4935,
      "Esta": 4936,
      "Fed": 4937,
      "Fun": 4938,
      "Gre": 4939,
      "Glor": 4940,
      "Har": 4941,
      "Ir": 4942,
      "Nt": 4943,
      "Oli": 4944,
      "Sen": 4945,
      "TO": 4946,
      "Teo": 4947,
      "Vil": 4948,
      "av": 4949,
      "ant": 4950,
      "aver": 4951,
      "aza": 4952,
      "bv": 4953,
      "cg": 4954,
      "cen": 4955,
      "clo": 4956,
      "dc": 4957,
      "fell": 4958,
      "gU": 4959,
      "hS": 4960,
      "ilo": 4961,
      "jor": 4962,
      "jal": 4963,
      "jas": 4964,
      "lec": 4965,
      "md": 4966,
      "mk": 4967,
      "mero": 4968,
      "nel": 4969,
      "nell": 4970,
      "pI": 4971,
      "pes": 4972,
      "pho": 4973,
      "qw": 4974,
      "rap": 4975,
      "rero": 4976,
      "raga": 4977,
      "sE": 4978,
      "sg": 4979,
      "sand": 4980,
      "war": 4981,
      "yen": 4982,
      "yer": 4983,
      "tilio": 4984,
      "enzo": 4985,
      "copi": 4986,
      "inaldo": 4987,
      "ache": 4988,
      "det": 4989,
      "demar": 4990,
      "8041": 4991,
      "8066": 4992,
      "lod": 4993,
      "lou": 4994,
      "lei": 4995,
      "uso": 4996,
      "kes": 4997,
      "quet": 4998,
      "ques": 4999,
      "aro": 5000,
      "arch": 5001,
      "0121": 5002,
      "0161": 5003,
      "roo": 5004,
      "roco": 5005,
      "ssa": 5006,
      "sser": 5007,
      "aly": 5008,
      "3842": 5009,
      "3815": 5010,
      "4217": 5011,
      "4235": 5012,
      "1721": 5013,
      "3641": 5014,
      "3661": 5015,
      "4027": 5016,
      "4050": 5017,
      "novi": 5018,
      "9942": 5019,
      "8617": 5020,
      "8610": 5021,
      "4585": 5022,
      "9856": 5023,
      "4636": 5024,
      "4697": 5025,
      "4696": 5026,
      "4695": 5027,
      "asia": 5028,
      "8320": 5029,
      "8397": 5030,
      "cher": 5031,
      "2511": 5032,
      "2564": 5033,
      "9137": 5034,
      "9196": 5035,
      "4734": 5036,
      "4775": 5037,
      "DDDC": 5038,
      "2245": 5039,
      "9756": 5040,
      "3787": 5041,
      "3766": 5042,
      "9646": 5043,
      "9637": 5044,
      "2770": 5045,
      "2755": 5046,
      "2750": 5047,
      "2695": 5048,
      "mala": 5049,
      "9505": 5050,
      "3586": 5051,
      "FAFF": 5052,
      "2117": 5053,
      "2144": 5054,
      "8120": 5055,
      "3480": 5056,
      "9097": 5057,
      "9096": 5058,
      "9021": 5059,
      "9071": 5060,
      "3020": 5061,
      "3021": 5062,
      "8201": 5063,
      "8217": 5064,
      "8241": 5065,
      "8245": 5066,
      "8225": 5067,
      "8287": 5068,
      "7078": 5069,
      "3920": 5070,
      "3947": 5071,
      "BBDB": 5072,
      "5537": 5073,
      "5555": 5074,
      "auti": 5075,
      "BDED": 5076,
      "FFDA": 5077,
      "5117": 5078,
      "5195": 5079,
      "5155": 5080,
      "4492": 5081,
      "EBEC": 5082,
      "4826": 5083,
      "bral": 5084,
      "9401": 5085,
      "9431": 5086,
      "velo": 5087,
      "velin": 5088,
      "Cookie": 5089,
      "2012": 5090,
      "2014": 5091,
      "9336": 5092,
      "9340": 5093,
      "9326": 5094,
      "modelos": 5095,
      "1056": 5096,
      "8434": 5097,
      "gov": 5098,
      "6286": 5099,
      "8936": 5100,
      "8921": 5101,
      "4357": 5102,
      "4337": 5103,
      "1647": 5104,
      "7442": 5105,
      "5842": 5106,
      "5857": 5107,
      "5826": 5108,
      "5399": 5109,
      "6391": 5110,
      "7296": 5111,
      "1927": 5112,
      "tugal": 5113,
      "hay": 5114,
      "Alba": 5115,
      "Juli": 5116,
      "neu": 5117,
      "Arro": 5118,
      "gami": 5119,
      "Barri": 5120,
      "Castro": 5121,
      "Cara": 5122,
      "Nav": 5123,
      "Escul": 5124,
      "39660": 5125,
      "berg": 5126,
      "entes": 5127,
      "DEDE": 5128,
      "ick": 5129,
      "lyn": 5130,
      "tras": 5131,
      "FEDE": 5132,
      "achina": 5133,
      "Ruiz": 5134,
      "Basics": 5135,
      "rieta": 5136,
      "stock": 5137,
      "Claver": 5138,
      "uerga": 5139,
      "Fredes": 5140,
      "clientSideFiltering": 5141,
      "Palacios": 5142,
      "ajuntamentde": 5143,
      "ajuntamentbarcelona": 5144,
      "Lorenzo": 5145,
      "HttpBasics": 5146,
      "Murillo": 5147,
      "Arquitec": 5148,
      "SpoofCookie": 5149,
      "Medina": 5150,
      "Gonzalez": 5151,
      "Glorieta": 5152,
      "2967": 5153,
      "5877": 5154,
      "AG": 5155,
      "AL": 5156,
      "Aro": 5157,
      "CZ": 5158,
      "CMo": 5159,
      "Cru": 5160,
      "DY": 5161,
      "Et": 5162,
      "Estra": 5163,
      "Fz": 5164,
      "Gali": 5165,
      "Gab": 5166,
      "Gru": 5167,
      "GLm": 5168,
      "HK": 5169,
      "Hernan": 5170,
      "IZh": 5171,
      "JX": 5172,
      "Jj": 5173,
      "JVX": 5174,
      "KK": 5175,
      "LN": 5176,
      "Lv": 5177,
      "Lau": 5178,
      "Mel": 5179,
      "Mit": 5180,
      "Nu": 5181,
      "Nor": 5182,
      "Nie": 5183,
      "Ori": 5184,
      "Oha": 5185,
      "OJj": 5186,
      "PU": 5187,
      "Pine": 5188,
      "Pelli": 5189,
      "POJj": 5190,
      "QS": 5191,
      "Qul": 5192,
      "QBy": 5193,
      "Rub": 5194,
      "Rel": 5195,
      "Sig": 5196,
      "SSRF": 5197,
      "Tel": 5198,
      "Ucu": 5199,
      "Vio": 5200,
      "WN": 5201,
      "WOha": 5202,
      "Yi": 5203,
      "Zki": 5204,
      "able": 5205,
      "bk": 5206,
      "bt": 5207,
      "bil": 5208,
      "bcn": 5209,
      "ccn": 5210,
      "doko": 5211,
      "eon": 5212,
      "eus": 5213,
      "eMD": 5214,
      "evelin": 5215,
      "fos": 5216,
      "fal": 5217,
      "fan": 5218,
      "fil": 5219,
      "flex": 5220,
      "gau": 5221,
      "hat": 5222,
      "hart": 5223,
      "iteria": 5224,
      "jeres": 5225,
      "kri": 5226,
      "kil": 5227,
      "lc": 5228,
      "mx": 5229,
      "nal": 5230,
      "ob": 5231,
      "oh": 5232,
      "oJX": 5233,
      "qRu": 5234,
      "qoJX": 5235,
      "rub": 5236,
      "sim": 5237,
      "tj": 5238,
      "tcm": 5239,
      "the": 5240,
      "ung": 5241,
      "una": 5242,
      "uweb": 5243,
      "vu": 5244,
      "wie": 5245,
      "wHK": 5246,
      "zer": 5247,
      "zPOJj": 5248,
      "tica": 5249,
      "tein": 5250,
      "lamo": 5251,
      "eng": 5252,
      "coop": 5253,
      "lig": 5254,
      "lito": 5255,
      "line": 5256,
      "osMie": 5257,
      "cador": 5258,
      "acho": 5259,
      "erto": 5260,
      "dey": 5261,
      "dese": 5262,
      "delia": 5263,
      "degol": 5264,
      "apla": 5265,
      "8025": 5266,
      "8020": 5267,
      "ages": 5268,
      "dara": 5269,
      "dall": 5270,
      "lee": 5271,
      "lem": 5272,
      "pare": 5273,
      "paqw": 5274,
      "kel": 5275,
      "Mol": 5276,
      "quec": 5277,
      "arab": 5278,
      "stre": 5279,
      "ciru": 5280,
      "0155": 5281,
      "0192": 5282,
      "row": 5283,
      "espa": 5284,
      "ssatge": 5285,
      "alber": 5286,
      "3891": 5287,
      "3821": 5288,
      "4285": 5289,
      "4271": 5290,
      "4256": 5291,
      "4255": 5292,
      "4284": 5293,
      "mobi": 5294,
      "rech": 5295,
      "1738": 5296,
      "1772": 5297,
      "3638": 5298,
      "3640": 5299,
      "3687": 5300,
      "3621": 5301,
      "3689": 5302,
      "dom": 5303,
      "card": 5304,
      "4098": 5305,
      "4020": 5306,
      "4071": 5307,
      "4056": 5308,
      "atos": 5309,
      "noz": 5310,
      "9907": 5311,
      "pear": 5312,
      "8601": 5313,
      "8647": 5314,
      "8670": 5315,
      "8650": 5316,
      "8615": 5317,
      "8616": 5318,
      "4101": 5319,
      "4141": 5320,
      "4191": 5321,
      "4122": 5322,
      "fort": 5323,
      "elles": 5324,
      "4521": 5325,
      "4554": 5326,
      "9841": 5327,
      "9891": 5328,
      "1106": 5329,
      "4698": 5330,
      "4677": 5331,
      "asio": 5332,
      "0096": 5333,
      "0095": 5334,
      "0056": 5335,
      "0067": 5336,
      "0065": 5337,
      "0078": 5338,
      "8321": 5339,
      "chet": 5340,
      "nica": 5341,
      "2047": 5342,
      "2066": 5343,
      "5743": 5344,
      "9136": 5345,
      "9105": 5346,
      "3120": 5347,
      "3155": 5348,
      "4726": 5349,
      "4743": 5350,
      "2247": 5351,
      "2267": 5352,
      "2243": 5353,
      "9797": 5354,
      "todo": 5355,
      "0617": 5356,
      "3740": 5357,
      "3730": 5358,
      "3723": 5359,
      "miro": 5360,
      "misa": 5361,
      "8546": 5362,
      "9691": 5363,
      "9681": 5364,
      "9655": 5365,
      "9666": 5366,
      "2706": 5367,
      "2734": 5368,
      "2655": 5369,
      "2662": 5370,
      "EDBB": 5371,
      "EDCA": 5372,
      "EDBF": 5373,
      "9557": 5374,
      "9506": 5375,
      "9537": 5376,
      "3506": 5377,
      "3585": 5378,
      "3581": 5379,
      "3549": 5380,
      "FACD": 5381,
      "2190": 5382,
      "FCDC": 5383,
      "8106": 5384,
      "8167": 5385,
      "3444": 5386,
      "6499": 5387,
      "RehS": 5388,
      "9080": 5389,
      "9082": 5390,
      "9044": 5391,
      "3040": 5392,
      "8295": 5393,
      "FDEA": 5394,
      "5660": 5395,
      "AAWOha": 5396,
      "BBEA": 5397,
      "5518": 5398,
      "BDBA": 5399,
      "3243": 5400,
      "CADF": 5401,
      "5167": 5402,
      "9236": 5403,
      "9296": 5404,
      "CDED": 5405,
      "mena": 5406,
      "menorca": 5407,
      "4842": 5408,
      "4811": 5409,
      "4848": 5410,
      "6771": 5411,
      "6107": 5412,
      "0741": 5413,
      "3347": 5414,
      "8883": 5415,
      "8888": 5416,
      "9417": 5417,
      "Colla": 5418,
      "Comp": 5419,
      "9337": 5420,
      "6040": 5421,
      "6041": 5422,
      "6055": 5423,
      "5238": 5424,
      "MjE": 5425,
      "ABBC": 5426,
      "PHbk": 5427,
      "1030": 5428,
      "BEED": 5429,
      "1237": 5430,
      "4301": 5431,
      "6587": 5432,
      "CFFC": 5433,
      "1511": 5434,
      "4947": 5435,
      "1600": 5436,
      "1656": 5437,
      "2936": 5438,
      "2925": 5439,
      "ceda": 5440,
      "7631": 5441,
      "7590": 5442,
      "2899": 5443,
      "2491": 5444,
      "2342": 5445,
      "aman": 5446,
      "5897": 5447,
      "5338": 5448,
      "7917": 5449,
      "6825": 5450,
      "1980": 5451,
      "0395": 5452,
      "0899": 5453,
      "0436": 5454,
      "0430": 5455,
      "ofertas": 5456,
      "zaragoza": 5457,
      "aber": 5458,
      "rana": 5459,
      "old": 5460,
      "Arce": 5461,
      "Aragon": 5462,
      "Passatge": 5463,
      "onales": 5464,
      "Mvccn": 5465,
      "gay": 5466,
      "delmar": 5467,
      "llon": 5468,
      "Gui": 5469,
      "Guill": 5470,
      "Carden": 5471,
      "unne": 5472,
      "Fky": 5473,
      "Nava": 5474,
      "Naval": 5475,
      "Roman": 5476,
      "Rodri": 5477,
      "sZtcm": 5478,
      "4011": 5479,
      "ilia": 5480,
      "3808": 5481,
      "Espin": 5482,
      "CDAB": 5483,
      "CDAD": 5484,
      "3064": 5485,
      "quez": 5486,
      "EFAF": 5487,
      "barni": 5488,
      "Mae": 5489,
      "Camar": 5490,
      "Teresa": 5491,
      "DBCD": 5492,
      "bien": 5493,
      "huLv": 5494,
      "BBAE": 5495,
      "9478": 5496,
      "Enrique": 5497,
      "EDDB": 5498,
      "ACDF": 5499,
      "much": 5500,
      "mujeres": 5501,
      "garda": 5502,
      "5924": 5503,
      "quilla": 5504,
      "Duero": 5505,
      "Caba": 5506,
      "Gala": 5507,
      "brad": 5508,
      "Franc": 5509,
      "Bene": 5510,
      "Porta": 5511,
      "club": 5512,
      "Andr": 5513,
      "Nico": 5514,
      "alsan": 5515,
      "kXyl": 5516,
      "Merce": 5517,
      "Giuli": 5518,
      "help": 5519,
      "ltMvccn": 5520,
      "Alfonso": 5521,
      "ENWN": 5522,
      "PrKK": 5523,
      "knLN": 5524,
      "Betan": 5525,
      "NdFky": 5526,
      "ckePrKK": 5527,
      "gmGM": 5528,
      "Nuestra": 5529,
      "multas": 5530,
      "design": 5531,
      "467282": 5532,
      "Alameda": 5533,
      "Oficial": 5534,
      "SCqRu": 5535,
      "albeiteria": 5536,
      "antity": 5537,
      "hojainformativas": 5538,
      "Victoria": 5539,
      "Isabel": 5540,
      "captcha": 5541,
      "dcbe": 5542,
      "AGzPOJj": 5543,
      "CMoQBy": 5544,
      "DYltMvccn": 5545,
      "GLmu": 5546,
      "IZhan": 5547,
      "JVXeMD": 5548,
      "QSkXyl": 5549,
      "QulckePrKK": 5550,
      "Yipaqw": 5551,
      "ZkiCMoQBy": 5552,
      "eonon": 5553,
      "qoJXd": 5554,
      "wHKAGzPOJj": 5555,
      "degolf": 5556,
      "RehSJVXeMD": 5557,
      "AAWOhaGLmu": 5558,
      "PHbkNT": 5559,
      "sZtcmqoJXd": 5560,
      "knLNENWN": 5561,
      "SCqRuS": 5562,
      "DYltMvccnknLNENWN": 5563,
      "QSkXylPHbkNT": 5564,
      "QulckePrKKUcu": 5565,
      "YipaqwAAWOhaGLmu": 5566,
      "RehSJVXeMDSe": 5567,
      "Ac": 5568,
      "As": 5569,
      "Bla": 5570,
      "Bos": 5571,
      "Bru": 5572,
      "Cur": 5573,
      "Der": 5574,
      "ER": 5575,
      "Els": 5576,
      "EFEF": 5577,
      "Fres": 5578,
      "Gk": 5579,
      "Gio": 5580,
      "Gil": 5581,
      "Galla": 5582,
      "Jos": 5583,
      "Jau": 5584,
      "Lap": 5585,
      "Mun": 5586,
      "Nog": 5587,
      "Pen": 5588,
      "Pie": 5589,
      "Pre": 5590,
      "Son": 5591,
      "Shop": 5592,
      "Tr": 5593,
      "Tu": 5594,
      "Tar": 5595,
      "Vie": 5596,
      "WtH": 5597,
      "YM": 5598,
      "Yel": 5599,
      "ZE": 5600,
      "aR": 5601,
      "box": 5602,
      "cE": 5603,
      "cent": 5604,
      "dac": 5605,
      "dora": 5606,
      "eti": 5607,
      "ear": 5608,
      "fl": 5609,
      "fra": 5610,
      "gent": 5611,
      "hue": 5612,
      "ier": 5613,
      "ile": 5614,
      "ias": 5615,
      "jer": 5616,
      "kam": 5617,
      "ndi": 5618,
      "ov": 5619,
      "oes": 5620,
      "oun": 5621,
      "pk": 5622,
      "pap": 5623,
      "pru": 5624,
      "phd": 5625,
      "rint": 5626,
      "sor": 5627,
      "sar": 5628,
      "san": 5629,
      "sms": 5630,
      "tti": 5631,
      "tus": 5632,
      "tman": 5633,
      "ule": 5634,
      "uza": 5635,
      "vn": 5636,
      "valle": 5637,
      "zap": 5638,
      "zano": 5639,
      "zosa": 5640,
      "tic": 5641,
      "tillo": 5642,
      "teg": 5643,
      "tet": 5644,
      "lamar": 5645,
      "end": 5646,
      "engi": 5647,
      "cast": 5648,
      "cami": 5649,
      "casa": 5650,
      "casti": 5651,
      "incon": 5652,
      "instru": 5653,
      "xtre": 5654,
      "ection": 5655,
      "decor": 5656,
      "deaspe": 5657,
      "apo": 5658,
      "8042": 5659,
      "8099": 5660,
      "8045": 5661,
      "8096": 5662,
      "8043": 5663,
      "8019": 5664,
      "8008": 5665,
      "ngo": 5666,
      "ngar": 5667,
      "loma": 5668,
      "imen": 5669,
      "dano": 5670,
      "davi": 5671,
      "paris": 5672,
      "key": 5673,
      "regu": 5674,
      "mbi": 5675,
      "cidad": 5676,
      "0199": 5677,
      "0111": 5678,
      "0191": 5679,
      "0131": 5680,
      "0181": 5681,
      "0166": 5682,
      "0110": 5683,
      "rom": 5684,
      "ropa": 5685,
      "este": 5686,
      "escar": 5687,
      "ric": 5688,
      "ritte": 5689,
      "3817": 5690,
      "3853": 5691,
      "3814": 5692,
      "4238": 5693,
      "4296": 5694,
      "4221": 5695,
      "4261": 5696,
      "4263": 5697,
      "1711": 5698,
      "3601": 5699,
      "3611": 5700,
      "3683": 5701,
      "3637": 5702,
      "anas": 5703,
      "anis": 5704,
      "cardo": 5705,
      "4099": 5706,
      "4051": 5707,
      "9947": 5708,
      "9997": 5709,
      "9926": 5710,
      "9962": 5711,
      "pedro": 5712,
      "8646": 5713,
      "8637": 5714,
      "8630": 5715,
      "4198": 5716,
      "4185": 5717,
      "4162": 5718,
      "forte": 5719,
      "eld": 5720,
      "elec": 5721,
      "ells": 5722,
      "4583": 5723,
      "4557": 5724,
      "4590": 5725,
      "4556": 5726,
      "4566": 5727,
      "4510": 5728,
      "9895": 5729,
      "9855": 5730,
      "9893": 5731,
      "1138": 5732,
      "1140": 5733,
      "1127": 5734,
      "1135": 5735,
      "1160": 5736,
      "1110": 5737,
      "4666": 5738,
      "0020": 5739,
      "8345": 5740,
      "8322": 5741,
      "8392": 5742,
      "chan": 5743,
      "2510": 5744,
      "2584": 5745,
      "2502": 5746,
      "2036": 5747,
      "2098": 5748,
      "2035": 5749,
      "2075": 5750,
      "5715": 5751,
      "5714": 5752,
      "ebe": 5753,
      "9195": 5754,
      "9135": 5755,
      "3142": 5756,
      "3103": 5757,
      "4790": 5758,
      "4761": 5759,
      "4760": 5760,
      "CCCF": 5761,
      "DDFA": 5762,
      "DDDA": 5763,
      "2236": 5764,
      "2225": 5765,
      "BACC": 5766,
      "9746": 5767,
      "9764": 5768,
      "9723": 5769,
      "todecor": 5770,
      "0691": 5771,
      "0627": 5772,
      "0612": 5773,
      "8781": 5774,
      "8768": 5775,
      "3725": 5776,
      "3771": 5777,
      "mia": 5778,
      "8545": 5779,
      "8551": 5780,
      "mez": 5781,
      "9621": 5782,
      "9608": 5783,
      "2780": 5784,
      "2786": 5785,
      "2741": 5786,
      "2766": 5787,
      "2636": 5788,
      "2656": 5789,
      "EDFB": 5790,
      "EDBA": 5791,
      "9580": 5792,
      "9538": 5793,
      "9586": 5794,
      "9593": 5795,
      "ils": 5796,
      "3583": 5797,
      "3520": 5798,
      "3554": 5799,
      "FAl": 5800,
      "FAs": 5801,
      "FAFC": 5802,
      "2101": 5803,
      "2186": 5804,
      "FCDD": 5805,
      "FCBD": 5806,
      "8190": 5807,
      "3401": 5808,
      "3432": 5809,
      "6442": 5810,
      "EAFC": 5811,
      "EAEA": 5812,
      "EACF": 5813,
      "7140": 5814,
      "7106": 5815,
      "corp": 5816,
      "cortell": 5817,
      "corjet": 5818,
      "Reg": 5819,
      "3057": 5820,
      "3050": 5821,
      "DACE": 5822,
      "aciano": 5823,
      "worth": 5824,
      "FEBE": 5825,
      "ball": 5826,
      "vina": 5827,
      "vino": 5828,
      "ray": 5829,
      "cprint": 5830,
      "uelos": 5831,
      "ECDA": 5832,
      "3939": 5833,
      "3929": 5834,
      "5690": 5835,
      "AAAA": 5836,
      "AAEE": 5837,
      "BBBC": 5838,
      "EEBC": 5839,
      "sias": 5840,
      "6657": 5841,
      "6651": 5842,
      "6603": 5843,
      "CACC": 5844,
      "CADD": 5845,
      "FFFD": 5846,
      "5137": 5847,
      "4488": 5848,
      "9299": 5849,
      "9211": 5850,
      "9246": 5851,
      "9230": 5852,
      "CDEB": 5853,
      "CDEF": 5854,
      "EBEB": 5855,
      "5025": 5856,
      "5087": 5857,
      "5055": 5858,
      "EFFC": 5859,
      "CBEB": 5860,
      "6796": 5861,
      "0726": 5862,
      "0751": 5863,
      "0750": 5864,
      "9430": 5865,
      "oxyb": 5866,
      "Colo": 5867,
      "9322": 5868,
      "6026": 5869,
      "6051": 5870,
      "7797": 5871,
      "7775": 5872,
      "5220": 5873,
      "ABFA": 5874,
      "DBuv": 5875,
      "ACAA": 5876,
      "ACEB": 5877,
      "8495": 5878,
      "8940": 5879,
      "8946": 5880,
      "8927": 5881,
      "8926": 5882,
      "8935": 5883,
      "BECC": 5884,
      "1295": 5885,
      "1281": 5886,
      "4396": 5887,
      "AEED": 5888,
      "AFFB": 5889,
      "BFCC": 5890,
      "1542": 5891,
      "4926": 5892,
      "1680": 5893,
      "1635": 5894,
      "cea": 5895,
      "ceShop": 5896,
      "7580": 5897,
      "7545": 5898,
      "2857": 5899,
      "2446": 5900,
      "2497": 5901,
      "2337": 5902,
      "ultor": 5903,
      "ultravioleta": 5904,
      "6398": 5905,
      "6326": 5906,
      "5930": 5907,
      "7927": 5908,
      "6891": 5909,
      "6896": 5910,
      "6826": 5911,
      "1826": 5912,
      "mara": 5913,
      "7398": 5914,
      "0330": 5915,
      "0401": 5916,
      "ogsq": 5917,
      "Callejon": 5918,
      "version": 5919,
      "abana": 5920,
      "Qui": 5921,
      "chez": 5922,
      "adura": 5923,
      "rans": 5924,
      "Alta": 5925,
      "manzan": 5926,
      "Say": 5927,
      "heim": 5928,
      "fica": 5929,
      "Valenti": 5930,
      "Guar": 5931,
      "Mari": 5932,
      "Casa": 5933,
      "Sever": 5934,
      "AAAe": 5935,
      "4016": 5936,
      "aviera": 5937,
      "avilano": 5938,
      "hotel": 5939,
      "Montor": 5940,
      "lingo": 5941,
      "3267": 5942,
      "EECE": 5943,
      "5016": 5944,
      "CECD": 5945,
      "Camp": 5946,
      "FCCA": 5947,
      "Poma": 5948,
      "Zarzosa": 5949,
      "Luc": 5950,
      "AEDB": 5951,
      "mcca": 5952,
      "6074": 5953,
      "Soto": 5954,
      "garra": 5955,
      "Perio": 5956,
      "frie": 5957,
      "leria": 5958,
      "Ribes": 5959,
      "Ribera": 5960,
      "way": 5961,
      "Logo": 5962,
      "nett": 5963,
      "Fuentes": 5964,
      "Basket": 5965,
      "tric": 5966,
      "Clara": 5967,
      "JuiceShop": 5968,
      "npWtH": 5969,
      "logico": 5970,
      "mundo": 5971,
      "theroxyb": 5972,
      "Esteban": 5973,
      "professionalhost": 5974,
      "opel": 5975,
      "Mayor": 5976,
      "oftware": 5977,
      "Robledo": 5978,
      "Iglesias": 5979,
      "Arriba": 5980,
      "tgcprint": 5981,
      "comerciosdeaspe": 5982,
      "photodecor": 5983,
      "rooms": 5984,
      "Escultor": 5985,
      "lamola": 5986,
      "Fresno": 5987,
      "GkDBuv": 5988,
      "Yeltes": 5989,
      "instructions": 5990,
      "ogsqnpWtH": 5991,
      "theroxyblue": 5992,
      "ogsqnpWtHAAAe": 5993,
      "1001": 5994,
      "1877": 5995,
      "3470": 5996,
      "4457": 5997,
      "8466": 5998,
      "9805": 5999,
      "Amar": 6000,
      "Ana": 6001,
      "AFEE": 6002,
      "ABBE": 6003,
      "App": 6004,
      "BBAD": 6005,
      "BFCD": 6006,
      "Ces": 6007,
      "Cons": 6008,
      "Den": 6009,
      "DEBE": 6010,
      "DBBE": 6011,
      "EX": 6012,
      "Edi": 6013,
      "EBAB": 6014,
      "Flor": 6015,
      "Ker": 6016,
      "LO": 6017,
      "Log": 6018,
      "Min": 6019,
      "Mus": 6020,
      "Ot": 6021,
      "Pon": 6022,
      "Produc": 6023,
      "Padilla": 6024,
      "Sq": 6025,
      "Sin": 6026,
      "Sim": 6027,
      "Tap": 6028,
      "Var": 6029,
      "Vera": 6030,
      "Xo": 6031,
      "Zur": 6032,
      "ae": 6033,
      "alex": 6034,
      "aquin": 6035,
      "bin": 6036,
      "back": 6037,
      "bog": 6038,
      "cin": 6039,
      "ccion": 6040,
      "dus": 6041,
      "ele": 6042,
      "fk": 6043,
      "fri": 6044,
      "fau": 6045,
      "gw": 6046,
      "gel": 6047,
      "hog": 6048,
      "huela": 6049,
      "ire": 6050,
      "ici": 6051,
      "idad": 6052,
      "isa": 6053,
      "ires": 6054,
      "jun": 6055,
      "juela": 6056,
      "kos": 6057,
      "kal": 6058,
      "kat": 6059,
      "kul": 6060,
      "kis": 6061,
      "lep": 6062,
      "llos": 6063,
      "lora": 6064,
      "mn": 6065,
      "mt": 6066,
      "mtos": 6067,
      "mina": 6068,
      "mell": 6069,
      "mach": 6070,
      "pur": 6071,
      "sin": 6072,
      "sof": 6073,
      "twi": 6074,
      "thi": 6075,
      "tru": 6076,
      "uz": 6077,
      "ulla": 6078,
      "ueno": 6079,
      "vg": 6080,
      "vaj": 6081,
      "wat": 6082,
      "zos": 6083,
      "zin": 6084,
      "zona": 6085,
      "zquez": 6086,
      "onde": 6087,
      "tiva": 6088,
      "teres": 6089,
      "lap": 6090,
      "lari": 6091,
      "ench": 6092,
      "encio": 6093,
      "core": 6094,
      "coch": 6095,
      "lit": 6096,
      "ligan": 6097,
      "cab": 6098,
      "capa": 6099,
      "camb": 6100,
      "acere": 6101,
      "xta": 6102,
      "ery": 6103,
      "deliver": 6104,
      "8001": 6105,
      "8027": 6106,
      "8007": 6107,
      "8054": 6108,
      "agel": 6109,
      "lome": 6110,
      "lobar": 6111,
      "leja": 6112,
      "uste": 6113,
      "llares": 6114,
      "quena": 6115,
      "eto": 6116,
      "ars": 6117,
      "arde": 6118,
      "rea": 6119,
      "mbo": 6120,
      "dip": 6121,
      "diag": 6122,
      "dier": 6123,
      "dilla": 6124,
      "digo": 6125,
      "dista": 6126,
      "gida": 6127,
      "0137": 6128,
      "0170": 6129,
      "0144": 6130,
      "0163": 6131,
      "ntra": 6132,
      "rous": 6133,
      "esis": 6134,
      "esmer": 6135,
      "ssing": 6136,
      "alta": 6137,
      "rig": 6138,
      "rillo": 6139,
      "3857": 6140,
      "3884": 6141,
      "3854": 6142,
      "4240": 6143,
      "4206": 6144,
      "4226": 6145,
      "4244": 6146,
      "4267": 6147,
      "mol": 6148,
      "1764": 6149,
      "1755": 6150,
      "1767": 6151,
      "17853": 6152,
      "3657": 6153,
      "3690": 6154,
      "3632": 6155,
      "3615": 6156,
      "3679": 6157,
      "ane": 6158,
      "anne": 6159,
      "urin": 6160,
      "dou": 6161,
      "4046": 6162,
      "4037": 6163,
      "4085": 6164,
      "4035": 6165,
      "4033": 6166,
      "atApp": 6167,
      "9955": 6168,
      "9968": 6169,
      "8606": 6170,
      "8695": 6171,
      "8623": 6172,
      "8654": 6173,
      "4157": 6174,
      "4106": 6175,
      "4148": 6176,
      "4538": 6177,
      "4599": 6178,
      "4525": 6179,
      "4522": 6180,
      "4570": 6181,
      "4509": 6182,
      "4578": 6183,
      "9836": 6184,
      "9872": 6185,
      "1195": 6186,
      "1152": 6187,
      "4601": 6188,
      "4631": 6189,
      "4662": 6190,
      "aso": 6191,
      "0025": 6192,
      "0050": 6193,
      "8346": 6194,
      "8391": 6195,
      "8347": 6196,
      "8335": 6197,
      "8355": 6198,
      "8351": 6199,
      "chs": 6200,
      "chel": 6201,
      "challenge": 6202,
      "2591": 6203,
      "2595": 6204,
      "2548": 6205,
      "2518": 6206,
      "nio": 6207,
      "2042": 6208,
      "2071": 6209,
      "2070": 6210,
      "2061": 6211,
      "5757": 6212,
      "5737": 6213,
      "5761": 6214,
      "9197": 6215,
      "9155": 6216,
      "FBFA": 6217,
      "FBBB": 6218,
      "3159": 6219,
      "4725": 6220,
      "4771": 6221,
      "4770": 6222,
      "4715": 6223,
      "CCCA": 6224,
      "CCAC": 6225,
      "DDAA": 6226,
      "DDDE": 6227,
      "2240": 6228,
      "2290": 6229,
      "2239": 6230,
      "2219": 6231,
      "BABA": 6232,
      "BAFD": 6233,
      "BAAA": 6234,
      "BACA": 6235,
      "BAAB": 6236,
      "9741": 6237,
      "9722": 6238,
      "9706": 6239,
      "9732": 6240,
      "tom": 6241,
      "iol": 6242,
      "0630": 6243,
      "06001": 6244,
      "8797": 6245,
      "8734": 6246,
      "8748": 6247,
      "8789": 6248,
      "3741": 6249,
      "3748": 6250,
      "miran": 6251,
      "mith": 6252,
      "8540": 6253,
      "8547": 6254,
      "8567": 6255,
      "8561": 6256,
      "8552": 6257,
      "8515": 6258,
      "9620": 6259,
      "9671": 6260,
      "2783": 6261,
      "2781": 6262,
      "2748": 6263,
      "2670": 6264,
      "carrillo": 6265,
      "9532": 6266,
      "9567": 6267,
      "illos": 6268,
      "3599": 6269,
      "3525": 6270,
      "3550": 6271,
      "3528": 6272,
      "FAEF": 6273,
      "FAAB": 6274,
      "FACF": 6275,
      "2157": 6276,
      "2156": 6277,
      "2162": 6278,
      "2165": 6279,
      "2102": 6280,
      "FCAA": 6281,
      "8157": 6282,
      "8126": 6283,
      "8156": 6284,
      "8166": 6285,
      "8153": 6286,
      "3440": 6287,
      "3441": 6288,
      "3445": 6289,
      "3497": 6290,
      "3439": 6291,
      "6496": 6292,
      "EAFE": 6293,
      "EAFD": 6294,
      "EACE": 6295,
      "cortin": 6296,
      "Redon": 6297,
      "9036": 6298,
      "9098": 6299,
      "9056": 6300,
      "9094": 6301,
      "3075": 6302,
      "DACB": 6303,
      "FEFB": 6304,
      "FEBA": 6305,
      "rado": 6306,
      "8297": 6307,
      "8281": 6308,
      "BCFA": 6309,
      "BCDA": 6310,
      "uey": 6311,
      "ueca": 6312,
      "uevo": 6313,
      "FDBB": 6314,
      "ECBE": 6315,
      "ECDF": 6316,
      "3930": 6317,
      "5699": 6318,
      "5637": 6319,
      "5630": 6320,
      "5652": 6321,
      "AAEF": 6322,
      "AAAF": 6323,
      "BBEB": 6324,
      "5546": 6325,
      "5551": 6326,
      "5592": 6327,
      "Godo": 6328,
      "EEBD": 6329,
      "sitienes": 6330,
      "3200": 6331,
      "3230": 6332,
      "3244": 6333,
      "3294": 6334,
      "CAFB": 6335,
      "CAED": 6336,
      "CAFE": 6337,
      "CAEC": 6338,
      "CACB": 6339,
      "FFFB": 6340,
      "CDCA": 6341,
      "5057": 6342,
      "5070": 6343,
      "5029": 6344,
      "50296": 6345,
      "EFDA": 6346,
      "6766": 6347,
      "6137": 6348,
      "6121": 6349,
      "0767": 6350,
      "3340": 6351,
      "3346": 6352,
      "3320": 6353,
      "3321": 6354,
      "3339": 6355,
      "8841": 6356,
      "8825": 6357,
      "8887": 6358,
      "9435": 6359,
      "vich": 6360,
      "Comer": 6361,
      "Codigo": 6362,
      "9380": 6363,
      "9398": 6364,
      "6092": 6365,
      "7741": 6366,
      "DCBB": 6367,
      "well": 6368,
      "gocio": 6369,
      "gold": 6370,
      "goatApp": 6371,
      "stina": 6372,
      "task": 6373,
      "CEBA": 6374,
      "wdsl": 6375,
      "8938": 6376,
      "BEFC": 6377,
      "BEFD": 6378,
      "1234": 6379,
      "6520": 6380,
      "6547": 6381,
      "6506": 6382,
      "6590": 6383,
      "6548": 6384,
      "AEEA": 6385,
      "CFED": 6386,
      "DFCC": 6387,
      "DFED": 6388,
      "BFFD": 6389,
      "1599": 6390,
      "1547": 6391,
      "1587": 6392,
      "4933": 6393,
      "1631": 6394,
      "1606": 6395,
      "0598": 6396,
      "0500": 6397,
      "0597": 6398,
      "2901": 6399,
      "2930": 6400,
      "7491": 6401,
      "cement": 6402,
      "7626": 6403,
      "7599": 6404,
      "2842": 6405,
      "2821": 6406,
      "2495": 6407,
      "2435": 6408,
      "5846": 6409,
      "5887": 6410,
      "5301": 6411,
      "5317": 6412,
      "5337": 6413,
      "5335": 6414,
      "5920": 6415,
      "5906": 6416,
      "5939": 6417,
      "1306": 6418,
      "1335": 6419,
      "6838": 6420,
      "1440": 6421,
      "1437": 6422,
      "7290": 6423,
      "1840": 6424,
      "7825": 6425,
      "7301": 6426,
      "1931": 6427,
      "0887": 6428,
      "0892": 6429,
      "0417": 6430,
      "ture": 6431,
      "zara": 6432,
      "first": 6433,
      "abar": 6434,
      "ados": 6435,
      "Almen": 6436,
      "valo": 6437,
      "guera": 6438,
      "soyb": 6439,
      "gation": 6440,
      "Barrio": 6441,
      "bao": 6442,
      "Vallb": 6443,
      "Casta": 6444,
      "Cho": 6445,
      "Rober": 6446,
      "Segura": 6447,
      "thBypass": 6448,
      "jwt": 6449,
      "webtienes": 6450,
      "4019": 6451,
      "Fronte": 6452,
      "respon": 6453,
      "Villava": 6454,
      "Villalba": 6455,
      "njection": 6456,
      "Santo": 6457,
      "torio": 6458,
      "pou": 6459,
      "Esco": 6460,
      "Espa": 6461,
      "3418": 6462,
      "4400": 6463,
      "8974": 6464,
      "BEAA": 6465,
      "EECF": 6466,
      "4353": 6467,
      "Toro": 6468,
      "9115": 6469,
      "kaz": 6470,
      "ECCB": 6471,
      "ECCC": 6472,
      "EFAA": 6473,
      "EFAE": 6474,
      "4423": 6475,
      "EEDE": 6476,
      "bareback": 6477,
      "9214": 6478,
      "BCCC": 6479,
      "BCCD": 6480,
      "lind": 6481,
      "3204": 6482,
      "FCCE": 6483,
      "3992": 6484,
      "EBCD": 6485,
      "Pola": 6486,
      "hum": 6487,
      "ander": 6488,
      "DCCF": 6489,
      "DCAD": 6490,
      "ADDB": 6491,
      "Enc": 6492,
      "piacere": 6493,
      "0385": 6494,
      "Palma": 6495,
      "ders": 6496,
      "DECD": 6497,
      "DECE": 6498,
      "enice": 6499,
      "grim": 6500,
      "chao": 6501,
      "Jaime": 6502,
      "Rafa": 6503,
      "0943": 6504,
      "quiza": 6505,
      "Riba": 6506,
      "aguda": 6507,
      "denas": 6508,
      "Piquer": 6509,
      "juice": 6510,
      "travel": 6511,
      "estre": 6512,
      "illas": 6513,
      "Berto": 6514,
      "Cervera": 6515,
      "gratis": 6516,
      "ixa": 6517,
      "Pedrosa": 6518,
      "Urban": 6519,
      "bregat": 6520,
      "Masia": 6521,
      "Ferran": 6522,
      "musrooms": 6523,
      "fredo": 6524,
      "erasmusrooms": 6525,
      "Aldea": 6526,
      "euro": 6527,
      "AuthBypass": 6528,
      "Capella": 6529,
      "Fray": 6530,
      "Llobregat": 6531,
      "chung": 6532,
      "dolfo": 6533,
      "Fabri": 6534,
      "87167078": 6535,
      "Escritor": 6536,
      "Cuesta": 6537,
      "salaparis": 6538,
      "Fernando": 6539,
      "Fernandez": 6540,
      "lInjection": 6541,
      "locale": 6542,
      "Ronda": 6543,
      "Amine": 6544,
      "maxtienda": 6545,
      "showcars": 6546,
      "Muntan": 6547,
      "Clodo": 6548,
      "Shazm": 6549,
      "copiar": 6550,
      "rocofer": 6551,
      "velocidad": 6552,
      "unawebtienes": 6553,
      "abernero": 6554,
      "unnegocio": 6555,
      "Francino": 6556,
      "Jaume": 6557,
      "SqlInjection": 6558,
      "zonamodelos": 6559,
      "delivery": 6560,
      "cortinas": 6561,
      "sitienesunawebtienes": 6562,
      "cementos": 6563,
      "soybueno": 6564,
      "Frontera": 6565,
      "respond": 6566,
      "piaceredelivery": 6567,
      "871670788593": 6568,
      "sitienesunawebtienesunnegocio": 6569,
      "0360": 6570,
      "0800": 6571,
      "3466": 6572,
      "3471": 6573,
      "3394": 6574,
      "4177": 6575,
      "5805": 6576,
      "6837": 6577,
      "7367": 6578,
      "7837": 6579,
      "7007": 6580,
      "8461": 6581,
      "8451": 6582,
      "8837": 6583,
      "Ave": 6584,
      "ABAB": 6585,
      "Aum": 6586,
      "Alex": 6587,
      "Bj": 6588,
      "Ban": 6589,
      "Bat": 6590,
      "Bol": 6591,
      "BFFF": 6592,
      "CO": 6593,
      "Cie": 6594,
      "CBCA": 6595,
      "CFAA": 6596,
      "CFBA": 6597,
      "CSRF": 6598,
      "Costa": 6599,
      "DI": 6600,
      "Dz": 6601,
      "DFEC": 6602,
      "DFAA": 6603,
      "Ev": 6604,
      "EEAA": 6605,
      "EFEE": 6606,
      "EFBD": 6607,
      "Ezama": 6608,
      "Fan": 6609,
      "FFBE": 6610,
      "FFEF": 6611,
      "Gue": 6612,
      "Gam": 6613,
      "HQ": 6614,
      "He": 6615,
      "Hk": 6616,
      "Hil": 6617,
      "Hsf": 6618,
      "Ix": 6619,
      "Idef": 6620,
      "Ino": 6621,
      "Isid": 6622,
      "JM": 6623,
      "Jan": 6624,
      "KQ": 6625,
      "Kv": 6626,
      "KBj": 6627,
      "Lh": 6628,
      "Lic": 6629,
      "Mlo": 6630,
      "Mata": 6631,
      "Nte": 6632,
      "Nore": 6633,
      "Ola": 6634,
      "Oca": 6635,
      "Ost": 6636,
      "Pur": 6637,
      "QDA": 6638,
      "RI": 6639,
      "RU": 6640,
      "Rep": 6641,
      "Rus": 6642,
      "Rbj": 6643,
      "Sau": 6644,
      "Stor": 6645,
      "TK": 6646,
      "Tz": 6647,
      "Tub": 6648,
      "Tru": 6649,
      "Tres": 6650,
      "TjP": 6651,
      "TpI": 6652,
      "UJM": 6653,
      "Vh": 6654,
      "Vin": 6655,
      "VtZ": 6656,
      "Wil": 6657,
      "Whk": 6658,
      "XE": 6659,
      "Xgq": 6660,
      "XXE": 6661,
      "YJi": 6662,
      "anton": 6663,
      "ange": 6664,
      "bad": 6665,
      "bol": 6666,
      "bili": 6667,
      "bano": 6668,
      "bYM": 6669,
      "bWhk": 6670,
      "cus": 6671,
      "cra": 6672,
      "din": 6673,
      "due": 6674,
      "dori": 6675,
      "dtu": 6676,
      "dena": 6677,
      "fE": 6678,
      "fly": 6679,
      "fern": 6680,
      "gt": 6681,
      "garr": 6682,
      "gadas": 6683,
      "hur": 6684,
      "hab": 6685,
      "ian": 6686,
      "igo": 6687,
      "iga": 6688,
      "jue": 6689,
      "jera": 6690,
      "jano": 6691,
      "josa": 6692,
      "jillo": 6693,
      "kim": 6694,
      "lk": 6695,
      "mq": 6696,
      "mur": 6697,
      "nor": 6698,
      "nar": 6699,
      "nnl": 6700,
      "oR": 6701,
      "ou": 6702,
      "ocal": 6703,
      "oiLCJ": 6704,
      "oVa": 6705,
      "psy": 6706,
      "qc": 6707,
      "qKBj": 6708,
      "rA": 6709,
      "sub": 6710,
      "sas": 6711,
      "tl": 6712,
      "tam": 6713,
      "uo": 6714,
      "ution": 6715,
      "uto": 6716,
      "ucG": 6717,
      "vp": 6718,
      "vall": 6719,
      "vara": 6720,
      "vento": 6721,
      "vnz": 6722,
      "wn": 6723,
      "wx": 6724,
      "wes": 6725,
      "water": 6726,
      "xia": 6727,
      "xKv": 6728,
      "yle": 6729,
      "ynes": 6730,
      "yVh": 6731,
      "zen": 6732,
      "zzi": 6733,
      "onents": 6734,
      "tico": 6735,
      "ticor": 6736,
      "teo": 6737,
      "tegui": 6738,
      "telogi": 6739,
      "lay": 6740,
      "lado": 6741,
      "ende": 6742,
      "enga": 6743,
      "cop": 6744,
      "liti": 6745,
      "limi": 6746,
      "liano": 6747,
      "ossa": 6748,
      "cano": 6749,
      "inn": 6750,
      "inte": 6751,
      "acch": 6752,
      "erre": 6753,
      "deca": 6754,
      "deux": 6755,
      "dear": 6756,
      "deil": 6757,
      "apala": 6758,
      "8086": 6759,
      "8087": 6760,
      "8048": 6761,
      "8094": 6762,
      "8075": 6763,
      "ngu": 6764,
      "dani": 6765,
      "dante": 6766,
      "led": 6767,
      "lev": 6768,
      "levi": 6769,
      "lejos": 6770,
      "uss": 6771,
      "pat": 6772,
      "pala": 6773,
      "calle": 6774,
      "llanos": 6775,
      "kows": 6776,
      "neces": 6777,
      "nusername": 6778,
      "quader": 6779,
      "digi": 6780,
      "0156": 6781,
      "0151": 6782,
      "0167": 6783,
      "0160": 6784,
      "0104": 6785,
      "ese": 6786,
      "alu": 6787,
      "allo": 6788,
      "aldu": 6789,
      "rilla": 6790,
      "3836": 6791,
      "3846": 6792,
      "3897": 6793,
      "3834": 6794,
      "3812": 6795,
      "3878": 6796,
      "4242": 6797,
      "4241": 6798,
      "4291": 6799,
      "4266": 6800,
      "4265": 6801,
      "4276": 6802,
      "4253": 6803,
      "4269": 6804,
      "1742": 6805,
      "1741": 6806,
      "1720": 6807,
      "1757": 6808,
      "1791": 6809,
      "1706": 6810,
      "1771": 6811,
      "1750": 6812,
      "1707": 6813,
      "3631": 6814,
      "3606": 6815,
      "3685": 6816,
      "3655": 6817,
      "3666": 6818,
      "3684": 6819,
      "3616": 6820,
      "3674": 6821,
      "36101": 6822,
      "3658": 6823,
      "urr": 6824,
      "4038": 6825,
      "4030": 6826,
      "4067": 6827,
      "4054": 6828,
      "atri": 6829,
      "nom": 6830,
      "9940": 6831,
      "9935": 6832,
      "peines": 6833,
      "ginet": 6834,
      "8645": 6835,
      "8611": 6836,
      "8635": 6837,
      "8621": 6838,
      "8629": 6839,
      "8679": 6840,
      "8672": 6841,
      "4180": 6842,
      "4131": 6843,
      "4135": 6844,
      "4181": 6845,
      "4166": 6846,
      "4109": 6847,
      "fore": 6848,
      "ely": 6849,
      "elda": 6850,
      "4517": 6851,
      "4500": 6852,
      "4520": 6853,
      "4591": 6854,
      "4506": 6855,
      "4535": 6856,
      "4523": 6857,
      "4502": 6858,
      "9897": 6859,
      "9827": 6860,
      "1136": 6861,
      "1157": 6862,
      "1187": 6863,
      "1161": 6864,
      "1165": 6865,
      "1102": 6866,
      "4617": 6867,
      "4611": 6868,
      "4622": 6869,
      "4656": 6870,
      "ashi": 6871,
      "asteres": 6872,
      "0045": 6873,
      "0006": 6874,
      "0027": 6875,
      "0051": 6876,
      "8317": 6877,
      "8395": 6878,
      "8390": 6879,
      "8359": 6880,
      "entura": 6881,
      "chap": 6882,
      "2590": 6883,
      "2550": 6884,
      "2507": 6885,
      "2577": 6886,
      "2569": 6887,
      "nideil": 6888,
      "2022": 6889,
      "2060": 6890,
      "2068": 6891,
      "5798": 6892,
      "5787": 6893,
      "5795": 6894,
      "5793": 6895,
      "eba": 6896,
      "9142": 6897,
      "9157": 6898,
      "9106": 6899,
      "9152": 6900,
      "FBBD": 6901,
      "FBFF": 6902,
      "FBBE": 6903,
      "3141": 6904,
      "3122": 6905,
      "3185": 6906,
      "3126": 6907,
      "3195": 6908,
      "3190": 6909,
      "3192": 6910,
      "3188": 6911,
      "3160": 6912,
      "4740": 6913,
      "4710": 6914,
      "4723": 6915,
      "4759": 6916,
      "4779": 6917,
      "CCEA": 6918,
      "CCDE": 6919,
      "DDEE": 6920,
      "DDEB": 6921,
      "DDCE": 6922,
      "2291": 6923,
      "2293": 6924,
      "2265": 6925,
      "BAEA": 6926,
      "BADA": 6927,
      "BABC": 6928,
      "BACF": 6929,
      "9738": 6930,
      "9798": 6931,
      "9783": 6932,
      "9774": 6933,
      "0636": 6934,
      "0652": 6935,
      "8788": 6936,
      "8704": 6937,
      "3706": 6938,
      "3790": 6939,
      "3755": 6940,
      "3792": 6941,
      "3769": 6942,
      "mich": 6943,
      "8599": 6944,
      "8521": 6945,
      "8534": 6946,
      "85101": 6947,
      "medi": 6948,
      "9699": 6949,
      "9622": 6950,
      "9626": 6951,
      "9667": 6952,
      "9661": 6953,
      "9643": 6954,
      "9654": 6955,
      "2722": 6956,
      "2737": 6957,
      "2726": 6958,
      "2777": 6959,
      "2718": 6960,
      "2680": 6961,
      "2641": 6962,
      "2620": 6963,
      "2631": 6964,
      "2689": 6965,
      "2613": 6966,
      "EDBD": 6967,
      "1429": 6968,
      "9507": 6969,
      "9508": 6970,
      "3539": 6971,
      "3552": 6972,
      "FABB": 6973,
      "FAAC": 6974,
      "FACE": 6975,
      "2196": 6976,
      "2161": 6977,
      "2103": 6978,
      "FCBA": 6979,
      "FCDE": 6980,
      "8147": 6981,
      "8130": 6982,
      "8151": 6983,
      "8152": 6984,
      "8143": 6985,
      "3495": 6986,
      "3481": 6987,
      "3430": 6988,
      "6497": 6989,
      "jpo": 6990,
      "EADD": 6991,
      "EAFA": 6992,
      "EAAA": 6993,
      "7184": 6994,
      "Rei": 6995,
      "Reina": 6996,
      "9041": 6997,
      "9083": 6998,
      "9037": 6999,
      "9032": 7000,
      "9054": 7001,
      "9079": 7002,
      "3059": 7003,
      "DABA": 7004,
      "DAEC": 7005,
      "DABF": 7006,
      "adillo": 7007,
      "raf": 7008,
      "8298": 7009,
      "BCFC": 7010,
      "BCFE": 7011,
      "BCBC": 7012,
      "BCEB": 7013,
      "7077": 7014,
      "uez": 7015,
      "FDFD": 7016,
      "FDCA": 7017,
      "FDBE": 7018,
      "ECED": 7019,
      "ECBC": 7020,
      "3937": 7021,
      "5636": 7022,
      "5645": 7023,
      "5697": 7024,
      "5671": 7025,
      "5656": 7026,
      "5667": 7027,
      "AACD": 7028,
      "AAAB": 7029,
      "AACE": 7030,
      "BBDC": 7031,
      "5176": 7032,
      "5586": 7033,
      "5595": 7034,
      "5564": 7035,
      "5530": 7036,
      "5515": 7037,
      "BDFE": 7038,
      "BDCD": 7039,
      "EEDD": 7040,
      "EEBA": 7041,
      "EEBB": 7042,
      "sito": 7043,
      "3242": 7044,
      "3287": 7045,
      "6687": 7046,
      "6676": 7047,
      "6654": 7048,
      "CACA": 7049,
      "CABE": 7050,
      "5136": 7051,
      "5121": 7052,
      "5166": 7053,
      "4436": 7054,
      "4446": 7055,
      "4482": 7056,
      "9280": 7057,
      "9298": 7058,
      "9243": 7059,
      "CDCC": 7060,
      "CDFD": 7061,
      "CDBE": 7062,
      "EBED": 7063,
      "EBFC": 7064,
      "EBFD": 7065,
      "5046": 7066,
      "5083": 7067,
      "5085": 7068,
      "5076": 7069,
      "EFFD": 7070,
      "CBFB": 7071,
      "CBEF": 7072,
      "4822": 7073,
      "48440": 7074,
      "6701": 7075,
      "6769": 7076,
      "bren": 7077,
      "bret": 7078,
      "6130": 7079,
      "6166": 7080,
      "0747": 7081,
      "0785": 7082,
      "0770": 7083,
      "3398": 7084,
      "3306": 7085,
      "3327": 7086,
      "3390": 7087,
      "8880": 7088,
      "8886": 7089,
      "8811": 7090,
      "9497": 7091,
      "9437": 7092,
      "9481": 7093,
      "viano": 7094,
      "veh": 7095,
      "veo": 7096,
      "Coma": 7097,
      "2017": 7098,
      "identi": 7099,
      "ADFB": 7100,
      "9301": 7101,
      "9334": 7102,
      "6027": 7103,
      "7700": 7104,
      "5244": 7105,
      "DCEF": 7106,
      "DCnnl": 7107,
      "DBFB": 7108,
      "ACFA": 7109,
      "ACDA": 7110,
      "1052": 7111,
      "8401": 7112,
      "8486": 7113,
      "8441": 7114,
      "8496": 7115,
      "8435": 7116,
      "6211": 7117,
      "6225": 7118,
      "6281": 7119,
      "stica": 7120,
      "CEDD": 7121,
      "4341": 7122,
      "4320": 7123,
      "6580": 7124,
      "6537": 7125,
      "DEFA": 7126,
      "CFDA": 7127,
      "CJEX": 7128,
      "AFEA": 7129,
      "1544": 7130,
      "4906": 7131,
      "MTd": 7132,
      "0538": 7133,
      "0599": 7134,
      "2946": 7135,
      "2922": 7136,
      "2937": 7137,
      "7417": 7138,
      "cedo": 7139,
      "7641": 7140,
      "7657": 7141,
      "7637": 7142,
      "7684": 7143,
      "7500": 7144,
      "7557": 7145,
      "2338": 7146,
      "2345": 7147,
      "2320": 7148,
      "2396": 7149,
      "2390": 7150,
      "amarta": 7151,
      "5841": 7152,
      "hili": 7153,
      "5357": 7154,
      "6320": 7155,
      "5447": 7156,
      "7926": 7157,
      "6887": 7158,
      "7240": 7159,
      "1857": 7160,
      "1881": 7161,
      "0900": 7162,
      "0921": 7163,
      "7840": 7164,
      "0287": 7165,
      "0295": 7166,
      "7395": 7167,
      "1926": 7168,
      "6906": 7169,
      "6934": 7170,
      "0399": 7171,
      "0396": 7172,
      "MzI": 7173,
      "0485": 7174,
      "0496": 7175,
      "portugal": 7176,
      "ofre": 7177,
      "zada": 7178,
      "fant": 7179,
      "hangar": 7180,
      "adra": 7181,
      "LjQz": 7182,
      "taka": 7183,
      "Alonso": 7184,
      "Jun": 7185,
      "Arc": 7186,
      "gues": 7187,
      "delvo": 7188,
      "Barto": 7189,
      "Barba": 7190,
      "Barbi": 7191,
      "fila": 7192,
      "bay": 7193,
      "johan": 7194,
      "Guil": 7195,
      "Marginet": 7196,
      "Sanch": 7197,
      "sexta": 7198,
      "Nao": 7199,
      "Roque": 7200,
      "thie": 7201,
      "webs": 7202,
      "kqgU": 7203,
      "4013": 7204,
      "ilio": 7205,
      "resort": 7206,
      "avid": 7207,
      "Eula": 7208,
      "njQz": 7209,
      "lude": 7210,
      "bella": 7211,
      "betis": 7212,
      "MjMucG": 7213,
      "3807": 7214,
      "CXdtu": 7215,
      "EDades": 7216,
      "AxOj": 7217,
      "HOms": 7218,
      "3273": 7219,
      "43746": 7220,
      "8116": 7221,
      "MFoiLCJ": 7222,
      "Torr": 7223,
      "9421": 7224,
      "9273": 7225,
      "itali": 7226,
      "idas": 7227,
      "2999": 7228,
      "Corteg": 7229,
      "4464": 7230,
      "FDAC": 7231,
      "FDAD": 7232,
      "AFBB": 7233,
      "9063": 7234,
      "EEAF": 7235,
      "ElXo": 7236,
      "4964": 7237,
      "5566": 7238,
      "OjU": 7239,
      "OjIx": 7240,
      "OjAxOj": 7241,
      "lanes": 7242,
      "1914": 7243,
      "EBCE": 7244,
      "FDDD": 7245,
      "Delu": 7246,
      "culares": 7247,
      "BDDD": 7248,
      "FEDA": 7249,
      "bidea": 7250,
      "hung": 7251,
      "5970": 7252,
      "9413": 7253,
      "ADAC": 7254,
      "ADAF": 7255,
      "1272": 7256,
      "0864": 7257,
      "BBAC": 7258,
      "5573": 7259,
      "Anan": 7260,
      "ImFzc": 7261,
      "1852": 7262,
      "9479": 7263,
      "Plana": 7264,
      "8875": 7265,
      "EIGa": 7266,
      "pita": 7267,
      "AECB": 7268,
      "5202": 7269,
      "ABCE": 7270,
      "setup": 7271,
      "Cani": 7272,
      "Candela": 7273,
      "Palmas": 7274,
      "7998": 7275,
      "Castellanos": 7276,
      "loral": 7277,
      "CBAC": 7278,
      "Damisa": 7279,
      "enido": 7280,
      "eniero": 7281,
      "0996": 7282,
      "EFDE": 7283,
      "grat": 7284,
      "Pujol": 7285,
      "Solano": 7286,
      "Jazm": 7287,
      "6385": 7288,
      "Fjon": 7289,
      "UwLjM": 7290,
      "2888": 7291,
      "agua": 7292,
      "aguer": 7293,
      "chot": 7294,
      "Albida": 7295,
      "Garro": 7296,
      "Garabana": 7297,
      "Belar": 7298,
      "Cabeza": 7299,
      "lett": 7300,
      "lette": 7301,
      "reras": 7302,
      "estar": 7303,
      "erife": 7304,
      "Buen": 7305,
      "siones": 7306,
      "Astor": 7307,
      "esado": 7308,
      "Frances": 7309,
      "ries": 7310,
      "arias": 7311,
      "Pinar": 7312,
      "Yazm": 7313,
      "Montamarta": 7314,
      "hZHMvMjMucG": 7315,
      "musculares": 7316,
      "mitj": 7317,
      "Free": 7318,
      "Olmos": 7319,
      "imiento": 7320,
      "Angel": 7321,
      "gatY": 7322,
      "odep": 7323,
      "Gian": 7324,
      "magritte": 7325,
      "Crist": 7326,
      "ynxKv": 7327,
      "holbrook": 7328,
      "kpLh": 7329,
      "nosticor": 7330,
      "Llobet": 7331,
      "Quintan": 7332,
      "kwok": 7333,
      "informatica": 7334,
      "Jorge": 7335,
      "Romero": 7336,
      "Gasull": 7337,
      "Bernat": 7338,
      "Change": 7339,
      "Ingeniero": 7340,
      "xejP": 7341,
      "suncorp": 7342,
      "adiologico": 7343,
      "velacons": 7344,
      "CrossSiteScriptingStor": 7345,
      "include": 7346,
      "santacruz": 7347,
      "creacionwebs": 7348,
      "Tenerife": 7349,
      "Ginette": 7350,
      "nacionales": 7351,
      "cpanelweb": 7352,
      "noviasteres": 7353,
      "braltar": 7354,
      "ajuntamentdebarcelona": 7355,
      "Arquitecto": 7356,
      "Melqu": 7357,
      "ohwx": 7358,
      "cirugi": 7359,
      "pearl": 7360,
      "todobetis": 7361,
      "Components": 7362,
      "Rodriguez": 7363,
      "Galatas": 7364,
      "ZEVtZ": 7365,
      "engibraltar": 7366,
      "ultores": 7367,
      "Periodista": 7368,
      "diagnosticor": 7369,
      "Godoy": 7370,
      "HQK": 7371,
      "Hkvnz": 7372,
      "Idefonsa": 7373,
      "KQjpo": 7374,
      "MloiLCJ": 7375,
      "QDAynxKv": 7376,
      "Rbjvp": 7377,
      "Tzt": 7378,
      "TpIEIGa": 7379,
      "UJMKQjpo": 7380,
      "XgqX": 7381,
      "YJiAum": 7382,
      "bWhkTzt": 7383,
      "oVakqgU": 7384,
      "qKBjTK": 7385,
      "yVhXgqX": 7386,
      "telogis": 7387,
      "apalacios": 7388,
      "necesito": 7389,
      "quadernideil": 7390,
      "DCnnlgatY": 7391,
      "CJEXRbjvp": 7392,
      "LjQzMloiLCJ": 7393,
      "delvoto": 7394,
      "Barbieri": 7395,
      "njQzUJMKQjpo": 7396,
      "CXdtuHkvnz": 7397,
      "HOmsqKBjTK": 7398,
      "MFoiLCJkZWxldGVkQXQiOm": 7399,
      "ElXoYJiAum": 7400,
      "OjIxLjQzMloiLCJ": 7401,
      "OjAxOjUwLjM": 7402,
      "kpLhjs": 7403,
      "xejPDCnnlgatY": 7404,
      "velaconsultores": 7405,
      "CrossSiteScriptingStored": 7406,
      "santacruzdelvoto": 7407,
      "noviasteresapalacios": 7408,
      "diagnosticoradiologico": 7409,
      "QDAynxKvI": 7410,
      "quadernideilgarda": 7411,
      "CXdtuHkvnzh": 7412,
      "-%": 7413,
      "0253": 7414,
      "2171": 7415,
      "2415": 7416,
      "3451": 7417,
      "3251": 7418,
      "4461": 7419,
      "5834": 7420,
      "6517": 7421,
      "6361": 7422,
      "6871": 7423,
      "6310": 7424,
      "8872": 7425,
      "8877": 7426,
      "8800": 7427,
      "9477": 7428,
      "=*": 7429,
      "Ati": 7430,
      "Ant": 7431,
      "Ama": 7432,
      "Avi": 7433,
      "AFCD": 7434,
      "AEAA": 7435,
      "AFFF": 7436,
      "Bus": 7437,
      "Bab": 7438,
      "Bena": 7439,
      "BFAD": 7440,
      "BFAB": 7441,
      "Cali": 7442,
      "Cir": 7443,
      "Cres": 7444,
      "CBAB": 7445,
      "CFEC": 7446,
      "CFAC": 7447,
      "CFCF": 7448,
      "CEBE": 7449,
      "CFDB": 7450,
      "CEEF": 7451,
      "CBBF": 7452,
      "CFBD": 7453,
      "CDDA": 7454,
      "Dos": 7455,
      "Die": 7456,
      "Dar": 7457,
      "DFBE": 7458,
      "DFCF": 7459,
      "Damas": 7460,
      "Emi": 7461,
      "EFCB": 7462,
      "EFDC": 7463,
      "Ful": 7464,
      "FEAA": 7465,
      "FFCE": 7466,
      "FFAF": 7467,
      "Gan": 7468,
      "Gald": 7469,
      "Gimi": 7470,
      "Herman": 7471,
      "Illa": 7472,
      "Insec": 7473,
      "Itur": 7474,
      "JW": 7475,
      "LA": 7476,
      "Lli": 7477,
      "Lara": 7478,
      "Llu": 7479,
      "Ming": 7480,
      "Mate": 7481,
      "Mall": 7482,
      "NO": 7483,
      "Nes": 7484,
      "Oliver": 7485,
      "Odelia": 7486,
      "Pri": 7487,
      "Pis": 7488,
      "Pont": 7489,
      "Sp": 7490,
      "Sat": 7491,
      "Tal": 7492,
      "Tau": 7493,
      "Uni": 7494,
      "Ull": 7495,
      "Vulner": 7496,
      "blu": 7497,
      "blind": 7498,
      "cO": 7499,
      "ction": 7500,
      "cies": 7501,
      "dI": 7502,
      "dur": 7503,
      "ev": 7504,
      "eco": 7505,
      "eRa": 7506,
      "evilla": 7507,
      "eum": 7508,
      "fm": 7509,
      "fono": 7510,
      "feld": 7511,
      "guri": 7512,
      "gru": 7513,
      "gwen": 7514,
      "hid": 7515,
      "hea": 7516,
      "hara": 7517,
      "hash": 7518,
      "hacia": 7519,
      "ii": 7520,
      "iv": 7521,
      "iri": 7522,
      "jA": 7523,
      "kh": 7524,
      "kie": 7525,
      "kir": 7526,
      "lE": 7527,
      "lz": 7528,
      "mpe": 7529,
      "mson": 7530,
      "nTE": 7531,
      "pn": 7532,
      "pie": 7533,
      "pir": 7534,
      "pun": 7535,
      "pic": 7536,
      "prest": 7537,
      "qU": 7538,
      "rina": 7539,
      "ragu": 7540,
      "sur": 7541,
      "sat": 7542,
      "sil": 7543,
      "softw": 7544,
      "smith": 7545,
      "tts": 7546,
      "uc": 7547,
      "ught": 7548,
      "udia": 7549,
      "vill": 7550,
      "xavi": 7551,
      "yi": 7552,
      "yers": 7553,
      "yfitness": 7554,
      "zw": 7555,
      "zy": 7556,
      "zz": 7557,
      "Ġidenti": 7558,
      "oni": 7559,
      "onda": 7560,
      "onio": 7561,
      "onis": 7562,
      "tig": 7563,
      "tit": 7564,
      "tili": 7565,
      "tint": 7566,
      "tini": 7567,
      "ticas": 7568,
      "tiuk": 7569,
      "tez": 7570,
      "tela": 7571,
      "teca": 7572,
      "tella": 7573,
      "envi": 7574,
      "enza": 7575,
      "enne": 7576,
      "encu": 7577,
      "cow": 7578,
      "coche": 7579,
      "coll": 7580,
      "lifa": 7581,
      "lita": 7582,
      "cala": 7583,
      "indi": 7584,
      "inci": 7585,
      "inless": 7586,
      "instein": 7587,
      "agas": 7588,
      "acu": 7589,
      "ziel": 7590,
      "erg": 7591,
      "erp": 7592,
      "erros": 7593,
      "erry": 7594,
      "dele": 7595,
      "develocidad": 7596,
      "apar": 7597,
      "apart": 7598,
      "8097": 7599,
      "8071": 7600,
      "8051": 7601,
      "8089": 7602,
      "8012": 7603,
      "8059": 7604,
      "8078": 7605,
      "defonso": 7606,
      "ory": 7607,
      "loc": 7608,
      "log": 7609,
      "lomar": 7610,
      "iello": 7611,
      "cones": 7612,
      "contro": 7613,
      "day": 7614,
      "leu": 7615,
      "pay": 7616,
      "pado": 7617,
      "lland": 7618,
      "quel": 7619,
      "arra": 7620,
      "rein": 7621,
      "real": 7622,
      "dientes": 7623,
      "city": 7624,
      "cill": 7625,
      "0198": 7626,
      "0120": 7627,
      "0135": 7628,
      "0164": 7629,
      "0190": 7630,
      "0116": 7631,
      "0105": 7632,
      "0175": 7633,
      "nta": 7634,
      "roc": 7635,
      "roi": 7636,
      "rol": 7637,
      "rola": 7638,
      "alc": 7639,
      "alth": 7640,
      "albor": 7641,
      "rius": 7642,
      "rigal": 7643,
      "3845": 7644,
      "3883": 7645,
      "3837": 7646,
      "3855": 7647,
      "3861": 7648,
      "3862": 7649,
      "4211": 7650,
      "4246": 7651,
      "4210": 7652,
      "4259": 7653,
      "4214": 7654,
      "4203": 7655,
      "moto": 7656,
      "motor": 7657,
      "1726": 7658,
      "1790": 7659,
      "1770": 7660,
      "1763": 7661,
      "1714": 7662,
      "1702": 7663,
      "1703": 7664,
      "3617": 7665,
      "3697": 7666,
      "3626": 7667,
      "3682": 7668,
      "3670": 7669,
      "3693": 7670,
      "anca": 7671,
      "anmotor": 7672,
      "ural": 7673,
      "domin": 7674,
      "caraz": 7675,
      "4001": 7676,
      "4000": 7677,
      "4057": 7678,
      "4031": 7679,
      "4077": 7680,
      "4089": 7681,
      "noffi": 7682,
      "9999": 7683,
      "9966": 7684,
      "9948": 7685,
      "9933": 7686,
      "petit": 7687,
      "8680": 7688,
      "8697": 7689,
      "8690": 7690,
      "8648": 7691,
      "8643": 7692,
      "8673": 7693,
      "4147": 7694,
      "4167": 7695,
      "4107": 7696,
      "4102": 7697,
      "4537": 7698,
      "4596": 7699,
      "4595": 7700,
      "4571": 7701,
      "4555": 7702,
      "4561": 7703,
      "4507": 7704,
      "4533": 7705,
      "4515": 7706,
      "4503": 7707,
      "450385": 7708,
      "9842": 7709,
      "9821": 7710,
      "9832": 7711,
      "9873": 7712,
      "1180": 7713,
      "1146": 7714,
      "1191": 7715,
      "1197": 7716,
      "1185": 7717,
      "1166": 7718,
      "1184": 7719,
      "1159": 7720,
      "4638": 7721,
      "4628": 7722,
      "0041": 7723,
      "0097": 7724,
      "0090": 7725,
      "0052": 7726,
      "8399": 7727,
      "8312": 7728,
      "8358": 7729,
      "entos": 7730,
      "ches": 7731,
      "chil": 7732,
      "chinas": 7733,
      "2580": 7734,
      "2525": 7735,
      "2597": 7736,
      "2587": 7737,
      "2585": 7738,
      "2529": 7739,
      "25175": 7740,
      "nis": 7741,
      "nick": 7742,
      "2041": 7743,
      "2090": 7744,
      "20654": 7745,
      "5711": 7746,
      "5719": 7747,
      "ebo": 7748,
      "ebas": 7749,
      "9140": 7750,
      "9145": 7751,
      "9100": 7752,
      "9121": 7753,
      "9130": 7754,
      "9156": 7755,
      "9188": 7756,
      "9128": 7757,
      "9154": 7758,
      "9159": 7759,
      "FBFC": 7760,
      "FBAD": 7761,
      "3138": 7762,
      "3199": 7763,
      "3145": 7764,
      "3181": 7765,
      "3150": 7766,
      "3148": 7767,
      "3167": 7768,
      "3168": 7769,
      "3102": 7770,
      "31827": 7771,
      "4742": 7772,
      "4717": 7773,
      "4766": 7774,
      "4751": 7775,
      "4792": 7776,
      "4752": 7777,
      "4749": 7778,
      "4724": 7779,
      "CCFB": 7780,
      "CCEC": 7781,
      "CCCE": 7782,
      "CCDF": 7783,
      "DDED": 7784,
      "DDEC": 7785,
      "DDEF": 7786,
      "DDAD": 7787,
      "DDAF": 7788,
      "2238": 7789,
      "2299": 7790,
      "2241": 7791,
      "2237": 7792,
      "2230": 7793,
      "2261": 7794,
      "2228": 7795,
      "2278": 7796,
      "22240": 7797,
      "BAFB": 7798,
      "9757": 7799,
      "9751": 7800,
      "9767": 7801,
      "9761": 7802,
      "9762": 7803,
      "9743": 7804,
      "0686": 7805,
      "0697": 7806,
      "0637": 7807,
      "0664": 7808,
      "0644": 7809,
      "0662": 7810,
      "8706": 7811,
      "8787": 7812,
      "8785": 7813,
      "8735": 7814,
      "8730": 7815,
      "8756": 7816,
      "8776": 7817,
      "8763": 7818,
      "8773": 7819,
      "3726": 7820,
      "3752": 7821,
      "3775": 7822,
      "3728": 7823,
      "mist": 7824,
      "progra": 7825,
      "8501": 7826,
      "8511": 7827,
      "8505": 7828,
      "mex": 7829,
      "9636": 7830,
      "9647": 7831,
      "9697": 7832,
      "9690": 7833,
      "9670": 7834,
      "9648": 7835,
      "9607": 7836,
      "9649": 7837,
      "9675": 7838,
      "9618": 7839,
      "2798": 7840,
      "2711": 7841,
      "2797": 7842,
      "2756": 7843,
      "2751": 7844,
      "2712": 7845,
      "2759": 7846,
      "2768": 7847,
      "2601": 7848,
      "2635": 7849,
      "2630": 7850,
      "2667": 7851,
      "2633": 7852,
      "2643": 7853,
      "2605": 7854,
      "2672": 7855,
      "26292": 7856,
      "EDCC": 7857,
      "EDFD": 7858,
      "EDAC": 7859,
      "EDCF": 7860,
      "1424": 7861,
      "9596": 7862,
      "9551": 7863,
      "9528": 7864,
      "9502": 7865,
      "3508": 7866,
      "FAa": 7867,
      "FACC": 7868,
      "FAFA": 7869,
      "FAEE": 7870,
      "FABE": 7871,
      "2125": 7872,
      "disco": 7873,
      "FCe": 7874,
      "FCes": 7875,
      "FCFE": 7876,
      "FCDF": 7877,
      "8199": 7878,
      "8137": 7879,
      "8134": 7880,
      "8189": 7881,
      "3442": 7882,
      "34309": 7883,
      "6486": 7884,
      "6498": 7885,
      "6481": 7886,
      "EABF": 7887,
      "7181": 7888,
      "cordia": 7889,
      "Rember": 7890,
      "Regu": 7891,
      "Restri": 7892,
      "Requena": 7893,
      "9045": 7894,
      "9057": 7895,
      "9095": 7896,
      "9090": 7897,
      "3037": 7898,
      "3071": 7899,
      "3039": 7900,
      "3084": 7901,
      "3089": 7902,
      "DAFC": 7903,
      "world": 7904,
      "FEBC": 7905,
      "sade": 7906,
      "vinda": 7907,
      "ramo": 7908,
      "rades": 7909,
      "raulla": 7910,
      "emad": 7911,
      "directorio": 7912,
      "8220": 7913,
      "8290": 7914,
      "8292": 7915,
      "8233": 7916,
      "8289": 7917,
      "BCBA": 7918,
      "BCAD": 7919,
      "7047": 7920,
      "7027": 7921,
      "7034": 7922,
      "FDCC": 7923,
      "ECFC": 7924,
      "ECBB": 7925,
      "ECFF": 7926,
      "ECDB": 7927,
      "3940": 7928,
      "3946": 7929,
      "3957": 7930,
      "3906": 7931,
      "5642": 7932,
      "5617": 7933,
      "5698": 7934,
      "5691": 7935,
      "5621": 7936,
      "5634": 7937,
      "5677": 7938,
      "BBFB": 7939,
      "BBCC": 7940,
      "BBFF": 7941,
      "BBEF": 7942,
      "5177": 7943,
      "5179": 7944,
      "jahu": 7945,
      "5522": 7946,
      "5596": 7947,
      "5559": 7948,
      "aut": 7949,
      "BDEE": 7950,
      "BDBF": 7951,
      "Goyen": 7952,
      "EEFB": 7953,
      "EEFA": 7954,
      "EEFC": 7955,
      "EEEE": 7956,
      "sis": 7957,
      "sica": 7958,
      "3238": 7959,
      "3236": 7960,
      "3240": 7961,
      "3297": 7962,
      "3295": 7963,
      "6620": 7964,
      "6696": 7965,
      "6688": 7966,
      "6653": 7967,
      "6668": 7968,
      "CABD": 7969,
      "FFCC": 7970,
      "FFFA": 7971,
      "FFFC": 7972,
      "5164": 7973,
      "5168": 7974,
      "4440": 7975,
      "4497": 7976,
      "4434": 7977,
      "4490": 7978,
      "44340": 7979,
      "9240": 7980,
      "CDFB": 7981,
      "CDFF": 7982,
      "5098": 7983,
      "5095": 7984,
      "5071": 7985,
      "menea": 7986,
      "EFCC": 7987,
      "CBBC": 7988,
      "CBFF": 7989,
      "4880": 7990,
      "4836": 7991,
      "4881": 7992,
      "4884": 7993,
      "4843": 7994,
      "6785": 7995,
      "6739": 7996,
      "6756": 7997,
      "6777": 7998,
      "6749": 7999,
      "bran": 8000,
      "brand": 8001,
      "6195": 8002,
      "0700": 8003,
      "0777": 8004,
      "07650": 8005,
      "3322": 8006,
      "3335": 8007,
      "8838": 8008,
      "8846": 8009,
      "8891": 8010,
      "9438": 8011,
      "9441": 8012,
      "9495": 8013,
      "vida": 8014,
      "vista": 8015,
      "vez": 8016,
      "Com": 8017,
      "Coca": 8018,
      "2011": 8019,
      "idor": 8020,
      "ADED": 8021,
      "ADEC": 8022,
      "alin": 8023,
      "9321": 8024,
      "9390": 8025,
      "6057": 8026,
      "6022": 8027,
      "5298": 8028,
      "CIA": 8029,
      "DCAA": 8030,
      "DCEE": 8031,
      "ABFE": 8032,
      "1036": 8033,
      "1026": 8034,
      "1035": 8035,
      "1070": 8036,
      "1051": 8037,
      "1028": 8038,
      "1054": 8039,
      "8491": 8040,
      "6217": 8041,
      "6236": 8042,
      "6299": 8043,
      "6246": 8044,
      "6297": 8045,
      "6292": 8046,
      "8920": 8047,
      "BEBC": 8048,
      "1242": 8049,
      "1236": 8050,
      "1246": 8051,
      "4399": 8052,
      "Entrada": 8053,
      "6501": 8054,
      "6564": 8055,
      "DEBA": 8056,
      "DEFC": 8057,
      "DEEA": 8058,
      "DEBB": 8059,
      "AEBA": 8060,
      "CFFA": 8061,
      "DFDD": 8062,
      "DFFA": 8063,
      "DFDA": 8064,
      "AFFA": 8065,
      "BFED": 8066,
      "BFFA": 8067,
      "1580": 8068,
      "1500": 8069,
      "1506": 8070,
      "1592": 8071,
      "4937": 8072,
      "4935": 8073,
      "1626": 8074,
      "1690": 8075,
      "0547": 8076,
      "2957": 8077,
      "2935": 8078,
      "2921": 8079,
      "7436": 8080,
      "7440": 8081,
      "7441": 8082,
      "7447": 8083,
      "7625": 8084,
      "7681": 8085,
      "7671": 8086,
      "7656": 8087,
      "7527": 8088,
      "2811": 8089,
      "2846": 8090,
      "2847": 8091,
      "2896": 8092,
      "2480": 8093,
      "2481": 8094,
      "2336": 8095,
      "2398": 8096,
      "2311": 8097,
      "2397": 8098,
      "2326": 8099,
      "uls": 8100,
      "amont": 8101,
      "hir": 8102,
      "5311": 8103,
      "5300": 8104,
      "5306": 8105,
      "5339": 8106,
      "6336": 8107,
      "6311": 8108,
      "6357": 8109,
      "5417": 8110,
      "5436": 8111,
      "5941": 8112,
      "1317": 8113,
      "1399": 8114,
      "1396": 8115,
      "7957": 8116,
      "6836": 8117,
      "6881": 8118,
      "6882": 8119,
      "6848": 8120,
      "1497": 8121,
      "1496": 8122,
      "1482": 8123,
      "1433": 8124,
      "1899": 8125,
      "1886": 8126,
      "1887": 8127,
      "1844": 8128,
      "0936": 8129,
      "7841": 8130,
      "7890": 8131,
      "7300": 8132,
      "7327": 8133,
      "1942": 8134,
      "6944": 8135,
      "0438": 8136,
      "0442": 8137,
      "0486": 8138,
      "0447": 8139,
      "0492": 8140,
      "fotosero": 8141,
      "eacoche": 8142,
      "vert": 8143,
      "abog": 8144,
      "Queral": 8145,
      "nada": 8146,
      "natiuk": 8147,
      "talo": 8148,
      "tanga": 8149,
      "tantra": 8150,
      "Alfa": 8151,
      "Alber": 8152,
      "many": 8153,
      "Arti": 8154,
      "sou": 8155,
      "gado": 8156,
      "delf": 8157,
      "Barran": 8158,
      "fidio": 8159,
      "joy": 8160,
      "joubi": 8161,
      "joudi": 8162,
      "Cast": 8163,
      "isch": 8164,
      "ispo": 8165,
      "Gutarra": 8166,
      "Marc": 8167,
      "Marimon": 8168,
      "Caridad": 8169,
      "seda": 8170,
      "search": 8171,
      "Navas": 8172,
      "Royo": 8173,
      "tho": 8174,
      "ters": 8175,
      "erola": 8176,
      "40123": 8177,
      "hous": 8178,
      "2421": 8179,
      "24206": 8180,
      "47185": 8181,
      "4852": 8182,
      "2008": 8183,
      "2009": 8184,
      "4376": 8185,
      "8277": 8186,
      "45183": 8187,
      "8258": 8188,
      "BEAC": 8189,
      "BEAF": 8190,
      "EECD": 8191,
      "4358": 8192,
      "96795": 8193,
      "96784": 8194,
      "0270": 8195,
      "4867": 8196,
      "itan": 8197,
      "kang": 8198,
      "ECCA": 8199,
      "5064": 8200,
      "8950": 8201,
      "boot": 8202,
      "2996": 8203,
      "2998": 8204,
      "person": 8205,
      "Correspond": 8206,
      "48099": 8207,
      "9216": 8208,
      "FDAA": 8209,
      "3014": 8210,
      "lins": 8211,
      "linas": 8212,
      "stainless": 8213,
      "Mala": 8214,
      "Mass": 8215,
      "0512": 8216,
      "ignoffi": 8217,
      "3359": 8218,
      "9175": 8219,
      "Campa": 8220,
      "4173": 8221,
      "DEAE": 8222,
      "Elor": 8223,
      "8855": 8224,
      "landa": 8225,
      "6960": 8226,
      "0424": 8227,
      "0555": 8228,
      "9006": 8229,
      "lasco": 8230,
      "lases": 8231,
      "8988": 8232,
      "DBCF": 8233,
      "bijoubi": 8234,
      "andy": 8235,
      "andrest": 8236,
      "896198": 8237,
      "5966": 8238,
      "Salazar": 8239,
      "DBDC": 8240,
      "portal": 8241,
      "5460": 8242,
      "CBDE": 8243,
      "udyfitness": 8244,
      "3368": 8245,
      "DCAB": 8246,
      "EDnn": 8247,
      "1858": 8248,
      "5473": 8249,
      "9460": 8250,
      "ADDE": 8251,
      "4879": 8252,
      "3919": 8253,
      "4450": 8254,
      "44561": 8255,
      "Enca": 8256,
      "Enrico": 8257,
      "1976": 8258,
      "BECF": 8259,
      "pien": 8260,
      "AECD": 8261,
      "Faus": 8262,
      "52052": 8263,
      "masquec": 8264,
      "ABCF": 8265,
      "3218": 8266,
      "5263": 8267,
      "ACDB": 8268,
      "1565": 8269,
      "Domen": 8270,
      "Doming": 8271,
      "5405": 8272,
      "6408": 8273,
      "6504": 8274,
      "6505": 8275,
      "2812": 8276,
      "DCDB": 8277,
      "DCDE": 8278,
      "8460": 8279,
      "8463": 8280,
      "2388": 8281,
      "Canela": 8282,
      "6374": 8283,
      "0965": 8284,
      "Missing": 8285,
      "8473": 8286,
      "Puerta": 8287,
      "09247": 8288,
      "Raja": 8289,
      "3348": 8290,
      "5449": 8291,
      "spra": 8292,
      "villages": 8293,
      "Orti": 8294,
      "jean": 8295,
      "wai": 8296,
      "wave": 8297,
      "choa": 8298,
      "ffee": 8299,
      "Caban": 8300,
      "elalz": 8301,
      "saludyfitness": 8302,
      "erico": 8303,
      "matalu": 8304,
      "Cerro": 8305,
      "grafos": 8306,
      "pintor": 8307,
      "Paratge": 8308,
      "ferente": 8309,
      "Joaquin": 8310,
      "guejos": 8311,
      "Benal": 8312,
      "Porfidio": 8313,
      "rones": 8314,
      "pendientes": 8315,
      "kins": 8316,
      "moselalz": 8317,
      "syste": 8318,
      "dalena": 8319,
      "chicas": 8320,
      "Andres": 8321,
      "Andreu": 8322,
      "Ferrer": 8323,
      "green": 8324,
      "museum": 8325,
      "scot": 8326,
      "Forn": 8327,
      "Ildefonso": 8328,
      "mytanga": 8329,
      "canarias": 8330,
      "tten": 8331,
      "gordo": 8332,
      "tecno": 8333,
      "Castil": 8334,
      "Isla": 8335,
      "burn": 8336,
      "erasure": 8337,
      "Aldehuela": 8338,
      "Crisp": 8339,
      "Cristo": 8340,
      "Vadell": 8341,
      "cultur": 8342,
      "niele": 8343,
      "uito": 8344,
      "telefono": 8345,
      "telegrafos": 8346,
      "Felipa": 8347,
      "Augus": 8348,
      "wood": 8349,
      "Alcolea": 8350,
      "wind": 8351,
      "Ramon": 8352,
      "gust": 8353,
      "Magdalena": 8354,
      "Miranda": 8355,
      "campan": 8356,
      "Salvat": 8357,
      "Jarama": 8358,
      "Obrist": 8359,
      "Santib": 8360,
      "spainbb": 8361,
      "Cuevas": 8362,
      "espacio": 8363,
      "Selene": 8364,
      "velazquez": 8365,
      "Lesson": 8366,
      "Lloret": 8367,
      "amasilla": 8368,
      "1301450385": 8369,
      "Florida": 8370,
      "BypassRestri": 8371,
      "hosting": 8372,
      "laghan": 8373,
      "video": 8374,
      "videos": 8375,
      "Aguilar": 8376,
      "Cintio": 8377,
      "Martinez": 8378,
      "Echever": 8379,
      "Natal": 8380,
      "dataerasure": 8381,
      "register": 8382,
      "313039660": 8383,
      "Argamasilla": 8384,
      "Correos": 8385,
      "Function": 8386,
      "Fredesvinda": 8387,
      "ableComponents": 8388,
      "filtr": 8389,
      "paremoselalz": 8390,
      "barnices": 8391,
      "alsanpedro": 8392,
      "multaspendientes": 8393,
      "Giovan": 8394,
      "Piedra": 8395,
      "tetdevelocidad": 8396,
      "castigadas": 8397,
      "escarba": 8398,
      "heimer": 8399,
      "Cesar": 8400,
      "cocheacoche": 8401,
      "Villavaquer": 8402,
      "Encina": 8403,
      "Rafael": 8404,
      "Wilfredo": 8405,
      "ocallaghan": 8406,
      "foreignoffi": 8407,
      "48440313039660": 8408,
      "italianmotor": 8409,
      "gratuito": 8410,
      "Atiy": 8411,
      "Diez": 8412,
      "Gimialc": 8413,
      "Hermanos": 8414,
      "Insecure": 8415,
      "JWT": 8416,
      "VulnerableComponents": 8417,
      "picture": 8418,
      "xavipetit": 8419,
      "Ġidentity": 8420,
      "onisio": 8421,
      "albornoz": 8422,
      "child": 8423,
      "Remberta": 8424,
      "raullazaro": 8425,
      "directoriogratuito": 8426,
      "Goyenaga": 8427,
      "meneamex": 8428,
      "fotoseroticas": 8429,
      "joudiferente": 8430,
      "Correspondencia": 8431,
      "bijoubijoudiferente": 8432,
      "andrestabernero": 8433,
      "8961981301450385": 8434,
      "masqueclases": 8435,
      "Domingo": 8436,
      "MissingFunction": 8437,
      "villagesevilla": 8438,
      "mataluenga": 8439,
      "culturalsanpedro": 8440,
      "Augusto": 8441,
      "BypassRestrictions": 8442,
      "paremoselalzheimer": 8443,
      "foreignoffice": 8444,
      "4844031303966042": 8445,
      "italianmotorvillagesevilla": 8446,
      "MissingFunctionAC": 8447,
      "culturalsanpedrocf": 8448,
      "0283": 8449,
      "0810": 8450,
      "1517": 8451,
      "2457": 8452,
      "3176": 8453,
      "3457": 8454,
      "3456": 8455,
      "3221": 8456,
      "3216": 8457,
      "4451": 8458,
      "4810": 8459,
      "5253": 8460,
      "5800": 8461,
      "6201": 8462,
      "6452": 8463,
      "6967": 8464,
      "6810": 8465,
      "6315": 8466,
      "7176": 8467,
      "7381": 8468,
      "8253": 8469,
      "8470": 8470,
      "8457": 8471,
      "8810": 8472,
      "8216": 8473,
      "9307": 8474,
      "Ade": 8475,
      "Anti": 8476,
      "Aless": 8477,
      "Ace": 8478,
      "AFDB": 8479,
      "Amor": 8480,
      "Bir": 8481,
      "Bad": 8482,
      "Bran": 8483,
      "Balla": 8484,
      "BEBE": 8485,
      "BFBC": 8486,
      "Baldo": 8487,
      "Bauti": 8488,
      "Bages": 8489,
      "Cus": 8490,
      "Cid": 8491,
      "Cart": 8492,
      "CFDF": 8493,
      "CFAD": 8494,
      "Cald": 8495,
      "Cato": 8496,
      "Dag": 8497,
      "Dan": 8498,
      "DFDF": 8499,
      "DFAC": 8500,
      "DFAF": 8501,
      "DBBB": 8502,
      "DCBE": 8503,
      "Dani": 8504,
      "Eg": 8505,
      "ENT": 8506,
      "Eran": 8507,
      "Etor": 8508,
      "EFCD": 8509,
      "EFBA": 8510,
      "EFEB": 8511,
      "Emil": 8512,
      "Eze": 8513,
      "FL": 8514,
      "Fono": 8515,
      "FFCD": 8516,
      "FFAA": 8517,
      "Farr": 8518,
      "Furn": 8519,
      "GO": 8520,
      "Hal": 8521,
      "Hero": 8522,
      "Hosta": 8523,
      "IV": 8524,
      "Ike": 8525,
      "Iago": 8526,
      "Jes": 8527,
      "Jal": 8528,
      "Jadra": 8529,
      "Ka": 8530,
      "Ller": 8531,
      "LLo": 8532,
      "Llom": 8533,
      "Limon": 8534,
      "Llosa": 8535,
      "Mil": 8536,
      "MEnt": 8537,
      "Mestre": 8538,
      "NE": 8539,
      "Ner": 8540,
      "Nel": 8541,
      "Nuri": 8542,
      "NtE": 8543,
      "Oc": 8544,
      "Pros": 8545,
      "Para": 8546,
      "Plu": 8547,
      "QT": 8548,
      "RO": 8549,
      "Rd": 8550,
      "Rue": 8551,
      "Rad": 8552,
      "Raspe": 8553,
      "Radio": 8554,
      "SA": 8555,
      "St": 8556,
      "Sla": 8557,
      "Sur": 8558,
      "TA": 8559,
      "Tag": 8560,
      "Terra": 8561,
      "Tad": 8562,
      "The": 8563,
      "Tala": 8564,
      "Temp": 8565,
      "Ventura": 8566,
      "Xa": 8567,
      "Xaviera": 8568,
      "Yu": 8569,
      "Yes": 8570,
      "Yun": 8571,
      "Zub": 8572,
      "Zori": 8573,
      "Zano": 8574,
      "aN": 8575,
      "ambros": 8576,
      "ahi": 8577,
      "bc": 8578,
      "bh": 8579,
      "bz": 8580,
      "bio": 8581,
      "beni": 8582,
      "bach": 8583,
      "cec": 8584,
      "cros": 8585,
      "cto": 8586,
      "cAr": 8587,
      "csp": 8588,
      "cryptography": 8589,
      "dk": 8590,
      "eN": 8591,
      "ew": 8592,
      "eva": 8593,
      "fle": 8594,
      "fred": 8595,
      "fbi": 8596,
      "frio": 8597,
      "gli": 8598,
      "gro": 8599,
      "gart": 8600,
      "ghi": 8601,
      "gab": 8602,
      "gall": 8603,
      "gell": 8604,
      "gmail": 8605,
      "ide": 8606,
      "iles": 8607,
      "iza": 8608,
      "jus": 8609,
      "jona": 8610,
      "kas": 8611,
      "kau": 8612,
      "mw": 8613,
      "mpa": 8614,
      "mci": 8615,
      "malle": 8616,
      "napp": 8617,
      "nch": 8618,
      "nina": 8619,
      "nQT": 8620,
      "omo": 8621,
      "pri": 8622,
      "pof": 8623,
      "ppo": 8624,
      "phili": 8625,
      "rO": 8626,
      "rl": 8627,
      "sz": 8628,
      "sos": 8629,
      "sma": 8630,
      "sche": 8631,
      "she": 8632,
      "ska": 8633,
      "shu": 8634,
      "scha": 8635,
      "simon": 8636,
      "taci": 8637,
      "tson": 8638,
      "tura": 8639,
      "tje": 8640,
      "ula": 8641,
      "uar": 8642,
      "uni": 8643,
      "utu": 8644,
      "vag": 8645,
      "vell": 8646,
      "venti": 8647,
      "vador": 8648,
      "wan": 8649,
      "wea": 8650,
      "wol": 8651,
      "xx": 8652,
      "xim": 8653,
      "xies": 8654,
      "yes": 8655,
      "yun": 8656,
      "yuela": 8657,
      "zing": 8658,
      "zko": 8659,
      "zza": 8660,
      "onta": 8661,
      "onne": 8662,
      "onuevo": 8663,
      "tim": 8664,
      "tier": 8665,
      "tina": 8666,
      "till": 8667,
      "tek": 8668,
      "teen": 8669,
      "tear": 8670,
      "teat": 8671,
      "tera": 8672,
      "teles": 8673,
      "teleria": 8674,
      "lat": 8675,
      "lana": 8676,
      "endra": 8677,
      "encial": 8678,
      "cole": 8679,
      "colos": 8680,
      "coso": 8681,
      "costa": 8682,
      "cott": 8683,
      "court": 8684,
      "lilla": 8685,
      "lian": 8686,
      "lich": 8687,
      "lices": 8688,
      "cari": 8689,
      "canov": 8690,
      "cario": 8691,
      "camente": 8692,
      "casab": 8693,
      "casso": 8694,
      "inmo": 8695,
      "inea": 8696,
      "inversion": 8697,
      "ager": 8698,
      "agree": 8699,
      "achi": 8700,
      "acena": 8701,
      "activ": 8702,
      "xto": 8703,
      "erda": 8704,
      "erzo": 8705,
      "erfu": 8706,
      "deal": 8707,
      "desa": 8708,
      "ape": 8709,
      "8070": 8710,
      "8032": 8711,
      "8002": 8712,
      "80695": 8713,
      "806020": 8714,
      "orin": 8715,
      "low": 8716,
      "lois": 8717,
      "lock": 8718,
      "conf": 8719,
      "coni": 8720,
      "connec": 8721,
      "iminal": 8722,
      "damente": 8723,
      "dacapa": 8724,
      "leg": 8725,
      "leen": 8726,
      "usse": 8727,
      "pas": 8728,
      "paloma": 8729,
      "llan": 8730,
      "comta": 8731,
      "Mota": 8732,
      "Molinos": 8733,
      "kovic": 8734,
      "userPro": 8735,
      "eckout": 8736,
      "queta": 8737,
      "quebra": 8738,
      "plat": 8739,
      "queria": 8740,
      "eth": 8741,
      "eton": 8742,
      "etto": 8743,
      "getIt": 8744,
      "reg": 8745,
      "rella": 8746,
      "reba": 8747,
      "rejo": 8748,
      "stante": 8749,
      "mbe": 8750,
      "mbro": 8751,
      "mballa": 8752,
      "dig": 8753,
      "divie": 8754,
      "ciapla": 8755,
      "0125": 8756,
      "0147": 8757,
      "0187": 8758,
      "0134": 8759,
      "0171": 8760,
      "0130": 8761,
      "0174": 8762,
      "0154": 8763,
      "019787": 8764,
      "rolet": 8765,
      "sset": 8766,
      "rill": 8767,
      "riana": 8768,
      "3840": 8769,
      "3886": 8770,
      "3887": 8771,
      "3844": 8772,
      "3872": 8773,
      "383925": 8774,
      "4201": 8775,
      "4287": 8776,
      "4237": 8777,
      "4248": 8778,
      "4207": 8779,
      "4288": 8780,
      "4260": 8781,
      "4216": 8782,
      "4218": 8783,
      "4273": 8784,
      "42317": 8785,
      "42798": 8786,
      "42113": 8787,
      "42214": 8788,
      "movi": 8789,
      "movie": 8790,
      "1796": 8791,
      "1775": 8792,
      "3625": 8793,
      "3647": 8794,
      "3695": 8795,
      "3607": 8796,
      "3629": 8797,
      "3669": 8798,
      "anni": 8799,
      "ancia": 8800,
      "anue": 8801,
      "anun": 8802,
      "anfran": 8803,
      "ury": 8804,
      "uran": 8805,
      "urrieta": 8806,
      "dog": 8807,
      "4080": 8808,
      "4097": 8809,
      "4034": 8810,
      "4082": 8811,
      "4039": 8812,
      "4032": 8813,
      "4092": 8814,
      "4076": 8815,
      "4075": 8816,
      "40921": 8817,
      "atas": 8818,
      "ataI": 8819,
      "ather": 8820,
      "9906": 8821,
      "9995": 8822,
      "9967": 8823,
      "9910": 8824,
      "9965": 8825,
      "9975": 8826,
      "9903": 8827,
      "99277": 8828,
      "pelle": 8829,
      "8631": 8830,
      "8687": 8831,
      "8664": 8832,
      "8639": 8833,
      "8655": 8834,
      "8607": 8835,
      "8633": 8836,
      "4117": 8837,
      "4186": 8838,
      "4195": 8839,
      "4139": 8840,
      "4155": 8841,
      "4144": 8842,
      "4169": 8843,
      "4536": 8844,
      "4586": 8845,
      "4527": 8846,
      "4579": 8847,
      "4514": 8848,
      "4572": 8849,
      "4518": 8850,
      "9846": 8851,
      "9831": 8852,
      "9826": 8853,
      "9877": 8854,
      "1198": 8855,
      "1111": 8856,
      "1116": 8857,
      "4691": 8858,
      "4630": 8859,
      "4644": 8860,
      "4650": 8861,
      "4633": 8862,
      "4684": 8863,
      "4668": 8864,
      "4602": 8865,
      "46114": 8866,
      "46814": 8867,
      "asy": 8868,
      "aser": 8869,
      "0036": 8870,
      "0035": 8871,
      "0071": 8872,
      "0039": 8873,
      "0077": 8874,
      "0009": 8875,
      "006603": 8876,
      "8380": 8877,
      "8340": 8878,
      "8398": 8879,
      "8370": 8880,
      "8343": 8881,
      "8316": 8882,
      "8372": 8883,
      "chie": 8884,
      "cham": 8885,
      "2599": 8886,
      "2586": 8887,
      "2546": 8888,
      "2506": 8889,
      "2535": 8890,
      "2570": 8891,
      "2555": 8892,
      "2566": 8893,
      "2560": 8894,
      "2552": 8895,
      "257998": 8896,
      "nit": 8897,
      "2045": 8898,
      "2083": 8899,
      "2057": 8900,
      "2087": 8901,
      "2055": 8902,
      "2067": 8903,
      "20440": 8904,
      "20408": 8905,
      "5742": 8906,
      "5786": 8907,
      "5785": 8908,
      "5727": 8909,
      "5790": 8910,
      "5784": 8911,
      "5716": 8912,
      "ebaz": 8913,
      "9138": 8914,
      "9186": 8915,
      "9181": 8916,
      "9161": 8917,
      "9162": 8918,
      "91360": 8919,
      "91297": 8920,
      "FBDD": 8921,
      "FBBA": 8922,
      "FBBC": 8923,
      "FBCD": 8924,
      "FBDC": 8925,
      "FBDE": 8926,
      "3136": 8927,
      "3196": 8928,
      "3156": 8929,
      "3166": 8930,
      "3161": 8931,
      "3194": 8932,
      "3153": 8933,
      "3169": 8934,
      "4720": 8935,
      "4796": 8936,
      "4727": 8937,
      "4735": 8938,
      "4756": 8939,
      "4744": 8940,
      "4776": 8941,
      "4773": 8942,
      "CCAE": 8943,
      "CCAF": 8944,
      "DDCC": 8945,
      "DDCB": 8946,
      "DDAE": 8947,
      "2242": 8948,
      "2298": 8949,
      "2271": 8950,
      "2282": 8951,
      "2270": 8952,
      "2292": 8953,
      "2216": 8954,
      "2275": 8955,
      "22373": 8956,
      "BAFF": 8957,
      "BAEF": 8958,
      "BADB": 8959,
      "9717": 8960,
      "9788": 8961,
      "9712": 8962,
      "9715": 8963,
      "9763": 8964,
      "9703": 8965,
      "0646": 8966,
      "0606": 8967,
      "0671": 8968,
      "0656": 8969,
      "0651": 8970,
      "0676": 8971,
      "0658": 8972,
      "8738": 8973,
      "8727": 8974,
      "8795": 8975,
      "8790": 8976,
      "8705": 8977,
      "8753": 8978,
      "8703": 8979,
      "3736": 8980,
      "3700": 8981,
      "3761": 8982,
      "3777": 8983,
      "3743": 8984,
      "3765": 8985,
      "3753": 8986,
      "3754": 8987,
      "3702": 8988,
      "mico": 8989,
      "mias": 8990,
      "milia": 8991,
      "miento": 8992,
      "8591": 8993,
      "8526": 8994,
      "8532": 8995,
      "8550": 8996,
      "8548": 8997,
      "8518": 8998,
      "med": 8999,
      "9687": 9000,
      "9635": 9001,
      "9639": 9002,
      "9677": 9003,
      "9665": 9004,
      "9663": 9005,
      "9669": 9006,
      "2701": 9007,
      "2785": 9008,
      "2754": 9009,
      "27245": 9010,
      "2642": 9011,
      "2647": 9012,
      "2622": 9013,
      "2697": 9014,
      "2637": 9015,
      "2694": 9016,
      "2624": 9017,
      "26291": 9018,
      "EDf": 9019,
      "EDno": 9020,
      "EDFA": 9021,
      "EDEA": 9022,
      "mah": 9023,
      "9540": 9024,
      "9545": 9025,
      "9544": 9026,
      "9550": 9027,
      "9560": 9028,
      "9516": 9029,
      "3536": 9030,
      "3591": 9031,
      "3597": 9032,
      "3544": 9033,
      "3565": 9034,
      "3568": 9035,
      "3509": 9036,
      "FADD": 9037,
      "2197": 9038,
      "2135": 9039,
      "2181": 9040,
      "2134": 9041,
      "2132": 9042,
      "2166": 9043,
      "2150": 9044,
      "2160": 9045,
      "2152": 9046,
      "2105": 9047,
      "2159": 9048,
      "FCFD": 9049,
      "FCBB": 9050,
      "FCEF": 9051,
      "FCAB": 9052,
      "FCDB": 9053,
      "FCenza": 9054,
      "8135": 9055,
      "8181": 9056,
      "8139": 9057,
      "8150": 9058,
      "8162": 9059,
      "8169": 9060,
      "81587": 9061,
      "3417": 9062,
      "3447": 9063,
      "3437": 9064,
      "3490": 9065,
      "3492": 9066,
      "3494": 9067,
      "3493": 9068,
      "3484": 9069,
      "3489": 9070,
      "34306": 9071,
      "6485": 9072,
      "6448": 9073,
      "EAED": 9074,
      "EABB": 9075,
      "EABE": 9076,
      "EADE": 9077,
      "7128": 9078,
      "Redo": 9079,
      "9048": 9080,
      "9033": 9081,
      "3042": 9082,
      "3096": 9083,
      "3095": 9084,
      "3090": 9085,
      "3055": 9086,
      "3051": 9087,
      "3092": 9088,
      "3077": 9089,
      "DAFF": 9090,
      "DACD": 9091,
      "DAAC": 9092,
      "DACF": 9093,
      "tarco": 9094,
      "FEED": 9095,
      "FEFC": 9096,
      "FEFF": 9097,
      "baller": 9098,
      "sale": 9099,
      "rab": 9100,
      "rali": 9101,
      "rain": 9102,
      "radas": 9103,
      "8291": 9104,
      "8247": 9105,
      "8285": 9106,
      "8249": 9107,
      "BCBB": 9108,
      "BCBD": 9109,
      "BCFF": 9110,
      "7040": 9111,
      "7041": 9112,
      "7057": 9113,
      "7097": 9114,
      "7095": 9115,
      "7081": 9116,
      "7058": 9117,
      "7053": 9118,
      "70997": 9119,
      "uelo": 9120,
      "uecas": 9121,
      "FDBA": 9122,
      "FDEB": 9123,
      "ECEE": 9124,
      "ECDC": 9125,
      "ECAB": 9126,
      "ECAF": 9127,
      "3901": 9128,
      "3942": 9129,
      "3936": 9130,
      "5606": 9131,
      "5687": 9132,
      "5670": 9133,
      "5632": 9134,
      "5651": 9135,
      "5693": 9136,
      "5610": 9137,
      "5615": 9138,
      "AADA": 9139,
      "AAAC": 9140,
      "BBFC": 9141,
      "BBFD": 9142,
      "BBEC": 9143,
      "ners": 9144,
      "jador": 9145,
      "sero": 9146,
      "5536": 9147,
      "5540": 9148,
      "5525": 9149,
      "5597": 9150,
      "5506": 9151,
      "5585": 9152,
      "5526": 9153,
      "5589": 9154,
      "auer": 9155,
      "BDBC": 9156,
      "BDFD": 9157,
      "BDBB": 9158,
      "BDCA": 9159,
      "BDFF": 9160,
      "BDCB": 9161,
      "BDCF": 9162,
      "EEFD": 9163,
      "EEFF": 9164,
      "sig": 9165,
      "sierra": 9166,
      "3201": 9167,
      "6642": 9168,
      "6617": 9169,
      "6683": 9170,
      "6606": 9171,
      "6661": 9172,
      "6677": 9173,
      "6612": 9174,
      "6616": 9175,
      "6675": 9176,
      "6672": 9177,
      "CAFA": 9178,
      "CAFD": 9179,
      "CABF": 9180,
      "FFED": 9181,
      "FFFE": 9182,
      "FFFF": 9183,
      "5180": 9184,
      "5127": 9185,
      "5150": 9186,
      "5123": 9187,
      "5154": 9188,
      "4447": 9189,
      "4439": 9190,
      "4449": 9191,
      "9225": 9192,
      "9231": 9193,
      "9292": 9194,
      "92397": 9195,
      "CDBA": 9196,
      "CDFC": 9197,
      "CDEE": 9198,
      "CDCF": 9199,
      "EBDA": 9200,
      "5086": 9201,
      "5045": 9202,
      "5097": 9203,
      "5056": 9204,
      "5032": 9205,
      "50932": 9206,
      "EFDD": 9207,
      "EFED": 9208,
      "CBEE": 9209,
      "4838": 9210,
      "4887": 9211,
      "4885": 9212,
      "4882": 9213,
      "48940": 9214,
      "6787": 9215,
      "6750": 9216,
      "6754": 9217,
      "brun": 9218,
      "6120": 9219,
      "6197": 9220,
      "6192": 9221,
      "6188": 9222,
      "6152": 9223,
      "6184": 9224,
      "6108": 9225,
      "0720": 9226,
      "0735": 9227,
      "0732": 9228,
      "0724": 9229,
      "0769": 9230,
      "3380": 9231,
      "3337": 9232,
      "3395": 9233,
      "8822": 9234,
      "8893": 9235,
      "88895": 9236,
      "9442": 9237,
      "9491": 9238,
      "9492": 9239,
      "vella": 9240,
      "vedo": 9241,
      "idosa": 9242,
      "ADEA": 9243,
      "ates": 9244,
      "alino": 9245,
      "alina": 9246,
      "0019": 9247,
      "9338": 9248,
      "9311": 9249,
      "9325": 9250,
      "9320": 9251,
      "9391": 9252,
      "9397": 9253,
      "9306": 9254,
      "9327": 9255,
      "6080": 9256,
      "6070": 9257,
      "6056": 9258,
      "6028": 9259,
      "6053": 9260,
      "7731": 9261,
      "7771": 9262,
      "7730": 9263,
      "7770": 9264,
      "7748": 9265,
      "7768": 9266,
      "5240": 9267,
      "DCBA": 9268,
      "DCEB": 9269,
      "ABED": 9270,
      "ABFC": 9271,
      "DBFD": 9272,
      "DBEE": 9273,
      "ACEE": 9274,
      "1044": 9275,
      "1024": 9276,
      "10335": 9277,
      "10373": 9278,
      "8436": 9279,
      "8445": 9280,
      "goperson": 9281,
      "6287": 9282,
      "6285": 9283,
      "stian": 9284,
      "stige": 9285,
      "casino": 9286,
      "CEFA": 9287,
      "CEEA": 9288,
      "CEFE": 9289,
      "CEBB": 9290,
      "8931": 9291,
      "8922": 9292,
      "8948": 9293,
      "8933": 9294,
      "BEBB": 9295,
      "redstar": 9296,
      "1247": 9297,
      "1230": 9298,
      "novo": 9299,
      "4342": 9300,
      "4336": 9301,
      "4300": 9302,
      "4331": 9303,
      "4347": 9304,
      "4327": 9305,
      "43360": 9306,
      "6591": 9307,
      "6585": 9308,
      "6521": 9309,
      "6584": 9310,
      "65443": 9311,
      "DECC": 9312,
      "DEFE": 9313,
      "AEBC": 9314,
      "AEFD": 9315,
      "AEEC": 9316,
      "CFFB": 9317,
      "CFCC": 9318,
      "CFFD": 9319,
      "DFEA": 9320,
      "AFED": 9321,
      "BFDA": 9322,
      "1501": 9323,
      "4945": 9324,
      "4911": 9325,
      "4925": 9326,
      "1645": 9327,
      "16707": 9328,
      "0537": 9329,
      "0595": 9330,
      "0592": 9331,
      "0548": 9332,
      "0533": 9333,
      "05212": 9334,
      "2938": 9335,
      "2940": 9336,
      "2911": 9337,
      "ceo": 9338,
      "7601": 9339,
      "7642": 9340,
      "7686": 9341,
      "7646": 9342,
      "7697": 9343,
      "7627": 9344,
      "7630": 9345,
      "7655": 9346,
      "7538": 9347,
      "7542": 9348,
      "7536": 9349,
      "7521": 9350,
      "7544": 9351,
      "2836": 9352,
      "2841": 9353,
      "2885": 9354,
      "2890": 9355,
      "2485": 9356,
      "240126": 9357,
      "2301": 9358,
      "2391": 9359,
      "2332": 9360,
      "uller": 9361,
      "1016": 9362,
      "101383925": 9363,
      "2839": 9364,
      "amor": 9365,
      "5838": 9366,
      "5840": 9367,
      "5899": 9368,
      "5847": 9369,
      "5822": 9370,
      "5821": 9371,
      "5848": 9372,
      "hida": 9373,
      "5325": 9374,
      "6338": 9375,
      "6341": 9376,
      "6327": 9377,
      "6395": 9378,
      "5498": 9379,
      "5495": 9380,
      "5490": 9381,
      "irena": 9382,
      "5933": 9383,
      "1391": 9384,
      "1347": 9385,
      "7986": 9386,
      "7900": 9387,
      "7947": 9388,
      "6897": 9389,
      "1445": 9390,
      "1481": 9391,
      "7242": 9392,
      "7291": 9393,
      "7292": 9394,
      "1891": 9395,
      "1882": 9396,
      "0940": 9397,
      "0986": 9398,
      "0947": 9399,
      "0937": 9400,
      "0935": 9401,
      "09258": 9402,
      "7857": 9403,
      "7895": 9404,
      "0241": 9405,
      "0211": 9406,
      "0285": 9407,
      "0235": 9408,
      "7380": 9409,
      "7341": 9410,
      "7306": 9411,
      "7335": 9412,
      "1911": 9413,
      "1957": 9414,
      "6986": 9415,
      "6937": 9416,
      "0301": 9417,
      "0345": 9418,
      "0334": 9419,
      "0332": 9420,
      "0826": 9421,
      "0894": 9422,
      "08470": 9423,
      "0480": 9424,
      "0437": 9425,
      "0490": 9426,
      "tuno": 9427,
      "Cono": 9428,
      "0057747": 9429,
      "vers": 9430,
      "zahar": 9431,
      "abe": 9432,
      "abella": 9433,
      "Quer": 9434,
      "Ques": 9435,
      "Quili": 9436,
      "Quantity": 9437,
      "Riopis": 9438,
      "hama": 9439,
      "6573": 9440,
      "adul": 9441,
      "ower": 9442,
      "rano": 9443,
      "random": 9444,
      "Ibero": 9445,
      "Alc": 9446,
      "Alcon": 9447,
      "Alman": 9448,
      "Almaz": 9449,
      "Alqueria": 9450,
      "Alhama": 9451,
      "Judas": 9452,
      "Viana": 9453,
      "Vilar": 9454,
      "ViataI": 9455,
      "neo": 9456,
      "neau": 9457,
      "nelia": 9458,
      "Salom": 9459,
      "Arn": 9460,
      "Arge": 9461,
      "Patio": 9462,
      "edora": 9463,
      "ruf": 9464,
      "run": 9465,
      "gaz": 9466,
      "filo": 9467,
      "fitz": 9468,
      "figh": 9469,
      "bazi": 9470,
      "bado": 9471,
      "Valdep": 9472,
      "Cang": 9473,
      "Camb": 9474,
      "ismo": 9475,
      "Guzm": 9476,
      "eralo": 9477,
      "Mars": 9478,
      "Marco": 9479,
      "Marin": 9480,
      "Carri": 9481,
      "Carmi": 9482,
      "Cards": 9483,
      "Carpio": 9484,
      "AdO": 9485,
      "Addre": 9486,
      "Lezama": 9487,
      "sex": 9488,
      "seca": 9489,
      "Nazar": 9490,
      "Rojo": 9491,
      "Robert": 9492,
      "Seco": 9493,
      "Segu": 9494,
      "Segarra": 9495,
      "thy": 9496,
      "Villas": 9497,
      "Villarejo": 9498,
      "Tobar": 9499,
      "Total": 9500,
      "luc": 9501,
      "lud": 9502,
      "bever": 9503,
      "beauti": 9504,
      "87737": 9505,
      "pop": 9506,
      "polo": 9507,
      "pool": 9508,
      "2420": 9509,
      "2423": 9510,
      "Escal": 9511,
      "Monist": 9512,
      "yama": 9513,
      "lingeni": 9514,
      "3968": 9515,
      "3276": 9516,
      "9263": 9517,
      "326838": 9518,
      "940986": 9519,
      "8977": 9520,
      "8275": 9521,
      "3423": 9522,
      "EECB": 9523,
      "Torrent": 9524,
      "Torrades": 9525,
      "1714156": 9526,
      "2365": 9527,
      "9425": 9528,
      "9427": 9529,
      "9279021": 9530,
      "38626": 9531,
      "4863": 9532,
      "0919": 9533,
      "09193": 9534,
      "3113": 9535,
      "3118": 9536,
      "3979": 9537,
      "ECCF": 9538,
      "CECA": 9539,
      "CECF": 9540,
      "boy": 9541,
      "body": 9542,
      "9570": 9543,
      "9574": 9544,
      "49511": 9545,
      "49504": 9546,
      "EEDB": 9547,
      "EEDF": 9548,
      "pere": 9549,
      "8420": 9550,
      "FDAE": 9551,
      "3010": 9552,
      "AFBA": 9553,
      "AFBC": 9554,
      "8991": 9555,
      "8993": 9556,
      "Maxim": 9557,
      "Mairena": 9558,
      "0518": 9559,
      "2119": 9560,
      "9251": 9561,
      "igh": 9562,
      "3350": 9563,
      "49832": 9564,
      "EEAE": 9565,
      "3990": 9566,
      "3991": 9567,
      "DEAB": 9568,
      "trac": 9569,
      "37793": 9570,
      "28660": 9571,
      "28609": 9572,
      "lans": 9573,
      "2352": 9574,
      "2354284": 9575,
      "9867": 9576,
      "polda": 9577,
      "polynes": 9578,
      "0427": 9579,
      "4916": 9580,
      "Dels": 9581,
      "Delvalle": 9582,
      "05530": 9583,
      "8804": 9584,
      "BDDC": 9585,
      "laschinas": 9586,
      "4472": 9587,
      "CEDE": 9588,
      "DBCB": 9589,
      "Polo": 9590,
      "Pozal": 9591,
      "hua": 9592,
      "andoso": 9593,
      "5979": 9594,
      "ADAD": 9595,
      "5271": 9596,
      "727366": 9597,
      "0865": 9598,
      "0867": 9599,
      "2408": 9600,
      "CAAD": 9601,
      "DBDB": 9602,
      "DBDF": 9603,
      "2807": 9604,
      "3318": 9605,
      "ABAE": 9606,
      "FEAC": 9607,
      "FEAF": 9608,
      "33875": 9609,
      "3382681": 9610,
      "CBDF": 9611,
      "3363": 9612,
      "3454": 9613,
      "CBCB": 9614,
      "DCAC": 9615,
      "5472": 9616,
      "5478": 9617,
      "EBDE": 9618,
      "08518": 9619,
      "4878": 9620,
      "8410": 9621,
      "1804": 9622,
      "1356": 9623,
      "3916": 9624,
      "5913": 9625,
      "ACBF": 9626,
      "CEAD": 9627,
      "Lugar": 9628,
      "026290": 9629,
      "8876": 9630,
      "EDDA": 9631,
      "EDDC": 9632,
      "socimi": 9633,
      "2479": 9634,
      "2853": 9635,
      "AECA": 9636,
      "9458": 9637,
      "Huertas": 9638,
      "237238": 9639,
      "voa": 9640,
      "0375": 9641,
      "2484": 9642,
      "248937": 9643,
      "8902": 9644,
      "5118232": 9645,
      "5264": 9646,
      "8383": 9647,
      "9362": 9648,
      "BDAD": 9649,
      "5413": 9650,
      "5415195": 9651,
      "ACDE": 9652,
      "16160": 9653,
      "BEDE": 9654,
      "Dotras": 9655,
      "080717": 9656,
      "5813": 9657,
      "5815": 9658,
      "8812117": 9659,
      "9206": 9660,
      "8464": 9661,
      "1464": 9662,
      "5806": 9663,
      "6569": 9664,
      "BBCD": 9665,
      "Canal": 9666,
      "EBAE": 9667,
      "3468": 9668,
      "1833": 9669,
      "Castel": 9670,
      "2257": 9671,
      "6956887": 9672,
      "8831": 9673,
      "8835": 9674,
      "dorra": 9675,
      "3229": 9676,
      "ABDB": 9677,
      "21096784": 9678,
      "Davel": 9679,
      "099240126": 9680,
      "Mila": 9681,
      "Millares": 9682,
      "change": 9683,
      "7979": 9684,
      "7851": 9685,
      "Baeza": 9686,
      "mueb": 9687,
      "6714": 9688,
      "6716": 9689,
      "6804": 9690,
      "6468": 9691,
      "Puerto": 9692,
      "Sobr": 9693,
      "Solani": 9694,
      "6258": 9695,
      "7016": 9696,
      "09220": 9697,
      "12061": 9698,
      "EBBD": 9699,
      "Raim": 9700,
      "6879": 9701,
      "Peri": 9702,
      "Peral": 9703,
      "781237238": 9704,
      "8215": 9705,
      "9389": 9706,
      "5375": 9707,
      "5889": 9708,
      "french": 9709,
      "7509": 9710,
      "7608": 9711,
      "cioenla": 9712,
      "5302": 9713,
      "03134": 9714,
      "7313": 9715,
      "7353": 9716,
      "villas": 9717,
      "1502": 9718,
      "7427": 9719,
      "7269": 9720,
      "waelda": 9721,
      "8484": 9722,
      "hania": 9723,
      "aguas": 9724,
      "drae": 9725,
      "Picasso": 9726,
      "juan": 9727,
      "steph": 9728,
      "Login": 9729,
      "Duque": 9730,
      "ffer": 9731,
      "letha": 9732,
      "Nov": 9733,
      "Novoa": 9734,
      "part": 9735,
      "esto": 9736,
      "salvador": 9737,
      "Berro": 9738,
      "Berna": 9739,
      "Bertran": 9740,
      "Berenice": 9741,
      "Cerda": 9742,
      "diola": 9743,
      "Bureba": 9744,
      "Moreno": 9745,
      "Lasher": 9746,
      "eolica": 9747,
      "schnapp": 9748,
      "Tierra": 9749,
      "ferr": 9750,
      "herr": 9751,
      "hermin": 9752,
      "Jocs": 9753,
      "Urgell": 9754,
      "stylep": 9755,
      "Portal": 9756,
      "Bascomta": 9757,
      "brega": 9758,
      "broad": 9759,
      "pens": 9760,
      "frank": 9761,
      "franci": 9762,
      "2781714156": 9763,
      "Masca": 9764,
      "tismo": 9765,
      "Borb": 9766,
      "Borr": 9767,
      "Tejo": 9768,
      "shamballa": 9769,
      "ForFree": 9770,
      "hiller": 9771,
      "mystylep": 9772,
      "uerta": 9773,
      "curro": 9774,
      "cursos": 9775,
      "frey": 9776,
      "Elido": 9777,
      "metrio": 9778,
      "Lidia": 9779,
      "Olmo": 9780,
      "Abell": 9781,
      "gorio": 9782,
      "Herrera": 9783,
      "Neleo": 9784,
      "natural": 9785,
      "Merca": 9786,
      "Once": 9787,
      "wski": 9788,
      "amarca": 9789,
      "amarina": 9790,
      "Castilla": 9791,
      "burg": 9792,
      "hipermadrid": 9793,
      "hiperbil": 9794,
      "magadan": 9795,
      "grand": 9796,
      "uita": 9797,
      "inski": 9798,
      "Brihue": 9799,
      "Josefa": 9800,
      "prestige": 9801,
      "Montemayor": 9802,
      "buses": 9803,
      "buscador": 9804,
      "criminal": 9805,
      "Alejo": 9806,
      "Ramos": 9807,
      "Suar": 9808,
      "Bethania": 9809,
      "bauer": 9810,
      "Agullana": 9811,
      "Jordi": 9812,
      "Mallo": 9813,
      "Venancia": 9814,
      "campo": 9815,
      "stored": 9816,
      "viajesdacapa": 9817,
      "Itter": 9818,
      "Santiago": 9819,
      "Raban": 9820,
      "Zula": 9821,
      "volt": 9822,
      "comercioenla": 9823,
      "ariahangar": 9824,
      "atorre": 9825,
      "salacomp": 9826,
      "Esteve": 9827,
      "Proxies": 9828,
      "small": 9829,
      "multi": 9830,
      "automovi": 9831,
      "autobuses": 9832,
      "zaleska": 9833,
      "HttpProxies": 9834,
      "Dalma": 9835,
      "Izurrieta": 9836,
      "Selva": 9837,
      "ringring": 9838,
      "weat": 9839,
      "0106099240126": 9840,
      "diek": 9841,
      "fulbody": 9842,
      "919949504": 9843,
      "underdog": 9844,
      "Iglesia": 9845,
      "Cosme": 9846,
      "Henares": 9847,
      "Hinojosa": 9848,
      "cvs": 9849,
      "aultravioleta": 9850,
      "Cardona": 9851,
      "biosoftware": 9852,
      "Flaviano": 9853,
      "cocteleria": 9854,
      "artesania": 9855,
      "28400057747": 9856,
      "chevrolet": 9857,
      "Lucidio": 9858,
      "Miramar": 9859,
      "Eduardo": 9860,
      "Fontan": 9861,
      "Retuerta": 9862,
      "apolicial": 9863,
      "ankawaelda": 9864,
      "tarrabia": 9865,
      "1646326838": 9866,
      "7496940": 9867,
      "Leopolda": 9868,
      "Cecilio": 9869,
      "Federico": 9870,
      "Arroyo": 9871,
      "2967806020": 9872,
      "Gabina": 9873,
      "Nieva": 9874,
[...]
