{
  "version": "1.0",
  "truncation": null,
  "padding": null,
  "added_tokens": [
    {
      "id": 0,
      "content": "<s>",
      "single_word": false,
      "lstrip": false,
      "rstrip": false,
      "normalized": false,
      "special": true
    },
    {
      "id": 1,
      "content": "<pad>",
      "single_word": false,
      "lstrip": false,
      "rstrip": false,
      "normalized": false,
      "special": true
    },
    {
      "id": 2,
      "content": "</s>",
      "single_word": false,
      "lstrip": false,
      "rstrip": false,
      "normalized": false,
      "special": true
    },
    {
      "id": 3,
      "content": "<unk>",
      "single_word": false,
      "lstrip": false,
      "rstrip": false,
      "normalized": false,
      "special": true
    },
    {
      "id": 4,
      "content": "<mask>",
      "single_word": false,
      "lstrip": false,
      "rstrip": false,
      "normalized": false,
      "special": true
    }
  ],
  "normalizer": {
    "type": "NFD"
  },
  "pre_tokenizer": {
    "type": "Sequence",
    "pretokenizers": [
      {
        "type": "ByteLevel",
        "add_prefix_space": false,
        "trim_offsets": true,
        "use_regex": true
      },
      {
        "type": "Split",
        "pattern": {
          "String": "([A-Za-z0-9]+|[^A-Za-z0-9])"
        },
        "behavior": "Isolated",
        "invert": false
      }
    ]
  },
  "post_processor": null,
  "decoder": null,
  "model": {
    "type": "BPE",
    "dropout": null,
    "unk_token": "<unk>",
    "continuing_subword_prefix": null,
    "end_of_word_suffix": null,
    "fuse_unk": false,
    "byte_fallback": false,
    "ignore_merges": false,
    "vocab": {
      "<s>": 0,
      "<pad>": 1,
      "</s>": 2,
      "<unk>": 3,
      "<mask>": 4,
      "!": 5,
      "\"": 6,
      "$": 7,
      "%": 8,
      "&": 9,
      "'": 10,
      "(": 11,
      ")": 12,
      "*": 13,
      "+": 14,
      ",": 15,
      "-": 16,
      ".": 17,
      "/": 18,
      "0": 19,
      "1": 20,
      "2": 21,
      "3": 22,
      "4": 23,
      "5": 24,
      "6": 25,
      "7": 26,
      "8": 27,
      "9": 28,
      ":": 29,
      ";": 30,
      "=": 31,
      "?": 32,
      "@": 33,
      "A": 34,
      "B": 35,
      "C": 36,
      "D": 37,
      "E": 38,
      "F": 39,
      "G": 40,
      "H": 41,
      "I": 42,
      "J": 43,
      "K": 44,
      "L": 45,
      "M": 46,
      "N": 47,
      "O": 48,
      "P": 49,
      "Q": 50,
      "R": 51,
      "S": 52,
      "T": 53,
      "U": 54,
      "V": 55,
      "W": 56,
      "X": 57,
      "Y": 58,
      "Z": 59,
      "[": 60,
      "\\": 61,
      "]": 62,
      "_": 63,
      "a": 64,
      "b": 65,
      "c": 66,
      "d": 67,
      "e": 68,
      "f": 69,
      "g": 70,
      "h": 71,
      "i": 72,
      "j": 73,
      "k": 74,
      "l": 75,
      "m": 76,
      "n": 77,
      "o": 78,
      "p": 79,
      "q": 80,
      "r": 81,
      "s": 82,
      "t": 83,
      "u": 84,
      "v": 85,
      "w": 86,
      "x": 87,
      "y": 88,
      "z": 89,
      "{": 90,
      "}": 91,
      "Ċ": 92,
      "Ġ": 93,
      "on": 94,
      "ti": 95,
      "te": 96,
      "la": 97,
      "en": 98,
      "ml": 99,
      "co": 100,
      "li": 101,
      "os": 102,
      "ca": 103,
      "in": 104,
      "ag": 105,
      "ac": 106,
      "tion": 107,
      "ep": 108,
      "nac": 109,
      "cep": 110,
      "cept": 111,
      "naccept": 112,
      "zi": 113,
      "xt": 114,
      "text": 115,
      "xml": 116,
      "er": 117,
      "ec": 118,
      "de": 119,
      "ost": 120,
      "ap": 121,
      "lica": 122,
      "app": 123,
      "lication": 124,
      "application": 125,
      "80": 126,
      "host": 127,
      "ng": 128,
      "age": 129,
      "ht": 130,
      "def": 131,
      "late": 132,
      "Ġ(": 133,
      "HT": 134,
      "Ġx": 135,
      "zip": 136,
      "gzip": 137,
      "deflate": 138,
      "html": 139,
      "ĠK": 140,
      "or": 141,
      "lo": 142,
      "ie": 143,
      "con": 144,
      "im": 145,
      "agen": 146,
      "ncon": 147,
      "enco": 148,
      "da": 149,
      "le": 150,
      "us": 151,
      "ok": 152,
      "cook": 153,
      "lang": 154,
      "SI": 155,
      "pa": 156,
      "cal": 157,
      "uage": 158,
      "language": 159,
      "local": 160,
      "localhost": 161,
      "ES": 162,
      "SES": 163,
      "SESSI": 164,
      "lla": 165,
      "cookie": 166,
      "com": 167,
      "ke": 168,
      "ing": 169,
      "Mo": 170,
      "ko": 171,
      "/*": 172,
      "user": 173,
      "ux": 174,
      "TP": 175,
      "nec": 176,
      "ding": 177,
      "Lin": 178,
      "nuser": 179,
      "ecko": 180,
      "agent": 181,
      "encoding": 182,
      "Gecko": 183,
      "nhost": 184,
      "Ġ/": 185,
      "Ġen": 186,
      "ĠHT": 187,
      "Ġlocalhost": 188,
      "ĠMo": 189,
      "ĠLin": 190,
      "ĠGecko": 191,
      "zilla": 192,
      "nconnec": 193,
      "ĠHTTP": 194,
      "ĠMozilla": 195,
      "ĠLinux": 196,
      "nconnection": 197,
      "*/*": 198,
      "Ġgzip": 199,
      "Ġdeflate": 200,
      "ncookie": 201,
      "Ġtext": 202,
      "*/*;": 203,
      "ID": 204,
      "ON": 205,
      "JSESSI": 206,
      "ĠJSESSI": 207,
      "ONID": 208,
      "ĠJSESSIONID": 209,
      "los": 210,
      "image": 211,
      "qu": 212,
      "ble": 213,
      ",*/*;": 214,
      "pla": 215,
      "png": 216,
      "plain": 217,
      "xhtml": 218,
      "quer": 219,
      "tien": 220,
      "Ġc": 221,
      "tienda": 222,
      "8080": 223,
      "like": 224,
      "compa": 225,
      "onquer": 226,
      "lose": 227,
      ")\\": 228,
      "ML": 229,
      "tible": 230,
      "HTML": 231,
      "ĠKonquer": 232,
      "ĠKHTML": 233,
      "Ġclose": 234,
      "compatible": 235,
      "ĠKonqueror": 236,
      "et": 237,
      "get": 238,
      "ar": 239,
      "js": 240,
      "jsp": 241,
      "re": 242,
      "st": 243,
      "ub": 244,
      "mb": 245,
      "ubli": 246,
      "publi": 247,
      "publico": 248,
      "di": 249,
      "ww": 250,
      "ci": 251,
      "gi": 252,
      "01": 253,
      "nt": 254,
      "ro": 255,
      "es": 256,
      "ss": 257,
      "al": 258,
      "ri": 259,
      "38": 260,
      "42": 261,
      "mo": 262,
      "rec": 263,
      "17": 264,
      "rar": 265,
      "gist": 266,
      "Ġapplication": 267,
      "36": 268,
      "an": 269,
      "ur": 270,
      "do": 271,
      "car": 272,
      "40": 273,
      "ros": 274,
      "mie": 275,
      "mbros": 276,
      "imagen": 277,
      "miembros": 278,
      "imagenes": 279,
      "at": 280,
      "no": 281,
      "ty": 282,
      "99": 283,
      "pe": 284,
      "gin": 285,
      "86": 286,
      "41": 287,
      "for": 288,
      "tent": 289,
      "post": 290,
      "ncontent": 291,
      "type": 292,
      "el": 293,
      "form": 294,
      "45": 295,
      "ded": 296,
      "url": 297,
      "www": 298,
      "encoded": 299,
      "urlencoded": 300,
      "modo": 301,
      "98": 302,
      "11": 303,
      "46": 304,
      "as": 305,
      "00": 306,
      "83": 307,
      "ent": 308,
      "ch": 309,
      "25": 310,
      "ni": 311,
      "cia": 312,
      "20": 313,
      "57": 314,
      "eb": 315,
      "dad": 316,
      "91": 317,
      "FB": 318,
      "login": 319,
      "mbre": 320,
      "regist": 321,
      "31": 322,
      "nombre": 323,
      "registro": 324,
      "47": 325,
      "CC": 326,
      "DD": 327,
      "22": 328,
      "BA": 329,
      "97": 330,
      "to": 331,
      "io": 332,
      "06": 333,
      "87": 334,
      "37": 335,
      "mi": 336,
      "pro": 337,
      "85": 338,
      "me": 339,
      "96": 340,
      "27": 341,
      "sec": 342,
      "26": 343,
      "carri": 344,
      "ED": 345,
      "carrito": 346,
      "gif": 347,
      "ma": 348,
      "142": 349,
      "95": 350,
      "il": 351,
      "35": 352,
      "FA": 353,
      "21": 354,
      "dis": 355,
      "nsec": 356,
      "fet": 357,
      "fetch": 358,
      "ref": 359,
      "miss": 360,
      "stat": 361,
      "status": 362,
      "dismiss": 363,
      "FC": 364,
      "81": 365,
      "34": 366,
      "64": 367,
      "jp": 368,
      "EA": 369,
      "71": 370,
      "cor": 371,
      "Re": 372,
      "90": 373,
      "jpg": 374,
      "30": 375,
      "DA": 376,
      "aci": 377,
      "wor": 378,
      "tar": 379,
      "lid": 380,
      "adi": 381,
      "FE": 382,
      "bal": 383,
      "sswor": 384,
      "ssword": 385,
      "sa": 386,
      "vin": 387,
      "ra": 388,
      "udad": 389,
      "ema": 390,
      "password": 391,
      "cion": 392,
      "direc": 393,
      "nti": 394,
      "cp": 395,
      "glo": 396,
      "email": 397,
      "82": 398,
      "apel": 399,
      "ntc": 400,
      "recio": 401,
      "adir": 402,
      "aciar": 403,
      "global": 404,
      "ZR": 405,
      "dni": 406,
      "nmodo": 407,
      "precio": 408,
      "ciudad": 409,
      "gistrar": 410,
      "entrar": 411,
      "provin": 412,
      "Registrar": 413,
      "lidos": 414,
      "direccion": 415,
      "apellidos": 416,
      "provincia": 417,
      "BC": 418,
      "70": 419,
      "ue": 420,
      "FD": 421,
      "EC": 422,
      "39": 423,
      "56": 424,
      "AA": 425,
      "BB": 426,
      "517": 427,
      "ner": 428,
      "ja": 429,
      "ser": 430,
      "55": 431,
      "au": 432,
      "BD": 433,
      "Go": 434,
      "EE": 435,
      "si": 436,
      "Web": 437,
      "nue": 438,
      "Goat": 439,
      "WebGoat": 440,
      "mv": 441,
      "5173": 442,
      "32": 443,
      "66": 444,
      "CA": 445,
      "FF": 446,
      "51": 447,
      "44": 448,
      "Ij": 449,
      "92": 450,
      "CD": 451,
      "tos": 452,
      "EB": 453,
      "mvc": 454,
      "50": 455,
      "men": 456,
      "EF": 457,
      "CB": 458,
      "48": 459,
      "Wx": 460,
      "67": 461,
      "br": 462,
      "61": 463,
      "07": 464,
      "Jl": 465,
      "sI": 466,
      "33": 467,
      "88": 468,
      "94": 469,
      "vi": 470,
      "ox": 471,
      "ve": 472,
      "Co": 473,
      "Fi": 474,
      "201": 475,
      "id": 476,
      "ori": 477,
      "AD": 478,
      "ate": 479,
      "ali": 480,
      "001": 481,
      "93": 482,
      "60": 483,
      "77": 484,
      "les": 485,
      "52": 486,
      "Mj": 487,
      "\":": 488,
      "ons": 489,
      "CI": 490,
      "DC": 491,
      "ND": 492,
      "AB": 493,
      "mode": 494,
      "{\"": 495,
      "tp": 496,
      "DB": 497,
      "US": 498,
      "wel": 499,
      "Ijo": 500,
      "site": 501,
      "AC": 502,
      "PH": 503,
      "rv": 504,
      "refox": 505,
      "Ġke": 506,
      "ĠFi": 507,
      "Ġrv": 508,
      "encia": 509,
      "erer": 510,
      "201001": 511,
      "alive": 512,
      "Ġkeep": 513,
      "ĠFirefox": 514,
      "20100101": 515,
      "Code": 516,
      "iec": 517,
      "state": 518,
      "same": 519,
      "Ġg": 520,
      "Ġsame": 521,
      "tinue": 522,
      "origin": 523,
      "anner": 524,
      "zst": 525,
      "Ġbr": 526,
      "Ġzst": 527,
      "continue": 528,
      "Ġzstd": 529,
      "={\"": 530,
      "PSESSI": 531,
      "};": 532,
      "Ġcook": 533,
      "Ġlanguage": 534,
      "Ġwel": 535,
      "ĠPH": 536,
      "Ġcontinue": 537,
      "comeb": 538,
      "onsent": 539,
      "ieconsent": 540,
      "PSESSID": 541,
      "Ġcookieconsent": 542,
      "Ġwelcomeb": 543,
      "ĠPHPSESSID": 544,
      "ĠcontinueCode": 545,
      "Ġwelcomebanner": 546,
      "http": 547,
      "10": 548,
      "//": 549,
      "://": 550,
      "nref": 551,
      "Ġhttp": 552,
      "nreferer": 553,
      "84": 554,
      "go": 555,
      "aj": 556,
      "bm": 557,
      "Ii": 558,
      "GM": 559,
      "cors": 560,
      "62": 561,
      "Ms": 562,
      "less": 563,
      "Ijoi": 564,
      "sti": 565,
      "lesson": 566,
      "tas": 567,
      "yO": 568,
      "cas": 569,
      "CE": 570,
      "wd": 571,
      "89": 572,
      "zm": 573,
      "BE": 574,
      "edi": 575,
      "red": 576,
      "DO": 577,
      "iO": 578,
      "12": 579,
      "nov": 580,
      "43": 581,
      "Ent": 582,
      "teri": 583,
      "mber": 584,
      "65": 585,
      "DE": 586,
      "AE": 587,
      "+&": 588,
      "pag": 589,
      "CF": 590,
      "VA": 591,
      "inde": 592,
      "reme": 593,
      "CJ": 594,
      "DF": 595,
      "ror": 596,
      "EQ": 597,
      "canti": 598,
      "correc": 599,
      "Bbm": 600,
      "Cred": 601,
      "KyO": 602,
      "Lzm": 603,
      "PJ": 604,
      "QDO": 605,
      "Vaciar": 606,
      "Xk": 607,
      "YVA": 608,
      "gYVA": 609,
      "pwd": 610,
      "qPJ": 611,
      "vaciar": 612,
      "wWx": 613,
      "zZR": 614,
      "tenti": 615,
      "inser": 616,
      "incorrec": 617,
      "acteri": 618,
      "reZR": 619,
      "alND": 620,
      "anadir": 621,
      "caracteri": 622,
      "nid": 623,
      "autenti": 624,
      "JlGM": 625,
      "enciales": 626,
      "Msg": 627,
      "sticas": 628,
      "editar": 629,
      "novp": 630,
      "Entrar": 631,
      "pagar": 632,
      "index": 633,
      "remember": 634,
      "rorMsg": 635,
      "cantidad": 636,
      "BbmzZR": 637,
      "Credenciales": 638,
      "KyOqPJ": 639,
      "LzmXk": 640,
      "gYVAJlGM": 641,
      "wWxalND": 642,
      "insertar": 643,
      "incorrectas": 644,
      "reZRLzmXk": 645,
      "caracteristicas": 646,
      "autenticar": 647,
      "BbmzZRb": 648,
      "ZX": 649,
      "AF": 650,
      "BF": 651,
      "bf": 652,
      "15": 653,
      "49": 654,
      "iJ": 655,
      "16": 656,
      "Ġcors": 657,
      "360": 658,
      "MT": 659,
      "LCJ": 660,
      "FBE": 661,
      "05": 662,
      "29": 663,
      "art": 664,
      "74": 665,
      "ce": 666,
      "76": 667,
      "75": 668,
      "menu": 669,
      "28": 670,
      "24": 671,
      "9899": 672,
      "23": 673,
      "4199": 674,
      "start": 675,
      "989941": 676,
      "wi": 677,
      "json": 678,
      "ul": 679,
      "101": 680,
      "cri": 681,
      "YW": 682,
      "pt": 683,
      "283": 684,
      "vas": 685,
      "cript": 686,
      "am": 687,
      "58": 688,
      "hi": 689,
      "53": 690,
      "Ġq": 691,
      "Ġ*/*;": 692,
      "63": 693,
      "54": 694,
      "ir": 695,
      "javas": 696,
      "javascript": 697,
      "ey": 698,
      "59": 699,
      "13": 700,
      "MD": 701,
      "servi": 702,
      "79": 703,
      "7098": 704,
      "service": 705,
      "NT": 706,
      "dbf": 707,
      "28336": 708,
      "7098101": 709,
      "dbfd": 710,
      "68": 711,
      "ZW": 712,
      "14": 713,
      "72": 714,
      "Nz": 715,
      "du": 716,
      "18": 717,
      "GF": 718,
      "mar": 719,
      "09": 720,
      "Iiwi": 721,
      "78": 722,
      "02": 723,
      "nB": 724,
      "176": 725,
      "73": 726,
      "eyJ": 727,
      "19": 728,
      "387": 729,
      "69": 730,
      "03": 731,
      "08": 732,
      "zd": 733,
      "Mz": 734,
      "786": 735,
      "04": 736,
      "por": 737,
      "of": 738,
      "fo": 739,
      "062": 740,
      "Ym": 741,
      "ack": 742,
      "tu": 743,
      "dCI": 744,
      "zar": 745,
      "duc": 746,
      "css": 747,
      "og": 748,
      "GV": 749,
      "3483": 750,
      "alle": 751,
      "sIm": 752,
      "jack": 753,
      "erra": 754,
      "Con": 755,
      "Pas": 756,
      "iLCJ": 757,
      "0057": 758,
      "9122": 759,
      "4642": 760,
      "Ġhi": 761,
      "363483": 762,
      "176363483": 763,
      "38725": 764,
      "7860057": 765,
      "06238725": 766,
      "464206238725": 767,
      "Ġhijack": 768,
      "1763634839122": 769,
      "7860057464206238725": 770,
      "produc": 771,
      "ono": 772,
      "off": 773,
      "RB": 774,
      "Iw": 775,
      "stro": 776,
      "8082": 777,
      "Nj": 778,
      "stra": 779,
      "iOiJ": 780,
      "cre": 781,
      "Calle": 782,
      "nV": 783,
      "logo": 784,
      "fir": 785,
      "titu": 786,
      "esti": 787,
      "fotos": 788,
      "castro": 789,
      "sali": 790,
      "bul": 791,
      "tierra": 792,
      "caja": 793,
      "Pasar": 794,
      "credi": 795,
      "productos": 796,
      "cmen": 797,
      "errorMsg": 798,
      "nerrorMsg": 799,
      "auz": 800,
      "nuestra": 801,
      "menum": 802,
      "zarauz": 803,
      "ogono": 804,
      "titulo": 805,
      "estilos": 806,
      "salir": 807,
      "creditos": 808,
      "cmenbul": 809,
      "nuestratierra": 810,
      "Confir": 811,
      "Confirmar": 812,
      "ls": 813,
      "Rl": 814,
      "ea": 815,
      "ver": 816,
      "za": 817,
      "ino": 818,
      "dX": 819,
      "MTE": 820,
      "ab": 821,
      "Qu": 822,
      "Rio": 823,
      "100": 824,
      "ZWRB": 825,
      "ZWRBdCI": 826,
      "pY": 827,
      "De": 828,
      "lIjoi": 829,
      "tYW": 830,
      "pb": 831,
      "sb": 832,
      "che": 833,
      "Rioja": 834,
      "na": 835,
      "Ġt": 836,
      "Man": 837,
      "YX": 838,
      "fa": 839,
      "ha": 840,
      "bG": 841,
      "657": 842,
      "Ny": 843,
      "452": 844,
      "ad": 845,
      "lessonmenu": 846,
      "466": 847,
      "Vino": 848,
      "ZGF": 849,
      "sInV": 850,
      "ow": 851,
      "ran": 852,
      "Lj": 853,
      "eso": 854,
      "MjU": 855,
      "ta": 856,
      "iI": 857,
      "rico": 858,
      "Queso": 859,
      "chego": 860,
      "Manchego": 861,
      "Ib": 862,
      "MjA": 863,
      "Al": 864,
      "Uz": 865,
      "Ju": 866,
      "WF": 867,
      "mU": 868,
      "vie": 869,
      "Jam": 870,
      "uri": 871,
      "Vi": 872,
      "ol": 873,
      "cm": 874,
      "Yz": 875,
      "ne": 876,
      "Zj": 877,
      "va": 878,
      "view": 879,
      "man": 880,
      "Sa": 881,
      "hc": 882,
      "over": 883,
      "ada": 884,
      "OT": 885,
      "tMTE": 886,
      "IjIw": 887,
      "IjoiIiwi": 888,
      "MjUtMTE": 889,
      "IjIwMjUtMTE": 890,
      "IjIwMjUtMTEt": 891,
      "pYy": 892,
      "overview": 893,
      "lessonoverview": 894,
      "ia": 895,
      "he": 896,
      "Ar": 897,
      "Pa": 898,
      "aea": 899,
      "6575": 900,
      "45297": 901,
      "ZWx": 902,
      "kZWx": 903,
      "Ex": 904,
      "ed": 905,
      "OW": 906,
      "ona": 907,
      "tYWls": 908,
      "pos": 909,
      "jJ": 910,
      "cH": 911,
      "sv": 912,
      "Gd": 913,
      "MCI": 914,
      "cy": 915,
      "MDU": 916,
      "hZ": 917,
      "FN": 918,
      "sw": 919,
      "/\\": 920,
      "XA": 921,
      "urity": 922,
      "security": 923,
      "IC": 924,
      "253": 925,
      "oken": 926,
      "La": 927,
      "Zl": 928,
      "Ġ*/*": 929,
      "Ġ*/*\\": 930,
      "gu": 931,
      "ru": 932,
      "LB": 933,
      "My": 934,
      "MDow": 935,
      "MjAg": 936,
      "IjIwMjUtMTEtMjAg": 937,
      "swMDow": 938,
      "ICswMDow": 939,
      "ICswMDowMCI": 940,
      "Mv": 941,
      "lb": 942,
      "mO": 943,
      "QiO": 944,
      "Jv": 945,
      "sible": 946,
      "so": 947,
      "impos": 948,
      "872": 949,
      "impossible": 950,
      "ciO": 951,
      "KV": 952,
      "MiOiJ": 953,
      "NiJ": 954,
      "QiLCJ": 955,
      "SUz": 956,
      "WNj": 957,
      "YSI": 958,
      "ZCI": 959,
      "eXA": 960,
      "hYm": 961,
      "hbG": 962,
      "pZCI": 963,
      "zL": 964,
      "zZX": 965,
      "SIsI": 966,
      "ZXNz": 967,
      "iJSUz": 968,
      "IiwiZGF": 969,
      "eyJzd": 970,
      "eyJpZCI": 971,
      "zdWNj": 972,
      "iOiJKV": 973,
      "dXMiOiJ": 974,
      "Ġtoken": 975,
      "sInVzZX": 976,
      "JuYW": 977,
      "ciOiJSUz": 978,
      "QiLCJhbG": 979,
      "eXAiOiJKV": 980,
      "ZXNzIiwiZGF": 981,
      "eyJzdGF": 982,
      "zdWNjZXNzIiwiZGF": 983,
      "dXMiOiJzdWNjZXNzIiwiZGF": 984,
      "sInVzZXJuYW": 985,
      "ciOiJSUzI": 986,
      "QiLCJhbGciOiJSUzI": 987,
      "ga": 988,
      "Ġsecurity": 989,
      "del": 990,
      "834": 991,
      "Cu": 992,
      "Ub": 993,
      "Bar": 994,
      "WU": 995,
      "nR": 996,
      "uM": 997,
      "Pg": 998,
      "fi": 999,
      "ght": 1000,
      "UiLCJ": 1001,
      "eGV": 1002,
      "tlb": 1003,
      "IiLCJ": 1004,
      "WFn": 1005,
      "eGVUb": 1006,
      "tlbiI": 1007,
      "ba": 1008,
      "jo": 1009,
      "ll": 1010,
      "Val": 1011,
      "Ca": 1012,
      "ge": 1013,
      "is": 1014,
      "Gu": 1015,
      "yb": 1016,
      "era": 1017,
      "Mar": 1018,
      "RzL": 1019,
      "Car": 1020,
      "un": 1021,
      "Fk": 1022,
      "light": 1023,
      "RlZ": 1024,
      "Ad": 1025,
      "Le": 1026,
      "San": 1027,
      "heme": 1028,
      "Ġtheme": 1029,
      "all": 1030,
      "NB": 1031,
      "sImRl": 1032,
      "sImRlb": 1033,
      "Bsb": 1034,
      "xpYy": 1035,
      "ZXMv": 1036,
      "ZXRzL": 1037,
      "NzZXRzL": 1038,
      "YmxpYy": 1039,
      "dXBsb": 1040,
      "pbWFn": 1041,
      "YXNzZXRzL": 1042,
      "Fkcy": 1043,
      "ZXMvdXBsb": 1044,
      "pbWFnZXMvdXBsb": 1045,
      "Ch": 1046,
      "aX": 1047,
      "jcm": 1048,
      "se": 1049,
      "sIml": 1050,
      "MzY": 1051,
      "jcmV": 1052,
      "IiI": 1053,
      "Qx": 1054,
      "RlZEF": 1055,
      "ltYW": 1056,
      "ltYWd": 1057,
      "Cas": 1058,
      "Na": 1059,
      "Ro": 1060,
      "ara": 1061,
      "TE": 1062,
      "Se": 1063,
      "hh": 1064,
      "th": 1065,
      "hd": 1066,
      "ana": 1067,
      "bd": 1068,
      "sZ": 1069,
      "ZS": 1070,
      "jw": 1071,
      "yd": 1072,
      "Lm": 1073,
      "wf": 1074,
      "Gls": 1075,
      "dd": 1076,
      "ter": 1077,
      "web": 1078,
      "kq": 1079,
      "pd": 1080,
      "Mb": 1081,
      "Rw": 1082,
      "Rpd": 1083,
      "UltYWd": 1084,
      "VjcmV": 1085,
      "ZV": 1086,
      "Zml": 1087,
      "bnV": 1088,
      "hdCI": 1089,
      "oF": 1090,
      "wZGF": 1091,
      "ciLCJ": 1092,
      "iOnR": 1093,
      "MTc": 1094,
      "ZWF": 1095,
      "MzYz": 1096,
      "sImNy": 1097,
      "sbH": 1098,
      "sInVwZGF": 1099,
      "mUiOnR": 1100,
      "IjoiIiwiaX": 1101,
      "cHJv": 1102,
      "WUsImNy": 1103,
      "NBY": 1104,
      "sImRlbGV": 1105,
      "sImlhdCI": 1106,
      "sZUltYWd": 1107,
      "ydWUsImNy": 1108,
      "RwU": 1109,
      "RpdmUiOnR": 1110,
      "ZmlsZUltYWd": 1111,
      "bnVsbH": 1112,
      "IjoiIiwiaXNBY": 1113,
      "cHJvZmlsZUltYWd": 1114,
      "ydWUsImNyZWF": 1115,
      "RpdmUiOnRydWUsImNyZWF": 1116,
      "cHJvZmlsZUltYWdlIjoi": 1117,
      "Wr": 1118,
      "AAA": 1119,
      "BM": 1120,
      "DQ": 1121,
      "Lbr": 1122,
      "MWr": 1123,
      "Pea": 1124,
      "XV": 1125,
      "YRl": 1126,
      "ZMWr": 1127,
      "gjJ": 1128,
      "lw": 1129,
      "nmv": 1130,
      "wK": 1131,
      "ora": 1132,
      "NyXV": 1133,
      "ExW": 1134,
      "mOLbr": 1135,
      "kqYRl": 1136,
      "BMNyXV": 1137,
      "PeaBMNyXV": 1138,
      "ZMWrX": 1139,
      "gjJwK": 1140,
      "nmvd": 1141,
      "mOLbrgjJwK": 1142,
      "kqYRlExW": 1143,
      "ina": 1144,
      "pbk": 1145,
      "Jh": 1146,
      "Jk": 1147,
      "Nv": 1148,
      "QGd": 1149,
      "Rj": 1150,
      "RMb": 1151,
      "Vzd": 1152,
      "ZTE": 1153,
      "bSIsI": 1154,
      "db": 1155,
      "dpbk": 1156,
      "lhYm": 1157,
      "tZX": 1158,
      "wYW": 1159,
      "xlIjoi": 1160,
      "xhc": 1161,
      "ero": 1162,
      "8081": 1163,
      "JlNT": 1164,
      "IjoiZTE": 1165,
      "NTlhYm": 1166,
      "nBhc": 1167,
      "Mzk": 1168,
      "sImxhc": 1169,
      "IwZj": 1170,
      "ZjIwZj": 1171,
      "OWJh": 1172,
      "tYWlsLm": 1173,
      "ZlMDU": 1174,
      "UiLCJyb": 1175,
      "IiLCJkZWx": 1176,
      "IiIsImxhc": 1177,
      "JkIjoiZTE": 1178,
      "NvbSIsI": 1179,
      "QGdtYWlsLm": 1180,
      "RjMzk": 1181,
      "VzdG": 1182,
      "dpbklw": 1183,
      "tZXIiLCJkZWx": 1184,
      "wYWRjMzk": 1185,
      "xlIjoiY": 1186,
      "JlNTZlMDU": 1187,
      "NTlhYmJlNTZlMDU": 1188,
      "ZjIwZjg": 1189,
      "OWJhNTlhYmJlNTZlMDU": 1190,
      "JkIjoiZTEwYWRjMzk": 1191,
      "NvbSIsInBhc": 1192,
      "QGdtYWlsLmNvbSIsInBhc": 1193,
      "401": 1194,
      "ili": 1195,
      "ano": 1196,
      "Fr": 1197,
      "res": 1198,
      "25320": 1199,
      "bff": 1200,
      "avi": 1201,
      "MjB": 1202,
      "edf": 1203,
      "bffc": 1204,
      "Nk": 1205,
      "NmU": 1206,
      "zH": 1207,
      "QiOi": 1208,
      "697": 1209,
      "Villa": 1210,
      "Eu": 1211,
      "HY": 1212,
      "HZ": 1213,
      "nj": 1214,
      "Ġno": 1215,
      "To": 1216,
      "kr": 1217,
      "gos": 1218,
      "lu": 1219,
      "Sant": 1220,
      "ho": 1221,
      "rw": 1222,
      "tor": 1223,
      "be": 1224,
      "MjM": 1225,
      "Ci": 1226,
      "Jc": 1227,
      "361": 1228,
      "877": 1229,
      "dH": 1230,
      "po": 1231,
      "242": 1232,
      "380": 1233,
      "CX": 1234,
      "EDa": 1235,
      "svg": 1236,
      "Es": 1237,
      "cel": 1238,
      "hha": 1239,
      "471": 1240,
      "Mon": 1241,
      "zc": 1242,
      "Ax": 1243,
      "Bur": 1244,
      "HO": 1245,
      "VtYWls": 1246,
      "bml": 1247,
      "wQGdtYWlsLmNvbSIsInBhc": 1248,
      "ya": 1249,
      "SIsIm": 1250,
      "raGls": 1251,
      "Ijoibml": 1252,
      "lIjoiQ": 1253,
      "LjY": 1254,
      "MzYwQGdtYWlsLmNvbSIsInBhc": 1255,
      "MjMsInVzZXJuYW": 1256,
      "hhaSIsIm": 1257,
      "VtYWlsIjoibml": 1258,
      "raGlsLjY": 1259,
      "hhaSIsImVtYWlsIjoibml": 1260,
      "hhaSIsImVtYWlsIjoibmlraGlsLjY": 1261,
      "des": 1262,
      "iq": 1263,
      "ling": 1264,
      "997": 1265,
      "470": 1266,
      "341": 1267,
      "337": 1268,
      "396": 1269,
      "485": 1270,
      "327": 1271,
      "440": 1272,
      "926": 1273,
      "uel": 1274,
      "zg": 1275,
      "326": 1276,
      "Ye": 1277,
      "Yo": 1278,
      "cza": 1279,
      "rU": 1280,
      "yw": 1281,
      "457": 1282,
      "CDA": 1283,
      "lL": 1284,
      "cic": 1285,
      "pYe": 1286,
      "940": 1287,
      "BV": 1288,
      "Fw": 1289,
      "bX": 1290,
      "oim": 1291,
      "yq": 1292,
      "461": 1293,
      "BZV": 1294,
      "Gb": 1295,
      "HMo": 1296,
      "IuM": 1297,
      "MX": 1298,
      "OQ": 1299,
      "Oa": 1300,
      "Pyw": 1301,
      "QR": 1302,
      "Qv": 1303,
      "SQR": 1304,
      "TZ": 1305,
      "Ts": 1306,
      "Tw": 1307,
      "UoF": 1308,
      "Vx": 1309,
      "WQ": 1310,
      "WYo": 1311,
      "WlL": 1312,
      "ZHY": 1313,
      "ZbX": 1314,
      "__": 1315,
      "bCX": 1316,
      "fz": 1317,
      "kd": 1318,
      "kHO": 1319,
      "mAx": 1320,
      "qx": 1321,
      "wbm": 1322,
      "yPa": 1323,
      "yMy": 1324,
      "zjJ": 1325,
      "onQv": 1326,
      "okFC": 1327,
      "urV": 1328,
      "456": 1329,
      "jpgyPa": 1330,
      "saurV": 1331,
      "MjEu": 1332,
      "NDMy": 1333,
      "MTIuM": 1334,
      "MDc": 1335,
      "NTU": 1336,
      "NzUz": 1337,
      "RBne": 1338,
      "YzbCX": 1339,
      "IjoiIiwicHJvZmlsZUltYWdlIjoi": 1340,
      "pYyHMo": 1341,
      "svVx": 1342,
      "LByq": 1343,
      "LBRBne": 1344,
      "IjIwMjUtMTEtMjAgMTE": 1345,
      "IjIwMjUtMTEtMjAgMDc": 1346,
      "ICswMDowMCIsInVwZGF": 1347,
      "ICswMDowMCIsImRlbGV": 1348,
      "PgLBRBne": 1349,
      "Adqx": 1350,
      "hhmAx": 1351,
      "MzYzNzUz": 1352,
      "dpbklwIjoiIiwicHJvZmlsZUltYWdlIjoi": 1353,
      "FrjpgyPa": 1354,
      "zHzjJ": 1355,
      "HZBZV": 1356,
      "njrU": 1357,
      "iqnjrU": 1358,
      "YeGd": 1359,
      "czaoim": 1360,
      "cicB": 1361,
      "pYeOa": 1362,
      "BVTs": 1363,
      "FwsvVx": 1364,
      "Gbjw": 1365,
      "OQiqnjrU": 1366,
      "PywWlL": 1367,
      "SQRpYyHMo": 1368,
      "TZPgLBRBne": 1369,
      "Twzg": 1370,
      "UoFTZPgLBRBne": 1371,
      "WYoG": 1372,
      "ZbXGbjw": 1373,
      "fzkr": 1374,
      "kHOFrjpgyPa": 1375,
      "wbmciLCJ": 1376,
      "onQvrw": 1377,
      "okFCkHOFrjpgyPa": 1378,
      "MjEuNDMy": 1379,
      "MTIuMDA": 1380,
      "LByqcicB": 1381,
      "AdqxsaurV": 1382,
      "hhmAxZHY": 1383,
      "MzYzNzUzMX": 1384,
      "dpbklwIjoiIiwicHJvZmlsZUltYWdlIjoiYXNzZXRzL": 1385,
      "zHzjJM": 1386,
      "HZBZVH": 1387,
      "czaoimCu": 1388,
      "pYeOaLByqcicB": 1389,
      "FwsvVxhhmAxZHY": 1390,
      "PywWlLYzbCX": 1391,
      "UoFTZPgLBRBneFwsvVxhhmAxZHY": 1392,
      "okFCkHOFrjpgyPaTwzg": 1393,
      "MjEuNDMyICswMDowMCIsInVwZGF": 1394,
      "897": 1395,
      "467": 1396,
      "200": 1397,
      "437": 1398,
      "827": 1399,
      "177": 1400,
      "451": 1401,
      "342": 1402,
      "811": 1403,
      "825": 1404,
      "BEA": 1405,
      "EEC": 1406,
      "306": 1407,
      "435": 1408,
      "MF": 1409,
      "Tor": 1410,
      "800": 1411,
      "171": 1412,
      "236": 1413,
      "942": 1414,
      "911": 1415,
      "927": 1416,
      "var": 1417,
      "Burgos": 1418,
      "ber": 1419,
      "ente": 1420,
      "que": 1421,
      "BAD": 1422,
      "967": 1423,
      "901": 1424,
      "027": 1425,
      "386": 1426,
      "918": 1427,
      "486": 1428,
      "NS": 1429,
      "it": 1430,
      "ida": 1431,
      "ka": 1432,
      "ago": 1433,
      "805": 1434,
      "091": 1435,
      "311": 1436,
      "397": 1437,
      "477": 1438,
      "871": 1439,
      "ECC": 1440,
      "EFA": 1441,
      "FK": 1442,
      "xM": 1443,
      "501": 1444,
      "506": 1445,
      "895": 1446,
      "CEC": 1447,
      "Mw": 1448,
      "Yj": 1449,
      "bo": 1450,
      "yMF": 1451,
      "yNS": 1452,
      "FCD": 1453,
      "IjoiMjA": 1454,
      "YXRlZEF": 1455,
      "OTM": 1456,
      "allen": 1457,
      "QxMT": 1458,
      "xMS": 1459,
      "yMFQxMT": 1460,
      "IjoiMjAyNS": 1461,
      "299": 1462,
      "441": 1463,
      "957": 1464,
      "UT": 1465,
      "EAA": 1466,
      "340": 1467,
      "442": 1468,
      "497": 1469,
      "495": 1470,
      "EED": 1471,
      "per": 1472,
      "367": 1473,
      ".+": 1474,
      "Cor": 1475,
      "bar": 1476,
      "ket": 1477,
      "261": 1478,
      "celona": 1479,
      "480": 1480,
      "842": 1481,
      "921": 1482,
      "166": 1483,
      "300": 1484,
      "446": 1485,
      "FDA": 1486,
      "dv": 1487,
      "mer": 1488,
      "FEE": 1489,
      "LjA": 1490,
      "087": 1491,
      "301": 1492,
      "395": 1493,
      "=%": 1494,
      "AFB": 1495,
      "BCC": 1496,
      "lin": 1497,
      "sta": 1498,
      "BAB": 1499,
      "/?": 1500,
      "317": 1501,
      "899": 1502,
      "Ma": 1503,
      "/*;": 1504,
      "381": 1505,
      "051": 1506,
      "211": 1507,
      "836": 1508,
      "980": 1509,
      "925": 1510,
      "906": 1511,
      "allenge": 1512,
      "ig": 1513,
      "Ġimage": 1514,
      "475": 1515,
      "BCA": 1516,
      "webp": 1517,
      "avif": 1518,
      "335": 1519,
      "595": 1520,
      "917": 1521,
      "rid": 1522,
      "316": 1523,
      "221": 1524,
      "320": 1525,
      "499": 1526,
      "498": 1527,
      "886": 1528,
      "Cam": 1529,
      "DED": 1530,
      "EEA": 1531,
      "FCC": 1532,
      "810": 1533,
      "297": 1534,
      "399": 1535,
      "417": 1536,
      "DEA": 1537,
      "ic": 1538,
      "ly": 1539,
      "ena": 1540,
      "FCB": 1541,
      "106": 1542,
      "El": 1543,
      "QsInVzZXJuYW": 1544,
      "Ww": 1545,
      "tr": 1546,
      "250": 1547,
      "377": 1548,
      "307": 1549,
      "FDF": 1550,
      "MjQsInVzZXJuYW": 1551,
      "haWw": 1552,
      "286": 1553,
      "496": 1554,
      "556": 1555,
      "885": 1556,
      "Oj": 1557,
      "lan": 1558,
      "191": 1559,
      "235": 1560,
      "696": 1561,
      "986": 1562,
      "EBC": 1563,
      "FDD": 1564,
      "alla": 1565,
      "pol": 1566,
      "315": 1567,
      "227": 1568,
      "FEC": 1569,
      "042": 1570,
      "357": 1571,
      "491": 1572,
      "Del": 1573,
      "cu": 1574,
      "FAA": 1575,
      "ulner": 1576,
      "055": 1577,
      "880": 1578,
      "900": 1579,
      "BDD": 1580,
      "FED": 1581,
      "Ter": 1582,
      "las": 1583,
      "int": 1584,
      "251": 1585,
      "FBB": 1586,
      "FAC": 1587,
      "FDC": 1588,
      "Challenge": 1589,
      "447": 1590,
      "898": 1591,
      "CED": 1592,
      "DBC": 1593,
      "Po": 1594,
      "bi": 1595,
      "gy": 1596,
      "hu": 1597,
      "366": 1598,
      "and": 1599,
      "256": 1600,
      "216": 1601,
      "597": 1602,
      "587": 1603,
      "896": 1604,
      "941": 1605,
      "ADA": 1606,
      "tran": 1607,
      "FBA": 1608,
      "FCE": 1609,
      "FCF": 1610,
      "127": 1611,
      "527": 1612,
      "727": 1613,
      "Pl": 1614,
      "FAD": 1615,
      "086": 1616,
      "240": 1617,
      "245": 1618,
      "296": 1619,
      "596": 1620,
      "817": 1621,
      "BBA": 1622,
      "abili": 1623,
      "Sala": 1624,
      "186": 1625,
      "287": 1626,
      "490": 1627,
      "557": 1628,
      "857": 1629,
      "CAA": 1630,
      "DBD": 1631,
      "LR": 1632,
      "LT": 1633,
      "PW": 1634,
      "XQiO": 1635,
      "ties": 1636,
      "ell": 1637,
      "371": 1638,
      "267": 1639,
      "EBE": 1640,
      "280": 1641,
      "217": 1642,
      "331": 1643,
      "483": 1644,
      "An": 1645,
      "ABA": 1646,
      "FEA": 1647,
      "Im": 1648,
      "vulner": 1649,
      "port": 1650,
      "abilities": 1651,
      "vulnerabilities": 1652,
      "338": 1653,
      "438": 1654,
      "546": 1655,
      "CBD": 1656,
      "ud": 1657,
      "lar": 1658,
      "415": 1659,
      "FCA": 1660,
      "336": 1661,
      "345": 1662,
      "840": 1663,
      "CBC": 1664,
      "DCC": 1665,
      "DCA": 1666,
      "llo": 1667,
      "370": 1668,
      "EDn": 1669,
      "FEF": 1670,
      "185": 1671,
      "547": 1672,
      "946": 1673,
      "947": 1674,
      "ADD": 1675,
      "EBD": 1676,
      "gs": 1677,
      "112": 1678,
      "226": 1679,
      "FAB": 1680,
      "Barcelona": 1681,
      "085": 1682,
      "157": 1683,
      "130": 1684,
      "487": 1685,
      "500": 1686,
      "841": 1687,
      "845": 1688,
      "826": 1689,
      "935": 1690,
      "Fe": 1691,
      "Zar": 1692,
      "iL": 1693,
      "FDB": 1694,
      "BBE": 1695,
      "sid": 1696,
      "180": 1697,
      "135": 1698,
      "391": 1699,
      "445": 1700,
      "586": 1701,
      "591": 1702,
      "ACB": 1703,
      "CEA": 1704,
      "En": 1705,
      "Lu": 1706,
      "Pla": 1707,
      "026": 1708,
      "035": 1709,
      "197": 1710,
      "599": 1711,
      "690": 1712,
      "887": 1713,
      "BEC": 1714,
      "EI": 1715,
      "EDD": 1716,
      "pi": 1717,
      "FBC": 1718,
      "FAF": 1719,
      "soc": 1720,
      "125": 1721,
      "298": 1722,
      "247": 1723,
      "285": 1724,
      "481": 1725,
      "891": 1726,
      "AEC": 1727,
      "Fa": 1728,
      "dm": 1729,
      "121": 1730,
      "542": 1731,
      "536": 1732,
      "520": 1733,
      "945": 1734,
      "AED": 1735,
      "Hu": 1736,
      "ph": 1737,
      "FEB": 1738,
      "237": 1739,
      "347": 1740,
      "535": 1741,
      "Si": 1742,
      "mc": 1743,
      "mas": 1744,
      "vo": 1745,
      "trans": 1746,
      "037": 1747,
      "136": 1748,
      "248": 1749,
      "398": 1750,
      "325": 1751,
      "436": 1752,
      "585": 1753,
      "890": 1754,
      "ABC": 1755,
      "yo": 1756,
      "837": 1757,
      "FBF": 1758,
      "310": 1759,
      "FFF": 1760,
      "095": 1761,
      "220": 1762,
      "321": 1763,
      "511": 1764,
      "526": 1765,
      "838": 1766,
      "936": 1767,
      "AZ": 1768,
      "ACA": 1769,
      "BDA": 1770,
      "har": 1771,
      "EEF": 1772,
      "038": 1773,
      "122": 1774,
      "541": 1775,
      "525": 1776,
      "686": 1777,
      "820": 1778,
      "822": 1779,
      "ACC": 1780,
      "ACD": 1781,
      "jara": 1782,
      "zZ": 1783,
      "BBF": 1784,
      "Navar": 1785,
      "socket": 1786,
      "140": 1787,
      "199": 1788,
      "156": 1789,
      "161": 1790,
      "295": 1791,
      "620": 1792,
      "766": 1793,
      "937": 1794,
      "BED": 1795,
      "BhZ": 1796,
      "BhYm": 1797,
      "CJl": 1798,
      "Dg": 1799,
      "Do": 1800,
      "UiOiJ": 1801,
      "UiL": 1802,
      "ZGV": 1803,
      "bWF": 1804,
      "cGF": 1805,
      "dCB": 1806,
      "hAZ": 1807,
      "lIjo": 1808,
      "nJv": 1809,
      "tIiwi": 1810,
      "tZS": 1811,
      "uY": 1812,
      "wNT": 1813,
      "zLj": 1814,
      "zOT": 1815,
      "arr": 1816,
      "CBtZS": 1817,
      "JlMT": 1818,
      "FiYm": 1819,
      "idGV": 1820,
      "GMzOT": 1821,
      "NThAZ": 1822,
      "Nzgy": 1823,
      "YmE": 1824,
      "pbCI": 1825,
      "sbCBtZS": 1826,
      "bGUiOiJ": 1827,
      "cmQiOi": 1828,
      "manca": 1829,
      "OTk": 1830,
      "OWFiYm": 1831,
      "mODg": 1832,
      "SIsInJv": 1833,
      "uMC": 1834,
      "MjBmODg": 1835,
      "NmUwNT": 1836,
      "dvcmQiOi": 1837,
      "haWwuY": 1838,
      "Salamanca": 1839,
      "dmMjBmODg": 1840,
      "zZSIsInJv": 1841,
      "BhZGMzOT": 1842,
      "CJlbWF": 1843,
      "UiLCJlbWF": 1844,
      "cGFzc": 1845,
      "lIjoidGV": 1846,
      "tIiwicGFzc": 1847,
      "zLjk": 1848,
      "JlMTBhZGMzOT": 1849,
      "NzgyNThAZ": 1850,
      "sbCBtZSBhYm": 1851,
      "OWFiYmU": 1852,
      "NmUwNTdmMjBmODg": 1853,
      "dvcmQiOiJlMTBhZGMzOT": 1854,
      "zZSIsInJvbGUiOiJ": 1855,
      "UiLCJlbWFpbCI": 1856,
      "lIjoidGVsbCBtZSBhYm": 1857,
      "NmUwNTdmMjBmODgzZSIsInJvbGUiOiJ": 1858,
      "dvcmQiOiJlMTBhZGMzOTQ": 1859,
      "080": 1860,
      "151": 1861,
      "540": 1862,
      "581": 1863,
      "640": 1864,
      "650": 1865,
      "ki": 1866,
      "son": 1867,
      "987": 1868,
      "Guada": 1869,
      "EIO": 1870,
      "transport": 1871,
      "607": 1872,
      "881": 1873,
      "920": 1874,
      "tz": 1875,
      "images": 1876,
      "polling": 1877,
      "107": 1878,
      "281": 1879,
      "521": 1880,
      "642": 1881,
      "627": 1882,
      "681": 1883,
      "DBA": 1884,
      "DCD": 1885,
      "set": 1886,
      "FBD": 1887,
      "agoza": 1888,
      "195": 1889,
      "930": 1890,
      "AEA": 1891,
      "BBB": 1892,
      "291": 1893,
      "292": 1894,
      "846": 1895,
      "wid": 1896,
      "lajara": 1897,
      "175": 1898,
      "via": 1899,
      "Guadalajara": 1900,
      "146": 1901,
      "196": 1902,
      "190": 1903,
      "238": 1904,
      "330": 1905,
      "580": 1906,
      "606": 1907,
      "656": 1908,
      "BBC": 1909,
      "Can": 1910,
      "EBA": 1911,
      "Ijp": 1912,
      "Pal": 1913,
      "ZSI": 1914,
      "wLjA": 1915,
      "tes": 1916,
      "410": 1917,
      "007": 1918,
      "Iiwid": 1919,
      "NjM": 1920,
      "198": 1921,
      "126": 1922,
      "167": 1923,
      "346": 1924,
      "611": 1925,
      "683": 1926,
      "AFE": 1927,
      "der": 1928,
      "mon": 1929,
      "EDC": 1930,
      "183": 1931,
      "147": 1932,
      "598": 1933,
      "531": 1934,
      "670": 1935,
      "799": 1936,
      "FFD": 1937,
      "ck": 1938,
      "FAE": 1939,
      "EAE": 1940,
      "DAC": 1941,
      "328": 1942,
      "Caste": 1943,
      "225": 1944,
      "431": 1945,
      "695": 1946,
      "883": 1947,
      "BFE": 1948,
      "DEC": 1949,
      "DEB": 1950,
      "dor": 1951,
      "131": 1952,
      "230": 1953,
      "322": 1954,
      "545": 1955,
      "637": 1956,
      "755": 1957,
      "ABD": 1958,
      "min": 1959,
      "osa": 1960,
      "rest": 1961,
      "EDF": 1962,
      "210": 1963,
      "Navarra": 1964,
      "056": 1965,
      "117": 1966,
      "155": 1967,
      "601": 1968,
      "AFC": 1969,
      "CFE": 1970,
      "Mad": 1971,
      "lor": 1972,
      "sh": 1973,
      "enca": 1974,
      "ledo": 1975,
      "EEE": 1976,
      "CBE": 1977,
      "vig": 1978,
      "oria": 1979,
      "097": 1980,
      "564": 1981,
      "636": 1982,
      "BEF": 1983,
      "CBA": 1984,
      "Da": 1985,
      "wZ": 1986,
      "eni": 1987,
      "ura": 1988,
      "CCB": 1989,
      "DDD": 1990,
      "907": 1991,
      "vila": 1992,
      "099": 1993,
      "096": 1994,
      "538": 1995,
      "583": 1996,
      "698": 1997,
      "635": 1998,
      "ABB": 1999,
      "CBB": 2000,
      "EFE": 2001,
      "EFD": 2002,
      "CCC": 2003,
      "323": 2004,
      "507": 2005,
      "022": 2006,
      "137": 2007,
      "241": 2008,
      "246": 2009,
      "GY": 2010,
      "Gir": 2011,
      "Mi": 2012,
      "gr": 2013,
      "ts": 2014,
      "cha": 2015,
      "CCD": 2016,
      "Zaragoza": 2017,
      "057": 2018,
      "138": 2019,
      "192": 2020,
      "747": 2021,
      "797": 2022,
      "785": 2023,
      "847": 2024,
      "Ba": 2025,
      "DFC": 2026,
      "FFA": 2027,
      "FFC": 2028,
      "mu": 2029,
      "BDE": 2030,
      "187": 2031,
      "181": 2032,
      "439": 2033,
      "685": 2034,
      "626": 2035,
      "671": 2036,
      "844": 2037,
      "892": 2038,
      "Av": 2039,
      "AFA": 2040,
      "BEB": 2041,
      "DFB": 2042,
      "DBB": 2043,
      "nte": 2044,
      "ern": 2045,
      "DDC": 2046,
      "Toledo": 2047,
      "046": 2048,
      "090": 2049,
      "430": 2050,
      "522": 2051,
      "680": 2052,
      "646": 2053,
      "600": 2054,
      "651": 2055,
      "717": 2056,
      "798": 2057,
      "922": 2058,
      "Pu": 2059,
      "QXQiO": 2060,
      "So": 2061,
      "gar": 2062,
      "kQXQiO": 2063,
      "zo": 2064,
      "Ġna": 2065,
      "BCE": 2066,
      "ECF": 2067,
      "AAF": 2068,
      "GVkQXQiO": 2069,
      "vigate": 2070,
      "Ġnavigate": 2071,
      "020": 2072,
      "390": 2073,
      "494": 2074,
      "641": 2075,
      "625": 2076,
      "621": 2077,
      "701": 2078,
      "757": 2079,
      "Ja": 2080,
      "MDA": 2081,
      "Valencia": 2082,
      "025": 2083,
      "092": 2084,
      "141": 2085,
      "145": 2086,
      "120": 2087,
      "931": 2088,
      "AFF": 2089,
      "BFF": 2090,
      "CEF": 2091,
      "EBB": 2092,
      "Ra": 2093,
      "bu": 2094,
      "iel": 2095,
      "407": 2096,
      "EAC": 2097,
      "BCF": 2098,
      "AAD": 2099,
      "php": 2100,
      "047": 2101,
      "691": 2102,
      "687": 2103,
      "AEB": 2104,
      "Gran": 2105,
      "Per": 2106,
      "oz": 2107,
      "EDB": 2108,
      "ECD": 2109,
      "BDB": 2110,
      "ABF": 2111,
      "045": 2112,
      "290": 2113,
      "645": 2114,
      "711": 2115,
      "796": 2116,
      "781": 2117,
      "821": 2118,
      "938": 2119,
      "944": 2120,
      "CEE": 2121,
      "DFD": 2122,
      "EFB": 2123,
      "Mm": 2124,
      "Qz": 2125,
      "BAE": 2126,
      "BAF": 2127,
      "ECB": 2128,
      "BDF": 2129,
      "098": 2130,
      "482": 2131,
      "638": 2132,
      "699": 2133,
      "780": 2134,
      "DFE": 2135,
      "FG": 2136,
      "ass": 2137,
      "eres": 2138,
      "ECE": 2139,
      "324": 2140,
      "ACF": 2141,
      "Teruel": 2142,
      "070": 2143,
      "193": 2144,
      "162": 2145,
      "537": 2146,
      "736": 2147,
      "791": 2148,
      "BFA": 2149,
      "CFB": 2150,
      "CFA": 2151,
      "CEB": 2152,
      "aga": 2153,
      "170": 2154,
      "DAD": 2155,
      "BCD": 2156,
      "329": 2157,
      "CAD": 2158,
      "164": 2159,
      "334": 2160,
      "588": 2161,
      "692": 2162,
      "Id": 2163,
      "Zam": 2164,
      "fr": 2165,
      "ns": 2166,
      "esca": 2167,
      "DDF": 2168,
      "EAB": 2169,
      "DAA": 2170,
      "631": 2171,
      "787": 2172,
      "AFD": 2173,
      "AEE": 2174,
      "Br": 2175,
      "Nl": 2176,
      "Valla": 2177,
      "DDE": 2178,
      "BAC": 2179,
      "DAE": 2180,
      "392": 2181,
      "CAB": 2182,
      "CAE": 2183,
      "DCE": 2184,
      "040": 2185,
      "144": 2186,
      "534": 2187,
      "590": 2188,
      "617": 2189,
      "655": 2190,
      "756": 2191,
      "750": 2192,
      "760": 2193,
      "934": 2194,
      "939": 2195,
      "DEE": 2196,
      "Zh": 2197,
      "ler": 2198,
      "cio": 2199,
      "ECA": 2200,
      "Santa": 2201,
      "Zamora": 2202,
      "036": 2203,
      "094": 2204,
      "530": 2205,
      "sf": 2206,
      "ets": 2207,
      "CDF": 2208,
      "DCF": 2209,
      "UTF": 2210,
      "031": 2211,
      "021": 2212,
      "160": 2213,
      "231": 2214,
      "544": 2215,
      "592": 2216,
      "746": 2217,
      "737": 2218,
      "795": 2219,
      "882": 2220,
      "932": 2221,
      "sp": 2222,
      "CCE": 2223,
      "DDA": 2224,
      "DDB": 2225,
      "277": 2226,
      "EDE": 2227,
      "394": 2228,
      "ADC": 2229,
      "ADE": 2230,
      "Cuenca": 2231,
      "030": 2232,
      "771": 2233,
      "BEE": 2234,
      "DCB": 2235,
      "Fj": 2236,
      "Fl": 2237,
      "Uw": 2238,
      "qui": 2239,
      "dolid": 2240,
      "EDA": 2241,
      "ACE": 2242,
      "Valladolid": 2243,
      "083": 2244,
      "082": 2245,
      "688": 2246,
      "731": 2247,
      "735": 2248,
      "FFB": 2249,
      "Lle": 2250,
      "char": 2251,
      "BAA": 2252,
      "AAB": 2253,
      "CAC": 2254,
      "CAF": 2255,
      "CDB": 2256,
      "villa": 2257,
      "DBF": 2258,
      "Madrid": 2259,
      "150": 2260,
      "148": 2261,
      "152": 2262,
      "742": 2263,
      "725": 2264,
      "761": 2265,
      "948": 2266,
      "BFB": 2267,
      "DEF": 2268,
      "em": 2269,
      "lio": 2270,
      "ria": 2271,
      "113": 2272,
      "CCA": 2273,
      "EBF": 2274,
      "Girona": 2275,
      "081": 2276,
      "071": 2277,
      "288": 2278,
      "738": 2279,
      "700": 2280,
      "706": 2281,
      "OS": 2282,
      "FDE": 2283,
      "AAC": 2284,
      "233": 2285,
      "652": 2286,
      "BFC": 2287,
      "Bada": 2288,
      "DFA": 2289,
      "DFF": 2290,
      "Gl": 2291,
      "Ri": 2292,
      "459": 2293,
      "BDC": 2294,
      "Juan": 2295,
      "assets": 2296,
      "050": 2297,
      "132": 2298,
      "188": 2299,
      "282": 2300,
      "493": 2301,
      "647": 2302,
      "770": 2303,
      "AEF": 2304,
      "OC": 2305,
      "jm": 2306,
      "pc": 2307,
      "ine": 2308,
      "ley": 2309,
      "CBF": 2310,
      "Lleida": 2311,
      "041": 2312,
      "722": 2313,
      "726": 2314,
      "721": 2315,
      "Or": 2316,
      "je": 2317,
      "wa": 2318,
      "lia": 2319,
      "public": 2320,
      "DAF": 2321,
      "134": 2322,
      "582": 2323,
      "630": 2324,
      "751": 2325,
      "767": 2326,
      "848": 2327,
      "CFF": 2328,
      "FFE": 2329,
      "UMTE": 2330,
      "WiI": 2331,
      "ez": 2332,
      "ry": 2333,
      "420": 2334,
      "400": 2335,
      "409": 2336,
      "373": 2337,
      "BCB": 2338,
      "uela": 2339,
      "NTI": 2340,
      "IjIwMjUtMTEtMjB": 2341,
      "Huesca": 2342,
      "IjIwMjUtMTEtMjBUMTE": 2343,
      "189": 2344,
      "249": 2345,
      "622": 2346,
      "634": 2347,
      "790": 2348,
      "AyO": 2349,
      "AuMC": 2350,
      "BT": 2351,
      "Bk": 2352,
      "CFC": 2353,
      "DZh": 2354,
      "EFF": 2355,
      "GUiLCJ": 2356,
      "GUw": 2357,
      "IsI": 2358,
      "Ln": 2359,
      "MmU": 2360,
      "MWU": 2361,
      "Nm": 2362,
      "Rk": 2363,
      "SW": 2364,
      "Swi": 2365,
      "TG": 2366,
      "Tk": 2367,
      "UiO": 2368,
      "VhZ": 2369,
      "XBk": 2370,
      "YTk": 2371,
      "Zy": 2372,
      "Zhd": 2373,
      "aWF": 2374,
      "cd": 2375,
      "dGl": 2376,
      "eGUiLCJ": 2377,
      "fQ": 2378,
      "han": 2379,
      "kZW": 2380,
      "lSW": 2381,
      "ms": 2382,
      "sZX": 2383,
      "sYX": 2384,
      "vYXNzZXRzL": 2385,
      "vdH": 2386,
      "wcm": 2387,
      "xND": 2388,
      "yNj": 2389,
      "zNj": 2390,
      "agu": 2391,
      "daIiwid": 2392,
      "174": 2393,
      "179": 2394,
      "114": 2395,
      "cho": 2396,
      "maWx": 2397,
      "AAE": 2398,
      "Ijox": 2399,
      "IjMw": 2400,
      "IjAuMC": 2401,
      "Wxsf": 2402,
      "JlYXRlZEF": 2403,
      "oxMz": 2404,
      "oxOC": 2405,
      "FiMWU": 2406,
      "ADB": 2407,
      "MjRk": 2408,
      "ZXQiOi": 2409,
      "wiY": 2410,
      "NTFiMWU": 2411,
      "ZWNy": 2412,
      "NzYz": 2413,
      "NzMw": 2414,
      "IiwiZGV": 2415,
      "Mzg": 2416,
      "MzNk": 2417,
      "YmM": 2418,
      "iLCJsYX": 2419,
      "iLCJwcm": 2420,
      "NjAyO": 2421,
      "NjoxOC": 2422,
      "naW": 2423,
      "owNjoxOC": 2424,
      "iIvYXNzZXRzL": 2425,
      "ZlNmU": 2426,
      "nRvdH": 2427,
      "IiLCJpc": 2428,
      "QxYmM": 2429,
      "ZSwiY": 2430,
      "NkMmU": 2431,
      "JcCI": 2432,
      "dHJ": 2433,
      "YjVhZ": 2434,
      "YjNkMmU": 2435,
      "yMFQxMToxMz": 2436,
      "yMFQxMTowNjoxOC": 2437,
      "udWxsf": 2438,
      "FaIiwiZGV": 2439,
      "NmUwNTdmMjBmODgzZSIsInJvbGUiOiJkZWx": 2440,
      "IjpudWxsf": 2441,
      "wLjAiLCJwcm": 2442,
      "wZGUw": 2443,
      "ozOS": 2444,
      "MmQz": 2445,
      "FjdGl": 2446,
      "BTZWNy": 2447,
      "DZhYjVhZ": 2448,
      "IsInRvdH": 2449,
      "LnN": 2450,
      "NmZlNmU": 2451,
      "SwiaWF": 2452,
      "UiOiIvYXNzZXRzL": 2453,
      "XBkYXRlZEF": 2454,
      "YTkiLCJsYX": 2455,
      "ZyIsInRvdH": 2456,
      "ZhdWx": 2457,
      "eGUiLCJkZWx": 2458,
      "kZWZhdWx": 2459,
      "sZXRlZEF": 2460,
      "xNDQxYmM": 2461,
      "yNjFaIiwiZGV": 2462,
      "zNjdaIiwid": 2463,
      "maWxlSW": 2464,
      "IjoxNzYz": 2465,
      "IjMwOTM": 2466,
      "MjRkYTkiLCJsYX": 2467,
      "ZXQiOiIiLCJpc": 2468,
      "NTFiMWUxNDQxYmM": 2469,
      "NzMwMmQz": 2470,
      "MzNkNjAyO": 2471,
      "YjNkMmUwZGUw": 2472,
      "yMFQxMToxMzozOS": 2473,
      "IjpudWxsfSwiaWF": 2474,
      "BTZWNyZXQiOiIiLCJpc": 2475,
      "DZhYjVhZGY": 2476,
      "ZyIsInRvdHBTZWNyZXQiOiIiLCJpc": 2477,
      "yNjFaIiwiZGVsZXRlZEF": 2478,
      "zNjdaIiwidXBkYXRlZEF": 2479,
      "IjoxNzYzNjM": 2480,
      "MjRkYTkiLCJsYXN": 2481,
      "NzMwMmQzMzNkNjAyO": 2482,
      "YjNkMmUwZGUwNzMwMmQzMzNkNjAyO": 2483,
      "YjNkMmUwZGUwNzMwMmQzMzNkNjAyODZhYjVhZGY": 2484,
      "244": 2485,
      "CFD": 2486,
      "EFC": 2487,
      "Fu": 2488,
      "den": 2489,
      "173": 2490,
      "408": 2491,
      "263": 2492,
      "EAD": 2493,
      "CDC": 2494,
      "CDE": 2495,
      "153": 2496,
      "Alb": 2497,
      "Palencia": 2498,
      "139": 2499,
      "492": 2500,
      "745": 2501,
      "dra": 2502,
      "018": 2503,
      "178": 2504,
      "318": 2505,
      "270": 2506,
      "EAF": 2507,
      "ADF": 2508,
      "DBE": 2509,
      "joz": 2510,
      "Badajoz": 2511,
      "052": 2512,
      "741": 2513,
      "FH": 2514,
      "Pi": 2515,
      "gen": 2516,
      "ju": 2517,
      "ste": 2518,
      "208": 2519,
      "352": 2520,
      "BBD": 2521,
      "EEB": 2522,
      "943": 2523,
      "133": 2524,
      "165": 2525,
      "234": 2526,
      "532": 2527,
      "548": 2528,
      "720": 2529,
      "734": 2530,
      "BFD": 2531,
      "Gar": 2532,
      "Lo": 2533,
      "tra": 2534,
      "eta": 2535,
      "405": 2536,
      "406": 2537,
      "413": 2538,
      "252": 2539,
      "CCF": 2540,
      "266": 2541,
      "212": 2542,
      "ABE": 2543,
      "Castell": 2544,
      "289": 2545,
      "Du": 2546,
      "QW": 2547,
      "aI": 2548,
      "ach": 2549,
      "Sego": 2550,
      "Granada": 2551,
      "184": 2552,
      "149": 2553,
      "433": 2554,
      "Be": 2555,
      "Ho": 2556,
      "Soria": 2557,
      "don": 2558,
      "ff": 2559,
      "hor": 2560,
      "licante": 2561,
      "110": 2562,
      "060": 2563,
      "375": 2564,
      "850": 2565,
      "DAB": 2566,
      "684": 2567,
      "Bo": 2568,
      "Cab": 2569,
      "by": 2570,
      "let": 2571,
      "428": 2572,
      "404": 2573,
      "863": 2574,
      "870": 2575,
      "275": 2576,
      "260": 2577,
      "213": 2578,
      "309": 2579,
      "ruz": 2580,
      "Segovia": 2581,
      "782": 2582,
      "752": 2583,
      "Alicante": 2584,
      "No": 2585,
      "806": 2586,
      "par": 2587,
      "389": 2588,
      "115": 2589,
      "469": 2590,
      "068": 2591,
      "374": 2592,
      "279": 2593,
      "355": 2594,
      "814": 2595,
      "908": 2596,
      "449": 2597,
      "123": 2598,
      "name": 2599,
      "730": 2600,
      "Fm": 2601,
      "JU": 2602,
      "TU": 2603,
      "rer": 2604,
      "010": 2605,
      "388": 2606,
      "576": 2607,
      "910": 2608,
      "916": 2609,
      "268": 2610,
      "958": 2611,
      "333": 2612,
      "629": 2613,
      "034": 2614,
      "434": 2615,
      "539": 2616,
      "LI": 2617,
      "ela": 2618,
      "est": 2619,
      "illa": 2620,
      "sal": 2621,
      "eri": 2622,
      "ares": 2623,
      "427": 2624,
      "414": 2625,
      "914": 2626,
      "476": 2627,
      "223": 2628,
      "815": 2629,
      "158": 2630,
      "194": 2631,
      "543": 2632,
      "744": 2633,
      "Ber": 2634,
      "CM": 2635,
      "Cb": 2636,
      "IdX": 2637,
      "Ily": 2638,
      "JP": 2639,
      "JcH": 2640,
      "JLR": 2641,
      "Lk": 2642,
      "Los": 2643,
      "OV": 2644,
      "PLe": 2645,
      "QM": 2646,
      "QOV": 2647,
      "Rm": 2648,
      "Tra": 2649,
      "YE": 2650,
      "aa": 2651,
      "bU": 2652,
      "bPLe": 2653,
      "cG": 2654,
      "cQ": 2655,
      "ella": 2656,
      "eId": 2657,
      "eFm": 2658,
      "hRm": 2659,
      "jq": 2660,
      "jz": 2661,
      "mat": 2662,
      "mJLR": 2663,
      "pq": 2664,
      "sq": 2665,
      "su": 2666,
      "tFe": 2667,
      "van": 2668,
      "yMD": 2669,
      "809": 2670,
      "365": 2671,
      "402": 2672,
      "008": 2673,
      "830": 2674,
      "312": 2675,
      "313": 2676,
      "473": 2677,
      "970": 2678,
      "977": 2679,
      "969": 2680,
      "264": 2681,
      "489": 2682,
      "MseId": 2683,
      "iOH": 2684,
      "IwcQ": 2685,
      "owJU": 2686,
      "iIyMD": 2687,
      "ExLT": 2688,
      "OWhRm": 2689,
      "hdGVkQXQiO": 2690,
      "hdjq": 2691,
      "CiZ": 2692,
      "Jcj": 2693,
      "FKi": 2694,
      "UTJcj": 2695,
      "LRgs": 2696,
      "LTExLT": 2697,
      "PWK": 2698,
      "PWBr": 2699,
      "Nlp": 2700,
      "FlA": 2701,
      "aImo": 2702,
      "TUjm": 2703,
      "LIQOV": 2704,
      "IdXLIQOV": 2705,
      "JPUTJcj": 2706,
      "JcHeFm": 2707,
      "LkIdXLIQOV": 2708,
      "aaowJU": 2709,
      "jzhdjq": 2710,
      "mJLRH": 2711,
      "tFeL": 2712,
      "MseIdI": 2713,
      "iIyMDI": 2714,
      "OWhRmIwcQ": 2715,
      "hdGVkQXQiOiIyMDI": 2716,
      "LRgsCiZ": 2717,
      "LTExLTIw": 2718,
      "PWBrLkIdXLIQOV": 2719,
      "JcHeFmTUjm": 2720,
      "aaowJUFKi": 2721,
      "jzhdjqpq": 2722,
      "PWBrLkIdXLIQOVNlp": 2723,
      "232": 2724,
      "294": 2725,
      "584": 2726,
      "Cer": 2727,
      "cf": 2728,
      "gra": 2729,
      "804": 2730,
      "dio": 2731,
      "991": 2732,
      "996": 2733,
      "450": 2734,
      "983": 2735,
      "571": 2736,
      "319": 2737,
      "478": 2738,
      "874": 2739,
      "214": 2740,
      "393": 2741,
      "923": 2742,
      "124": 2743,
      "128": 2744,
      "Bu": 2745,
      "CDD": 2746,
      "Sal": 2747,
      "Tarr": 2748,
      "mor": 2749,
      "pin": 2750,
      "807": 2751,
      "384": 2752,
      "364": 2753,
      "403": 2754,
      "867": 2755,
      "004": 2756,
      "577": 2757,
      "479": 2758,
      "229": 2759,
      "mil": 2760,
      "950": 2761,
      "954": 2762,
      "816": 2763,
      "909": 2764,
      "sion": 2765,
      "PgW": 2766,
      "032": 2767,
      "023": 2768,
      "549": 2769,
      "682": 2770,
      "632": 2771,
      "765": 2772,
      "Ga": 2773,
      "Mor": 2774,
      "ceres": 2775,
      "gh": 2776,
      "dia": 2777,
      "383": 2778,
      "455": 2779,
      "985": 2780,
      "118": 2781,
      "835": 2782,
      "254": 2783,
      "255": 2784,
      "203": 2785,
      "207": 2786,
      "472": 2787,
      "972": 2788,
      "953": 2789,
      "956": 2790,
      "350": 2791,
      "349": 2792,
      "884": 2793,
      "528": 2794,
      "109": 2795,
      "154": 2796,
      "029": 2797,
      "694": 2798,
      "933": 2799,
      "Ast": 2800,
      "Las": 2801,
      "Par": 2802,
      "eo": 2803,
      "ld": 2804,
      "sch": 2805,
      "esa": 2806,
      "429": 2807,
      "172": 2808,
      "860": 2809,
      "416": 2810,
      "458": 2811,
      "228": 2812,
      "879": 2813,
      "853": 2814,
      "566": 2815,
      "Pe": 2816,
      "ix": 2817,
      "sd": 2818,
      "um": 2819,
      "enti": 2820,
      "423": 2821,
      "368": 2822,
      "411": 2823,
      "454": 2824,
      "465": 2825,
      "573": 2826,
      "819": 2827,
      "305": 2828,
      "510": 2829,
      "888": 2830,
      "239": 2831,
      "Ti": 2832,
      "bra": 2833,
      "fer": 2834,
      "cos": 2835,
      "info": 2836,
      "802": 2837,
      "803": 2838,
      "016": 2839,
      "017": 2840,
      "4560": 2841,
      "111": 2842,
      "460": 2843,
      "006": 2844,
      "572": 2845,
      "222": 2846,
      "873": 2847,
      "960": 2848,
      "961": 2849,
      "272": 2850,
      "273": 2851,
      "952": 2852,
      "359": 2853,
      "813": 2854,
      "668": 2855,
      "ull": 2856,
      "048": 2857,
      "182": 2858,
      "739": 2859,
      "az": 2860,
      "her": 2861,
      "rat": 2862,
      "ose": 2863,
      "012": 2864,
      "rio": 2865,
      "369": 2866,
      "866": 2867,
      "418": 2868,
      "119": 2869,
      "464": 2870,
      "468": 2871,
      "000": 2872,
      "258": 2873,
      "314": 2874,
      "978": 2875,
      "372": 2876,
      "379": 2877,
      "859": 2878,
      "964": 2879,
      "965": 2880,
      "966": 2881,
      "269": 2882,
      "351": 2883,
      "344": 2884,
      "515": 2885,
      "443": 2886,
      "624": 2887,
      "ador": 2888,
      "143": 2889,
      "Fran": 2890,
      "Jo": 2891,
      "gue": 2892,
      "iz": 2893,
      "ky": 2894,
      "mp": 2895,
      "agona": 2896,
      "808": 2897,
      "roduc": 2898,
      "426": 2899,
      "990": 2900,
      "992": 2901,
      "994": 2902,
      "982": 2903,
      "855": 2904,
      "358": 2905,
      "219": 2906,
      "712": 2907,
      "904": 2908,
      "567": 2909,
      "518": 2910,
      "929": 2911,
      "104": 2912,
      "654": 2913,
      "LjM": 2914,
      "Tarragona": 2915,
      ",\"": 2916,
      "Ped": 2917,
      "Ur": 2918,
      "bel": 2919,
      "ment": 2920,
      "ves": 2921,
      "api": 2922,
      "nton": 2923,
      "116": 2924,
      "257": 2925,
      "204": 2926,
      "919": 2927,
      "224": 2928,
      "875": 2929,
      "854": 2930,
      "218": 2931,
      "304": 2932,
      "mente": 2933,
      "678": 2934,
      "613": 2935,
      "077": 2936,
      "108": 2937,
      "764": 2938,
      "Ben": 2939,
      "Ru": 2940,
      "ban": 2941,
      "net": 2942,
      "yr": 2943,
      "cios": 2944,
      "363": 2945,
      "984": 2946,
      "989": 2947,
      "463": 2948,
      "259": 2949,
      "579": 2950,
      "912": 2951,
      "915": 2952,
      "974": 2953,
      "376": 2954,
      "858": 2955,
      "262": 2956,
      "902": 2957,
      "707": 2958,
      "513": 2959,
      "924": 2960,
      "488": 2961,
      "675": 2962,
      "772": 2963,
      "779": 2964,
      "523": 2965,
      "103": 2966,
      "105": 2967,
      "168": 2968,
      "Fuente": 2969,
      "093": 2970,
      "084": 2971,
      "762": 2972,
      "Mu": 2973,
      "ete": 2974,
      "fb": 2975,
      "ira": 2976,
      "jar": 2977,
      "nes": 2978,
      "tt": 2979,
      "ting": 2980,
      "tel": 2981,
      "sty": 2982,
      "011": 2983,
      "385": 2984,
      "998": 2985,
      "861": 2986,
      "865": 2987,
      "453": 2988,
      "831": 2989,
      "570": 2990,
      "ill": 2991,
      "354": 2992,
      "718": 2993,
      "302": 2994,
      "823": 2995,
      "560": 2996,
      "444": 2997,
      "484": 2998,
      "614": 2999,
      "889": 3000,
      "949": 3001,
      "775": 3002,
      "529": 3003,
      "Vila": 3004,
      "Torre": 3005,
      "Er": 3006,
      "Por": 3007,
      "cb": 3008,
      "cl": 3009,
      "ces": 3010,
      "ron": 3011,
      "801": 3012,
      "ard": 3013,
      "015": 3014,
      "424": 3015,
      "993": 3016,
      "864": 3017,
      "869": 3018,
      "419": 3019,
      "971": 3020,
      "975": 3021,
      "955": 3022,
      "818": 3023,
      "828": 3024,
      "551": 3025,
      "554": 3026,
      "514": 3027,
      "672": 3028,
      "073": 3029,
      "\":\"": 3030,
      "Cant": 3031,
      "Plaza": 3032,
      "charset": 3033,
      "088": 3034,
      "664": 3035,
      "732": 3036,
      "Bas": 3037,
      "Hi": 3038,
      "bre": 3039,
      "bro": 3040,
      "dEn": 3041,
      "td": 3042,
      "pan": 3043,
      "ald": 3044,
      "868": 3045,
      "412": 3046,
      "002": 3047,
      "009": 3048,
      "832": 3049,
      "973": 3050,
      "876": 3051,
      "274": 3052,
      "265": 3053,
      "959": 3054,
      "356": 3055,
      "215": 3056,
      "348": 3057,
      "715": 3058,
      "824": 3059,
      "076": 3060,
      "043": 3061,
      "533": 3062,
      "fY": 3063,
      "nu": 3064,
      "pen": 3065,
      "rie": 3066,
      "zK": 3067,
      "ont": 3068,
      "ari": 3069,
      "422": 3070,
      "839": 3071,
      "878": 3072,
      "851": 3073,
      "968": 3074,
      "271": 3075,
      "812": 3076,
      "713": 3077,
      "903": 3078,
      "905": 3079,
      "703": 3080,
      "928": 3081,
      "EFdEn": 3082,
      "679": 3083,
      "849": 3084,
      "169": 3085,
      "059": 3086,
      "AAAg": 3087,
      "horas": 3088,
      "yrAAAg": 3089,
      "EFdEnyrAAAg": 3090,
      "593": 3091,
      "693": 3092,
      "Cruz": 3093,
      "Di": 3094,
      "Pin": 3095,
      "Ya": 3096,
      "cbf": 3097,
      "gas": 3098,
      "jan": 3099,
      "kin": 3100,
      "mos": 3101,
      "pu": 3102,
      "tH": 3103,
      "ton": 3104,
      "erman": 3105,
      "981": 3106,
      "005": 3107,
      "913": 3108,
      "979": 3109,
      "962": 3110,
      "illo": 3111,
      "308": 3112,
      "517918": 3113,
      "550": 3114,
      "667": 3115,
      "448": 3116,
      "Password": 3117,
      "PgX": 3118,
      "cdac": 3119,
      "cbfc": 3120,
      "728": 3121,
      "893": 3122,
      "Int": 3123,
      "mac": 3124,
      "ure": 3125,
      "IDEx": 3126,
      "019": 3127,
      "382": 3128,
      "421": 3129,
      "206": 3130,
      "976": 3131,
      "856": 3132,
      "EDo": 3133,
      "714": 3134,
      "acion": 3135,
      "702": 3136,
      "662": 3137,
      "669": 3138,
      "777": 3139,
      "NyAr": 3140,
      "file": 3141,
      "Mont": 3142,
      "OjA": 3143,
      "OjE": 3144,
      "MDAiLCJ": 3145,
      "LTExLTIwIDEx": 3146,
      "NyArMDA": 3147,
      "LTExLTIwIDExOjA": 3148,
      "339": 3149,
      "740": 3150,
      "789": 3151,
      "Fzc": 3152,
      "HMv": 3153,
      "Jsa": 3154,
      "Mva": 3155,
      "Vw": 3156,
      "VzL": 3157,
      "WJsa": 3158,
      "WMva": 3159,
      "fran": 3160,
      "ret": 3161,
      "tZ": 3162,
      "425": 3163,
      "362": 3164,
      "uren": 3165,
      "862": 3166,
      "988": 3167,
      "065": 3168,
      "343": 3169,
      "829": 3170,
      "563": 3171,
      "505": 3172,
      "604": 3173,
      "608": 3174,
      "524": 3175,
      "wdWJsa": 3176,
      "products": 3177,
      "hZHMv": 3178,
      "VwbG": 3179,
      "WMvaW": 3180,
      "wdWJsaWMvaW": 3181,
      "ala": 3182,
      "dy": 3183,
      "sy": 3184,
      "tin": 3185,
      "dal": 3186,
      "das": 3187,
      "rete": 3188,
      "sto": 3189,
      "elli": 3190,
      "003": 3191,
      "833": 3192,
      "chi": 3193,
      "205": 3194,
      "064": 3195,
      "278": 3196,
      "709": 3197,
      "561": 3198,
      "661": 3199,
      "663": 3200,
      "665": 3201,
      "078": 3202,
      "602": 3203,
      "753": 3204,
      "Vic": 3205,
      "mann": 3206,
      "And": 3207,
      "039": 3208,
      "089": 3209,
      "733": 3210,
      "793": 3211,
      "749": 3212,
      "AR": 3213,
      "Mas": 3214,
      "af": 3215,
      "gan": 3216,
      "ras": 3217,
      "vio": 3218,
      "yu": 3219,
      "tis": 3220,
      "eno": 3221,
      "014": 3222,
      "209": 3223,
      "578": 3224,
      "474": 3225,
      "061": 3226,
      "569": 3227,
      "615": 3228,
      "619": 3229,
      "079": 3230,
      "129": 3231,
      "653": 3232,
      "163": 3233,
      "gui": 3234,
      "roduction": 3235,
      "Introduction": 3236,
      "243": 3237,
      "432": 3238,
      "794": 3239,
      "Fer": 3240,
      "Ni": 3241,
      "TR": 3242,
      "fe": 3243,
      "gre": 3244,
      "mus": 3245,
      "rh": 3246,
      "sco": 3247,
      "tri": 3248,
      "uG": 3249,
      "ecmas": 3250,
      "ette": 3251,
      "013": 3252,
      "462": 3253,
      "574": 3254,
      "067": 3255,
      "mad": 3256,
      "951": 3257,
      "303": 3258,
      "562": 3259,
      "502": 3260,
      "677": 3261,
      "616": 3262,
      "658": 3263,
      "159": 3264,
      "053": 3265,
      "urias": 3266,
      "Sevilla": 3267,
      "Asturias": 3268,
      "ecmascript": 3269,
      "049": 3270,
      "024": 3271,
      "743": 3272,
      "894": 3273,
      "Bor": 3274,
      "Cla": 3275,
      "Ge": 3276,
      "In": 3277,
      "Te": 3278,
      "sha": 3279,
      "ven": 3280,
      "onte": 3281,
      "nge": 3282,
      "999": 3283,
      "575": 3284,
      "066": 3285,
      "069": 3286,
      "963": 3287,
      "353": 3288,
      "648": 3289,
      "609": 3290,
      "aje": 3291,
      "639": 3292,
      "633": 3293,
      "788": 3294,
      "For": 3295,
      "Il": 3296,
      "Men": 3297,
      "oli": 3298,
      "pr": 3299,
      "up": 3300,
      "ens": 3301,
      "als": 3302,
      "995": 3303,
      "202": 3304,
      "660": 3305,
      "503": 3306,
      "674": 3307,
      "676": 3308,
      "610": 3309,
      "612": 3310,
      "074": 3311,
      "594": 3312,
      "784": 3313,
      "724": 3314,
      "Mur": 3315,
      "NU": 3316,
      "Ouren": 3317,
      "bas": 3318,
      "bAd": 3319,
      "hil": 3320,
      "iN": 3321,
      "my": 3322,
      "uk": 3323,
      "uer": 3324,
      "ines": 3325,
      "aggs": 3326,
      "pass": 3327,
      "rome": 3328,
      "276": 3329,
      "716": 3330,
      "705": 3331,
      "559": 3332,
      "666": 3333,
      "618": 3334,
      "778": 3335,
      "623": 3336,
      "759": 3337,
      "Ourense": 3338,
      "044": 3339,
      "293": 3340,
      "284": 3341,
      "589": 3342,
      "Anton": 3343,
      "OR": 3344,
      "ati": 3345,
      "bb": 3346,
      "cur": 3347,
      "fre": 3348,
      "ols": 3349,
      "sK": 3350,
      "ut": 3351,
      "zsK": 3352,
      "laga": 3353,
      "eros": 3354,
      "dez": 3355,
      "ris": 3356,
      "ante": 3357,
      "ento": 3358,
      "063": 3359,
      "mit": 3360,
      "Real": 3361,
      "iderman": 3362,
      "102": 3363,
      "763": 3364,
      "758": 3365,
      "Coru": 3366,
      "spiderman": 3367,
      "028": 3368,
      "723": 3369,
      "Bw": 3370,
      "DU": 3371,
      "Eli": 3372,
      "ETR": 3373,
      "HI": 3374,
      "HV": 3375,
      "Hp": 3376,
      "Hq": 3377,
      "Hrh": 3378,
      "IsImRlb": 3379,
      "Jt": 3380,
      "KM": 3381,
      "KMT": 3382,
      "LKM": 3383,
      "OCo": 3384,
      "OoF": 3385,
      "PL": 3386,
      "Res": 3387,
      "Rva": 3388,
      "SXA": 3389,
      "Ttz": 3390,
      "UY": 3391,
      "UNk": 3392,
      "UHo": 3393,
      "Vu": 3394,
      "Vsd": 3395,
      "WTP": 3396,
      "Xtz": 3397,
      "Yd": 3398,
      "Yr": 3399,
      "Zg": 3400,
      "bs": 3401,
      "bGF": 3402,
      "dos": 3403,
      "ehh": 3404,
      "fB": 3405,
      "iIw": 3406,
      "jdX": 3407,
      "kL": 3408,
      "lci": 3409,
      "lns": 3410,
      "met": 3411,
      "mYX": 3412,
      "mciLCJ": 3413,
      "ncH": 3414,
      "oETR": 3415,
      "qg": 3416,
      "uNTI": 3417,
      "vZ": 3418,
      "vel": 3419,
      "vil": 3420,
      "wj": 3421,
      "whi": 3422,
      "wIiwi": 3423,
      "xab": 3424,
      "xjw": 3425,
      "yWiI": 3426,
      "can": 3427,
      "ani": 3428,
      "553": 3429,
      "555": 3430,
      "512": 3431,
      "508": 3432,
      "509": 3433,
      "776": 3434,
      "DBHI": 3435,
      "MsS": 3436,
      "iOiIw": 3437,
      "MTgu": 3438,
      "MDY": 3439,
      "MDk": 3440,
      "zdEx": 3441,
      "zdmciLCJ": 3442,
      "Njk": 3443,
      "abria": 3444,
      "Dev": 3445,
      "YXoETR": 3446,
      "Zjq": 3447,
      "IjoiIiwibGF": 3448,
      "Carrer": 3449,
      "NBUY": 3450,
      "GlsXtz": 3451,
      "ZVRva": 3452,
      "MzYzNjk": 3453,
      "cHJvZmlsZUltYWdlIjoiL": 3454,
      "luSXA": 3455,
      "Ciudad": 3456,
      "JcNU": 3457,
      "LjAuMC": 3458,
      "Plza": 3459,
      "Plxab": 3460,
      "ZGVmYX": 3461,
      "NmUwNTdmMjBmODgzZSIsInJvbGUiOiJjdX": 3462,
      "WiIsInVwZGF": 3463,
      "NTIuNTI": 3464,
      "DuUHo": 3465,
      "QWi": 3466,
      "sqJcNU": 3467,
      "styles": 3468,
      "tHwj": 3469,
      "tZDBHI": 3470,
      "hZHMvZGVmYX": 3471,
      "uGQWi": 3472,
      "bAdUNk": 3473,
      "aggsYr": 3474,
      "romeDev": 3475,
      "Bwtd": 3476,
      "DUkL": 3477,
      "HpNBUY": 3478,
      "HrhDUkL": 3479,
      "IsImRlbHV": 3480,
      "KMTncH": 3481,
      "LKMfa": 3482,
      "OCoqg": 3483,
      "OoFbAdUNk": 3484,
      "Ttzlns": 3485,
      "VuIjoiIiwibGF": 3486,
      "VsdC": 3487,
      "WTPR": 3488,
      "YdK": 3489,
      "ZgGlsXtz": 3490,
      "ehhfB": 3491,
      "lciIsImRlbHV": 3492,
      "wIiwicHJvZmlsZUltYWdlIjoiL": 3493,
      "xjwE": 3494,
      "yWiIsImRlbGV": 3495,
      "iOiIwLjAuMC": 3496,
      "MTguMzY": 3497,
      "zdExvZ": 3498,
      "YXoETRtHwj": 3499,
      "luSXAiOiIwLjAuMC": 3500,
      "PlxabOoFbAdUNk": 3501,
      "NmUwNTdmMjBmODgzZSIsInJvbGUiOiJjdXN": 3502,
      "NTIuNTIyWiIsImRlbGV": 3503,
      "DuUHoHrhDUkL": 3504,
      "tZDBHIYXoETRtHwj": 3505,
      "hZHMvZGVmYXVsdC": 3506,
      "aggsYrS": 3507,
      "HpNBUYF": 3508,
      "VuIjoiIiwibGFzdExvZ": 3509,
      "ZgGlsXtztZDBHIYXoETRtHwj": 3510,
      "PlxabOoFbAdUNkGe": 3511,
      "729": 3512,
      "Fre": 3513,
      "Sar": 3514,
      "bor": 3515,
      "cn": 3516,
      "cs": 3517,
      "ex": 3518,
      "ger": 3519,
      "gal": 3520,
      "hy": 3521,
      "ip": 3522,
      "lon": 3523,
      "uda": 3524,
      "ze": 3525,
      "zca": 3526,
      "ima": 3527,
      "username": 3528,
      "ession": 3529,
      "profile": 3530,
      "710": 3531,
      "719": 3532,
      "568": 3533,
      "519": 3534,
      "072": 3535,
      "774": 3536,
      "628": 3537,
      "lessoninfo": 3538,
      "058": 3539,
      "Vizca": 3540,
      "\",\"": 3541,
      "332": 3542,
      "783": 3543,
      "748": 3544,
      "Hor": 3545,
      "Li": 3546,
      "Ol": 3547,
      "jos": 3548,
      "kX": 3549,
      "ny": 3550,
      "rdo": 3551,
      "tte": 3552,
      "unt": 3553,
      "val": 3554,
      "ye": 3555,
      "lie": 3556,
      "ini": 3557,
      "imi": 3558,
      "llas": 3559,
      "644": 3560,
      "704": 3561,
      "708": 3562,
      "673": 3563,
      "603": 3564,
      "Almer": 3565,
      "Vizcaya": 3566,
      "792": 3567,
      "Ab": 3568,
      "Fil": 3569,
      "Ht": 3570,
      "Ta": 3571,
      "VX": 3572,
      "ado": 3573,
      "cli": 3574,
      "gor": 3575,
      "hs": 3576,
      "hint": 3577,
      "mes": 3578,
      "ren": 3579,
      "dela": 3580,
      "ieta": 3581,
      "lex": 3582,
      "ubi": 3583,
      "378": 3584,
      "649": 3585,
      "504": 3586,
      "054": 3587,
      "769": 3588,
      "Sierra": 3589,
      "ernan": 3590,
      "Cantabria": 3591,
      "Ang": 3592,
      "Her": 3593,
      "Me": 3594,
      "Ne": 3595,
      "cla": 3596,
      "gat": 3597,
      "ku": 3598,
      "nat": 3599,
      "od": 3600,
      "ral": 3601,
      "tec": 3602,
      "lom": 3603,
      "Ġchar": 3604,
      "sse": 3605,
      "ata": 3606,
      "ato": 3607,
      "852": 3608,
      "643": 3609,
      "552": 3610,
      "605": 3611,
      "onso": 3612,
      "768": 3613,
      "Jui": 3614,
      "ChromeDev": 3615,
      "Tools": 3616,
      "Ġcharset": 3617,
      "Gen": 3618,
      "Mer": 3619,
      "On": 3620,
      "Ser": 3621,
      "dro": 3622,
      "tw": 3623,
      "ws": 3624,
      "oso": 3625,
      "cat": 3626,
      "ers": 3627,
      "deFil": 3628,
      "ies": 3629,
      "entSi": 3630,
      "may": 3631,
      "558": 3632,
      "773": 3633,
      "843": 3634,
      "659": 3635,
      "754": 3636,
      "amar": 3637,
      "Casti": 3638,
      "tering": 3639,
      "Pedro": 3640,
      "deFiltering": 3641,
      "entSideFiltering": 3642,
      "689": 3643,
      "Bel": 3644,
      "Cal": 3645,
      "Est": 3646,
      "Gi": 3647,
      "Is": 3648,
      "Jb": 3649,
      "MC": 3650,
      "RhdGVkQXQiOiIyMDI": 3651,
      "Zpb": 3652,
      "ay": 3653,
      "ami": 3654,
      "bur": 3655,
      "cnV": 3656,
      "cFN": 3657,
      "ctor": 3658,
      "dri": 3659,
      "ges": 3660,
      "jE": 3661,
      "kar": 3662,
      "lY": 3663,
      "lLCJ": 3664,
      "nIiwid": 3665,
      "pp": 3666,
      "spa": 3667,
      "uMCI": 3668,
      "ys": 3669,
      "zan": 3670,
      "zQW": 3671,
      "tell": 3672,
      "lis": 3673,
      "eras": 3674,
      "aldo": 3675,
      "ath": 3676,
      "nueva": 3677,
      "075": 3678,
      "JldCI": 3679,
      "sInB": 3680,
      "IjoiMC": 3681,
      "LCJpY": 3682,
      "hiper": 3683,
      "GVJb": 3684,
      "bGx": 3685,
      "Alde": 3686,
      "kZWxld": 3687,
      "ZlIjp": 3688,
      "WFnZSI": 3689,
      "aXZlIjp": 3690,
      "sImlzQW": 3691,
      "jcmVhdGVkQXQiOiIyMDI": 3692,
      "IiIsImlzQW": 3693,
      "dpbklwIjoiMC": 3694,
      "Villanueva": 3695,
      "Camino": 3696,
      "XQiOjE": 3697,
      "wLjAuMCI": 3698,
      "GVkQXQiOm": 3699,
      "Traves": 3700,
      "cGRhdGVkQXQiOiIyMDI": 3701,
      "cfda": 3702,
      "Antonio": 3703,
      "rdoba": 3704,
      "ZpbGVJb": 3705,
      "cnVlLCJ": 3706,
      "cFNlY": 3707,
      "nIiwidG": 3708,
      "sInByb": 3709,
      "LCJpYXQiOjE": 3710,
      "kZWxldGVkQXQiOm": 3711,
      "IiIsImlzQWN": 3712,
      "wLjAuMCIsInByb": 3713,
      "ZpbGVJbWFnZSI": 3714,
      "cnVlLCJjcmVhdGVkQXQiOiIyMDI": 3715,
      "033": 3716,
      "Don": 3717,
      "Sab": 3718,
      "eu": 3719,
      "hel": 3720,
      "lt": 3721,
      "mag": 3722,
      "np": 3723,
      "ola": 3724,
      "tal": 3725,
      "col": 3726,
      "imon": 3727,
      "dar": 3728,
      "leta": 3729,
      "516": 3730,
      "Alf": 3731,
      "Pala": 3732,
      "Doctor": 3733,
      "Reset": 3734,
      "Bi": 3735,
      "By": 3736,
      "Cri": 3737,
      "EN": 3738,
      "Pr": 3739,
      "Va": 3740,
      "Ve": 3741,
      "Vir": 3742,
      "bla": 3743,
      "cul": 3744,
      "gn": 3745,
      "gran": 3746,
      "ica": 3747,
      "mm": 3748,
      "nie": 3749,
      "pto": 3750,
      "tur": 3751,
      "ui": 3752,
      "ong": 3753,
      "tele": 3754,
      "tero": 3755,
      "tions": 3756,
      "cial": 3757,
      "any": 3758,
      "sia": 3759,
      "Feli": 3760,
      "PasswordReset": 3761,
      "ChromeDevTools": 3762,
      "+%": 3763,
      "Au": 3764,
      "Ala": 3765,
      "Ig": 3766,
      "Km": 3767,
      "SP": 3768,
      "Sub": 3769,
      "iy": 3770,
      "mal": 3771,
      "yn": 3772,
      "ins": 3773,
      "inform": 3774,
      "inter": 3775,
      "ore": 3776,
      "iego": 3777,
      "nik": 3778,
      "565": 3779,
      "WebGoatIntroduction": 3780,
      "ater": 3781,
      "vera": 3782,
      "Cami": 3783,
      "Bri": 3784,
      "Cap": 3785,
      "HAAA": 3786,
      "JJ": 3787,
      "PX": 3788,
      "Sol": 3789,
      "ben": 3790,
      "ds": 3791,
      "hol": 3792,
      "ila": 3793,
      "op": 3794,
      "sen": 3795,
      "tn": 3796,
      "wo": 3797,
      "lada": 3798,
      "lina": 3799,
      "arro": 3800,
      "ajes": 3801,
      "verde": 3802,
      "Alco": 3803,
      "ZlHAAA": 3804,
      "trPX": 3805,
      "rypto": 3806,
      "iNmc": 3807,
      "Travesia": 3808,
      "JJtrPX": 3809,
      "ZlHAAAc": 3810,
      "JJtrPXZlHAAAc": 3811,
      "Bra": 3812,
      "Fra": 3813,
      "Ger": 3814,
      "Huel": 3815,
      "Jose": 3816,
      "Pra": 3817,
      "Ros": 3818,
      "bos": 3819,
      "dj": 3820,
      "ee": 3821,
      "ei": 3822,
      "hen": 3823,
      "kp": 3824,
      "nc": 3825,
      "nos": 3826,
      "om": 3827,
      "pre": 3828,
      "sel": 3829,
      "tan": 3830,
      "wil": 3831,
      "xl": 3832,
      "yf": 3833,
      "lano": 3834,
      "logi": 3835,
      "imo": 3836,
      "pal": 3837,
      "nto": 3838,
      "rique": 3839,
      "ash": 3840,
      "work": 3841,
      "vic": 3842,
      "ajunt": 3843,
      "ament": 3844,
      "Monte": 3845,
      "Huelva": 3846,
      "ajuntament": 3847,
      "FI": 3848,
      "Fg": 3849,
      "Gor": 3850,
      "Llo": 3851,
      "Mart": 3852,
      "Ponte": 3853,
      "Qk": 3854,
      "Sec": 3855,
      "Sil": 3856,
      "ai": 3857,
      "bj": 3858,
      "bus": 3859,
      "bes": 3860,
      "bia": 3861,
      "cA": 3862,
      "cr": 3863,
      "dz": 3864,
      "fu": 3865,
      "gura": 3866,
      "ji": 3867,
      "lcy": 3868,
      "win": 3869,
      "ene": 3870,
      "acio": 3871,
      "ario": 3872,
      "anda": 3873,
      "urce": 3874,
      "chu": 3875,
      "acia": 3876,
      "Quint": 3877,
      "Manuel": 3878,
      "Carrete": 3879,
      "grap": 3880,
      "Murcia": 3881,
      "Carretera": 3882,
      "Ale": 3883,
      "Bon": 3884,
      "Beni": 3885,
      "Cli": 3886,
      "Des": 3887,
      "Gra": 3888,
      "IJ": 3889,
      "RP": 3890,
      "Ram": 3891,
      "Su": 3892,
      "bg": 3893,
      "dr": 3894,
      "dep": 3895,
      "ham": 3896,
      "kn": 3897,
      "ks": 3898,
      "lj": 3899,
      "mF": 3900,
      "ot": 3901,
      "sc": 3902,
      "sky": 3903,
      "token": 3904,
      "ones": 3905,
      "ett": 3906,
      "cisco": 3907,
      "dol": 3908,
      "2740": 3909,
      "FAz": 3910,
      "admin": 3911,
      "source": 3912,
      "dell": 3913,
      "Esp": 3914,
      "Francisco": 3915,
      "graphy": 3916,
      "AQk": 3917,
      "BK": 3918,
      "BES": 3919,
      "Bet": 3920,
      "Bal": 3921,
      "BYa": 3922,
      "DS": 3923,
      "Dk": 3924,
      "FY": 3925,
      "Gal": 3926,
      "Hh": 3927,
      "HQu": 3928,
      "Iq": 3929,
      "JN": 3930,
      "KJui": 3931,
      "LJ": 3932,
      "LV": 3933,
      "NX": 3934,
      "Of": 3935,
      "Oo": 3936,
      "ODk": 3937,
      "PV": 3938,
      "Pq": 3939,
      "PKJui": 3940,
      "Uo": 3941,
      "Vz": 3942,
      "Za": 3943,
      "ZnIiwidG": 3944,
      "bau": 3945,
      "bHQu": 3946,
      "cc": 3947,
      "dB": 3948,
      "dera": 3949,
      "eg": 3950,
      "gus": 3951,
      "gxl": 3952,
      "hIJ": 3953,
      "ico": 3954,
      "iFY": 3955,
      "jyf": 3956,
      "jFg": 3957,
      "kw": 3958,
      "kDo": 3959,
      "lle": 3960,
      "mun": 3961,
      "nz": 3962,
      "ning": 3963,
      "nHY": 3964,
      "oad": 3965,
      "pX": 3966,
      "ps": 3967,
      "pBES": 3968,
      "qhs": 3969,
      "qDS": 3970,
      "rus": 3971,
      "shi": 3972,
      "sGY": 3973,
      "sPKJui": 3974,
      "tre": 3975,
      "tro": 3976,
      "tch": 3977,
      "ucy": 3978,
      "uFK": 3979,
      "uqhs": 3980,
      "vq": 3981,
      "vYW": 3982,
      "vUo": 3983,
      "wal": 3984,
      "xvYW": 3985,
      "ysi": 3986,
      "yic": 3987,
      "zu": 3988,
      "zfr": 3989,
      "ten": 3990,
      "coa": 3991,
      "liver": 3992,
      "ace": 3993,
      "acete": 3994,
      "org": 3995,
      "ime": 3996,
      "llar": 3997,
      "riz": 3998,
      "ross": 3999
    },
    "merges": [
      [
        "o",
        "n"
      ],
      [
        "t",
        "i"
      ],
      [
        "t",
        "e"
      ],
      [
        "l",
        "a"
      ],
      [
        "e",
        "n"
      ],
      [
        "m",
        "l"
      ],
      [
        "c",
        "o"
      ],
      [
        "l",
        "i"
      ],
      [
        "o",
        "s"
      ],
      [
        "c",
        "a"
      ],
      [
        "i",
        "n"
      ],
      [
        "a",
        "g"
      ],
      [
        "a",
        "c"
      ],
      [
        "ti",
        "on"
      ],
      [
        "e",
        "p"
      ],
      [
        "n",
        "ac"
      ],
      [
        "c",
        "ep"
      ],
      [
        "cep",
        "t"
      ],
      [
        "nac",
        "cept"
      ],
      [
        "z",
        "i"
      ],
      [
        "x",
        "t"
      ],
      [
        "te",
        "xt"
      ],
      [
        "x",
        "ml"
      ],
      [
        "e",
        "r"
      ],
      [
        "e",
        "c"
      ],
      [
        "d",
        "e"
      ],
      [
        "os",
        "t"
      ],
      [
        "a",
        "p"
      ],
      [
        "li",
        "ca"
      ],
      [
        "ap",
        "p"
      ],
      [
        "lica",
        "tion"
      ],
      [
        "app",
        "lication"
      ],
      [
        "8",
        "0"
      ],
      [
        "h",
        "ost"
      ],
      [
        "n",
        "g"
      ],
      [
        "ag",
        "e"
      ],
      [
        "h",
        "t"
      ],
      [
        "de",
        "f"
      ],
      [
        "la",
        "te"
      ],
      [
        "Ġ",
        "("
      ],
      [
        "H",
        "T"
      ],
      [
        "Ġ",
        "x"
      ],
      [
        "zi",
        "p"
      ],
      [
        "g",
        "zip"
      ],
      [
        "def",
        "late"
      ],
      [
        "ht",
        "ml"
      ],
      [
        "Ġ",
        "K"
      ],
      [
        "o",
        "r"
      ],
      [
        "l",
        "o"
      ],
      [
        "i",
        "e"
      ],
      [
        "c",
        "on"
      ],
      [
        "i",
        "m"
      ],
      [
        "ag",
        "en"
      ],
      [
        "n",
        "con"
      ],
      [
        "en",
        "co"
      ],
      [
        "d",
        "a"
      ],
      [
        "l",
        "e"
      ],
      [
        "u",
        "s"
      ],
      [
        "o",
        "k"
      ],
      [
        "co",
        "ok"
      ],
      [
        "la",
        "ng"
      ],
      [
        "S",
        "I"
      ],
      [
        "p",
        "a"
      ],
      [
        "ca",
        "l"
      ],
      [
        "u",
        "age"
      ],
      [
        "lang",
        "uage"
      ],
      [
        "lo",
        "cal"
      ],
      [
        "local",
        "host"
      ],
      [
        "E",
        "S"
      ],
      [
        "S",
        "ES"
      ],
      [
        "SES",
        "SI"
      ],
      [
        "l",
        "la"
      ],
      [
        "cook",
        "ie"
      ],
      [
        "co",
        "m"
      ],
      [
        "k",
        "e"
      ],
      [
        "in",
        "g"
      ],
      [
        "M",
        "o"
      ],
      [
        "k",
        "o"
      ],
      [
        "/",
        "*"
      ],
      [
        "us",
        "er"
      ],
      [
        "u",
        "x"
      ],
      [
        "T",
        "P"
      ],
      [
        "n",
        "ec"
      ],
      [
        "d",
        "ing"
      ],
      [
        "L",
        "in"
      ],
      [
        "n",
        "user"
      ],
      [
        "ec",
        "ko"
      ],
      [
        "agen",
        "t"
      ],
      [
        "enco",
        "ding"
      ],
      [
        "G",
        "ecko"
      ],
      [
        "n",
        "host"
      ],
      [
        "Ġ",
        "/"
      ],
      [
        "Ġ",
        "en"
      ],
      [
        "Ġ",
        "HT"
      ],
      [
        "Ġ",
        "localhost"
      ],
      [
        "Ġ",
        "Mo"
      ],
      [
        "Ġ",
        "Lin"
      ],
      [
        "Ġ",
        "Gecko"
      ],
      [
        "zi",
        "lla"
      ],
      [
        "ncon",
        "nec"
      ],
      [
        "ĠHT",
        "TP"
      ],
      [
        "ĠMo",
        "zilla"
      ],
      [
        "ĠLin",
        "ux"
      ],
      [
        "nconnec",
        "tion"
      ],
      [
        "*",
        "/*"
      ],
      [
        "Ġ",
        "gzip"
      ],
      [
        "Ġ",
        "deflate"
      ],
      [
        "n",
        "cookie"
      ],
      [
        "Ġ",
        "text"
      ],
      [
        "*/*",
        ";"
      ],
      [
        "I",
        "D"
      ],
      [
        "O",
        "N"
      ],
      [
        "J",
        "SESSI"
      ],
      [
        "Ġ",
        "JSESSI"
      ],
      [
        "ON",
        "ID"
      ],
      [
        "ĠJSESSI",
        "ONID"
      ],
      [
        "l",
        "os"
      ],
      [
        "im",
        "age"
      ],
      [
        "q",
        "u"
      ],
      [
        "b",
        "le"
      ],
      [
        ",",
        "*/*;"
      ],
      [
        "p",
        "la"
      ],
      [
        "p",
        "ng"
      ],
      [
        "pla",
        "in"
      ],
      [
        "x",
        "html"
      ],
      [
        "qu",
        "er"
      ],
      [
        "ti",
        "en"
      ],
      [
        "Ġ",
        "c"
      ],
      [
        "tien",
        "da"
      ],
      [
        "80",
        "80"
      ],
      [
        "li",
        "ke"
      ],
      [
        "com",
        "pa"
      ],
      [
        "on",
        "quer"
      ],
      [
        "los",
        "e"
      ],
      [
        ")",
        "\\"
      ],
      [
        "M",
        "L"
      ],
      [
        "ti",
        "ble"
      ],
      [
        "HT",
        "ML"
      ],
      [
        "ĠK",
        "onquer"
      ],
      [
        "ĠK",
        "HTML"
      ],
      [
        "Ġc",
        "lose"
      ],
      [
        "compa",
        "tible"
      ],
      [
        "ĠKonquer",
        "or"
      ],
      [
        "e",
        "t"
      ],
      [
        "g",
        "et"
      ],
      [
        "a",
        "r"
      ],
      [
        "j",
        "s"
      ],
      [
        "js",
        "p"
      ],
      [
        "r",
        "e"
      ],
      [
        "s",
        "t"
      ],
      [
        "u",
        "b"
      ],
      [
        "m",
        "b"
      ],
      [
        "ub",
        "li"
      ],
      [
        "p",
        "ubli"
      ],
      [
        "publi",
        "co"
      ],
      [
        "d",
        "i"
      ],
      [
        "w",
        "w"
      ],
      [
        "c",
        "i"
      ],
      [
        "g",
        "i"
      ],
      [
        "0",
        "1"
      ],
      [
        "n",
        "t"
      ],
      [
        "r",
        "o"
      ],
      [
        "e",
        "s"
      ],
      [
        "s",
        "s"
      ],
      [
        "a",
        "l"
      ],
      [
        "r",
        "i"
      ],
      [
        "3",
        "8"
      ],
      [
        "4",
        "2"
      ],
      [
        "m",
        "o"
      ],
      [
        "r",
        "ec"
      ],
      [
        "1",
        "7"
      ],
      [
        "r",
        "ar"
      ],
      [
        "gi",
        "st"
      ],
      [
        "Ġ",
        "application"
      ],
      [
        "3",
        "6"
      ],
      [
        "a",
        "n"
      ],
      [
        "u",
        "r"
      ],
      [
        "d",
        "o"
      ],
      [
        "ca",
        "r"
      ],
      [
        "4",
        "0"
      ],
      [
        "r",
        "os"
      ],
      [
        "m",
        "ie"
      ],
      [
        "mb",
        "ros"
      ],
      [
        "im",
        "agen"
      ],
      [
        "mie",
        "mbros"
      ],
      [
        "imagen",
        "es"
      ],
      [
        "a",
        "t"
      ],
      [
        "n",
        "o"
      ],
      [
        "t",
        "y"
      ],
      [
        "9",
        "9"
      ],
      [
        "p",
        "e"
      ],
      [
        "g",
        "in"
      ],
      [
        "8",
        "6"
      ],
      [
        "4",
        "1"
      ],
      [
        "f",
        "or"
      ],
      [
        "te",
        "nt"
      ],
      [
        "p",
        "ost"
      ],
      [
        "ncon",
        "tent"
      ],
      [
        "ty",
        "pe"
      ],
      [
        "e",
        "l"
      ],
      [
        "for",
        "m"
      ],
      [
        "4",
        "5"
      ],
      [
        "de",
        "d"
      ],
      [
        "ur",
        "l"
      ],
      [
        "ww",
        "w"
      ],
      [
        "enco",
        "ded"
      ],
      [
        "url",
        "encoded"
      ],
      [
        "mo",
        "do"
      ],
      [
        "9",
        "8"
      ],
      [
        "1",
        "1"
      ],
      [
        "4",
        "6"
      ],
      [
        "a",
        "s"
      ],
      [
        "0",
        "0"
      ],
      [
        "8",
        "3"
      ],
      [
        "en",
        "t"
      ],
      [
        "c",
        "h"
      ],
      [
        "2",
        "5"
      ],
      [
        "n",
        "i"
      ],
      [
        "ci",
        "a"
      ],
      [
        "2",
        "0"
      ],
      [
        "5",
        "7"
      ],
      [
        "e",
        "b"
      ],
      [
        "da",
        "d"
      ],
      [
        "9",
        "1"
      ],
      [
        "F",
        "B"
      ],
      [
        "lo",
        "gin"
      ],
      [
        "mb",
        "re"
      ],
      [
        "re",
        "gist"
      ],
      [
        "3",
        "1"
      ],
      [
        "no",
        "mbre"
      ],
      [
        "regist",
        "ro"
      ],
      [
        "4",
        "7"
      ],
      [
        "C",
        "C"
      ],
      [
        "D",
        "D"
      ],
      [
        "2",
        "2"
      ],
      [
        "B",
        "A"
      ],
      [
        "9",
        "7"
      ],
      [
        "t",
        "o"
      ],
      [
        "i",
        "o"
      ],
      [
        "0",
        "6"
      ],
      [
        "8",
        "7"
      ],
      [
        "3",
        "7"
      ],
      [
        "m",
        "i"
      ],
      [
        "p",
        "ro"
      ],
      [
        "8",
        "5"
      ],
      [
        "m",
        "e"
      ],
      [
        "9",
        "6"
      ],
      [
        "2",
        "7"
      ],
      [
        "s",
        "ec"
      ],
      [
        "2",
        "6"
      ],
      [
        "car",
        "ri"
      ],
      [
        "E",
        "D"
      ],
      [
        "carri",
        "to"
      ],
      [
        "gi",
        "f"
      ],
      [
        "m",
        "a"
      ],
      [
        "1",
        "42"
      ],
      [
        "9",
        "5"
      ],
      [
        "i",
        "l"
      ],
      [
        "3",
        "5"
      ],
      [
        "F",
        "A"
      ],
      [
        "2",
        "1"
      ],
      [
        "di",
        "s"
      ],
      [
        "n",
        "sec"
      ],
      [
        "f",
        "et"
      ],
      [
        "fet",
        "ch"
      ],
      [
        "re",
        "f"
      ],
      [
        "mi",
        "ss"
      ],
      [
        "st",
        "at"
      ],
      [
        "stat",
        "us"
      ],
      [
        "dis",
        "miss"
      ],
      [
        "F",
        "C"
      ],
      [
        "8",
        "1"
      ],
      [
        "3",
        "4"
      ],
      [
        "6",
        "4"
      ],
      [
        "j",
        "p"
      ],
      [
        "E",
        "A"
      ],
      [
        "7",
        "1"
      ],
      [
        "co",
        "r"
      ],
      [
        "R",
        "e"
      ],
      [
        "9",
        "0"
      ],
      [
        "jp",
        "g"
      ],
      [
        "3",
        "0"
      ],
      [
        "D",
        "A"
      ],
      [
        "ac",
        "i"
      ],
      [
        "w",
        "or"
      ],
      [
        "t",
        "ar"
      ],
      [
        "li",
        "d"
      ],
      [
        "a",
        "di"
      ],
      [
        "F",
        "E"
      ],
      [
        "b",
        "al"
      ],
      [
        "ss",
        "wor"
      ],
      [
        "sswor",
        "d"
      ],
      [
        "s",
        "a"
      ],
      [
        "v",
        "in"
      ],
      [
        "r",
        "a"
      ],
      [
        "u",
        "dad"
      ],
      [
        "e",
        "ma"
      ],
      [
        "pa",
        "ssword"
      ],
      [
        "ci",
        "on"
      ],
      [
        "di",
        "rec"
      ],
      [
        "n",
        "ti"
      ],
      [
        "c",
        "p"
      ],
      [
        "g",
        "lo"
      ],
      [
        "ema",
        "il"
      ],
      [
        "8",
        "2"
      ],
      [
        "ap",
        "el"
      ],
      [
        "nt",
        "c"
      ],
      [
        "rec",
        "io"
      ],
      [
        "adi",
        "r"
      ],
      [
        "aci",
        "ar"
      ],
      [
        "glo",
        "bal"
      ],
      [
        "Z",
        "R"
      ],
      [
        "d",
        "ni"
      ],
      [
        "n",
        "modo"
      ],
      [
        "p",
        "recio"
      ],
      [
        "ci",
        "udad"
      ],
      [
        "gist",
        "rar"
      ],
      [
        "ent",
        "rar"
      ],
      [
        "pro",
        "vin"
      ],
      [
        "Re",
        "gistrar"
      ],
      [
        "lid",
        "os"
      ],
      [
        "direc",
        "cion"
      ],
      [
        "apel",
        "lidos"
      ],
      [
        "provin",
        "cia"
      ],
      [
        "B",
        "C"
      ],
      [
        "7",
        "0"
      ],
      [
        "u",
        "e"
      ],
      [
        "F",
        "D"
      ],
      [
        "E",
        "C"
      ],
      [
        "3",
        "9"
      ],
      [
        "5",
        "6"
      ],
      [
        "A",
        "A"
      ],
      [
        "B",
        "B"
      ],
      [
        "5",
        "17"
      ],
      [
        "n",
        "er"
      ],
      [
        "j",
        "a"
      ],
      [
        "s",
        "er"
      ],
      [
        "5",
        "5"
      ],
      [
        "a",
        "u"
      ],
      [
        "B",
        "D"
      ],
      [
        "G",
        "o"
      ],
      [
        "E",
        "E"
      ],
      [
        "s",
        "i"
      ],
      [
        "W",
        "eb"
      ],
      [
        "n",
        "ue"
      ],
      [
        "Go",
        "at"
      ],
      [
        "Web",
        "Goat"
      ],
      [
        "m",
        "v"
      ],
      [
        "517",
        "3"
      ],
      [
        "3",
        "2"
      ],
      [
        "6",
        "6"
      ],
      [
        "C",
        "A"
      ],
      [
        "F",
        "F"
      ],
      [
        "5",
        "1"
      ],
      [
        "4",
        "4"
      ],
      [
        "I",
        "j"
      ],
      [
        "9",
        "2"
      ],
      [
        "C",
        "D"
      ],
      [
        "t",
        "os"
      ],
      [
        "E",
        "B"
      ],
      [
        "mv",
        "c"
      ],
      [
        "5",
        "0"
      ],
      [
        "m",
        "en"
      ],
      [
        "E",
        "F"
      ],
      [
        "C",
        "B"
      ],
      [
        "4",
        "8"
      ],
      [
        "W",
        "x"
      ],
      [
        "6",
        "7"
      ],
      [
        "b",
        "r"
      ],
      [
        "6",
        "1"
      ],
      [
        "0",
        "7"
      ],
      [
        "J",
        "l"
      ],
      [
        "s",
        "I"
      ],
      [
        "3",
        "3"
      ],
      [
        "8",
        "8"
      ],
      [
        "9",
        "4"
      ],
      [
        "v",
        "i"
      ],
      [
        "o",
        "x"
      ],
      [
        "v",
        "e"
      ],
      [
        "C",
        "o"
      ],
      [
        "F",
        "i"
      ],
      [
        "2",
        "01"
      ],
      [
        "i",
        "d"
      ],
      [
        "or",
        "i"
      ],
      [
        "A",
        "D"
      ],
      [
        "a",
        "te"
      ],
      [
        "a",
        "li"
      ],
      [
        "0",
        "01"
      ],
      [
        "9",
        "3"
      ],
      [
        "6",
        "0"
      ],
      [
        "7",
        "7"
      ],
      [
        "le",
        "s"
      ],
      [
        "5",
        "2"
      ],
      [
        "M",
        "j"
      ],
      [
        "\"",
        ":"
      ],
      [
        "on",
        "s"
      ],
      [
        "C",
        "I"
      ],
      [
        "D",
        "C"
      ],
      [
        "N",
        "D"
      ],
      [
        "A",
        "B"
      ],
      [
        "mo",
        "de"
      ],
      [
        "{",
        "\""
      ],
      [
        "t",
        "p"
      ],
      [
        "D",
        "B"
      ],
      [
        "U",
        "S"
      ],
      [
        "w",
        "el"
      ],
      [
        "Ij",
        "o"
      ],
      [
        "si",
        "te"
      ],
      [
        "A",
        "C"
      ],
      [
        "P",
        "H"
      ],
      [
        "r",
        "v"
      ],
      [
        "ref",
        "ox"
      ],
      [
        "Ġ",
        "ke"
      ],
      [
        "Ġ",
        "Fi"
      ],
      [
        "Ġ",
        "rv"
      ],
      [
        "en",
        "cia"
      ],
      [
        "er",
        "er"
      ],
      [
        "201",
        "001"
      ],
      [
        "ali",
        "ve"
      ],
      [
        "Ġke",
        "ep"
      ],
      [
        "ĠFi",
        "refox"
      ],
      [
        "201001",
        "01"
      ],
      [
        "Co",
        "de"
      ],
      [
        "i",
        "ec"
      ],
      [
        "st",
        "ate"
      ],
      [
        "sa",
        "me"
      ],
      [
        "Ġ",
        "g"
      ],
      [
        "Ġ",
        "same"
      ],
      [
        "ti",
        "nue"
      ],
      [
        "ori",
        "gin"
      ],
      [
        "an",
        "ner"
      ],
      [
        "z",
        "st"
      ],
      [
        "Ġ",
        "br"
      ],
      [
        "Ġ",
        "zst"
      ],
      [
        "con",
        "tinue"
      ],
      [
        "Ġzst",
        "d"
      ],
      [
        "=",
        "{\""
      ],
      [
        "P",
        "SESSI"
      ],
      [
        "}",
        ";"
      ],
      [
        "Ġ",
        "cook"
      ],
      [
        "Ġ",
        "language"
      ],
      [
        "Ġ",
        "wel"
      ],
      [
        "Ġ",
        "PH"
      ],
      [
        "Ġ",
        "continue"
      ],
      [
        "com",
        "eb"
      ],
      [
        "ons",
        "ent"
      ],
      [
        "iec",
        "onsent"
      ],
      [
        "PSESSI",
        "D"
      ],
      [
        "Ġcook",
        "ieconsent"
      ],
      [
        "Ġwel",
        "comeb"
      ],
      [
        "ĠPH",
        "PSESSID"
      ],
      [
        "Ġcontinue",
        "Code"
      ],
      [
        "Ġwelcomeb",
        "anner"
      ],
      [
        "ht",
        "tp"
      ],
      [
        "1",
        "0"
      ],
      [
        "/",
        "/"
      ],
      [
        ":",
        "//"
      ],
      [
        "n",
        "ref"
      ],
      [
        "Ġ",
        "http"
      ],
      [
        "nref",
        "erer"
      ],
      [
        "8",
        "4"
      ],
      [
        "g",
        "o"
      ],
      [
        "a",
        "j"
      ],
      [
        "b",
        "m"
      ],
      [
        "I",
        "i"
      ],
      [
        "G",
        "M"
      ],
      [
        "cor",
        "s"
      ],
      [
        "6",
        "2"
      ],
      [
        "M",
        "s"
      ],
      [
        "le",
        "ss"
      ],
      [
        "Ijo",
        "i"
      ],
      [
        "s",
        "ti"
      ],
      [
        "less",
        "on"
      ],
      [
        "t",
        "as"
      ],
      [
        "y",
        "O"
      ],
      [
        "ca",
        "s"
      ],
      [
        "C",
        "E"
      ],
      [
        "w",
        "d"
      ],
      [
        "8",
        "9"
      ],
      [
        "z",
        "m"
      ],
      [
        "B",
        "E"
      ],
      [
        "e",
        "di"
      ],
      [
        "re",
        "d"
      ],
      [
        "D",
        "O"
      ],
      [
        "i",
        "O"
      ],
      [
        "1",
        "2"
      ],
      [
        "no",
        "v"
      ],
      [
        "4",
        "3"
      ],
      [
        "E",
        "nt"
      ],
      [
        "te",
        "ri"
      ],
      [
        "mb",
        "er"
      ],
      [
        "6",
        "5"
      ],
      [
        "D",
        "E"
      ],
      [
        "A",
        "E"
      ],
      [
        "+",
        "&"
      ],
      [
        "p",
        "ag"
      ],
      [
        "C",
        "F"
      ],
      [
        "V",
        "A"
      ],
      [
        "in",
        "de"
      ],
      [
        "re",
        "me"
      ],
      [
        "C",
        "J"
      ],
      [
        "D",
        "F"
      ],
      [
        "r",
        "or"
      ],
      [
        "E",
        "Q"
      ],
      [
        "ca",
        "nti"
      ],
      [
        "cor",
        "rec"
      ],
      [
        "B",
        "bm"
      ],
      [
        "C",
        "red"
      ],
      [
        "K",
        "yO"
      ],
      [
        "L",
        "zm"
      ],
      [
        "P",
        "J"
      ],
      [
        "Q",
        "DO"
      ],
      [
        "V",
        "aciar"
      ],
      [
        "X",
        "k"
      ],
      [
        "Y",
        "VA"
      ],
      [
        "g",
        "YVA"
      ],
      [
        "p",
        "wd"
      ],
      [
        "q",
        "PJ"
      ],
      [
        "v",
        "aciar"
      ],
      [
        "w",
        "Wx"
      ],
      [
        "z",
        "ZR"
      ],
      [
        "te",
        "nti"
      ],
      [
        "in",
        "ser"
      ],
      [
        "in",
        "correc"
      ],
      [
        "ac",
        "teri"
      ],
      [
        "re",
        "ZR"
      ],
      [
        "al",
        "ND"
      ],
      [
        "an",
        "adir"
      ],
      [
        "car",
        "acteri"
      ],
      [
        "ni",
        "d"
      ],
      [
        "au",
        "tenti"
      ],
      [
        "Jl",
        "GM"
      ],
      [
        "encia",
        "les"
      ],
      [
        "Ms",
        "g"
      ],
      [
        "sti",
        "cas"
      ],
      [
        "edi",
        "tar"
      ],
      [
        "nov",
        "p"
      ],
      [
        "Ent",
        "rar"
      ],
      [
        "pag",
        "ar"
      ],
      [
        "inde",
        "x"
      ],
      [
        "reme",
        "mber"
      ],
      [
        "ror",
        "Msg"
      ],
      [
        "canti",
        "dad"
      ],
      [
        "Bbm",
        "zZR"
      ],
      [
        "Cred",
        "enciales"
      ],
      [
        "KyO",
        "qPJ"
      ],
      [
        "Lzm",
        "Xk"
      ],
      [
        "gYVA",
        "JlGM"
      ],
      [
        "wWx",
        "alND"
      ],
      [
        "inser",
        "tar"
      ],
      [
        "incorrec",
        "tas"
      ],
      [
        "reZR",
        "LzmXk"
      ],
      [
        "caracteri",
        "sticas"
      ],
      [
        "autenti",
        "car"
      ],
      [
        "BbmzZR",
        "b"
      ],
      [
        "Z",
        "X"
      ],
      [
        "A",
        "F"
      ],
      [
        "B",
        "F"
      ],
      [
        "b",
        "f"
      ],
      [
        "1",
        "5"
      ],
      [
        "4",
        "9"
      ],
      [
        "i",
        "J"
      ],
      [
        "1",
        "6"
      ],
      [
        "Ġ",
        "cors"
      ],
      [
        "36",
        "0"
      ],
      [
        "M",
        "T"
      ],
      [
        "L",
        "CJ"
      ],
      [
        "FB",
        "E"
      ],
      [
        "0",
        "5"
      ],
      [
        "2",
        "9"
      ],
      [
        "ar",
        "t"
      ],
      [
        "7",
        "4"
      ],
      [
        "c",
        "e"
      ],
      [
        "7",
        "6"
      ],
      [
        "7",
        "5"
      ],
      [
        "men",
        "u"
      ],
      [
        "2",
        "8"
      ],
      [
        "2",
        "4"
      ],
      [
        "98",
        "99"
      ],
      [
        "2",
        "3"
      ],
      [
        "41",
        "99"
      ],
      [
        "st",
        "art"
      ],
      [
        "9899",
        "41"
      ],
      [
        "w",
        "i"
      ],
      [
        "js",
        "on"
      ],
      [
        "u",
        "l"
      ],
      [
        "1",
        "01"
      ],
      [
        "c",
        "ri"
      ],
      [
        "Y",
        "W"
      ],
      [
        "p",
        "t"
      ],
      [
        "2",
        "83"
      ],
      [
        "v",
        "as"
      ],
      [
        "cri",
        "pt"
      ],
      [
        "a",
        "m"
      ],
      [
        "5",
        "8"
      ],
      [
        "h",
        "i"
      ],
      [
        "5",
        "3"
      ],
      [
        "Ġ",
        "q"
      ],
      [
        "Ġ",
        "*/*;"
      ],
      [
        "6",
        "3"
      ],
      [
        "5",
        "4"
      ],
      [
        "i",
        "r"
      ],
      [
        "ja",
        "vas"
      ],
      [
        "javas",
        "cript"
      ],
      [
        "e",
        "y"
      ],
      [
        "5",
        "9"
      ],
      [
        "1",
        "3"
      ],
      [
        "M",
        "D"
      ],
      [
        "ser",
        "vi"
      ],
      [
        "7",
        "9"
      ],
      [
        "70",
        "98"
      ],
      [
        "servi",
        "ce"
      ],
      [
        "N",
        "T"
      ],
      [
        "d",
        "bf"
      ],
      [
        "283",
        "36"
      ],
      [
        "7098",
        "101"
      ],
      [
        "dbf",
        "d"
      ],
      [
        "6",
        "8"
      ],
      [
        "Z",
        "W"
      ],
      [
        "1",
        "4"
      ],
      [
        "7",
        "2"
      ],
      [
        "N",
        "z"
      ],
      [
        "d",
        "u"
      ],
      [
        "1",
        "8"
      ],
      [
        "G",
        "F"
      ],
      [
        "m",
        "ar"
      ],
      [
        "0",
        "9"
      ],
      [
        "Ii",
        "wi"
      ],
      [
        "7",
        "8"
      ],
      [
        "0",
        "2"
      ],
      [
        "n",
        "B"
      ],
      [
        "17",
        "6"
      ],
      [
        "7",
        "3"
      ],
      [
        "ey",
        "J"
      ],
      [
        "1",
        "9"
      ],
      [
        "38",
        "7"
      ],
      [
        "6",
        "9"
      ],
      [
        "0",
        "3"
      ],
      [
        "0",
        "8"
      ],
      [
        "z",
        "d"
      ],
      [
        "M",
        "z"
      ],
      [
        "7",
        "86"
      ],
      [
        "0",
        "4"
      ],
      [
        "p",
        "or"
      ],
      [
        "o",
        "f"
      ],
      [
        "f",
        "o"
      ],
      [
        "06",
        "2"
      ],
      [
        "Y",
        "m"
      ],
      [
        "ac",
        "k"
      ],
      [
        "t",
        "u"
      ],
      [
        "d",
        "CI"
      ],
      [
        "z",
        "ar"
      ],
      [
        "du",
        "c"
      ],
      [
        "c",
        "ss"
      ],
      [
        "o",
        "g"
      ],
      [
        "G",
        "V"
      ],
      [
        "34",
        "83"
      ],
      [
        "al",
        "le"
      ],
      [
        "sI",
        "m"
      ],
      [
        "j",
        "ack"
      ],
      [
        "er",
        "ra"
      ],
      [
        "C",
        "on"
      ],
      [
        "P",
        "as"
      ],
      [
        "i",
        "LCJ"
      ],
      [
        "00",
        "57"
      ],
      [
        "91",
        "22"
      ],
      [
        "46",
        "42"
      ],
      [
        "Ġ",
        "hi"
      ],
      [
        "36",
        "3483"
      ],
      [
        "176",
        "363483"
      ],
      [
        "387",
        "25"
      ],
      [
        "786",
        "0057"
      ],
      [
        "062",
        "38725"
      ],
      [
        "4642",
        "06238725"
      ],
      [
        "Ġhi",
        "jack"
      ],
      [
        "176363483",
        "9122"
      ],
      [
        "7860057",
        "464206238725"
      ],
      [
        "pro",
        "duc"
      ],
      [
        "on",
        "o"
      ],
      [
        "of",
        "f"
      ],
      [
        "R",
        "B"
      ],
      [
        "I",
        "w"
      ],
      [
        "st",
        "ro"
      ],
      [
        "80",
        "82"
      ],
      [
        "N",
        "j"
      ],
      [
        "st",
        "ra"
      ],
      [
        "iO",
        "iJ"
      ],
      [
        "c",
        "re"
      ],
      [
        "C",
        "alle"
      ],
      [
        "n",
        "V"
      ],
      [
        "lo",
        "go"
      ],
      [
        "f",
        "ir"
      ],
      [
        "ti",
        "tu"
      ],
      [
        "es",
        "ti"
      ],
      [
        "fo",
        "tos"
      ],
      [
        "ca",
        "stro"
      ],
      [
        "sa",
        "li"
      ],
      [
        "b",
        "ul"
      ],
      [
        "ti",
        "erra"
      ],
      [
        "ca",
        "ja"
      ],
      [
        "Pas",
        "ar"
      ],
      [
        "cre",
        "di"
      ],
      [
        "produc",
        "tos"
      ],
      [
        "c",
        "men"
      ],
      [
        "er",
        "rorMsg"
      ],
      [
        "ner",
        "rorMsg"
      ],
      [
        "au",
        "z"
      ],
      [
        "nue",
        "stra"
      ],
      [
        "menu",
        "m"
      ],
      [
        "zar",
        "auz"
      ],
      [
        "og",
        "ono"
      ],
      [
        "titu",
        "lo"
      ],
      [
        "esti",
        "los"
      ],
      [
        "sali",
        "r"
      ],
      [
        "credi",
        "tos"
      ],
      [
        "cmen",
        "bul"
      ],
      [
        "nuestra",
        "tierra"
      ],
      [
        "Con",
        "fir"
      ],
      [
        "Confir",
        "mar"
      ],
      [
        "l",
        "s"
      ],
      [
        "R",
        "l"
      ],
      [
        "e",
        "a"
      ],
      [
        "v",
        "er"
      ],
      [
        "z",
        "a"
      ],
      [
        "in",
        "o"
      ],
      [
        "d",
        "X"
      ],
      [
        "MT",
        "E"
      ],
      [
        "a",
        "b"
      ],
      [
        "Q",
        "u"
      ],
      [
        "R",
        "io"
      ],
      [
        "1",
        "00"
      ],
      [
        "ZW",
        "RB"
      ],
      [
        "ZWRB",
        "dCI"
      ],
      [
        "p",
        "Y"
      ],
      [
        "D",
        "e"
      ],
      [
        "l",
        "Ijoi"
      ],
      [
        "t",
        "YW"
      ],
      [
        "p",
        "b"
      ],
      [
        "s",
        "b"
      ],
      [
        "ch",
        "e"
      ],
      [
        "Rio",
        "ja"
      ],
      [
        "n",
        "a"
      ],
      [
        "Ġ",
        "t"
      ],
      [
        "M",
        "an"
      ],
      [
        "Y",
        "X"
      ],
      [
        "f",
        "a"
      ],
      [
        "h",
        "a"
      ],
      [
        "b",
        "G"
      ],
      [
        "6",
        "57"
      ],
      [
        "N",
        "y"
      ],
      [
        "45",
        "2"
      ],
      [
        "a",
        "d"
      ],
      [
        "lesson",
        "menu"
      ],
      [
        "46",
        "6"
      ],
      [
        "V",
        "ino"
      ],
      [
        "Z",
        "GF"
      ],
      [
        "sI",
        "nV"
      ],
      [
        "o",
        "w"
      ],
      [
        "r",
        "an"
      ],
      [
        "L",
        "j"
      ],
      [
        "es",
        "o"
      ],
      [
        "Mj",
        "U"
      ],
      [
        "t",
        "a"
      ],
      [
        "i",
        "I"
      ],
      [
        "ri",
        "co"
      ],
      [
        "Qu",
        "eso"
      ],
      [
        "che",
        "go"
      ],
      [
        "Man",
        "chego"
      ],
      [
        "I",
        "b"
      ],
      [
        "Mj",
        "A"
      ],
      [
        "A",
        "l"
      ],
      [
        "U",
        "z"
      ],
      [
        "J",
        "u"
      ],
      [
        "W",
        "F"
      ],
      [
        "m",
        "U"
      ],
      [
        "v",
        "ie"
      ],
      [
        "J",
        "am"
      ],
      [
        "u",
        "ri"
      ],
      [
        "V",
        "i"
      ],
      [
        "o",
        "l"
      ],
      [
        "c",
        "m"
      ],
      [
        "Y",
        "z"
      ],
      [
        "n",
        "e"
      ],
      [
        "Z",
        "j"
      ],
      [
        "v",
        "a"
      ],
      [
        "vie",
        "w"
      ],
      [
        "m",
        "an"
      ],
      [
        "S",
        "a"
      ],
      [
        "h",
        "c"
      ],
      [
        "o",
        "ver"
      ],
      [
        "a",
        "da"
      ],
      [
        "O",
        "T"
      ],
      [
        "t",
        "MTE"
      ],
      [
        "Ij",
        "Iw"
      ],
      [
        "Ijoi",
        "Iiwi"
      ],
      [
        "MjU",
        "tMTE"
      ],
      [
        "IjIw",
        "MjUtMTE"
      ],
      [
        "IjIwMjUtMTE",
        "t"
      ],
      [
        "pY",
        "y"
      ],
      [
        "over",
        "view"
      ],
      [
        "lesson",
        "overview"
      ],
      [
        "i",
        "a"
      ],
      [
        "h",
        "e"
      ],
      [
        "A",
        "r"
      ],
      [
        "P",
        "a"
      ],
      [
        "a",
        "ea"
      ],
      [
        "657",
        "5"
      ],
      [
        "452",
        "97"
      ],
      [
        "Z",
        "Wx"
      ],
      [
        "k",
        "ZWx"
      ],
      [
        "E",
        "x"
      ],
      [
        "e",
        "d"
      ],
      [
        "O",
        "W"
      ],
      [
        "on",
        "a"
      ],
      [
        "tYW",
        "ls"
      ],
      [
        "p",
        "os"
      ],
      [
        "j",
        "J"
      ],
      [
        "c",
        "H"
      ],
      [
        "s",
        "v"
      ],
      [
        "G",
        "d"
      ],
      [
        "M",
        "CI"
      ],
      [
        "c",
        "y"
      ],
      [
        "MD",
        "U"
      ],
      [
        "h",
        "Z"
      ],
      [
        "F",
        "N"
      ],
      [
        "s",
        "w"
      ],
      [
        "/",
        "\\"
      ],
      [
        "X",
        "A"
      ],
      [
        "uri",
        "ty"
      ],
      [
        "sec",
        "urity"
      ],
      [
        "I",
        "C"
      ],
      [
        "25",
        "3"
      ],
      [
        "ok",
        "en"
      ],
      [
        "L",
        "a"
      ],
      [
        "Z",
        "l"
      ],
      [
        "Ġ",
        "*/*"
      ],
      [
        "Ġ*/*",
        "\\"
      ],
      [
        "g",
        "u"
      ],
      [
        "r",
        "u"
      ],
      [
        "L",
        "B"
      ],
      [
        "M",
        "y"
      ],
      [
        "MD",
        "ow"
      ],
      [
        "MjA",
        "g"
      ],
      [
        "IjIwMjUtMTEt",
        "MjAg"
      ],
      [
        "sw",
        "MDow"
      ],
      [
        "IC",
        "swMDow"
      ],
      [
        "ICswMDow",
        "MCI"
      ],
      [
        "M",
        "v"
      ],
      [
        "l",
        "b"
      ],
      [
        "m",
        "O"
      ],
      [
        "Q",
        "iO"
      ],
      [
        "J",
        "v"
      ],
      [
        "si",
        "ble"
      ],
      [
        "s",
        "o"
      ],
      [
        "im",
        "pos"
      ],
      [
        "87",
        "2"
      ],
      [
        "impos",
        "sible"
      ],
      [
        "ci",
        "O"
      ],
      [
        "K",
        "V"
      ],
      [
        "M",
        "iOiJ"
      ],
      [
        "N",
        "iJ"
      ],
      [
        "Q",
        "iLCJ"
      ],
      [
        "S",
        "Uz"
      ],
      [
        "W",
        "Nj"
      ],
      [
        "Y",
        "SI"
      ],
      [
        "Z",
        "CI"
      ],
      [
        "e",
        "XA"
      ],
      [
        "h",
        "Ym"
      ],
      [
        "h",
        "bG"
      ],
      [
        "p",
        "ZCI"
      ],
      [
        "z",
        "L"
      ],
      [
        "z",
        "ZX"
      ],
      [
        "SI",
        "sI"
      ],
      [
        "ZX",
        "Nz"
      ],
      [
        "iJ",
        "SUz"
      ],
      [
        "Iiwi",
        "ZGF"
      ],
      [
        "eyJ",
        "zd"
      ],
      [
        "eyJ",
        "pZCI"
      ],
      [
        "zd",
        "WNj"
      ],
      [
        "iOiJ",
        "KV"
      ],
      [
        "dX",
        "MiOiJ"
      ],
      [
        "Ġt",
        "oken"
      ],
      [
        "sInV",
        "zZX"
      ],
      [
        "Ju",
        "YW"
      ],
      [
        "ciO",
        "iJSUz"
      ],
      [
        "QiLCJ",
        "hbG"
      ],
      [
        "eXA",
        "iOiJKV"
      ],
      [
        "ZXNz",
        "IiwiZGF"
      ],
      [
        "eyJzd",
        "GF"
      ],
      [
        "zdWNj",
        "ZXNzIiwiZGF"
      ],
      [
        "dXMiOiJ",
        "zdWNjZXNzIiwiZGF"
      ],
      [
        "sInVzZX",
        "JuYW"
      ],
      [
        "ciOiJSUz",
        "I"
      ],
      [
        "QiLCJhbG",
        "ciOiJSUzI"
      ],
      [
        "g",
        "a"
      ],
      [
        "Ġ",
        "security"
      ],
      [
        "de",
        "l"
      ],
      [
        "83",
        "4"
      ],
      [
        "C",
        "u"
      ],
      [
        "U",
        "b"
      ],
      [
        "B",
        "ar"
      ],
      [
        "W",
        "U"
      ],
      [
        "n",
        "R"
      ],
      [
        "u",
        "M"
      ],
      [
        "P",
        "g"
      ],
      [
        "f",
        "i"
      ],
      [
        "g",
        "ht"
      ],
      [
        "U",
        "iLCJ"
      ],
      [
        "e",
        "GV"
      ],
      [
        "t",
        "lb"
      ],
      [
        "Ii",
        "LCJ"
      ],
      [
        "WF",
        "n"
      ],
      [
        "eGV",
        "Ub"
      ],
      [
        "tlb",
        "iI"
      ],
      [
        "b",
        "a"
      ],
      [
        "j",
        "o"
      ],
      [
        "l",
        "l"
      ],
      [
        "V",
        "al"
      ],
      [
        "C",
        "a"
      ],
      [
        "g",
        "e"
      ],
      [
        "i",
        "s"
      ],
      [
        "G",
        "u"
      ],
      [
        "y",
        "b"
      ],
      [
        "er",
        "a"
      ],
      [
        "M",
        "ar"
      ],
      [
        "R",
        "zL"
      ],
      [
        "C",
        "ar"
      ],
      [
        "u",
        "n"
      ],
      [
        "F",
        "k"
      ],
      [
        "li",
        "ght"
      ],
      [
        "Rl",
        "Z"
      ],
      [
        "A",
        "d"
      ],
      [
        "L",
        "e"
      ],
      [
        "S",
        "an"
      ],
      [
        "he",
        "me"
      ],
      [
        "Ġt",
        "heme"
      ],
      [
        "al",
        "l"
      ],
      [
        "N",
        "B"
      ],
      [
        "sIm",
        "Rl"
      ],
      [
        "sImRl",
        "b"
      ],
      [
        "B",
        "sb"
      ],
      [
        "x",
        "pYy"
      ],
      [
        "ZX",
        "Mv"
      ],
      [
        "ZX",
        "RzL"
      ],
      [
        "Nz",
        "ZXRzL"
      ],
      [
        "Ym",
        "xpYy"
      ],
      [
        "dX",
        "Bsb"
      ],
      [
        "pb",
        "WFn"
      ],
      [
        "YX",
        "NzZXRzL"
      ],
      [
        "Fk",
        "cy"
      ],
      [
        "ZXMv",
        "dXBsb"
      ],
      [
        "pbWFn",
        "ZXMvdXBsb"
      ],
      [
        "C",
        "h"
      ],
      [
        "a",
        "X"
      ],
      [
        "j",
        "cm"
      ],
      [
        "s",
        "e"
      ],
      [
        "sI",
        "ml"
      ],
      [
        "Mz",
        "Y"
      ],
      [
        "jcm",
        "V"
      ],
      [
        "Ii",
        "I"
      ],
      [
        "Q",
        "x"
      ],
      [
        "RlZ",
        "EF"
      ],
      [
        "l",
        "tYW"
      ],
      [
        "ltYW",
        "d"
      ],
      [
        "C",
        "as"
      ],
      [
        "N",
        "a"
      ],
      [
        "R",
        "o"
      ],
      [
        "ar",
        "a"
      ],
      [
        "T",
        "E"
      ],
      [
        "S",
        "e"
      ],
      [
        "h",
        "h"
      ],
      [
        "t",
        "h"
      ],
      [
        "h",
        "d"
      ],
      [
        "an",
        "a"
      ],
      [
        "b",
        "d"
      ],
      [
        "s",
        "Z"
      ],
      [
        "Z",
        "S"
      ],
      [
        "j",
        "w"
      ],
      [
        "y",
        "d"
      ],
      [
        "L",
        "m"
      ],
      [
        "w",
        "f"
      ],
      [
        "G",
        "ls"
      ],
      [
        "d",
        "d"
      ],
      [
        "te",
        "r"
      ],
      [
        "w",
        "eb"
      ],
      [
        "k",
        "q"
      ],
      [
        "p",
        "d"
      ],
      [
        "M",
        "b"
      ],
      [
        "R",
        "w"
      ],
      [
        "R",
        "pd"
      ],
      [
        "U",
        "ltYWd"
      ],
      [
        "V",
        "jcmV"
      ],
      [
        "Z",
        "V"
      ],
      [
        "Z",
        "ml"
      ],
      [
        "b",
        "nV"
      ],
      [
        "h",
        "dCI"
      ],
      [
        "o",
        "F"
      ],
      [
        "w",
        "ZGF"
      ],
      [
        "ci",
        "LCJ"
      ],
      [
        "iO",
        "nR"
      ],
      [
        "MT",
        "c"
      ],
      [
        "ZW",
        "F"
      ],
      [
        "Mz",
        "Yz"
      ],
      [
        "sIm",
        "Ny"
      ],
      [
        "sb",
        "H"
      ],
      [
        "sInV",
        "wZGF"
      ],
      [
        "mU",
        "iOnR"
      ],
      [
        "IjoiIiwi",
        "aX"
      ],
      [
        "cH",
        "Jv"
      ],
      [
        "WU",
        "sImNy"
      ],
      [
        "NB",
        "Y"
      ],
      [
        "sImRlb",
        "GV"
      ],
      [
        "sIml",
        "hdCI"
      ],
      [
        "sZ",
        "UltYWd"
      ],
      [
        "yd",
        "WUsImNy"
      ],
      [
        "Rw",
        "U"
      ],
      [
        "Rpd",
        "mUiOnR"
      ],
      [
        "Zml",
        "sZUltYWd"
      ],
      [
        "bnV",
        "sbH"
      ],
      [
        "IjoiIiwiaX",
        "NBY"
      ],
      [
        "cHJv",
        "ZmlsZUltYWd"
      ],
      [
        "ydWUsImNy",
        "ZWF"
      ],
      [
        "RpdmUiOnR",
        "ydWUsImNyZWF"
      ],
      [
        "cHJvZmlsZUltYWd",
        "lIjoi"
      ],
      [
        "W",
        "r"
      ],
      [
        "AA",
        "A"
      ],
      [
        "B",
        "M"
      ],
      [
        "D",
        "Q"
      ],
      [
        "L",
        "br"
      ],
      [
        "M",
        "Wr"
      ],
      [
        "P",
        "ea"
      ],
      [
        "X",
        "V"
      ],
      [
        "Y",
        "Rl"
      ],
      [
        "Z",
        "MWr"
      ],
      [
        "g",
        "jJ"
      ],
      [
        "l",
        "w"
      ],
      [
        "n",
        "mv"
      ],
      [
        "w",
        "K"
      ],
      [
        "or",
        "a"
      ],
      [
        "Ny",
        "XV"
      ],
      [
        "Ex",
        "W"
      ],
      [
        "mO",
        "Lbr"
      ],
      [
        "kq",
        "YRl"
      ],
      [
        "BM",
        "NyXV"
      ],
      [
        "Pea",
        "BMNyXV"
      ],
      [
        "ZMWr",
        "X"
      ],
      [
        "gjJ",
        "wK"
      ],
      [
        "nmv",
        "d"
      ],
      [
        "mOLbr",
        "gjJwK"
      ],
      [
        "kqYRl",
        "ExW"
      ],
      [
        "in",
        "a"
      ],
      [
        "pb",
        "k"
      ],
      [
        "J",
        "h"
      ],
      [
        "J",
        "k"
      ],
      [
        "N",
        "v"
      ],
      [
        "Q",
        "Gd"
      ],
      [
        "R",
        "j"
      ],
      [
        "R",
        "Mb"
      ],
      [
        "V",
        "zd"
      ],
      [
        "Z",
        "TE"
      ],
      [
        "b",
        "SIsI"
      ],
      [
        "d",
        "b"
      ],
      [
        "d",
        "pbk"
      ],
      [
        "l",
        "hYm"
      ],
      [
        "t",
        "ZX"
      ],
      [
        "w",
        "YW"
      ],
      [
        "x",
        "lIjoi"
      ],
      [
        "x",
        "hc"
      ],
      [
        "er",
        "o"
      ],
      [
        "80",
        "81"
      ],
      [
        "Jl",
        "NT"
      ],
      [
        "Ijoi",
        "ZTE"
      ],
      [
        "NT",
        "lhYm"
      ],
      [
        "nB",
        "hc"
      ],
      [
        "Mz",
        "k"
      ],
      [
        "sIm",
        "xhc"
      ],
      [
        "Iw",
        "Zj"
      ],
      [
        "Zj",
        "IwZj"
      ],
      [
        "OW",
        "Jh"
      ],
      [
        "tYWls",
        "Lm"
      ],
      [
        "Zl",
        "MDU"
      ],
      [
        "UiLCJ",
        "yb"
      ],
      [
        "IiLCJ",
        "kZWx"
      ],
      [
        "IiI",
        "sImxhc"
      ],
      [
        "Jk",
        "IjoiZTE"
      ],
      [
        "Nv",
        "bSIsI"
      ],
      [
        "QGd",
        "tYWlsLm"
      ],
      [
        "Rj",
        "Mzk"
      ],
      [
        "Vzd",
        "G"
      ],
      [
        "dpbk",
        "lw"
      ],
      [
        "tZX",
        "IiLCJkZWx"
      ],
      [
        "wYW",
        "RjMzk"
      ],
      [
        "xlIjoi",
        "Y"
      ],
      [
        "JlNT",
        "ZlMDU"
      ],
      [
        "NTlhYm",
        "JlNTZlMDU"
      ],
      [
        "ZjIwZj",
        "g"
      ],
      [
        "OWJh",
        "NTlhYmJlNTZlMDU"
      ],
      [
        "JkIjoiZTE",
        "wYWRjMzk"
      ],
      [
        "NvbSIsI",
        "nBhc"
      ],
      [
        "QGdtYWlsLm",
        "NvbSIsInBhc"
      ],
      [
        "4",
        "01"
      ],
      [
        "i",
        "li"
      ],
      [
        "an",
        "o"
      ],
      [
        "F",
        "r"
      ],
      [
        "re",
        "s"
      ],
      [
        "253",
        "20"
      ],
      [
        "bf",
        "f"
      ],
      [
        "a",
        "vi"
      ],
      [
        "Mj",
        "B"
      ],
      [
        "ed",
        "f"
      ],
      [
        "bff",
        "c"
      ],
      [
        "N",
        "k"
      ],
      [
        "N",
        "mU"
      ],
      [
        "z",
        "H"
      ],
      [
        "QiO",
        "i"
      ],
      [
        "6",
        "97"
      ],
      [
        "Vi",
        "lla"
      ],
      [
        "E",
        "u"
      ],
      [
        "H",
        "Y"
      ],
      [
        "H",
        "Z"
      ],
      [
        "n",
        "j"
      ],
      [
        "Ġ",
        "no"
      ],
      [
        "T",
        "o"
      ],
      [
        "k",
        "r"
      ],
      [
        "g",
        "os"
      ],
      [
        "l",
        "u"
      ],
      [
        "Sa",
        "nt"
      ],
      [
        "h",
        "o"
      ],
      [
        "r",
        "w"
      ],
      [
        "t",
        "or"
      ],
      [
        "b",
        "e"
      ],
      [
        "Mj",
        "M"
      ],
      [
        "C",
        "i"
      ],
      [
        "J",
        "c"
      ],
      [
        "36",
        "1"
      ],
      [
        "87",
        "7"
      ],
      [
        "d",
        "H"
      ],
      [
        "p",
        "o"
      ],
      [
        "2",
        "42"
      ],
      [
        "3",
        "80"
      ],
      [
        "C",
        "X"
      ],
      [
        "ED",
        "a"
      ],
      [
        "sv",
        "g"
      ],
      [
        "E",
        "s"
      ],
      [
        "c",
        "el"
      ],
      [
        "h",
        "ha"
      ],
      [
        "47",
        "1"
      ],
      [
        "M",
        "on"
      ],
      [
        "z",
        "c"
      ],
      [
        "A",
        "x"
      ],
      [
        "B",
        "ur"
      ],
      [
        "H",
        "O"
      ],
      [
        "V",
        "tYWls"
      ],
      [
        "b",
        "ml"
      ],
      [
        "w",
        "QGdtYWlsLmNvbSIsInBhc"
      ],
      [
        "y",
        "a"
      ],
      [
        "SI",
        "sIm"
      ],
      [
        "ra",
        "Gls"
      ],
      [
        "Ijoi",
        "bml"
      ],
      [
        "lIjoi",
        "Q"
      ],
      [
        "Lj",
        "Y"
      ],
      [
        "MzY",
        "wQGdtYWlsLmNvbSIsInBhc"
      ],
      [
        "MjM",
        "sInVzZXJuYW"
      ],
      [
        "hha",
        "SIsIm"
      ],
      [
        "VtYWls",
        "Ijoibml"
      ],
      [
        "raGls",
        "LjY"
      ],
      [
        "hhaSIsIm",
        "VtYWlsIjoibml"
      ],
      [
        "hhaSIsImVtYWlsIjoibml",
        "raGlsLjY"
      ],
      [
        "de",
        "s"
      ],
      [
        "i",
        "q"
      ],
      [
        "li",
        "ng"
      ],
      [
        "99",
        "7"
      ],
      [
        "47",
        "0"
      ],
      [
        "3",
        "41"
      ],
      [
        "3",
        "37"
      ],
      [
        "3",
        "96"
      ],
      [
        "4",
        "85"
      ],
      [
        "3",
        "27"
      ],
      [
        "4",
        "40"
      ],
      [
        "9",
        "26"
      ],
      [
        "u",
        "el"
      ],
      [
        "z",
        "g"
      ],
      [
        "3",
        "26"
      ],
      [
        "Y",
        "e"
      ],
      [
        "Y",
        "o"
      ],
      [
        "c",
        "za"
      ],
      [
        "r",
        "U"
      ],
      [
        "y",
        "w"
      ],
      [
        "45",
        "7"
      ],
      [
        "C",
        "DA"
      ],
      [
        "l",
        "L"
      ],
      [
        "ci",
        "c"
      ],
      [
        "pY",
        "e"
      ],
      [
        "9",
        "40"
      ],
      [
        "B",
        "V"
      ],
      [
        "F",
        "w"
      ],
      [
        "b",
        "X"
      ],
      [
        "o",
        "im"
      ],
      [
        "y",
        "q"
      ],
      [
        "46",
        "1"
      ],
      [
        "B",
        "ZV"
      ],
      [
        "G",
        "b"
      ],
      [
        "H",
        "Mo"
      ],
      [
        "I",
        "uM"
      ],
      [
        "M",
        "X"
      ],
      [
        "O",
        "Q"
      ],
      [
        "O",
        "a"
      ],
      [
        "P",
        "yw"
      ],
      [
        "Q",
        "R"
      ],
      [
        "Q",
        "v"
      ],
      [
        "S",
        "QR"
      ],
      [
        "T",
        "Z"
      ],
      [
        "T",
        "s"
      ],
      [
        "T",
        "w"
      ],
      [
        "U",
        "oF"
      ],
      [
        "V",
        "x"
      ],
      [
        "W",
        "Q"
      ],
      [
        "W",
        "Yo"
      ],
      [
        "W",
        "lL"
      ],
      [
        "Z",
        "HY"
      ],
      [
        "Z",
        "bX"
      ],
      [
        "_",
        "_"
      ],
      [
        "b",
        "CX"
      ],
      [
        "f",
        "z"
      ],
      [
        "k",
        "d"
      ],
      [
        "k",
        "HO"
      ],
      [
        "m",
        "Ax"
      ],
      [
        "q",
        "x"
      ],
      [
        "w",
        "bm"
      ],
      [
        "y",
        "Pa"
      ],
      [
        "y",
        "My"
      ],
      [
        "z",
        "jJ"
      ],
      [
        "on",
        "Qv"
      ],
      [
        "ok",
        "FC"
      ],
      [
        "ur",
        "V"
      ],
      [
        "45",
        "6"
      ],
      [
        "jpg",
        "yPa"
      ],
      [
        "sa",
        "urV"
      ],
      [
        "Mj",
        "Eu"
      ],
      [
        "ND",
        "My"
      ],
      [
        "MT",
        "IuM"
      ],
      [
        "MD",
        "c"
      ],
      [
        "NT",
        "U"
      ],
      [
        "Nz",
        "Uz"
      ],
      [
        "RB",
        "ne"
      ],
      [
        "Yz",
        "bCX"
      ],
      [
        "IjoiIiwi",
        "cHJvZmlsZUltYWdlIjoi"
      ],
      [
        "pYy",
        "HMo"
      ],
      [
        "sv",
        "Vx"
      ],
      [
        "LB",
        "yq"
      ],
      [
        "LB",
        "RBne"
      ],
      [
        "IjIwMjUtMTEtMjAg",
        "MTE"
      ],
      [
        "IjIwMjUtMTEtMjAg",
        "MDc"
      ],
      [
        "ICswMDowMCI",
        "sInVwZGF"
      ],
      [
        "ICswMDowMCI",
        "sImRlbGV"
      ],
      [
        "Pg",
        "LBRBne"
      ],
      [
        "Ad",
        "qx"
      ],
      [
        "hh",
        "mAx"
      ],
      [
        "MzYz",
        "NzUz"
      ],
      [
        "dpbklw",
        "IjoiIiwicHJvZmlsZUltYWdlIjoi"
      ],
      [
        "Fr",
        "jpgyPa"
      ],
      [
        "zH",
        "zjJ"
      ],
      [
        "HZ",
        "BZV"
      ],
      [
        "nj",
        "rU"
      ],
      [
        "iq",
        "njrU"
      ],
      [
        "Ye",
        "Gd"
      ],
      [
        "cza",
        "oim"
      ],
      [
        "cic",
        "B"
      ],
      [
        "pYe",
        "Oa"
      ],
      [
        "BV",
        "Ts"
      ],
      [
        "Fw",
        "svVx"
      ],
      [
        "Gb",
        "jw"
      ],
      [
        "OQ",
        "iqnjrU"
      ],
      [
        "Pyw",
        "WlL"
      ],
      [
        "SQR",
        "pYyHMo"
      ],
      [
        "TZ",
        "PgLBRBne"
      ],
      [
        "Tw",
        "zg"
      ],
      [
        "UoF",
        "TZPgLBRBne"
      ],
      [
        "WYo",
        "G"
      ],
      [
        "ZbX",
        "Gbjw"
      ],
      [
        "fz",
        "kr"
      ],
      [
        "kHO",
        "FrjpgyPa"
      ],
      [
        "wbm",
        "ciLCJ"
      ],
      [
        "onQv",
        "rw"
      ],
      [
        "okFC",
        "kHOFrjpgyPa"
      ],
      [
        "MjEu",
        "NDMy"
      ],
      [
        "MTIuM",
        "DA"
      ],
      [
        "LByq",
        "cicB"
      ],
      [
        "Adqx",
        "saurV"
      ],
      [
        "hhmAx",
        "ZHY"
      ],
      [
        "MzYzNzUz",
        "MX"
      ],
      [
        "dpbklwIjoiIiwicHJvZmlsZUltYWdlIjoi",
        "YXNzZXRzL"
      ],
      [
        "zHzjJ",
        "M"
      ],
      [
        "HZBZV",
        "H"
      ],
      [
        "czaoim",
        "Cu"
      ],
      [
        "pYeOa",
        "LByqcicB"
      ],
      [
        "FwsvVx",
        "hhmAxZHY"
      ],
      [
        "PywWlL",
        "YzbCX"
      ],
      [
        "UoFTZPgLBRBne",
        "FwsvVxhhmAxZHY"
      ],
      [
        "okFCkHOFrjpgyPa",
        "Twzg"
      ],
      [
        "MjEuNDMy",
        "ICswMDowMCIsInVwZGF"
      ],
      [
        "8",
        "97"
      ],
      [
        "46",
        "7"
      ],
      [
        "2",
        "00"
      ],
      [
        "4",
        "37"
      ],
      [
        "8",
        "27"
      ],
      [
        "17",
        "7"
      ],
      [
        "45",
        "1"
      ],
      [
        "3",
        "42"
      ],
      [
        "8",
        "11"
      ],
      [
        "8",
        "25"
      ],
      [
        "B",
        "EA"
      ],
      [
        "E",
        "EC"
      ],
      [
        "3",
        "06"
      ],
      [
        "4",
        "35"
      ],
      [
        "M",
        "F"
      ],
      [
        "T",
        "or"
      ],
      [
        "80",
        "0"
      ],
      [
        "17",
        "1"
      ],
      [
        "2",
        "36"
      ],
      [
        "9",
        "42"
      ],
      [
        "9",
        "11"
      ],
      [
        "9",
        "27"
      ],
      [
        "v",
        "ar"
      ],
      [
        "Bur",
        "gos"
      ],
      [
        "b",
        "er"
      ],
      [
        "en",
        "te"
      ],
      [
        "qu",
        "e"
      ],
      [
        "BA",
        "D"
      ],
      [
        "96",
        "7"
      ],
      [
        "9",
        "01"
      ],
      [
        "0",
        "27"
      ],
      [
        "38",
        "6"
      ],
      [
        "91",
        "8"
      ],
      [
        "4",
        "86"
      ],
      [
        "N",
        "S"
      ],
      [
        "i",
        "t"
      ],
      [
        "i",
        "da"
      ],
      [
        "k",
        "a"
      ],
      [
        "ag",
        "o"
      ],
      [
        "80",
        "5"
      ],
      [
        "0",
        "91"
      ],
      [
        "3",
        "11"
      ],
      [
        "3",
        "97"
      ],
      [
        "47",
        "7"
      ],
      [
        "87",
        "1"
      ],
      [
        "E",
        "CC"
      ],
      [
        "E",
        "FA"
      ],
      [
        "F",
        "K"
      ],
      [
        "x",
        "M"
      ],
      [
        "5",
        "01"
      ],
      [
        "5",
        "06"
      ],
      [
        "8",
        "95"
      ],
      [
        "C",
        "EC"
      ],
      [
        "M",
        "w"
      ],
      [
        "Y",
        "j"
      ],
      [
        "b",
        "o"
      ],
      [
        "y",
        "MF"
      ],
      [
        "y",
        "NS"
      ],
      [
        "FC",
        "D"
      ],
      [
        "Ijoi",
        "MjA"
      ],
      [
        "YX",
        "RlZEF"
      ],
      [
        "OT",
        "M"
      ],
      [
        "all",
        "en"
      ],
      [
        "Qx",
        "MT"
      ],
      [
        "xM",
        "S"
      ],
      [
        "yMF",
        "QxMT"
      ],
      [
        "IjoiMjA",
        "yNS"
      ],
      [
        "2",
        "99"
      ],
      [
        "4",
        "41"
      ],
      [
        "9",
        "57"
      ],
      [
        "U",
        "T"
      ],
      [
        "EA",
        "A"
      ],
      [
        "3",
        "40"
      ],
      [
        "4",
        "42"
      ],
      [
        "4",
        "97"
      ],
      [
        "4",
        "95"
      ],
      [
        "E",
        "ED"
      ],
      [
        "p",
        "er"
      ],
      [
        "36",
        "7"
      ],
      [
        ".",
        "+"
      ],
      [
        "C",
        "or"
      ],
      [
        "b",
        "ar"
      ],
      [
        "ke",
        "t"
      ],
      [
        "26",
        "1"
      ],
      [
        "cel",
        "ona"
      ],
      [
        "4",
        "80"
      ],
      [
        "8",
        "42"
      ],
      [
        "9",
        "21"
      ],
      [
        "1",
        "66"
      ],
      [
        "3",
        "00"
      ],
      [
        "4",
        "46"
      ],
      [
        "F",
        "DA"
      ],
      [
        "d",
        "v"
      ],
      [
        "m",
        "er"
      ],
      [
        "FE",
        "E"
      ],
      [
        "Lj",
        "A"
      ],
      [
        "0",
        "87"
      ],
      [
        "3",
        "01"
      ],
      [
        "3",
        "95"
      ],
      [
        "=",
        "%"
      ],
      [
        "A",
        "FB"
      ],
      [
        "B",
        "CC"
      ],
      [
        "li",
        "n"
      ],
      [
        "st",
        "a"
      ],
      [
        "BA",
        "B"
      ],
      [
        "/",
        "?"
      ],
      [
        "3",
        "17"
      ],
      [
        "8",
        "99"
      ],
      [
        "M",
        "a"
      ],
      [
        "/*",
        ";"
      ],
      [
        "38",
        "1"
      ],
      [
        "0",
        "51"
      ],
      [
        "2",
        "11"
      ],
      [
        "8",
        "36"
      ],
      [
        "9",
        "80"
      ],
      [
        "9",
        "25"
      ],
      [
        "9",
        "06"
      ],
      [
        "allen",
        "ge"
      ],
      [
        "i",
        "g"
      ],
      [
        "Ġ",
        "image"
      ],
      [
        "47",
        "5"
      ],
      [
        "BC",
        "A"
      ],
      [
        "web",
        "p"
      ],
      [
        "avi",
        "f"
      ],
      [
        "3",
        "35"
      ],
      [
        "5",
        "95"
      ],
      [
        "9",
        "17"
      ],
      [
        "ri",
        "d"
      ],
      [
        "31",
        "6"
      ],
      [
        "22",
        "1"
      ],
      [
        "3",
        "20"
      ],
      [
        "4",
        "99"
      ],
      [
        "4",
        "98"
      ],
      [
        "8",
        "86"
      ],
      [
        "C",
        "am"
      ],
      [
        "D",
        "ED"
      ],
      [
        "E",
        "EA"
      ],
      [
        "F",
        "CC"
      ],
      [
        "81",
        "0"
      ],
      [
        "2",
        "97"
      ],
      [
        "3",
        "99"
      ],
      [
        "4",
        "17"
      ],
      [
        "D",
        "EA"
      ],
      [
        "i",
        "c"
      ],
      [
        "l",
        "y"
      ],
      [
        "en",
        "a"
      ],
      [
        "FC",
        "B"
      ],
      [
        "1",
        "06"
      ],
      [
        "E",
        "l"
      ],
      [
        "Q",
        "sInVzZXJuYW"
      ],
      [
        "W",
        "w"
      ],
      [
        "t",
        "r"
      ],
      [
        "25",
        "0"
      ],
      [
        "37",
        "7"
      ],
      [
        "30",
        "7"
      ],
      [
        "FD",
        "F"
      ],
      [
        "Mj",
        "QsInVzZXJuYW"
      ],
      [
        "ha",
        "Ww"
      ],
      [
        "2",
        "86"
      ],
      [
        "4",
        "96"
      ],
      [
        "5",
        "56"
      ],
      [
        "8",
        "85"
      ],
      [
        "O",
        "j"
      ],
      [
        "la",
        "n"
      ],
      [
        "1",
        "91"
      ],
      [
        "2",
        "35"
      ],
      [
        "6",
        "96"
      ],
      [
        "9",
        "86"
      ],
      [
        "E",
        "BC"
      ],
      [
        "F",
        "DD"
      ],
      [
        "a",
        "lla"
      ],
      [
        "p",
        "ol"
      ],
      [
        "31",
        "5"
      ],
      [
        "22",
        "7"
      ],
      [
        "FE",
        "C"
      ],
      [
        "0",
        "42"
      ],
      [
        "3",
        "57"
      ],
      [
        "4",
        "91"
      ],
      [
        "D",
        "el"
      ],
      [
        "c",
        "u"
      ],
      [
        "FA",
        "A"
      ],
      [
        "ul",
        "ner"
      ],
      [
        "0",
        "55"
      ],
      [
        "8",
        "80"
      ],
      [
        "9",
        "00"
      ],
      [
        "B",
        "DD"
      ],
      [
        "F",
        "ED"
      ],
      [
        "T",
        "er"
      ],
      [
        "la",
        "s"
      ],
      [
        "in",
        "t"
      ],
      [
        "25",
        "1"
      ],
      [
        "FB",
        "B"
      ],
      [
        "FA",
        "C"
      ],
      [
        "FD",
        "C"
      ],
      [
        "Ch",
        "allenge"
      ],
      [
        "4",
        "47"
      ],
      [
        "8",
        "98"
      ],
      [
        "C",
        "ED"
      ],
      [
        "D",
        "BC"
      ],
      [
        "P",
        "o"
      ],
      [
        "b",
        "i"
      ],
      [
        "g",
        "y"
      ],
      [
        "h",
        "u"
      ],
      [
        "36",
        "6"
      ],
      [
        "an",
        "d"
      ],
      [
        "25",
        "6"
      ],
      [
        "21",
        "6"
      ],
      [
        "5",
        "97"
      ],
      [
        "5",
        "87"
      ],
      [
        "8",
        "96"
      ],
      [
        "9",
        "41"
      ],
      [
        "A",
        "DA"
      ],
      [
        "t",
        "ran"
      ],
      [
        "FB",
        "A"
      ],
      [
        "FC",
        "E"
      ],
      [
        "FC",
        "F"
      ],
      [
        "1",
        "27"
      ],
      [
        "5",
        "27"
      ],
      [
        "7",
        "27"
      ],
      [
        "P",
        "l"
      ],
      [
        "FA",
        "D"
      ],
      [
        "0",
        "86"
      ],
      [
        "2",
        "40"
      ],
      [
        "2",
        "45"
      ],
      [
        "2",
        "96"
      ],
      [
        "5",
        "96"
      ],
      [
        "8",
        "17"
      ],
      [
        "B",
        "BA"
      ],
      [
        "ab",
        "ili"
      ],
      [
        "Sa",
        "la"
      ],
      [
        "1",
        "86"
      ],
      [
        "2",
        "87"
      ],
      [
        "4",
        "90"
      ],
      [
        "5",
        "57"
      ],
      [
        "8",
        "57"
      ],
      [
        "C",
        "AA"
      ],
      [
        "D",
        "BD"
      ],
      [
        "L",
        "R"
      ],
      [
        "L",
        "T"
      ],
      [
        "P",
        "W"
      ],
      [
        "X",
        "QiO"
      ],
      [
        "ti",
        "es"
      ],
      [
        "el",
        "l"
      ],
      [
        "37",
        "1"
      ],
      [
        "26",
        "7"
      ],
      [
        "EB",
        "E"
      ],
      [
        "2",
        "80"
      ],
      [
        "2",
        "17"
      ],
      [
        "3",
        "31"
      ],
      [
        "4",
        "83"
      ],
      [
        "A",
        "n"
      ],
      [
        "A",
        "BA"
      ],
      [
        "F",
        "EA"
      ],
      [
        "I",
        "m"
      ],
      [
        "v",
        "ulner"
      ],
      [
        "por",
        "t"
      ],
      [
        "abili",
        "ties"
      ],
      [
        "vulner",
        "abilities"
      ],
      [
        "3",
        "38"
      ],
      [
        "4",
        "38"
      ],
      [
        "5",
        "46"
      ],
      [
        "C",
        "BD"
      ],
      [
        "u",
        "d"
      ],
      [
        "la",
        "r"
      ],
      [
        "41",
        "5"
      ],
      [
        "FC",
        "A"
      ],
      [
        "3",
        "36"
      ],
      [
        "3",
        "45"
      ],
      [
        "8",
        "40"
      ],
      [
        "C",
        "BC"
      ],
      [
        "D",
        "CC"
      ],
      [
        "D",
        "CA"
      ],
      [
        "l",
        "lo"
      ],
      [
        "37",
        "0"
      ],
      [
        "ED",
        "n"
      ],
      [
        "FE",
        "F"
      ],
      [
        "1",
        "85"
      ],
      [
        "5",
        "47"
      ],
      [
        "9",
        "46"
      ],
      [
        "9",
        "47"
      ],
      [
        "A",
        "DD"
      ],
      [
        "E",
        "BD"
      ],
      [
        "g",
        "s"
      ],
      [
        "11",
        "2"
      ],
      [
        "22",
        "6"
      ],
      [
        "FA",
        "B"
      ],
      [
        "Bar",
        "celona"
      ],
      [
        "0",
        "85"
      ],
      [
        "1",
        "57"
      ],
      [
        "1",
        "30"
      ],
      [
        "4",
        "87"
      ],
      [
        "5",
        "00"
      ],
      [
        "8",
        "41"
      ],
      [
        "8",
        "45"
      ],
      [
        "8",
        "26"
      ],
      [
        "9",
        "35"
      ],
      [
        "F",
        "e"
      ],
      [
        "Z",
        "ar"
      ],
      [
        "i",
        "L"
      ],
      [
        "FD",
        "B"
      ],
      [
        "BB",
        "E"
      ],
      [
        "si",
        "d"
      ],
      [
        "1",
        "80"
      ],
      [
        "1",
        "35"
      ],
      [
        "3",
        "91"
      ],
      [
        "4",
        "45"
      ],
      [
        "5",
        "86"
      ],
      [
        "5",
        "91"
      ],
      [
        "A",
        "CB"
      ],
      [
        "C",
        "EA"
      ],
      [
        "E",
        "n"
      ],
      [
        "L",
        "u"
      ],
      [
        "P",
        "la"
      ],
      [
        "0",
        "26"
      ],
      [
        "0",
        "35"
      ],
      [
        "1",
        "97"
      ],
      [
        "5",
        "99"
      ],
      [
        "6",
        "90"
      ],
      [
        "8",
        "87"
      ],
      [
        "B",
        "EC"
      ],
      [
        "E",
        "I"
      ],
      [
        "E",
        "DD"
      ],
      [
        "p",
        "i"
      ],
      [
        "FB",
        "C"
      ],
      [
        "FA",
        "F"
      ],
      [
        "so",
        "c"
      ],
      [
        "1",
        "25"
      ],
      [
        "2",
        "98"
      ],
      [
        "2",
        "47"
      ],
      [
        "2",
        "85"
      ],
      [
        "4",
        "81"
      ],
      [
        "8",
        "91"
      ],
      [
        "A",
        "EC"
      ],
      [
        "F",
        "a"
      ],
      [
        "d",
        "m"
      ],
      [
        "1",
        "21"
      ],
      [
        "5",
        "42"
      ],
      [
        "5",
        "36"
      ],
      [
        "5",
        "20"
      ],
      [
        "9",
        "45"
      ],
      [
        "A",
        "ED"
      ],
      [
        "H",
        "u"
      ],
      [
        "p",
        "h"
      ],
      [
        "FE",
        "B"
      ],
      [
        "2",
        "37"
      ],
      [
        "3",
        "47"
      ],
      [
        "5",
        "35"
      ],
      [
        "S",
        "i"
      ],
      [
        "m",
        "c"
      ],
      [
        "m",
        "as"
      ],
      [
        "v",
        "o"
      ],
      [
        "tran",
        "s"
      ],
      [
        "0",
        "37"
      ],
      [
        "1",
        "36"
      ],
      [
        "2",
        "48"
      ],
      [
        "3",
        "98"
      ],
      [
        "3",
        "25"
      ],
      [
        "4",
        "36"
      ],
      [
        "5",
        "85"
      ],
      [
        "8",
        "90"
      ],
      [
        "A",
        "BC"
      ],
      [
        "y",
        "o"
      ],
      [
        "83",
        "7"
      ],
      [
        "FB",
        "F"
      ],
      [
        "31",
        "0"
      ],
      [
        "FF",
        "F"
      ],
      [
        "0",
        "95"
      ],
      [
        "2",
        "20"
      ],
      [
        "3",
        "21"
      ],
      [
        "5",
        "11"
      ],
      [
        "5",
        "26"
      ],
      [
        "8",
        "38"
      ],
      [
        "9",
        "36"
      ],
      [
        "A",
        "Z"
      ],
      [
        "A",
        "CA"
      ],
      [
        "B",
        "DA"
      ],
      [
        "h",
        "ar"
      ],
      [
        "EE",
        "F"
      ],
      [
        "0",
        "38"
      ],
      [
        "1",
        "22"
      ],
      [
        "5",
        "41"
      ],
      [
        "5",
        "25"
      ],
      [
        "6",
        "86"
      ],
      [
        "8",
        "20"
      ],
      [
        "8",
        "22"
      ],
      [
        "A",
        "CC"
      ],
      [
        "A",
        "CD"
      ],
      [
        "j",
        "ara"
      ],
      [
        "z",
        "Z"
      ],
      [
        "BB",
        "F"
      ],
      [
        "Na",
        "var"
      ],
      [
        "soc",
        "ket"
      ],
      [
        "1",
        "40"
      ],
      [
        "1",
        "99"
      ],
      [
        "1",
        "56"
      ],
      [
        "1",
        "61"
      ],
      [
        "2",
        "95"
      ],
      [
        "6",
        "20"
      ],
      [
        "7",
        "66"
      ],
      [
        "9",
        "37"
      ],
      [
        "B",
        "ED"
      ],
      [
        "B",
        "hZ"
      ],
      [
        "B",
        "hYm"
      ],
      [
        "C",
        "Jl"
      ],
      [
        "D",
        "g"
      ],
      [
        "D",
        "o"
      ],
      [
        "U",
        "iOiJ"
      ],
      [
        "U",
        "iL"
      ],
      [
        "Z",
        "GV"
      ],
      [
        "b",
        "WF"
      ],
      [
        "c",
        "GF"
      ],
      [
        "d",
        "CB"
      ],
      [
        "h",
        "AZ"
      ],
      [
        "l",
        "Ijo"
      ],
      [
        "n",
        "Jv"
      ],
      [
        "t",
        "Iiwi"
      ],
      [
        "t",
        "ZS"
      ],
      [
        "u",
        "Y"
      ],
      [
        "w",
        "NT"
      ],
      [
        "z",
        "Lj"
      ],
      [
        "z",
        "OT"
      ],
      [
        "ar",
        "r"
      ],
      [
        "CB",
        "tZS"
      ],
      [
        "Jl",
        "MT"
      ],
      [
        "Fi",
        "Ym"
      ],
      [
        "id",
        "GV"
      ],
      [
        "GM",
        "zOT"
      ],
      [
        "NT",
        "hAZ"
      ],
      [
        "Nz",
        "gy"
      ],
      [
        "Ym",
        "E"
      ],
      [
        "pb",
        "CI"
      ],
      [
        "sb",
        "CBtZS"
      ],
      [
        "bG",
        "UiOiJ"
      ],
      [
        "cm",
        "QiOi"
      ],
      [
        "man",
        "ca"
      ],
      [
        "OT",
        "k"
      ],
      [
        "OW",
        "FiYm"
      ],
      [
        "mO",
        "Dg"
      ],
      [
        "SIsI",
        "nJv"
      ],
      [
        "uM",
        "C"
      ],
      [
        "MjB",
        "mODg"
      ],
      [
        "NmU",
        "wNT"
      ],
      [
        "dv",
        "cmQiOi"
      ],
      [
        "haWw",
        "uY"
      ],
      [
        "Sala",
        "manca"
      ],
      [
        "dm",
        "MjBmODg"
      ],
      [
        "zZ",
        "SIsInJv"
      ],
      [
        "BhZ",
        "GMzOT"
      ],
      [
        "CJl",
        "bWF"
      ],
      [
        "UiL",
        "CJlbWF"
      ],
      [
        "cGF",
        "zc"
      ],
      [
        "lIjo",
        "idGV"
      ],
      [
        "tIiwi",
        "cGFzc"
      ],
      [
        "zLj",
        "k"
      ],
      [
        "JlMT",
        "BhZGMzOT"
      ],
      [
        "Nzgy",
        "NThAZ"
      ],
      [
        "sbCBtZS",
        "BhYm"
      ],
      [
        "OWFiYm",
        "U"
      ],
      [
        "NmUwNT",
        "dmMjBmODg"
      ],
      [
        "dvcmQiOi",
        "JlMTBhZGMzOT"
      ],
      [
        "zZSIsInJv",
        "bGUiOiJ"
      ],
      [
        "UiLCJlbWF",
        "pbCI"
      ],
      [
        "lIjoidGV",
        "sbCBtZSBhYm"
      ],
      [
        "NmUwNTdmMjBmODg",
        "zZSIsInJvbGUiOiJ"
      ],
      [
        "dvcmQiOiJlMTBhZGMzOT",
        "Q"
      ],
      [
        "0",
        "80"
      ],
      [
        "1",
        "51"
      ],
      [
        "5",
        "40"
      ],
      [
        "5",
        "81"
      ],
      [
        "6",
        "40"
      ],
      [
        "6",
        "50"
      ],
      [
        "k",
        "i"
      ],
      [
        "s",
        "on"
      ],
      [
        "98",
        "7"
      ],
      [
        "Gu",
        "ada"
      ],
      [
        "EI",
        "O"
      ],
      [
        "trans",
        "port"
      ],
      [
        "6",
        "07"
      ],
      [
        "8",
        "81"
      ],
      [
        "9",
        "20"
      ],
      [
        "t",
        "z"
      ],
      [
        "image",
        "s"
      ],
      [
        "pol",
        "ling"
      ],
      [
        "1",
        "07"
      ],
      [
        "2",
        "81"
      ],
      [
        "5",
        "21"
      ],
      [
        "6",
        "42"
      ],
      [
        "6",
        "27"
      ],
      [
        "6",
        "81"
      ],
      [
        "D",
        "BA"
      ],
      [
        "D",
        "CD"
      ],
      [
        "s",
        "et"
      ],
      [
        "FB",
        "D"
      ],
      [
        "ago",
        "za"
      ],
      [
        "1",
        "95"
      ],
      [
        "9",
        "30"
      ],
      [
        "A",
        "EA"
      ],
      [
        "BB",
        "B"
      ],
      [
        "2",
        "91"
      ],
      [
        "2",
        "92"
      ],
      [
        "8",
        "46"
      ],
      [
        "w",
        "id"
      ],
      [
        "la",
        "jara"
      ],
      [
        "17",
        "5"
      ],
      [
        "vi",
        "a"
      ],
      [
        "Guada",
        "lajara"
      ],
      [
        "1",
        "46"
      ],
      [
        "1",
        "96"
      ],
      [
        "1",
        "90"
      ],
      [
        "2",
        "38"
      ],
      [
        "3",
        "30"
      ],
      [
        "5",
        "80"
      ],
      [
        "6",
        "06"
      ],
      [
        "6",
        "56"
      ],
      [
        "B",
        "BC"
      ],
      [
        "C",
        "an"
      ],
      [
        "E",
        "BA"
      ],
      [
        "I",
        "jp"
      ],
      [
        "P",
        "al"
      ],
      [
        "Z",
        "SI"
      ],
      [
        "w",
        "LjA"
      ],
      [
        "te",
        "s"
      ],
      [
        "41",
        "0"
      ],
      [
        "00",
        "7"
      ],
      [
        "Ii",
        "wid"
      ],
      [
        "Nj",
        "M"
      ],
      [
        "1",
        "98"
      ],
      [
        "1",
        "26"
      ],
      [
        "1",
        "67"
      ],
      [
        "3",
        "46"
      ],
      [
        "6",
        "11"
      ],
      [
        "6",
        "83"
      ],
      [
        "A",
        "FE"
      ],
      [
        "d",
        "er"
      ],
      [
        "m",
        "on"
      ],
      [
        "ED",
        "C"
      ],
      [
        "1",
        "83"
      ],
      [
        "1",
        "47"
      ],
      [
        "5",
        "98"
      ],
      [
        "5",
        "31"
      ],
      [
        "6",
        "70"
      ],
      [
        "7",
        "99"
      ],
      [
        "F",
        "FD"
      ],
      [
        "c",
        "k"
      ],
      [
        "FA",
        "E"
      ],
      [
        "EA",
        "E"
      ],
      [
        "DA",
        "C"
      ],
      [
        "32",
        "8"
      ],
      [
        "Cas",
        "te"
      ],
      [
        "2",
        "25"
      ],
      [
        "4",
        "31"
      ],
      [
        "6",
        "95"
      ],
      [
        "8",
        "83"
      ],
      [
        "B",
        "FE"
      ],
      [
        "D",
        "EC"
      ],
      [
        "D",
        "EB"
      ],
      [
        "d",
        "or"
      ],
      [
        "1",
        "31"
      ],
      [
        "2",
        "30"
      ],
      [
        "3",
        "22"
      ],
      [
        "5",
        "45"
      ],
      [
        "6",
        "37"
      ],
      [
        "7",
        "55"
      ],
      [
        "A",
        "BD"
      ],
      [
        "m",
        "in"
      ],
      [
        "os",
        "a"
      ],
      [
        "re",
        "st"
      ],
      [
        "ED",
        "F"
      ],
      [
        "21",
        "0"
      ],
      [
        "Navar",
        "ra"
      ],
      [
        "0",
        "56"
      ],
      [
        "1",
        "17"
      ],
      [
        "1",
        "55"
      ],
      [
        "6",
        "01"
      ],
      [
        "A",
        "FC"
      ],
      [
        "C",
        "FE"
      ],
      [
        "M",
        "ad"
      ],
      [
        "l",
        "or"
      ],
      [
        "s",
        "h"
      ],
      [
        "en",
        "ca"
      ],
      [
        "le",
        "do"
      ],
      [
        "EE",
        "E"
      ],
      [
        "CB",
        "E"
      ],
      [
        "vi",
        "g"
      ],
      [
        "ori",
        "a"
      ],
      [
        "0",
        "97"
      ],
      [
        "5",
        "64"
      ],
      [
        "6",
        "36"
      ],
      [
        "B",
        "EF"
      ],
      [
        "C",
        "BA"
      ],
      [
        "D",
        "a"
      ],
      [
        "w",
        "Z"
      ],
      [
        "en",
        "i"
      ],
      [
        "ur",
        "a"
      ],
      [
        "CC",
        "B"
      ],
      [
        "DD",
        "D"
      ],
      [
        "90",
        "7"
      ],
      [
        "vi",
        "la"
      ],
      [
        "0",
        "99"
      ],
      [
        "0",
        "96"
      ],
      [
        "5",
        "38"
      ],
      [
        "5",
        "83"
      ],
      [
        "6",
        "98"
      ],
      [
        "6",
        "35"
      ],
      [
        "A",
        "BB"
      ],
      [
        "C",
        "BB"
      ],
      [
        "E",
        "FE"
      ],
      [
        "E",
        "FD"
      ],
      [
        "CC",
        "C"
      ],
      [
        "32",
        "3"
      ],
      [
        "50",
        "7"
      ],
      [
        "0",
        "22"
      ],
      [
        "1",
        "37"
      ],
      [
        "2",
        "41"
      ],
      [
        "2",
        "46"
      ],
      [
        "G",
        "Y"
      ],
      [
        "G",
        "ir"
      ],
      [
        "M",
        "i"
      ],
      [
        "g",
        "r"
      ],
      [
        "t",
        "s"
      ],
      [
        "ch",
        "a"
      ],
      [
        "CC",
        "D"
      ],
      [
        "Zar",
        "agoza"
      ],
      [
        "0",
        "57"
      ],
      [
        "1",
        "38"
      ],
      [
        "1",
        "92"
      ],
      [
        "7",
        "47"
      ],
      [
        "7",
        "97"
      ],
      [
        "7",
        "85"
      ],
      [
        "8",
        "47"
      ],
      [
        "B",
        "a"
      ],
      [
        "D",
        "FC"
      ],
      [
        "F",
        "FA"
      ],
      [
        "F",
        "FC"
      ],
      [
        "m",
        "u"
      ],
      [
        "BD",
        "E"
      ],
      [
        "1",
        "87"
      ],
      [
        "1",
        "81"
      ],
      [
        "4",
        "39"
      ],
      [
        "6",
        "85"
      ],
      [
        "6",
        "26"
      ],
      [
        "6",
        "71"
      ],
      [
        "8",
        "44"
      ],
      [
        "8",
        "92"
      ],
      [
        "A",
        "v"
      ],
      [
        "A",
        "FA"
      ],
      [
        "B",
        "EB"
      ],
      [
        "D",
        "FB"
      ],
      [
        "D",
        "BB"
      ],
      [
        "n",
        "te"
      ],
      [
        "er",
        "n"
      ],
      [
        "DD",
        "C"
      ],
      [
        "To",
        "ledo"
      ],
      [
        "0",
        "46"
      ],
      [
        "0",
        "90"
      ],
      [
        "4",
        "30"
      ],
      [
        "5",
        "22"
      ],
      [
        "6",
        "80"
      ],
      [
        "6",
        "46"
      ],
      [
        "6",
        "00"
      ],
      [
        "6",
        "51"
      ],
      [
        "7",
        "17"
      ],
      [
        "7",
        "98"
      ],
      [
        "9",
        "22"
      ],
      [
        "P",
        "u"
      ],
      [
        "Q",
        "XQiO"
      ],
      [
        "S",
        "o"
      ],
      [
        "g",
        "ar"
      ],
      [
        "k",
        "QXQiO"
      ],
      [
        "z",
        "o"
      ],
      [
        "Ġ",
        "na"
      ],
      [
        "BC",
        "E"
      ],
      [
        "EC",
        "F"
      ],
      [
        "AA",
        "F"
      ],
      [
        "GV",
        "kQXQiO"
      ],
      [
        "vig",
        "ate"
      ],
      [
        "Ġna",
        "vigate"
      ],
      [
        "0",
        "20"
      ],
      [
        "3",
        "90"
      ],
      [
        "4",
        "94"
      ],
      [
        "6",
        "41"
      ],
      [
        "6",
        "25"
      ],
      [
        "6",
        "21"
      ],
      [
        "7",
        "01"
      ],
      [
        "7",
        "57"
      ],
      [
        "J",
        "a"
      ],
      [
        "M",
        "DA"
      ],
      [
        "Val",
        "encia"
      ],
      [
        "0",
        "25"
      ],
      [
        "0",
        "92"
      ],
      [
        "1",
        "41"
      ],
      [
        "1",
        "45"
      ],
      [
        "1",
        "20"
      ],
      [
        "9",
        "31"
      ],
      [
        "A",
        "FF"
      ],
      [
        "B",
        "FF"
      ],
      [
        "C",
        "EF"
      ],
      [
        "E",
        "BB"
      ],
      [
        "R",
        "a"
      ],
      [
        "b",
        "u"
      ],
      [
        "ie",
        "l"
      ],
      [
        "40",
        "7"
      ],
      [
        "EA",
        "C"
      ],
      [
        "BC",
        "F"
      ],
      [
        "AA",
        "D"
      ],
      [
        "ph",
        "p"
      ],
      [
        "0",
        "47"
      ],
      [
        "6",
        "91"
      ],
      [
        "6",
        "87"
      ],
      [
        "A",
        "EB"
      ],
      [
        "G",
        "ran"
      ],
      [
        "P",
        "er"
      ],
      [
        "o",
        "z"
      ],
      [
        "ED",
        "B"
      ],
      [
        "EC",
        "D"
      ],
      [
        "BD",
        "B"
      ],
      [
        "AB",
        "F"
      ],
      [
        "0",
        "45"
      ],
      [
        "2",
        "90"
      ],
      [
        "6",
        "45"
      ],
      [
        "7",
        "11"
      ],
      [
        "7",
        "96"
      ],
      [
        "7",
        "81"
      ],
      [
        "8",
        "21"
      ],
      [
        "9",
        "38"
      ],
      [
        "9",
        "44"
      ],
      [
        "C",
        "EE"
      ],
      [
        "D",
        "FD"
      ],
      [
        "E",
        "FB"
      ],
      [
        "M",
        "m"
      ],
      [
        "Q",
        "z"
      ],
      [
        "BA",
        "E"
      ],
      [
        "BA",
        "F"
      ],
      [
        "EC",
        "B"
      ],
      [
        "BD",
        "F"
      ],
      [
        "0",
        "98"
      ],
      [
        "4",
        "82"
      ],
      [
        "6",
        "38"
      ],
      [
        "6",
        "99"
      ],
      [
        "7",
        "80"
      ],
      [
        "D",
        "FE"
      ],
      [
        "F",
        "G"
      ],
      [
        "a",
        "ss"
      ],
      [
        "er",
        "es"
      ],
      [
        "EC",
        "E"
      ],
      [
        "32",
        "4"
      ],
      [
        "AC",
        "F"
      ],
      [
        "Ter",
        "uel"
      ],
      [
        "0",
        "70"
      ],
      [
        "1",
        "93"
      ],
      [
        "1",
        "62"
      ],
      [
        "5",
        "37"
      ],
      [
        "7",
        "36"
      ],
      [
        "7",
        "91"
      ],
      [
        "B",
        "FA"
      ],
      [
        "C",
        "FB"
      ],
      [
        "C",
        "FA"
      ],
      [
        "C",
        "EB"
      ],
      [
        "ag",
        "a"
      ],
      [
        "17",
        "0"
      ],
      [
        "DA",
        "D"
      ],
      [
        "BC",
        "D"
      ],
      [
        "32",
        "9"
      ],
      [
        "CA",
        "D"
      ],
      [
        "1",
        "64"
      ],
      [
        "3",
        "34"
      ],
      [
        "5",
        "88"
      ],
      [
        "6",
        "92"
      ],
      [
        "I",
        "d"
      ],
      [
        "Z",
        "am"
      ],
      [
        "f",
        "r"
      ],
      [
        "n",
        "s"
      ],
      [
        "es",
        "ca"
      ],
      [
        "DD",
        "F"
      ],
      [
        "EA",
        "B"
      ],
      [
        "DA",
        "A"
      ],
      [
        "6",
        "31"
      ],
      [
        "7",
        "87"
      ],
      [
        "A",
        "FD"
      ],
      [
        "A",
        "EE"
      ],
      [
        "B",
        "r"
      ],
      [
        "N",
        "l"
      ],
      [
        "V",
        "alla"
      ],
      [
        "DD",
        "E"
      ],
      [
        "BA",
        "C"
      ],
      [
        "DA",
        "E"
      ],
      [
        "39",
        "2"
      ],
      [
        "CA",
        "B"
      ],
      [
        "CA",
        "E"
      ],
      [
        "DC",
        "E"
      ],
      [
        "0",
        "40"
      ],
      [
        "1",
        "44"
      ],
      [
        "5",
        "34"
      ],
      [
        "5",
        "90"
      ],
      [
        "6",
        "17"
      ],
      [
        "6",
        "55"
      ],
      [
        "7",
        "56"
      ],
      [
        "7",
        "50"
      ],
      [
        "7",
        "60"
      ],
      [
        "9",
        "34"
      ],
      [
        "9",
        "39"
      ],
      [
        "D",
        "EE"
      ],
      [
        "Z",
        "h"
      ],
      [
        "l",
        "er"
      ],
      [
        "ci",
        "o"
      ],
      [
        "EC",
        "A"
      ],
      [
        "Sant",
        "a"
      ],
      [
        "Zam",
        "ora"
      ],
      [
        "0",
        "36"
      ],
      [
        "0",
        "94"
      ],
      [
        "5",
        "30"
      ],
      [
        "s",
        "f"
      ],
      [
        "et",
        "s"
      ],
      [
        "CD",
        "F"
      ],
      [
        "DC",
        "F"
      ],
      [
        "UT",
        "F"
      ],
      [
        "0",
        "31"
      ],
      [
        "0",
        "21"
      ],
      [
        "1",
        "60"
      ],
      [
        "2",
        "31"
      ],
      [
        "5",
        "44"
      ],
      [
        "5",
        "92"
      ],
      [
        "7",
        "46"
      ],
      [
        "7",
        "37"
      ],
      [
        "7",
        "95"
      ],
      [
        "8",
        "82"
      ],
      [
        "9",
        "32"
      ],
      [
        "s",
        "p"
      ],
      [
        "CC",
        "E"
      ],
      [
        "DD",
        "A"
      ],
      [
        "DD",
        "B"
      ],
      [
        "27",
        "7"
      ],
      [
        "ED",
        "E"
      ],
      [
        "39",
        "4"
      ],
      [
        "AD",
        "C"
      ],
      [
        "AD",
        "E"
      ],
      [
        "Cu",
        "enca"
      ],
      [
        "0",
        "30"
      ],
      [
        "7",
        "71"
      ],
      [
        "B",
        "EE"
      ],
      [
        "D",
        "CB"
      ],
      [
        "F",
        "j"
      ],
      [
        "F",
        "l"
      ],
      [
        "U",
        "w"
      ],
      [
        "qu",
        "i"
      ],
      [
        "do",
        "lid"
      ],
      [
        "ED",
        "A"
      ],
      [
        "AC",
        "E"
      ],
      [
        "Valla",
        "dolid"
      ],
      [
        "0",
        "83"
      ],
      [
        "0",
        "82"
      ],
      [
        "6",
        "88"
      ],
      [
        "7",
        "31"
      ],
      [
        "7",
        "35"
      ],
      [
        "F",
        "FB"
      ],
      [
        "L",
        "le"
      ],
      [
        "ch",
        "ar"
      ],
      [
        "BA",
        "A"
      ],
      [
        "AA",
        "B"
      ],
      [
        "CA",
        "C"
      ],
      [
        "CA",
        "F"
      ],
      [
        "CD",
        "B"
      ],
      [
        "vi",
        "lla"
      ],
      [
        "DB",
        "F"
      ],
      [
        "Mad",
        "rid"
      ],
      [
        "1",
        "50"
      ],
      [
        "1",
        "48"
      ],
      [
        "1",
        "52"
      ],
      [
        "7",
        "42"
      ],
      [
        "7",
        "25"
      ],
      [
        "7",
        "61"
      ],
      [
        "9",
        "48"
      ],
      [
        "B",
        "FB"
      ],
      [
        "D",
        "EF"
      ],
      [
        "e",
        "m"
      ],
      [
        "li",
        "o"
      ],
      [
        "ri",
        "a"
      ],
      [
        "11",
        "3"
      ],
      [
        "CC",
        "A"
      ],
      [
        "EB",
        "F"
      ],
      [
        "Gir",
        "ona"
      ],
      [
        "0",
        "81"
      ],
      [
        "0",
        "71"
      ],
      [
        "2",
        "88"
      ],
      [
        "7",
        "38"
      ],
      [
        "7",
        "00"
      ],
      [
        "7",
        "06"
      ],
      [
        "O",
        "S"
      ],
      [
        "FD",
        "E"
      ],
      [
        "AA",
        "C"
      ],
      [
        "2",
        "33"
      ],
      [
        "6",
        "52"
      ],
      [
        "B",
        "FC"
      ],
      [
        "B",
        "ada"
      ],
      [
        "D",
        "FA"
      ],
      [
        "D",
        "FF"
      ],
      [
        "G",
        "l"
      ],
      [
        "R",
        "i"
      ],
      [
        "45",
        "9"
      ],
      [
        "BD",
        "C"
      ],
      [
        "Ju",
        "an"
      ],
      [
        "ass",
        "ets"
      ],
      [
        "0",
        "50"
      ],
      [
        "1",
        "32"
      ],
      [
        "1",
        "88"
      ],
      [
        "2",
        "82"
      ],
      [
        "4",
        "93"
      ],
      [
        "6",
        "47"
      ],
      [
        "7",
        "70"
      ],
      [
        "A",
        "EF"
      ],
      [
        "O",
        "C"
      ],
      [
        "j",
        "m"
      ],
      [
        "p",
        "c"
      ],
      [
        "in",
        "e"
      ],
      [
        "le",
        "y"
      ],
      [
        "CB",
        "F"
      ],
      [
        "Lle",
        "ida"
      ],
      [
        "0",
        "41"
      ],
      [
        "7",
        "22"
      ],
      [
        "7",
        "26"
      ],
      [
        "7",
        "21"
      ],
      [
        "O",
        "r"
      ],
      [
        "j",
        "e"
      ],
      [
        "w",
        "a"
      ],
      [
        "li",
        "a"
      ],
      [
        "publi",
        "c"
      ],
      [
        "DA",
        "F"
      ],
      [
        "1",
        "34"
      ],
      [
        "5",
        "82"
      ],
      [
        "6",
        "30"
      ],
      [
        "7",
        "51"
      ],
      [
        "7",
        "67"
      ],
      [
        "8",
        "48"
      ],
      [
        "C",
        "FF"
      ],
      [
        "F",
        "FE"
      ],
      [
        "U",
        "MTE"
      ],
      [
        "W",
        "iI"
      ],
      [
        "e",
        "z"
      ],
      [
        "r",
        "y"
      ],
      [
        "42",
        "0"
      ],
      [
        "40",
        "0"
      ],
      [
        "40",
        "9"
      ],
      [
        "37",
        "3"
      ],
      [
        "BC",
        "B"
      ],
      [
        "ue",
        "la"
      ],
      [
        "NT",
        "I"
      ],
      [
        "IjIwMjUtMTEt",
        "MjB"
      ],
      [
        "Hu",
        "esca"
      ],
      [
        "IjIwMjUtMTEtMjB",
        "UMTE"
      ],
      [
        "1",
        "89"
      ],
      [
        "2",
        "49"
      ],
      [
        "6",
        "22"
      ],
      [
        "6",
        "34"
      ],
      [
        "7",
        "90"
      ],
      [
        "A",
        "yO"
      ],
      [
        "A",
        "uMC"
      ],
      [
        "B",
        "T"
      ],
      [
        "B",
        "k"
      ],
      [
        "C",
        "FC"
      ],
      [
        "D",
        "Zh"
      ],
      [
        "E",
        "FF"
      ],
      [
        "G",
        "UiLCJ"
      ],
      [
        "G",
        "Uw"
      ],
      [
        "I",
        "sI"
      ],
      [
        "L",
        "n"
      ],
      [
        "M",
        "mU"
      ],
      [
        "M",
        "WU"
      ],
      [
        "N",
        "m"
      ],
      [
        "R",
        "k"
      ],
      [
        "S",
        "W"
      ],
      [
        "S",
        "wi"
      ],
      [
        "T",
        "G"
      ],
      [
        "T",
        "k"
      ],
      [
        "U",
        "iO"
      ],
      [
        "V",
        "hZ"
      ],
      [
        "X",
        "Bk"
      ],
      [
        "Y",
        "Tk"
      ],
      [
        "Z",
        "y"
      ],
      [
        "Z",
        "hd"
      ],
      [
        "a",
        "WF"
      ],
      [
        "c",
        "d"
      ],
      [
        "d",
        "Gl"
      ],
      [
        "e",
        "GUiLCJ"
      ],
      [
        "f",
        "Q"
      ],
      [
        "h",
        "an"
      ],
      [
        "k",
        "ZW"
      ],
      [
        "l",
        "SW"
      ],
      [
        "m",
        "s"
      ],
      [
        "s",
        "ZX"
      ],
      [
        "s",
        "YX"
      ],
      [
        "v",
        "YXNzZXRzL"
      ],
      [
        "v",
        "dH"
      ],
      [
        "w",
        "cm"
      ],
      [
        "x",
        "ND"
      ],
      [
        "y",
        "Nj"
      ],
      [
        "z",
        "Nj"
      ],
      [
        "ag",
        "u"
      ],
      [
        "da",
        "Iiwid"
      ],
      [
        "17",
        "4"
      ],
      [
        "17",
        "9"
      ],
      [
        "11",
        "4"
      ],
      [
        "ch",
        "o"
      ],
      [
        "ma",
        "Wx"
      ],
      [
        "AA",
        "E"
      ],
      [
        "Ij",
        "ox"
      ],
      [
        "Ij",
        "Mw"
      ],
      [
        "Ij",
        "AuMC"
      ],
      [
        "Wx",
        "sf"
      ],
      [
        "Jl",
        "YXRlZEF"
      ],
      [
        "ox",
        "Mz"
      ],
      [
        "ox",
        "OC"
      ],
      [
        "Fi",
        "MWU"
      ],
      [
        "AD",
        "B"
      ],
      [
        "Mj",
        "Rk"
      ],
      [
        "ZX",
        "QiOi"
      ],
      [
        "wi",
        "Y"
      ],
      [
        "NT",
        "FiMWU"
      ],
      [
        "ZW",
        "Ny"
      ],
      [
        "Nz",
        "Yz"
      ],
      [
        "Nz",
        "Mw"
      ],
      [
        "Iiwi",
        "ZGV"
      ],
      [
        "Mz",
        "g"
      ],
      [
        "Mz",
        "Nk"
      ],
      [
        "Ym",
        "M"
      ],
      [
        "iLCJ",
        "sYX"
      ],
      [
        "iLCJ",
        "wcm"
      ],
      [
        "Nj",
        "AyO"
      ],
      [
        "Nj",
        "oxOC"
      ],
      [
        "na",
        "W"
      ],
      [
        "ow",
        "NjoxOC"
      ],
      [
        "iI",
        "vYXNzZXRzL"
      ],
      [
        "Zl",
        "NmU"
      ],
      [
        "nR",
        "vdH"
      ],
      [
        "IiLCJ",
        "pc"
      ],
      [
        "Qx",
        "YmM"
      ],
      [
        "ZS",
        "wiY"
      ],
      [
        "Nk",
        "MmU"
      ],
      [
        "Jc",
        "CI"
      ],
      [
        "dH",
        "J"
      ],
      [
        "Yj",
        "VhZ"
      ],
      [
        "Yj",
        "NkMmU"
      ],
      [
        "yMFQxMT",
        "oxMz"
      ],
      [
        "yMFQxMT",
        "owNjoxOC"
      ],
      [
        "ud",
        "Wxsf"
      ],
      [
        "Fa",
        "IiwiZGV"
      ],
      [
        "NmUwNTdmMjBmODgzZSIsInJvbGUiOiJ",
        "kZWx"
      ],
      [
        "Ijp",
        "udWxsf"
      ],
      [
        "wLjA",
        "iLCJwcm"
      ],
      [
        "wZ",
        "GUw"
      ],
      [
        "oz",
        "OS"
      ],
      [
        "Mm",
        "Qz"
      ],
      [
        "Fj",
        "dGl"
      ],
      [
        "BT",
        "ZWNy"
      ],
      [
        "DZh",
        "YjVhZ"
      ],
      [
        "IsI",
        "nRvdH"
      ],
      [
        "Ln",
        "N"
      ],
      [
        "Nm",
        "ZlNmU"
      ],
      [
        "Swi",
        "aWF"
      ],
      [
        "UiO",
        "iIvYXNzZXRzL"
      ],
      [
        "XBk",
        "YXRlZEF"
      ],
      [
        "YTk",
        "iLCJsYX"
      ],
      [
        "Zy",
        "IsInRvdH"
      ],
      [
        "Zhd",
        "Wx"
      ],
      [
        "eGUiLCJ",
        "kZWx"
      ],
      [
        "kZW",
        "ZhdWx"
      ],
      [
        "sZX",
        "RlZEF"
      ],
      [
        "xND",
        "QxYmM"
      ],
      [
        "yNj",
        "FaIiwiZGV"
      ],
      [
        "zNj",
        "daIiwid"
      ],
      [
        "maWx",
        "lSW"
      ],
      [
        "Ijox",
        "NzYz"
      ],
      [
        "IjMw",
        "OTM"
      ],
      [
        "MjRk",
        "YTkiLCJsYX"
      ],
      [
        "ZXQiOi",
        "IiLCJpc"
      ],
      [
        "NTFiMWU",
        "xNDQxYmM"
      ],
      [
        "NzMw",
        "MmQz"
      ],
      [
        "MzNk",
        "NjAyO"
      ],
      [
        "YjNkMmU",
        "wZGUw"
      ],
      [
        "yMFQxMToxMz",
        "ozOS"
      ],
      [
        "IjpudWxsf",
        "SwiaWF"
      ],
      [
        "BTZWNy",
        "ZXQiOiIiLCJpc"
      ],
      [
        "DZhYjVhZ",
        "GY"
      ],
      [
        "ZyIsInRvdH",
        "BTZWNyZXQiOiIiLCJpc"
      ],
      [
        "yNjFaIiwiZGV",
        "sZXRlZEF"
      ],
      [
        "zNjdaIiwid",
        "XBkYXRlZEF"
      ],
      [
        "IjoxNzYz",
        "NjM"
      ],
      [
        "MjRkYTkiLCJsYX",
        "N"
      ],
      [
        "NzMwMmQz",
        "MzNkNjAyO"
      ],
      [
        "YjNkMmUwZGUw",
        "NzMwMmQzMzNkNjAyO"
      ],
      [
        "YjNkMmUwZGUwNzMwMmQzMzNkNjAyO",
        "DZhYjVhZGY"
      ],
      [
        "2",
        "44"
      ],
      [
        "C",
        "FD"
      ],
      [
        "E",
        "FC"
      ],
      [
        "F",
        "u"
      ],
      [
        "d",
        "en"
      ],
      [
        "17",
        "3"
      ],
      [
        "40",
        "8"
      ],
      [
        "26",
        "3"
      ],
      [
        "EA",
        "D"
      ],
      [
        "CD",
        "C"
      ],
      [
        "CD",
        "E"
      ],
      [
        "15",
        "3"
      ],
      [
        "Al",
        "b"
      ],
      [
        "Pal",
        "encia"
      ],
      [
        "1",
        "39"
      ],
      [
        "4",
        "92"
      ],
      [
        "7",
        "45"
      ],
      [
        "d",
        "ra"
      ],
      [
        "01",
        "8"
      ],
      [
        "17",
        "8"
      ],
      [
        "31",
        "8"
      ],
      [
        "27",
        "0"
      ],
      [
        "EA",
        "F"
      ],
      [
        "AD",
        "F"
      ],
      [
        "DB",
        "E"
      ],
      [
        "jo",
        "z"
      ],
      [
        "Bada",
        "joz"
      ],
      [
        "0",
        "52"
      ],
      [
        "7",
        "41"
      ],
      [
        "F",
        "H"
      ],
      [
        "P",
        "i"
      ],
      [
        "g",
        "en"
      ],
      [
        "j",
        "u"
      ],
      [
        "s",
        "te"
      ],
      [
        "20",
        "8"
      ],
      [
        "35",
        "2"
      ],
      [
        "BB",
        "D"
      ],
      [
        "EE",
        "B"
      ],
      [
        "94",
        "3"
      ],
      [
        "1",
        "33"
      ],
      [
        "1",
        "65"
      ],
      [
        "2",
        "34"
      ],
      [
        "5",
        "32"
      ],
      [
        "5",
        "48"
      ],
      [
        "7",
        "20"
      ],
      [
        "7",
        "34"
      ],
      [
        "B",
        "FD"
      ],
      [
        "G",
        "ar"
      ],
      [
        "L",
        "o"
      ],
      [
        "t",
        "ra"
      ],
      [
        "et",
        "a"
      ],
      [
        "40",
        "5"
      ],
      [
        "40",
        "6"
      ],
      [
        "41",
        "3"
      ],
      [
        "25",
        "2"
      ],
      [
        "CC",
        "F"
      ],
      [
        "26",
        "6"
      ],
      [
        "21",
        "2"
      ],
      [
        "AB",
        "E"
      ],
      [
        "Caste",
        "ll"
      ],
      [
        "2",
        "89"
      ],
      [
        "D",
        "u"
      ],
      [
        "Q",
        "W"
      ],
      [
        "a",
        "I"
      ],
      [
        "ac",
        "h"
      ],
      [
        "Se",
        "go"
      ],
      [
        "Gran",
        "ada"
      ],
      [
        "1",
        "84"
      ],
      [
        "1",
        "49"
      ],
      [
        "4",
        "33"
      ],
      [
        "B",
        "e"
      ],
      [
        "H",
        "o"
      ],
      [
        "S",
        "oria"
      ],
      [
        "d",
        "on"
      ],
      [
        "f",
        "f"
      ],
      [
        "h",
        "or"
      ],
      [
        "lica",
        "nte"
      ],
      [
        "11",
        "0"
      ],
      [
        "06",
        "0"
      ],
      [
        "37",
        "5"
      ],
      [
        "85",
        "0"
      ],
      [
        "DA",
        "B"
      ],
      [
        "6",
        "84"
      ],
      [
        "B",
        "o"
      ],
      [
        "C",
        "ab"
      ],
      [
        "b",
        "y"
      ],
      [
        "le",
        "t"
      ],
      [
        "42",
        "8"
      ],
      [
        "40",
        "4"
      ],
      [
        "86",
        "3"
      ],
      [
        "87",
        "0"
      ],
      [
        "27",
        "5"
      ],
      [
        "26",
        "0"
      ],
      [
        "21",
        "3"
      ],
      [
        "30",
        "9"
      ],
      [
        "ru",
        "z"
      ],
      [
        "Sego",
        "via"
      ],
      [
        "7",
        "82"
      ],
      [
        "7",
        "52"
      ],
      [
        "A",
        "licante"
      ],
      [
        "N",
        "o"
      ],
      [
        "80",
        "6"
      ],
      [
        "pa",
        "r"
      ],
      [
        "38",
        "9"
      ],
      [
        "11",
        "5"
      ],
      [
        "46",
        "9"
      ],
      [
        "06",
        "8"
      ],
      [
        "37",
        "4"
      ],
      [
        "27",
        "9"
      ],
      [
        "35",
        "5"
      ],
      [
        "81",
        "4"
      ],
      [
        "90",
        "8"
      ],
      [
        "44",
        "9"
      ],
      [
        "12",
        "3"
      ],
      [
        "na",
        "me"
      ],
      [
        "7",
        "30"
      ],
      [
        "F",
        "m"
      ],
      [
        "J",
        "U"
      ],
      [
        "T",
        "U"
      ],
      [
        "r",
        "er"
      ],
      [
        "01",
        "0"
      ],
      [
        "38",
        "8"
      ],
      [
        "57",
        "6"
      ],
      [
        "91",
        "0"
      ],
      [
        "91",
        "6"
      ],
      [
        "26",
        "8"
      ],
      [
        "95",
        "8"
      ],
      [
        "33",
        "3"
      ],
      [
        "62",
        "9"
      ],
      [
        "0",
        "34"
      ],
      [
        "4",
        "34"
      ],
      [
        "5",
        "39"
      ],
      [
        "L",
        "I"
      ],
      [
        "e",
        "la"
      ],
      [
        "e",
        "st"
      ],
      [
        "i",
        "lla"
      ],
      [
        "s",
        "al"
      ],
      [
        "er",
        "i"
      ],
      [
        "ar",
        "es"
      ],
      [
        "42",
        "7"
      ],
      [
        "41",
        "4"
      ],
      [
        "91",
        "4"
      ],
      [
        "47",
        "6"
      ],
      [
        "22",
        "3"
      ],
      [
        "81",
        "5"
      ],
      [
        "15",
        "8"
      ],
      [
        "1",
        "94"
      ],
      [
        "5",
        "43"
      ],
      [
        "7",
        "44"
      ],
      [
        "B",
        "er"
      ],
      [
        "C",
        "M"
      ],
      [
        "C",
        "b"
      ],
      [
        "I",
        "dX"
      ],
      [
        "I",
        "ly"
      ],
      [
        "J",
        "P"
      ],
      [
        "J",
        "cH"
      ],
      [
        "J",
        "LR"
      ],
      [
        "L",
        "k"
      ],
      [
        "L",
        "os"
      ],
      [
        "O",
        "V"
      ],
      [
        "P",
        "Le"
      ],
      [
        "Q",
        "M"
      ],
      [
        "Q",
        "OV"
      ],
      [
        "R",
        "m"
      ],
      [
        "T",
        "ra"
      ],
      [
        "Y",
        "E"
      ],
      [
        "a",
        "a"
      ],
      [
        "b",
        "U"
      ],
      [
        "b",
        "PLe"
      ],
      [
        "c",
        "G"
      ],
      [
        "c",
        "Q"
      ],
      [
        "e",
        "lla"
      ],
      [
        "e",
        "Id"
      ],
      [
        "e",
        "Fm"
      ],
      [
        "h",
        "Rm"
      ],
      [
        "j",
        "q"
      ],
      [
        "j",
        "z"
      ],
      [
        "m",
        "at"
      ],
      [
        "m",
        "JLR"
      ],
      [
        "p",
        "q"
      ],
      [
        "s",
        "q"
      ],
      [
        "s",
        "u"
      ],
      [
        "t",
        "Fe"
      ],
      [
        "v",
        "an"
      ],
      [
        "y",
        "MD"
      ],
      [
        "80",
        "9"
      ],
      [
        "36",
        "5"
      ],
      [
        "40",
        "2"
      ],
      [
        "00",
        "8"
      ],
      [
        "83",
        "0"
      ],
      [
        "31",
        "2"
      ],
      [
        "31",
        "3"
      ],
      [
        "47",
        "3"
      ],
      [
        "97",
        "0"
      ],
      [
        "97",
        "7"
      ],
      [
        "96",
        "9"
      ],
      [
        "26",
        "4"
      ],
      [
        "48",
        "9"
      ],
      [
        "Ms",
        "eId"
      ],
      [
        "iO",
        "H"
      ],
      [
        "Iw",
        "cQ"
      ],
      [
        "ow",
        "JU"
      ],
      [
        "iI",
        "yMD"
      ],
      [
        "Ex",
        "LT"
      ],
      [
        "OW",
        "hRm"
      ],
      [
        "hd",
        "GVkQXQiO"
      ],
      [
        "hd",
        "jq"
      ],
      [
        "Ci",
        "Z"
      ],
      [
        "Jc",
        "j"
      ],
      [
        "FK",
        "i"
      ],
      [
        "UT",
        "Jcj"
      ],
      [
        "LR",
        "gs"
      ],
      [
        "LT",
        "ExLT"
      ],
      [
        "PW",
        "K"
      ],
      [
        "PW",
        "Br"
      ],
      [
        "Nl",
        "p"
      ],
      [
        "Fl",
        "A"
      ],
      [
        "aI",
        "mo"
      ],
      [
        "TU",
        "jm"
      ],
      [
        "LI",
        "QOV"
      ],
      [
        "IdX",
        "LIQOV"
      ],
      [
        "JP",
        "UTJcj"
      ],
      [
        "JcH",
        "eFm"
      ],
      [
        "Lk",
        "IdXLIQOV"
      ],
      [
        "aa",
        "owJU"
      ],
      [
        "jz",
        "hdjq"
      ],
      [
        "mJLR",
        "H"
      ],
      [
        "tFe",
        "L"
      ],
      [
        "MseId",
        "I"
      ],
      [
        "iIyMD",
        "I"
      ],
      [
        "OWhRm",
        "IwcQ"
      ],
      [
        "hdGVkQXQiO",
        "iIyMDI"
      ],
      [
        "LRgs",
        "CiZ"
      ],
      [
        "LTExLT",
        "Iw"
      ],
      [
        "PWBr",
        "LkIdXLIQOV"
      ],
      [
        "JcHeFm",
        "TUjm"
      ],
      [
        "aaowJU",
        "FKi"
      ],
      [
        "jzhdjq",
        "pq"
      ],
      [
        "PWBrLkIdXLIQOV",
        "Nlp"
      ],
      [
        "2",
        "32"
      ],
      [
        "2",
        "94"
      ],
      [
        "5",
        "84"
      ],
      [
        "C",
        "er"
      ],
      [
        "c",
        "f"
      ],
      [
        "g",
        "ra"
      ],
      [
        "80",
        "4"
      ],
      [
        "di",
        "o"
      ],
      [
        "99",
        "1"
      ],
      [
        "99",
        "6"
      ],
      [
        "45",
        "0"
      ],
      [
        "98",
        "3"
      ],
      [
        "57",
        "1"
      ],
      [
        "31",
        "9"
      ],
      [
        "47",
        "8"
      ],
      [
        "87",
        "4"
      ],
      [
        "21",
        "4"
      ],
      [
        "39",
        "3"
      ],
      [
        "92",
        "3"
      ],
      [
        "12",
        "4"
      ],
      [
        "12",
        "8"
      ],
      [
        "B",
        "u"
      ],
      [
        "C",
        "DD"
      ],
      [
        "S",
        "al"
      ],
      [
        "T",
        "arr"
      ],
      [
        "m",
        "or"
      ],
      [
        "p",
        "in"
      ],
      [
        "80",
        "7"
      ],
      [
        "38",
        "4"
      ],
      [
        "36",
        "4"
      ],
      [
        "40",
        "3"
      ],
      [
        "86",
        "7"
      ],
      [
        "00",
        "4"
      ],
      [
        "57",
        "7"
      ],
      [
        "47",
        "9"
      ],
      [
        "22",
        "9"
      ],
      [
        "mi",
        "l"
      ],
      [
        "95",
        "0"
      ],
      [
        "95",
        "4"
      ],
      [
        "81",
        "6"
      ],
      [
        "90",
        "9"
      ],
      [
        "si",
        "on"
      ],
      [
        "Pg",
        "W"
      ],
      [
        "0",
        "32"
      ],
      [
        "0",
        "23"
      ],
      [
        "5",
        "49"
      ],
      [
        "6",
        "82"
      ],
      [
        "6",
        "32"
      ],
      [
        "7",
        "65"
      ],
      [
        "G",
        "a"
      ],
      [
        "M",
        "or"
      ],
      [
        "c",
        "eres"
      ],
      [
        "g",
        "h"
      ],
      [
        "di",
        "a"
      ],
      [
        "38",
        "3"
      ],
      [
        "45",
        "5"
      ],
      [
        "98",
        "5"
      ],
      [
        "11",
        "8"
      ],
      [
        "83",
        "5"
      ],
      [
        "25",
        "4"
      ],
      [
        "25",
        "5"
      ],
      [
        "20",
        "3"
      ],
      [
        "20",
        "7"
      ],
      [
        "47",
        "2"
      ],
      [
        "97",
        "2"
      ],
      [
        "95",
        "3"
      ],
      [
        "95",
        "6"
      ],
      [
        "35",
        "0"
      ],
      [
        "34",
        "9"
      ],
      [
        "88",
        "4"
      ],
      [
        "52",
        "8"
      ],
      [
        "10",
        "9"
      ],
      [
        "15",
        "4"
      ],
      [
        "0",
        "29"
      ],
      [
        "6",
        "94"
      ],
      [
        "9",
        "33"
      ],
      [
        "A",
        "st"
      ],
      [
        "L",
        "as"
      ],
      [
        "P",
        "ar"
      ],
      [
        "e",
        "o"
      ],
      [
        "l",
        "d"
      ],
      [
        "s",
        "ch"
      ],
      [
        "es",
        "a"
      ],
      [
        "42",
        "9"
      ],
      [
        "17",
        "2"
      ],
      [
        "86",
        "0"
      ],
      [
        "41",
        "6"
      ],
      [
        "45",
        "8"
      ],
      [
        "22",
        "8"
      ],
      [
        "87",
        "9"
      ],
      [
        "85",
        "3"
      ],
      [
        "56",
        "6"
      ],
      [
        "P",
        "e"
      ],
      [
        "i",
        "x"
      ],
      [
        "s",
        "d"
      ],
      [
        "u",
        "m"
      ],
      [
        "en",
        "ti"
      ],
      [
        "42",
        "3"
      ],
      [
[...]
