{
  "version": "1.0",
  "truncation": {
    "direction": "Right",
    "max_length": 128,
    "strategy": "LongestFirst",
    "stride": 0
  },
  "padding": null,
  "added_tokens": [
    {
      "id": 0,
      "content": "<s>",
      "single_word": false,
      "lstrip": false,
      "rstrip": false,
      "normalized": true,
      "special": true
    },
    {
      "id": 1,
      "content": "<pad>",
      "single_word": false,
      "lstrip": false,
      "rstrip": false,
      "normalized": true,
      "special": true
    },
    {
      "id": 2,
      "content": "</s>",
      "single_word": false,
      "lstrip": false,
      "rstrip": false,
      "normalized": true,
      "special": true
    },
    {
      "id": 3,
      "content": "<unk>",
      "single_word": false,
      "lstrip": false,
      "rstrip": false,
      "normalized": true,
      "special": true
    }
  ],
  "normalizer": null,
  "pre_tokenizer": {
    "type": "ByteLevel",
    "add_prefix_space": false,
    "trim_offsets": true,
    "use_regex": true
  },
  "post_processor": {
    "type": "ByteLevel",
    "add_prefix_space": true,
    "trim_offsets": false,
    "use_regex": true
  },
  "decoder": {
    "type": "ByteLevel",
    "add_prefix_space": true,
    "trim_offsets": true,
    "use_regex": true
  },
  "model": {
    "type": "BPE",
    "dropout": null,
    "unk_token": null,
    "continuing_subword_prefix": "",
    "end_of_word_suffix": "",
    "fuse_unk": false,
    "byte_fallback": false,
    "ignore_merges": false,
    "vocab": {
      "<s>": 0,
      "<pad>": 1,
      "</s>": 2,
      "<unk>": 3,
      "<mask>": 4,
      "!": 5,
      "\"": 6,
      "#": 7,
      "$": 8,
      "%": 9,
      "&": 10,
      "'": 11,
      "(": 12,
      ")": 13,
      "*": 14,
      "+": 15,
      ",": 16,
      "-": 17,
      ".": 18,
      "/": 19,
      "0": 20,
      "1": 21,
      "2": 22,
      "3": 23,
      "4": 24,
      "5": 25,
      "6": 26,
      "7": 27,
      "8": 28,
      "9": 29,
      ":": 30,
      ";": 31,
      "<": 32,
      "=": 33,
      ">": 34,
      "?": 35,
      "@": 36,
      "A": 37,
      "B": 38,
      "C": 39,
      "D": 40,
      "E": 41,
      "F": 42,
      "G": 43,
      "H": 44,
      "I": 45,
      "J": 46,
      "K": 47,
      "L": 48,
      "M": 49,
      "N": 50,
      "O": 51,
      "P": 52,
      "Q": 53,
      "R": 54,
      "S": 55,
      "T": 56,
      "U": 57,
      "V": 58,
      "W": 59,
      "X": 60,
      "Y": 61,
      "Z": 62,
      "[": 63,
      "\\": 64,
      "]": 65,
      "^": 66,
      "_": 67,
      "`": 68,
      "a": 69,
      "b": 70,
      "c": 71,
      "d": 72,
      "e": 73,
      "f": 74,
      "g": 75,
      "h": 76,
      "i": 77,
      "j": 78,
      "k": 79,
      "l": 80,
      "m": 81,
      "n": 82,
      "o": 83,
      "p": 84,
      "q": 85,
      "r": 86,
      "s": 87,
      "t": 88,
      "u": 89,
      "v": 90,
      "w": 91,
      "x": 92,
      "y": 93,
      "z": 94,
      "{": 95,
      "|": 96,
      "}": 97,
      "~": 98,
      "¡": 99,
      "¢": 100,
      "£": 101,
      "¤": 102,
      "¥": 103,
      "¦": 104,
      "§": 105,
      "¨": 106,
      "©": 107,
      "ª": 108,
      "«": 109,
      "¬": 110,
      "®": 111,
      "¯": 112,
      "°": 113,
      "±": 114,
      "²": 115,
      "³": 116,
      "´": 117,
      "µ": 118,
      "¶": 119,
      "·": 120,
      "¸": 121,
      "¹": 122,
      "º": 123,
      "»": 124,
      "¼": 125,
      "½": 126,
      "¾": 127,
      "¿": 128,
      "À": 129,
      "Á": 130,
      "Â": 131,
      "Ã": 132,
      "Ä": 133,
      "Å": 134,
      "Æ": 135,
      "Ç": 136,
      "È": 137,
      "É": 138,
      "Ê": 139,
      "Ë": 140,
      "Ì": 141,
      "Í": 142,
      "Î": 143,
      "Ï": 144,
      "Ð": 145,
      "Ñ": 146,
      "Ò": 147,
      "Ó": 148,
      "Ô": 149,
      "Õ": 150,
      "Ö": 151,
      "×": 152,
      "Ø": 153,
      "Ù": 154,
      "Ú": 155,
      "Û": 156,
      "Ü": 157,
      "Ý": 158,
      "Þ": 159,
      "ß": 160,
      "à": 161,
      "á": 162,
      "â": 163,
      "ã": 164,
      "ä": 165,
      "å": 166,
      "æ": 167,
      "ç": 168,
      "è": 169,
      "é": 170,
      "ê": 171,
      "ë": 172,
      "ì": 173,
      "í": 174,
      "î": 175,
      "ï": 176,
      "ð": 177,
      "ñ": 178,
      "ò": 179,
      "ó": 180,
      "ô": 181,
      "õ": 182,
      "ö": 183,
      "÷": 184,
      "ø": 185,
      "ù": 186,
      "ú": 187,
      "û": 188,
      "ü": 189,
      "ý": 190,
      "þ": 191,
      "ÿ": 192,
      "Ā": 193,
      "ā": 194,
      "Ă": 195,
      "ă": 196,
      "Ą": 197,
      "ą": 198,
      "Ć": 199,
      "ć": 200,
      "Ĉ": 201,
      "ĉ": 202,
      "Ċ": 203,
      "ċ": 204,
      "Č": 205,
      "č": 206,
      "Ď": 207,
      "ď": 208,
      "Đ": 209,
      "đ": 210,
      "Ē": 211,
      "ē": 212,
      "Ĕ": 213,
      "ĕ": 214,
      "Ė": 215,
      "ė": 216,
      "Ę": 217,
      "ę": 218,
      "Ě": 219,
      "ě": 220,
      "Ĝ": 221,
      "ĝ": 222,
      "Ğ": 223,
      "ğ": 224,
      "Ġ": 225,
      "ġ": 226,
      "Ģ": 227,
      "ģ": 228,
      "Ĥ": 229,
      "ĥ": 230,
      "Ħ": 231,
      "ħ": 232,
      "Ĩ": 233,
      "ĩ": 234,
      "Ī": 235,
      "ī": 236,
      "Ĭ": 237,
      "ĭ": 238,
      "Į": 239,
      "į": 240,
      "İ": 241,
      "ı": 242,
      "Ĳ": 243,
      "ĳ": 244,
      "Ĵ": 245,
      "ĵ": 246,
      "Ķ": 247,
      "ķ": 248,
      "ĸ": 249,
      "Ĺ": 250,
      "ĺ": 251,
      "Ļ": 252,
      "ļ": 253,
      "Ľ": 254,
      "ľ": 255,
      "Ŀ": 256,
      "ŀ": 257,
      "Ł": 258,
      "ł": 259,
      "Ń": 260,
      "on": 261,
      "ti": 262,
      "te": 263,
      "la": 264,
      "en": 265,
      "ml": 266,
      "co": 267,
      "li": 268,
      "ca": 269,
      "os": 270,
      "in": 271,
      "ag": 272,
      "tion": 273,
      "ac": 274,
      "ce": 275,
      "pt": 276,
      "nac": 277,
      "cept": 278,
      "naccept": 279,
      "zi": 280,
      "xt": 281,
      "text": 282,
      "xml": 283,
      "er": 284,
      "de": 285,
      "ec": 286,
      "ap": 287,
      "ost": 288,
      "lica": 289,
      "app": 290,
      "lication": 291,
      "application": 292,
      "80": 293,
      "host": 294,
      "ng": 295,
      "age": 296,
      "ht": 297,
      "def": 298,
      "late": 299,
      "Ġ(": 300,
      "HT": 301,
      "Ġx": 302,
      "zip": 303,
      "gzip": 304,
      "deflate": 305,
      "html": 306,
      "ĠK": 307,
      "or": 308,
      "lo": 309,
      "nc": 310,
      "ncon": 311,
      "enco": 312,
      "da": 313,
      "ie": 314,
      "le": 315,
      "ent": 316,
      "pa": 317,
      "im": 318,
      "ser": 319,
      "ar": 320,
      "ok": 321,
      "cook": 322,
      "nu": 323,
      "lla": 324,
      "cookie": 325,
      "lang": 326,
      "SI": 327,
      "cal": 328,
      "local": 329,
      "localhost": 330,
      "uage": 331,
      "language": 332,
      "SE": 333,
      "com": 334,
      "SSI": 335,
      "SESSI": 336,
      "ing": 337,
      "ke": 338,
      "Mo": 339,
      "ko": 340,
      "/*": 341,
      "ux": 342,
      "TP": 343,
      "Lin": 344,
      "Ġc": 345,
      "nec": 346,
      "ding": 347,
      "nuser": 348,
      "agent": 349,
      "ecko": 350,
      "encoding": 351,
      "Gecko": 352,
      "nhost": 353,
      "Ġ/": 354,
      "Ġen": 355,
      "ĠHT": 356,
      "Ġlocalhost": 357,
      "ĠMo": 358,
      "ĠLin": 359,
      "ĠGecko": 360,
      "zilla": 361,
      "nconnec": 362,
      "ĠHTTP": 363,
      "ĠMozilla": 364,
      "ĠLinux": 365,
      "nconnection": 366,
      "*/*": 367,
      "Ġgzip": 368,
      "Ġdeflate": 369,
      "ncookie": 370,
      "qu": 371,
      "ID": 372,
      "Ġtext": 373,
      "los": 374,
      "*/*;": 375,
      "ON": 376,
      "JSESSI": 377,
      "ĠJSESSI": 378,
      "ONID": 379,
      "ĠJSESSIONID": 380,
      "image": 381,
      "ble": 382,
      "pla": 383,
      ",*/*;": 384,
      "png": 385,
      "plain": 386,
      "quer": 387,
      "xhtml": 388,
      "pati": 389,
      "like": 390,
      "onquer": 391,
      "lose": 392,
      ")\\": 393,
      "ML": 394,
      "HTML": 395,
      "ĠKonquer": 396,
      "ĠKHTML": 397,
      "compati": 398,
      "Ġclose": 399,
      "ĠKonqueror": 400,
      "compatible": 401,
      "8080": 402,
      "tien": 403,
      "tienda": 404,
      "et": 405,
      "re": 406,
      "js": 407,
      "25": 408,
      "jsp": 409,
      "get": 410,
      "is": 411,
      "ww": 412,
      "ci": 413,
      "pu": 414,
      "nt": 415,
      "bli": 416,
      "publi": 417,
      "publico": 418,
      "mb": 419,
      "ro": 420,
      "di": 421,
      "27": 422,
      "ist": 423,
      "gist": 424,
      "rar": 425,
      "do": 426,
      "rec": 427,
      "mo": 428,
      "ur": 429,
      "40": 430,
      "al": 431,
      "for": 432,
      "Ġapplication": 433,
      "modo": 434,
      "ty": 435,
      "10": 436,
      "pe": 437,
      "car": 438,
      "no": 439,
      "url": 440,
      "form": 441,
      "tent": 442,
      "ncontent": 443,
      "type": 444,
      "ded": 445,
      "www": 446,
      "encoded": 447,
      "urlencoded": 448,
      "post": 449,
      "log": 450,
      "an": 451,
      "es": 452,
      "ri": 453,
      "el": 454,
      "as": 455,
      "20": 456,
      "ni": 457,
      "dad": 458,
      "mbre": 459,
      "nombre": 460,
      "63": 461,
      "login": 462,
      "regist": 463,
      "registro": 464,
      "29": 465,
      "17": 466,
      "cia": 467,
      "38": 468,
      "14": 469,
      "ss": 470,
      "io": 471,
      "ros": 472,
      "22": 473,
      "64": 474,
      "65": 475,
      "60": 476,
      "15": 477,
      "19": 478,
      "74": 479,
      "ma": 480,
      "39": 481,
      "69": 482,
      "28": 483,
      "il": 484,
      "mie": 485,
      "mbros": 486,
      "miembros": 487,
      "pro": 488,
      "st": 489,
      "to": 490,
      "89": 491,
      "23": 492,
      "Re": 493,
      "13": 494,
      "70": 495,
      "45": 496,
      "85": 497,
      "adi": 498,
      "pass": 499,
      "lid": 500,
      "passw": 501,
      "ord": 502,
      "vin": 503,
      "nti": 504,
      "tar": 505,
      "udad": 506,
      "adir": 507,
      "cion": 508,
      "nmodo": 509,
      "ema": 510,
      "password": 511,
      "ntc": 512,
      "direc": 513,
      "apel": 514,
      "cp": 515,
      "provin": 516,
      "email": 517,
      "dni": 518,
      "prec": 519,
      "ciudad": 520,
      "lidos": 521,
      "direccion": 522,
      "apellidos": 523,
      "provincia": 524,
      "precio": 525,
      "gistrar": 526,
      "Registrar": 527,
      "67": 528,
      "ED": 529,
      "253": 530,
      "carri": 531,
      "am": 532,
      "carrito": 533,
      "30": 534,
      "11": 535,
      "87": 536,
      "BA": 537,
      "entrar": 538,
      "24": 539,
      "at": 540,
      "enes": 541,
      "agenes": 542,
      "imagenes": 543,
      "CC": 544,
      "FB": 545,
      "90": 546,
      "75": 547,
      "DD": 548,
      "FA": 549,
      "35": 550,
      "86": 551,
      "aci": 552,
      "EC": 553,
      "84": 554,
      "FC": 555,
      "34": 556,
      "26": 557,
      "EA": 558,
      "aciar": 559,
      "ch": 560,
      "au": 561,
      "94": 562,
      "FD": 563,
      "21": 564,
      "EB": 565,
      "95": 566,
      "ja": 567,
      "gi": 568,
      "83": 569,
      "ra": 570,
      "DA": 571,
      "05": 572,
      "me": 573,
      "37": 574,
      "256": 575,
      "id": 576,
      "CA": 577,
      "BB": 578,
      "eb": 579,
      "FE": 580,
      "gif": 581,
      "36": 582,
      "18": 583,
      "16": 584,
      "55": 585,
      "79": 586,
      "AA": 587,
      "cor": 588,
      "CB": 589,
      "CD": 590,
      "FF": 591,
      "EE": 592,
      "00": 593,
      "78": 594,
      "44": 595,
      "wd": 596,
      "edi": 597,
      "us": 598,
      "anadir": 599,
      "31": 600,
      "aute": 601,
      "les": 602,
      "nticar": 603,
      "autenticar": 604,
      "pwd": 605,
      "agar": 606,
      "editar": 607,
      "mber": 608,
      "canti": 609,
      "cantidad": 610,
      "+&": 611,
      "DB": 612,
      "reme": 613,
      "pagar": 614,
      "remember": 615,
      "99": 616,
      "Ent": 617,
      "66": 618,
      "71": 619,
      "Entrar": 620,
      "ter": 621,
      "inser": 622,
      "insertar": 623,
      "98": 624,
      "EF": 625,
      "AB": 626,
      "50": 627,
      "nid": 628,
      "77": 629,
      "cas": 630,
      "48": 631,
      "sec": 632,
      "DC": 633,
      "68": 634,
      "12": 635,
      "73": 636,
      "ner": 637,
      "100": 638,
      "270": 639,
      "49": 640,
      "Ms": 641,
      "isti": 642,
      "bal": 643,
      "142": 644,
      "acter": 645,
      "caracter": 646,
      "isticas": 647,
      "caracteristicas": 648,
      "encia": 649,
      "62": 650,
      "dis": 651,
      "vaciar": 652,
      "DE": 653,
      "CF": 654,
      "jp": 655,
      "iss": 656,
      "CE": 657,
      "jpg": 658,
      "ror": 659,
      "33": 660,
      "=%": 661,
      "Msg": 662,
      "rorMsg": 663,
      "glo": 664,
      "ref": 665,
      "fet": 666,
      "global": 667,
      "nsec": 668,
      "DF": 669,
      "fetch": 670,
      "stat": 671,
      "miss": 672,
      "status": 673,
      "dismiss": 674,
      "88": 675,
      "ir": 676,
      "47": 677,
      "82": 678,
      "si": 679,
      "BD": 680,
      "tas": 681,
      "AD": 682,
      "BC": 683,
      "09": 684,
      "vi": 685,
      "red": 686,
      "101": 687,
      "BE": 688,
      "61": 689,
      "AC": 690,
      "ali": 691,
      "41": 692,
      "Vaciar": 693,
      "59": 694,
      "57": 695,
      "AF": 696,
      "AE": 697,
      "ZR": 698,
      "BF": 699,
      "correc": 700,
      "Cred": 701,
      "incorrec": 702,
      "enciales": 703,
      "Credenciales": 704,
      "incorrectas": 705,
      "01": 706,
      "tos": 707,
      "go": 708,
      "mar": 709,
      "+%": 710,
      "54": 711,
      "173": 712,
      "wi": 713,
      "252": 714,
      "72": 715,
      "81": 716,
      "jo": 717,
      "--": 718,
      "Go": 719,
      "Web": 720,
      "men": 721,
      "32": 722,
      "ff": 723,
      "97": 724,
      "ig": 725,
      "Ma": 726,
      "04": 727,
      "he": 728,
      "mv": 729,
      "Goat": 730,
      "WebGoat": 731,
      "ve": 732,
      "5173": 733,
      "250": 734,
      "Cal": 735,
      "Pas": 736,
      "76": 737,
      "amp": 738,
      "logo": 739,
      "Co": 740,
      "91": 741,
      "por": 742,
      "Con": 743,
      "ND": 744,
      "43": 745,
      "br": 746,
      "46": 747,
      "2563": 748,
      "ame": 749,
      "58": 750,
      "mvc": 751,
      "93": 752,
      "53": 753,
      "Calle": 754,
      "fir": 755,
      "56": 756,
      "Confir": 757,
      "Confirmar": 758,
      "96": 759,
      "off": 760,
      "cri": 761,
      "Wx": 762,
      "07": 763,
      "51": 764,
      "42": 765,
      "ate": 766,
      "Pasar": 767,
      "Jl": 768,
      "sI": 769,
      "caja": 770,
      "Fi": 771,
      "cript": 772,
      "nB": 773,
      "92": 774,
      "it": 775,
      "aj": 776,
      "ino": 777,
      "52": 778,
      "08": 779,
      "tp": 780,
      "Qu": 781,
      "03": 782,
      "ons": 783,
      "06": 784,
      "2574": 785,
      "http": 786,
      "ox": 787,
      "Rio": 788,
      "ep": 789,
      "nue": 790,
      "onti": 791,
      "CI": 792,
      "De": 793,
      "ia": 794,
      "site": 795,
      "Mj": 796,
      "\":": 797,
      "wel": 798,
      "inde": 799,
      "mode": 800,
      "nerrorMsg": 801,
      "index": 802,
      "rv": 803,
      "za": 804,
      "welcom": 805,
      "jav": 806,
      "{\"": 807,
      "US": 808,
      ":/": 809,
      "bm": 810,
      "erer": 811,
      "Code": 812,
      "PH": 813,
      "igin": 814,
      "iec": 815,
      "20100": 816,
      "refox": 817,
      "same": 818,
      "Ġke": 819,
      "ĠFi": 820,
      "Ġrv": 821,
      "alive": 822,
      "20100101": 823,
      "Ġkeep": 824,
      "ĠFirefox": 825,
      "errorMsg": 826,
      "eban": 827,
      "Ġsame": 828,
      "origin": 829,
      "ul": 830,
      "zst": 831,
      "Ġbr": 832,
      "Ġzst": 833,
      "state": 834,
      "ontinue": 835,
      "Ġzstd": 836,
      "={\"": 837,
      "PSESSI": 838,
      "};": 839,
      "Ġg": 840,
      "Ġcook": 841,
      "Ġlanguage": 842,
      "Ġwelcom": 843,
      "ĠPH": 844,
      "Ġcontinue": 845,
      "onsent": 846,
      "ieconsent": 847,
      "ebanner": 848,
      "PSESSID": 849,
      "Ġcookieconsent": 850,
      "Ġwelcomebanner": 851,
      "ĠPHPSESSID": 852,
      "ĠcontinueCode": 853,
      "nref": 854,
      "Ġhttp": 855,
      "://": 856,
      "nreferer": 857,
      "Rioja": 858,
      "Ii": 859,
      "02": 860,
      "nche": 861,
      "ad": 862,
      "ert": 863,
      "less": 864,
      "nov": 865,
      "GM": 866,
      "Ijo": 867,
      "cors": 868,
      "zm": 869,
      "art": 870,
      "DO": 871,
      "um": 872,
      "lesson": 873,
      "yO": 874,
      "199": 875,
      "ab": 876,
      "Ques": 877,
      "Manche": 878,
      "Manchego": 879,
      "--%": 880,
      "ol": 881,
      "989": 882,
      "Al": 883,
      "360": 884,
      "VA": 885,
      "Par": 886,
      "asf": 887,
      "CJ": 888,
      "wide": 889,
      "Vino": 890,
      "iO": 891,
      "EQ": 892,
      "Bbm": 893,
      "KyO": 894,
      "Lzm": 895,
      "PJ": 896,
      "QDO": 897,
      "Xk": 898,
      "YVA": 899,
      "gYVA": 900,
      "qPJ": 901,
      "wWx": 902,
      "zZR": 903,
      "reZR": 904,
      "alND": 905,
      "JlGM": 906,
      "novp": 907,
      "BbmzZR": 908,
      "KyOqPJ": 909,
      "LzmXk": 910,
      "gYVAJlGM": 911,
      "wWxalND": 912,
      "reZRLzmXk": 913,
      "BbmzZRb": 914,
      "ascript": 915,
      "FBE": 916,
      "ZX": 917,
      "ack": 918,
      "javascript": 919,
      "Sa": 920,
      "Queso": 921,
      "iJ": 922,
      "Ijoi": 923,
      "2529": 924,
      "Ġcors": 925,
      "941": 926,
      "du": 927,
      "2569": 928,
      "MT": 929,
      "2565": 930,
      "Ib": 931,
      "wa": 932,
      "LCJ": 933,
      "Jam": 934,
      "rico": 935,
      "un": 936,
      "hi": 937,
      "SC": 938,
      "bf": 939,
      "dela": 940,
      "IP": 941,
      "SCR": 942,
      "IPT": 943,
      "ona": 944,
      "ta": 945,
      "ey": 946,
      "283": 947,
      "zar": 948,
      "alert": 949,
      "Paros": 950,
      "4199": 951,
      "start": 952,
      "BT": 953,
      "989941": 954,
      "2522": 955,
      "fo": 956,
      "json": 957,
      "va": 958,
      "wait": 959,
      "amper": 960,
      "Bwait": 961,
      "delay": 962,
      "Bwaitfor": 963,
      "ver": 964,
      "ba": 965,
      "man": 966,
      "del": 967,
      "Set": 968,
      "122": 969,
      "YW": 970,
      "ada": 971,
      "BTamper": 972,
      "sa": 973,
      "110": 974,
      "bo": 975,
      "La": 976,
      "tu": 977,
      "any": 978,
      "ue": 979,
      "Vi": 980,
      "Ġq": 981,
      "Ġ*/*;": 982,
      "erra": 983,
      "na": 984,
      "og": 985,
      "servi": 986,
      "387": 987,
      "123": 988,
      "Ar": 989,
      "tra": 990,
      "747": 991,
      "service": 992,
      "MD": 993,
      "NT": 994,
      "cm": 995,
      "7098": 996,
      "28336": 997,
      "dbf": 998,
      "7098101": 999,
      "dbfd": 1000,
      "ZW": 1001,
      "Nz": 1002,
      "GF": 1003,
      "ASet": 1004,
      "Iiwi": 1005,
      "css": 1006,
      "ono": 1007,
      "eyJ": 1008,
      "ne": 1009,
      "duc": 1010,
      "ga": 1011,
      "ha": 1012,
      "zd": 1013,
      "Mz": 1014,
      "ran": 1015,
      "cre": 1016,
      "2528": 1017,
      "FN": 1018,
      "Val": 1019,
      "Ym": 1020,
      "ru": 1021,
      "ls": 1022,
      "637": 1023,
      "produc": 1024,
      "2561": 1025,
      "dCI": 1026,
      "esti": 1027,
      "so": 1028,
      "CSCR": 1029,
      "Ealert": 1030,
      "San": 1031,
      "GV": 1032,
      "era": 1033,
      "6363": 1034,
      "titu": 1035,
      "Gu": 1036,
      "estilos": 1037,
      "6005": 1038,
      "sali": 1039,
      "136": 1040,
      "lu": 1041,
      "cast": 1042,
      "6420": 1043,
      "fotos": 1044,
      "estra": 1045,
      "bi": 1046,
      "res": 1047,
      "690": 1048,
      "4839": 1049,
      "gu": 1050,
      "tierra": 1051,
      "sIm": 1052,
      "bul": 1053,
      "290": 1054,
      "auz": 1055,
      "credi": 1056,
      "salir": 1057,
      "jack": 1058,
      "menum": 1059,
      "titulo": 1060,
      "creditos": 1061,
      "zarauz": 1062,
      "nuestra": 1063,
      "nuestratierra": 1064,
      "iLCJ": 1065,
      "castro": 1066,
      "ea": 1067,
      "ex": 1068,
      "ogono": 1069,
      "productos": 1070,
      "Mar": 1071,
      "Cas": 1072,
      "cmen": 1073,
      "cmenbul": 1074,
      "38725": 1075,
      "Bar": 1076,
      "Ġhi": 1077,
      "176363": 1078,
      "746420": 1079,
      "786005": 1080,
      "6238725": 1081,
      "4839122": 1082,
      "Ġhijack": 1083,
      "1763634839122": 1084,
      "7464206238725": 1085,
      "7860057464206238725": 1086,
      "paros": 1087,
      "RB": 1088,
      "Car": 1089,
      "Iw": 1090,
      "8082": 1091,
      "730": 1092,
      "2527": 1093,
      "nV": 1094,
      "ll": 1095,
      "2640": 1096,
      "ora": 1097,
      "iOiJ": 1098,
      "1041": 1099,
      "74727": 1100,
      "235": 1101,
      "25374727": 1102,
      "11025374727": 1103,
      "264011025374727": 1104,
      "1041264011025374727": 1105,
      "fa": 1106,
      "Ju": 1107,
      "ana": 1108,
      "2570": 1109,
      "Rl": 1110,
      "Nj": 1111,
      "297": 1112,
      "ed": 1113,
      "2573": 1114,
      "sb": 1115,
      "fi": 1116,
      "234": 1117,
      "Cu": 1118,
      "Ro": 1119,
      "486": 1120,
      "dX": 1121,
      "ho": 1122,
      "MTE": 1123,
      "Fs": 1124,
      "Sant": 1125,
      "221": 1126,
      "876": 1127,
      "Ij": 1128,
      "Ca": 1129,
      "org": 1130,
      "se": 1131,
      "ZWRB": 1132,
      "ZWRBdCI": 1133,
      "RO": 1134,
      "pY": 1135,
      "Ba": 1136,
      "Pa": 1137,
      "lIjoi": 1138,
      "pb": 1139,
      "tYW": 1140,
      "inc": 1141,
      "Le": 1142,
      "ara": 1143,
      "Se": 1144,
      "ow": 1145,
      "amples": 1146,
      "--&": 1147,
      "ina": 1148,
      "ero": 1149,
      "uri": 1150,
      "271": 1151,
      "8789": 1152,
      "idA": 1153,
      "nidA": 1154,
      "Cor": 1155,
      "tor": 1156,
      "Ġt": 1157,
      "ber": 1158,
      "cmd": 1159,
      "Na": 1160,
      "uel": 1161,
      "YX": 1162,
      "AND": 1163,
      "cr": 1164,
      "lan": 1165,
      "466": 1166,
      "Cs": 1167,
      "mi": 1168,
      "cel": 1169,
      "bG": 1170,
      "Ny": 1171,
      "9030": 1172,
      "130": 1173,
      "Es": 1174,
      "dri": 1175,
      "sion": 1176,
      "2572": 1177,
      "menu": 1178,
      "lessonmenu": 1179,
      "be": 1180,
      "Ag": 1181,
      "ZGF": 1182,
      "ld": 1183,
      "OL": 1184,
      "ge": 1185,
      "ida": 1186,
      "278789": 1187,
      ".+": 1188,
      "th": 1189,
      "2529278789": 1190,
      "1362529278789": 1191,
      "4861362529278789": 1192,
      "4861362529278789730": 1193,
      "ente": 1194,
      "832563": 1195,
      "637832563": 1196,
      "6909030": 1197,
      "637832563290": 1198,
      "6909030637832563290": 1199,
      "Lj": 1200,
      "vie": 1201,
      "vo": 1202,
      "257": 1203,
      "MjU": 1204,
      "Mon": 1205,
      "TE": 1206,
      "las": 1207,
      "EDa": 1208,
      "var": 1209,
      "ago": 1210,
      "precioA": 1211,
      "Bur": 1212,
      "und": 1213,
      "doc": 1214,
      "name": 1215,
      "ession": 1216,
      "Villa": 1217,
      "Uz": 1218,
      "WF": 1219,
      "mU": 1220,
      "ya": 1221,
      "170": 1222,
      "gos": 1223,
      "IN": 1224,
      "nerrorMsgA": 1225,
      "errorMsgA": 1226,
      "834": 1227,
      "user": 1228,
      "6520": 1229,
      "bar": 1230,
      "9090": 1231,
      "To": 1232,
      "per": 1233,
      "sty": 1234,
      "191": 1235,
      "ECT": 1236,
      "Yz": 1237,
      "Tor": 1238,
      "ell": 1239,
      "bob": 1240,
      "celona": 1241,
      "all": 1242,
      "179": 1243,
      "263": 1244,
      "Zj": 1245,
      "cy": 1246,
      "po": 1247,
      "xy": 1248,
      "over": 1249,
      "view": 1250,
      "ena": 1251,
      "proxy": 1252,
      "lin": 1253,
      "ipt": 1254,
      "min": 1255,
      "pos": 1256,
      "190": 1257,
      "CSCRipt": 1258,
      "parosproxy": 1259,
      "Fscr": 1260,
      "FscrIPT": 1261,
      "put": 1262,
      "872": 1263,
      "5567": 1264,
      "hc": 1265,
      "arr": 1266,
      "155": 1267,
      "des": 1268,
      "OT": 1269,
      "FSCR": 1270,
      "CSCRIPT": 1271,
      "FSCRIPT": 1272,
      "Pl": 1273,
      "576520": 1274,
      "234876": 1275,
      "5567234876": 1276,
      "5765205567234876": 1277,
      "5765205567234876235": 1278,
      "165": 1279,
      "cu": 1280,
      "800": 1281,
      "que": 1282,
      "Sala": 1283,
      "Burgos": 1284,
      "+--%": 1285,
      "185": 1286,
      "tMj": 1287,
      "tMTE": 1288,
      "6575": 1289,
      "IjoiIiwi": 1290,
      "IwMjU": 1291,
      "IjIwMjU": 1292,
      "tMTEtMj": 1293,
      "IjIwMjUtMTEtMj": 1294,
      "135": 1295,
      "pYy": 1296,
      "mer": 1297,
      "105": 1298,
      "194": 1299,
      "Del": 1300,
      "tr": 1301,
      "overview": 1302,
      "/.": 1303,
      "lessonoverview": 1304,
      "style": 1305,
      "177": 1306,
      "154": 1307,
      "username": 1308,
      "Pal": 1309,
      "150": 1310,
      "lor": 1311,
      "web": 1312,
      "2564": 1313,
      "2567": 1314,
      "108": 1315,
      "174": 1316,
      "2520": 1317,
      "145": 1318,
      "189": 1319,
      "118": 1320,
      "129": 1321,
      "LE": 1322,
      "143": 1323,
      "240": 1324,
      "gro": 1325,
      "cgi": 1326,
      "45297": 1327,
      "ument": 1328,
      "document": 1329,
      "ste": 1330,
      "Bo": 1331,
      "aea": 1332,
      "175": 1333,
      "178": 1334,
      "chi": 1335,
      "ZWx": 1336,
      "kZWx": 1337,
      "409": 1338,
      "zo": 1339,
      "147": 1340,
      "ck": 1341,
      "144": 1342,
      "164": 1343,
      "back": 1344,
      "OW": 1345,
      "Guada": 1346,
      "Ex": 1347,
      "sv": 1348,
      "275": 1349,
      "der": 1350,
      "660": 1351,
      "Zar": 1352,
      "drid": 1353,
      "AR": 1354,
      "103": 1355,
      "via": 1356,
      "ka": 1357,
      "iOi": 1358,
      "163": 1359,
      "Aurl": 1360,
      "Aalert": 1361,
      "Ter": 1362,
      "ground": 1363,
      "background": 1364,
      "120": 1365,
      "Pu": 1366,
      "alla": 1367,
      "ret": 1368,
      "264": 1369,
      "FRO": 1370,
      "159": 1371,
      "697": 1372,
      "FROM": 1373,
      "285": 1374,
      "jJ": 1375,
      "134": 1376,
      "193": 1377,
      "197": 1378,
      "133": 1379,
      "265": 1380,
      "12312": 1381,
      "Gd": 1382,
      "MCI": 1383,
      "400": 1384,
      "MDU": 1385,
      "hZ": 1386,
      "158": 1387,
      "12312312": 1388,
      "essionid": 1389,
      "mu": 1390,
      "254": 1391,
      "227": 1392,
      "245": 1393,
      "620": 1394,
      "2575": 1395,
      "160": 1396,
      "EX": 1397,
      "650": 1398,
      "ria": 1399,
      "ari": 1400,
      "220": 1401,
      "805": 1402,
      "405": 1403,
      "manca": 1404,
      "/\\": 1405,
      "Ra": 1406,
      "157": 1407,
      "694": 1408,
      "XA": 1409,
      "nombreA": 1410,
      "148": 1411,
      "167": 1412,
      "con": 1413,
      "Salamanca": 1414,
      "EXEC": 1415,
      "lia": 1416,
      "195": 1417,
      "urity": 1418,
      "Lu": 1419,
      "2568": 1420,
      "180": 1421,
      "107": 1422,
      "Cam": 1423,
      "Ri": 1424,
      "jara": 1425,
      "pi": 1426,
      "sInV": 1427,
      "127": 1428,
      "124": 1429,
      "255": 1430,
      "security": 1431,
      "139": 1432,
      "llo": 1433,
      "loginA": 1434,
      "153": 1435,
      "oken": 1436,
      "OiJ": 1437,
      "cH": 1438,
      "146": 1439,
      "685": 1440,
      "Po": 1441,
      "Barcelona": 1442,
      "870": 1443,
      "Pla": 1444,
      "Zl": 1445,
      "140": 1446,
      "Ġ*/*": 1447,
      "Ġ*/*\\": 1448,
      "dor": 1449,
      "lajara": 1450,
      "agoza": 1451,
      "675": 1452,
      "679": 1453,
      "ICs": 1454,
      "LB": 1455,
      "My": 1456,
      "wMD": 1457,
      "owMCI": 1458,
      "IjIwMjUtMTEtMjAg": 1459,
      "ICswMD": 1460,
      "ICswMDowMCI": 1461,
      "374": 1462,
      "299": 1463,
      "390": 1464,
      "Guadalajara": 1465,
      "Ch": 1466,
      "Ci": 1467,
      "294": 1468,
      "ez": 1469,
      "lar": 1470,
      "192": 1471,
      "128": 1472,
      "CDA": 1473,
      "Mv": 1474,
      "lig": 1475,
      "109": 1476,
      "Hu": 1477,
      "104": 1478,
      "tl": 1479,
      "389": 1480,
      "375": 1481,
      "665": 1482,
      "tes": 1483,
      "279": 1484,
      "630": 1485,
      "Santa": 1486,
      "Av": 1487,
      "Jv": 1488,
      "634": 1489,
      "695": 1490,
      "670": 1491,
      "El": 1492,
      "845": 1493,
      "156": 1494,
      "839": 1495,
      "835": 1496,
      "sible": 1497,
      "impos": 1498,
      "259": 1499,
      "asp": 1500,
      "impossible": 1501,
      "BEA": 1502,
      "KV": 1503,
      "MiOiJ": 1504,
      "NiJ": 1505,
      "QiLCJ": 1506,
      "SUz": 1507,
      "WNj": 1508,
      "YSI": 1509,
      "ZCI": 1510,
      "eXA": 1511,
      "hYm": 1512,
      "hbG": 1513,
      "pZCI": 1514,
      "zL": 1515,
      "zZX": 1516,
      "SIsI": 1517,
      "ciOiJ": 1518,
      "224": 1519,
      "ZXNz": 1520,
      "IiwiZGF": 1521,
      "eyJzd": 1522,
      "eyJpZCI": 1523,
      "zdWNj": 1524,
      "iOiJKV": 1525,
      "JuYW": 1526,
      "dXMiOiJ": 1527,
      "Ġtoken": 1528,
      "QiLCJhbG": 1529,
      "SUzI": 1530,
      "eXAiOiJKV": 1531,
      "zZXJuYW": 1532,
      "ciOiJSUzI": 1533,
      "ZXNzIiwiZGF": 1534,
      "eyJzdGF": 1535,
      "zdWNjZXNzIiwiZGF": 1536,
      "dXMiOiJzdWNjZXNzIiwiZGF": 1537,
      "QiLCJhbGciOiJSUzI": 1538,
      "sch": 1539,
      "her": 1540,
      "osa": 1541,
      "ard": 1542,
      "877": 1543,
      "vila": 1544,
      "modoA": 1545,
      "699": 1546,
      "nmodoA": 1547,
      "244": 1548,
      "Zaragoza": 1549,
      "FH": 1550,
      "yo": 1551,
      "106": 1552,
      "200": 1553,
      "EDB": 1554,
      "sessionid": 1555,
      "ly": 1556,
      "804": 1557,
      "384": 1558,
      "Ġsecurity": 1559,
      "639": 1560,
      "300": 1561,
      "old": 1562,
      "239": 1563,
      "DEA": 1564,
      "137": 1565,
      "Ad": 1566,
      "230": 1567,
      "CCB": 1568,
      "ECA": 1569,
      "168": 1570,
      "ns": 1571,
      "385": 1572,
      "894": 1573,
      "FAA": 1574,
      "Pi": 1575,
      "149": 1576,
      "638": 1577,
      "649": 1578,
      "Gir": 1579,
      "Or": 1580,
      "644": 1581,
      "875": 1582,
      "247": 1583,
      "248": 1584,
      "ECD": 1585,
      "184": 1586,
      "cat": 1587,
      "744": 1588,
      "890": 1589,
      "183": 1590,
      "FDA": 1591,
      "EBE": 1592,
      "335": 1593,
      "277": 1594,
      "698": 1595,
      "249": 1596,
      "Palencia": 1597,
      "BBA": 1598,
      "bu": 1599,
      "cf": 1600,
      "635": 1601,
      "229": 1602,
      "Zam": 1603,
      "+.": 1604,
      "645": 1605,
      "198": 1606,
      "274": 1607,
      "FCD": 1608,
      "809": 1609,
      "654": 1610,
      "655": 1611,
      "344": 1612,
      "Valencia": 1613,
      "260": 1614,
      "330": 1615,
      "CEA": 1616,
      "EEA": 1617,
      "176": 1618,
      "355": 1619,
      "FDF": 1620,
      "760": 1621,
      "739": 1622,
      "855": 1623,
      "Teruel": 1624,
      "Ub": 1625,
      "oria": 1626,
      "337": 1627,
      "ura": 1628,
      "745": 1629,
      "Ber": 1630,
      "bin": 1631,
      "677": 1632,
      "FBB": 1633,
      "sh": 1634,
      "204": 1635,
      "Old": 1636,
      "899": 1637,
      "Madrid": 1638,
      "file": 1639,
      "Zamora": 1640,
      "LI": 1641,
      "WU": 1642,
      "nR": 1643,
      "uM": 1644,
      "169": 1645,
      "Pg": 1646,
      "709": 1647,
      "844": 1648,
      "EBC": 1649,
      "kr": 1650,
      "ach": 1651,
      "407": 1652,
      "and": 1653,
      "205": 1654,
      "FCB": 1655,
      "268": 1656,
      "188": 1657,
      "EFA": 1658,
      "IsIm": 1659,
      "Ja": 1660,
      "EDF": 1661,
      "628": 1662,
      "UiLCJ": 1663,
      "eGV": 1664,
      "int": 1665,
      "807": 1666,
      "408": 1667,
      "112": 1668,
      "IiLCJ": 1669,
      "biI": 1670,
      "OLD": 1671,
      "WFn": 1672,
      "tlbiI": 1673,
      "eGVUb": 1674,
      "ECC": 1675,
      "yb": 1676,
      "cio": 1677,
      "600": 1678,
      "117": 1679,
      "674": 1680,
      "795": 1681,
      "975": 1682,
      "eli": 1683,
      "mc": 1684,
      "295": 1685,
      "BAB": 1686,
      "FCF": 1687,
      "EBD": 1688,
      "125": 1689,
      "ER": 1690,
      "nte": 1691,
      "152": 1692,
      "705": 1693,
      "459": 1694,
      "EBB": 1695,
      "404": 1696,
      "339": 1697,
      "ib": 1698,
      "604": 1699,
      "EDE": 1700,
      "111": 1701,
      "FCA": 1702,
      "RzL": 1703,
      "828": 1704,
      "FDD": 1705,
      "So": 1706,
      "rat": 1707,
      "ts": 1708,
      "707": 1709,
      "light": 1710,
      "AM": 1711,
      "BCA": 1712,
      "DCC": 1713,
      "Fk": 1714,
      "OR": 1715,
      "141": 1716,
      "132": 1717,
      "700": 1718,
      "EDC": 1719,
      "BAD": 1720,
      "315": 1721,
      "627": 1722,
      "095": 1723,
      "FEA": 1724,
      "hu": 1725,
      "317": 1726,
      "610": 1727,
      "enca": 1728,
      "648": 1729,
      "ECE": 1730,
      "187": 1731,
      "680": 1732,
      "Fr": 1733,
      "Valla": 1734,
      "ler": 1735,
      "657": 1736,
      "java": 1737,
      "121": 1738,
      "505": 1739,
      "DCA": 1740,
      "BAA": 1741,
      "FAB": 1742,
      "Navar": 1743,
      "445": 1744,
      "dolid": 1745,
      "609": 1746,
      "196": 1747,
      "237": 1748,
      "850": 1749,
      "EDA": 1750,
      "FBD": 1751,
      "ECB": 1752,
      "ECF": 1753,
      "FDB": 1754,
      "heme": 1755,
      "328": 1756,
      "FG": 1757,
      "QiOi": 1758,
      "dd": 1759,
      "FCE": 1760,
      "govia": 1761,
      "689": 1762,
      "Lle": 1763,
      "iz": 1764,
      "298": 1765,
      "FDC": 1766,
      "An": 1767,
      "388": 1768,
      "377": 1769,
      "RlZ": 1770,
      "Valladolid": 1771,
      "Inc": 1772,
      "db": 1773,
      "AAA": 1774,
      "Segovia": 1775,
      "213": 1776,
      "ling": 1777,
      "273": 1778,
      "278": 1779,
      "857": 1780,
      "218": 1781,
      "ACA": 1782,
      "ves": 1783,
      "403": 1784,
      "209": 1785,
      "455": 1786,
      "859": 1787,
      "FAD": 1788,
      "uela": 1789,
      "Per": 1790,
      "hor": 1791,
      "258": 1792,
      "FAC": 1793,
      "FEE": 1794,
      "162": 1795,
      "659": 1796,
      "EDn": 1797,
      "879": 1798,
      "750": 1799,
      "FEF": 1800,
      "Eu": 1801,
      "ms": 1802,
      "ley": 1803,
      "292": 1804,
      "646": 1805,
      "673": 1806,
      "CBB": 1807,
      "DBB": 1808,
      "2540": 1809,
      "207": 1810,
      "FBF": 1811,
      "357": 1812,
      "EBF": 1813,
      "EEF": 1814,
      "Ġtheme": 1815,
      "ADD": 1816,
      "BCC": 1817,
      "En": 1818,
      "289": 1819,
      "350": 1820,
      "2500": 1821,
      "138": 1822,
      "NB": 1823,
      "gar": 1824,
      "ili": 1825,
      "233": 1826,
      "FBC": 1827,
      "FAF": 1828,
      "Rlb": 1829,
      "Bsb": 1830,
      "Fu": 1831,
      "bd": 1832,
      "xpYy": 1833,
      "CDB": 1834,
      "ZXMv": 1835,
      "ZXRzL": 1836,
      "NzZXRzL": 1837,
      "YmxpYy": 1838,
      "dXBsb": 1839,
      "pbWFn": 1840,
      "YXNzZXRzL": 1841,
      "Fkcy": 1842,
      "ZXMvdXBsb": 1843,
      "pbWFnZXMvdXBsb": 1844,
      "*+": 1845,
      "113": 1846,
      "tin": 1847,
      "848": 1848,
      "bak": 1849,
      "Navarra": 1850,
      "Lleida": 1851,
      "ACB": 1852,
      "Gran": 1853,
      "illa": 1854,
      "mon": 1855,
      "693": 1856,
      "BAC": 1857,
      "166": 1858,
      "admin": 1859,
      "Cuenca": 1860,
      "119": 1861,
      "ADA": 1862,
      "ABB": 1863,
      "BDA": 1864,
      "eg": 1865,
      "172": 1866,
      "909": 1867,
      "359": 1868,
      "let": 1869,
      "236": 1870,
      "BAE": 1871,
      "Girona": 1872,
      "Do": 1873,
      "aX": 1874,
      "jcm": 1875,
      "607": 1876,
      "EDD": 1877,
      "sIml": 1878,
      "MzY": 1879,
      "jcmV": 1880,
      "115": 1881,
      "PAR": 1882,
      "ic": 1883,
      "ki": 1884,
      "ras": 1885,
      "Bak": 1886,
      "AEA": 1887,
      "JECT": 1888,
      "wf": 1889,
      "223": 1890,
      "696": 1891,
      "FAE": 1892,
      "349": 1893,
      "EEE": 1894,
      "INJECT": 1895,
      "PARAM": 1896,
      "INJECTED": 1897,
      "395": 1898,
      "759": 1899,
      "837": 1900,
      "406": 1901,
      "228": 1902,
      "900": 1903,
      "358": 1904,
      "FFF": 1905,
      "Fa": 1906,
      "Si": 1907,
      "bj": 1908,
      "647": 1909,
      "288": 1910,
      "BDD": 1911,
      "FCC": 1912,
      "643": 1913,
      "605": 1914,
      "895": 1915,
      "849": 1916,
      "DCB": 1917,
      "Qx": 1918,
      "yd": 1919,
      "305": 1920,
      "878": 1921,
      "243": 1922,
      "266": 1923,
      "RlZEF": 1924,
      "ltYW": 1925,
      "rm": 1926,
      "102": 1927,
      "450": 1928,
      "BAF": 1929,
      "ltYWd": 1930,
      "unt": 1931,
      "454": 1932,
      "678": 1933,
      "307": 1934,
      "BAK": 1935,
      "758": 1936,
      "217": 1937,
      "BDB": 1938,
      "ledo": 1939,
      "151": 1940,
      "284": 1941,
      "287": 1942,
      "illo": 1943,
      "Ay": 1944,
      "208": 1945,
      "Caste": 1946,
      "094": 1947,
      "280": 1948,
      "380": 1949,
      "AFB": 1950,
      "Bu": 1951,
      "rf": 1952,
      "rer": 1953,
      "hh": 1954,
      "636": 1955,
      "238": 1956,
      "hd": 1957,
      "secret": 1958,
      "Nv": 1959,
      "Tarr": 1960,
      "em": 1961,
      "archi": 1962,
      "esca": 1963,
      "archivo": 1964,
      "CED": 1965,
      "loca": 1966,
      "672": 1967,
      "usu": 1968,
      "iq": 1969,
      "su": 1970,
      "CDF": 1971,
      "Toledo": 1972,
      "BCB": 1973,
      "399": 1974,
      "216": 1975,
      "EFD": 1976,
      "sZ": 1977,
      "agona": 1978,
      "658": 1979,
      "608": 1980,
      "897": 1981,
      "868": 1982,
      "HER": 1983,
      "ZS": 1984,
      "fer": 1985,
      "DAC": 1986,
      "ABLE": 1987,
      "HERE": 1988,
      "CDD": 1989,
      "FFC": 1990,
      "gen": 1991,
      "206": 1992,
      "755": 1993,
      "+*+": 1994,
      "126": 1995,
      "210": 1996,
      "DRO": 1997,
      "KE": 1998,
      "LECT": 1999,
      "TABLE": 2000,
      "WHERE": 2001,
      "son": 2002,
      "803": 2003,
      "datos": 2004,
      "SELECT": 2005,
      "854": 2006,
      "lude": 2007,
      "include": 2008,
      "arios": 2009,
      "LIKE": 2010,
      "usuarios": 2011,
      "DROP": 2012,
      "BM": 2013,
      "Gls": 2014,
      "van": 2015,
      "aga": 2016,
      "ami": 2017,
      "354": 2018,
      "954": 2019,
      "Li": 2020,
      "ela": 2021,
      "293": 2022,
      "226": 2023,
      "704": 2024,
      "054": 2025,
      "368": 2026,
      "ACC": 2027,
      "gr": 2028,
      "653": 2029,
      "458": 2030,
      "Fh": 2031,
      "Gar": 2032,
      "Yo": 2033,
      "kq": 2034,
      "pd": 2035,
      "394": 2036,
      "131": 2037,
      "908": 2038,
      "EAE": 2039,
      "Juan": 2040,
      "BCD": 2041,
      "847": 2042,
      "348": 2043,
      "688": 2044,
      "lw": 2045,
      "ven": 2046,
      "tel": 2047,
      "4040": 2048,
      "171": 2049,
      "304": 2050,
      "je": 2051,
      "808": 2052,
      "748": 2053,
      "757": 2054,
      "799": 2055,
      "+-": 2056,
      "DED": 2057,
      "DCD": 2058,
      "etc": 2059,
      "743": 2060,
      "676": 2061,
      "DDF": 2062,
      "212": 2063,
      "376": 2064,
      "exec": 2065,
      "INC": 2066,
      "secreto": 2067,
      "085": 2068,
      "Rw": 2069,
      "Rpd": 2070,
      "UltYWd": 2071,
      "VjcmV": 2072,
      "ZV": 2073,
      "Zml": 2074,
      "avi": 2075,
      "bnV": 2076,
      "hdCI": 2077,
      "oF": 2078,
      "wZGF": 2079,
      "ciLCJ": 2080,
      "203": 2081,
      "291": 2082,
      "898": 2083,
      "309": 2084,
      "DDC": 2085,
      "Alb": 2086,
      "iOnR": 2087,
      "MTc": 2088,
      "ZWF": 2089,
      "MzYz": 2090,
      "sImNy": 2091,
      "sbH": 2092,
      "mUiOnR": 2093,
      "IjoiIiwiaX": 2094,
      "sInVwZGF": 2095,
      "cHJv": 2096,
      "WUsImNy": 2097,
      "NBY": 2098,
      "RlbGV": 2099,
      "sImlhdCI": 2100,
      "ydWUsImNy": 2101,
      "Tarragona": 2102,
      "sZUltYWd": 2103,
      "RwU": 2104,
      "RpdmUiOnR": 2105,
      "ZmlsZUltYWd": 2106,
      "bnVsbH": 2107,
      "IjoiIiwiaXNBY": 2108,
      "cHJvZmlsZUltYWd": 2109,
      "ydWUsImNyZWF": 2110,
      "RpdmUiOnRydWUsImNyZWF": 2111,
      "cHJvZmlsZUltYWdlIjoi": 2112,
      "Bcat": 2113,
      "Fpassw": 2114,
      "Fetc": 2115,
      "Ru": 2116,
      "Soria": 2117,
      "Ur": 2118,
      "ares": 2119,
      "457": 2120,
      "116": 2121,
      "873": 2122,
      "DDD": 2123,
      "Fpasswd": 2124,
      "595": 2125,
      "ADB": 2126,
      "Jh": 2127,
      "Lm": 2128,
      "Mb": 2129,
      "Wr": 2130,
      "don": 2131,
      "rw": 2132,
      "373": 2133,
      "AAD": 2134,
      "DQ": 2135,
      "MWr": 2136,
      "Pea": 2137,
      "XV": 2138,
      "YRl": 2139,
      "ZMWr": 2140,
      "gjJ": 2141,
      "mas": 2142,
      "mOL": 2143,
      "nmv": 2144,
      "wK": 2145,
      "246": 2146,
      "ata": 2147,
      "CBD": 2148,
      "brgjJ": 2149,
      "NyXV": 2150,
      "ExW": 2151,
      "BMNyXV": 2152,
      "kqYRl": 2153,
      "PeaBMNyXV": 2154,
      "ZMWrX": 2155,
      "mOLbrgjJ": 2156,
      "nmvd": 2157,
      "kqYRlExW": 2158,
      "mOLbrgjJwK": 2159,
      "AED": 2160,
      "AEB": 2161,
      "CEC": 2162,
      "296": 2163,
      "383": 2164,
      "393": 2165,
      "904": 2166,
      "EAB": 2167,
      "948": 2168,
      "acker": 2169,
      "Bstyle": 2170,
      "Los": 2171,
      "ceres": 2172,
      "eri": 2173,
      "dir": 2174,
      "CCC": 2175,
      "866": 2176,
      "944": 2177,
      "182": 2178,
      "pbk": 2179,
      "779": 2180,
      "DBA": 2181,
      "FFD": 2182,
      "Jk": 2183,
      "QGd": 2184,
      "Rj": 2185,
      "RMb": 2186,
      "Vzd": 2187,
      "ZTE": 2188,
      "bSIsI": 2189,
      "dpbk": 2190,
      "lhYm": 2191,
      "set": 2192,
      "tZX": 2193,
      "wYW": 2194,
      "xlIjoi": 2195,
      "xhc": 2196,
      "DAA": 2197,
      "JlNT": 2198,
      "nBhc": 2199,
      "IiIsIm": 2200,
      "IjoiZTE": 2201,
      "NTlhYm": 2202,
      "Mzk": 2203,
      "lsLm": 2204,
      "IwZj": 2205,
      "tYWlsLm": 2206,
      "ZjIwZj": 2207,
      "OWJh": 2208,
      "ZlMDU": 2209,
      "UiLCJyb": 2210,
      "IiLCJkZWx": 2211,
      "NvbSIsI": 2212,
      "JkIjoiZTE": 2213,
      "QGdtYWlsLm": 2214,
      "RjMzk": 2215,
      "VzdG": 2216,
      "dpbklw": 2217,
      "tZXIiLCJkZWx": 2218,
      "wYWRjMzk": 2219,
      "xlIjoiY": 2220,
      "JlNTZlMDU": 2221,
      "IiIsImxhc": 2222,
      "NTlhYmJlNTZlMDU": 2223,
      "ZjIwZjg": 2224,
      "OWJhNTlhYmJlNTZlMDU": 2225,
      "NvbSIsInBhc": 2226,
      "JkIjoiZTEwYWRjMzk": 2227,
      "QGdtYWlsLmNvbSIsInBhc": 2228,
      "BEB": 2229,
      "Can": 2230,
      "DEB": 2231,
      "FFA": 2232,
      "par": 2233,
      "CCD": 2234,
      "261": 2235,
      "544": 2236,
      "BED": 2237,
      "CFA": 2238,
      "Jos": 2239,
      "8081": 2240,
      "379": 2241,
      "CBE": 2242,
      "ample": 2243,
      "EEC": 2244,
      "Edocument": 2245,
      "Fcookie": 2246,
      "Fcgi": 2247,
      "az": 2248,
      "ei": 2249,
      "806": 2250,
      "222": 2251,
      "397": 2252,
      "398": 2253,
      "241": 2254,
      "AAF": 2255,
      "joz": 2256,
      "example": 2257,
      "Fscript": 2258,
      "Cscript": 2259,
      "steal": 2260,
      "location": 2261,
      "Fhacker": 2262,
      "Fcookiesteal": 2263,
      "FEC": 2264,
      "bff": 2265,
      "25320": 2266,
      "347": 2267,
      "BBF": 2268,
      "Bada": 2269,
      "EED": 2270,
      "Fer": 2271,
      "754": 2272,
      "CBC": 2273,
      "DBC": 2274,
      "493": 2275,
      "edf": 2276,
      "bffc": 2277,
      "267": 2278,
      "AFC": 2279,
      "Mor": 2280,
      "Nk": 2281,
      "No": 2282,
      "NmU": 2283,
      "ju": 2284,
      "zH": 2285,
      "905": 2286,
      "950": 2287,
      "ABA": 2288,
      "AFA": 2289,
      "BDC": 2290,
      "sd": 2291,
      "zg": 2292,
      "631": 2293,
      "741": 2294,
      "749": 2295,
      "955": 2296,
      "ACD": 2297,
      "EFF": 2298,
      "FEB": 2299,
      "HY": 2300,
      "HZ": 2301,
      "Ġno": 2302,
      "Ġ/_": 2303,
      "2578": 2304,
      "DBD": 2305,
      "327": 2306,
      "CFB": 2307,
      "EBA": 2308,
      "EFC": 2309,
      "eo": 2310,
      "tz": 2311,
      "cha": 2312,
      "959": 2313,
      "055": 2314,
      "BFF": 2315,
      "nj": 2316,
      "licante": 2317,
      "656": 2318,
      "606": 2319,
      "708": 2320,
      "846": 2321,
      "BFE": 2322,
      "lio": 2323,
      "386": 2324,
      "641": 2325,
      "691": 2326,
      "EAA": 2327,
      "BBB": 2328,
      "Badajoz": 2329,
      "219": 2330,
      "ADC": 2331,
      "CFD": 2332,
      "eta": 2333,
      "401": 2334,
      "EAD": 2335,
      "DAD": 2336,
      "788": 2337,
      "447": 2338,
      "BEF": 2339,
      "Da": 2340,
      "EEB": 2341,
      "Is": 2342,
      "han": 2343,
      "agu": 2344,
      "746": 2345,
      "907": 2346,
      "BBE": 2347,
      "AFF": 2348,
      "FBA": 2349,
      "iel": 2350,
      "893": 2351,
      "842": 2352,
      "843": 2353,
      "EAC": 2354,
      "214": 2355,
      "dra": 2356,
      "801": 2357,
      "381": 2358,
      "sta": 2359,
      "703": 2360,
      "949": 2361,
      "797": 2362,
      "villa": 2363,
      "Plza": 2364,
      "064": 2365,
      "485": 2366,
      "Camp": 2367,
      "DFB": 2368,
      "Pe": 2369,
      "Samples": 2370,
      "pol": 2371,
      "cic": 2372,
      "CAA": 2373,
      "CAE": 2374,
      "161": 2375,
      "CBF": 2376,
      "BEC": 2377,
      "Jc": 2378,
      "mp": 2379,
      "ph": 2380,
      "276": 2381,
      "DAE": 2382,
      "ABC": 2383,
      "by": 2384,
      "zc": 2385,
      "892": 2386,
      "CCE": 2387,
      "DAB": 2388,
      "CAB": 2389,
      "997": 2390,
      "Granada": 2391,
      "005": 2392,
      "114": 2393,
      "186": 2394,
      "CFC": 2395,
      "DFE": 2396,
      "Lo": 2397,
      "Man": 2398,
      "mA": 2399,
      "603": 2400,
      "853": 2401,
      "906": 2402,
      "753": 2403,
      "756": 2404,
      "836": 2405,
      "pwdA": 2406,
      "DBF": 2407,
      "Cant": 2408,
      "063": 2409,
      "AEC": 2410,
      "Alicante": 2411,
      "CX": 2412,
      "Mi": 2413,
      "ete": 2414,
      "231": 2415,
      "232": 2416,
      "DDB": 2417,
      "CAD": 2418,
      "366": 2419,
      "ABF": 2420,
      "ador": 2421,
      "svg": 2422,
      "500": 2423,
      "AFE": 2424,
      "AEE": 2425,
      "ACE": 2426,
      "DFF": 2427,
      "Ped": 2428,
      "hha": 2429,
      "samples": 2430,
      "858": 2431,
      "346": 2432,
      "DAF": 2433,
      "AAE": 2434,
      "rememberA": 2435,
      "509": 2436,
      "777": 2437,
      "497": 2438,
      "035": 2439,
      "370": 2440,
      "463": 2441,
      "464": 2442,
      "DFD": 2443,
      "InV": 2444,
      "DDE": 2445,
      "2562": 2446,
      "668": 2447,
      "087": 2448,
      "AFD": 2449,
      "CEF": 2450,
      "DEE": 2451,
      "HO": 2452,
      "VtYW": 2453,
      "lsI": 2454,
      "ry": 2455,
      "wQGdtYWlsLmNvbSIsInBhc": 2456,
      "mlra": 2457,
      "SIsIm": 2458,
      "251": 2459,
      "652": 2460,
      "896": 2461,
      "841": 2462,
      "343": 2463,
      "833": 2464,
      "181": 2465,
      "MsInV": 2466,
      "joib": 2467,
      "MjMsInV": 2468,
      "lIjoiQ": 2469,
      "LjY": 2470,
      "MzYwQGdtYWlsLmNvbSIsInBhc": 2471,
      "GlsLjY": 2472,
      "hhaSIsIm": 2473,
      "VtYWlsI": 2474,
      "mlraGlsLjY": 2475,
      "joibmlraGlsLjY": 2476,
      "MjMsInVzZXJuYW": 2477,
      "hhaSIsImVtYWlsI": 2478,
      "hhaSIsImVtYWlsIjoibmlraGlsLjY": 2479,
      "CFF": 2480,
      "EFE": 2481,
      "eO": 2482,
      "632": 2483,
      "286": 2484,
      "832": 2485,
      "ACF": 2486,
      "Ye": 2487,
      "Zb": 2488,
      "ban": 2489,
      "mor": 2490,
      "ton": 2491,
      "eni": 2492,
      "CCF": 2493,
      "798": 2494,
      "507": 2495,
      "ruz": 2496,
      "494": 2497,
      "cke": 2498,
      "396": 2499,
      "692": 2500,
      "456": 2501,
      "671": 2502,
      "262": 2503,
      "CBA": 2504,
      "CEE": 2505,
      "DFC": 2506,
      "DEF": 2507,
      "eu": 2508,
      "lL": 2509,
      "453": 2510,
      "306": 2511,
      "cho": 2512,
      "rans": 2513,
      "Huesca": 2514,
      "ADE": 2515,
      "BV": 2516,
      "EFB": 2517,
      "rU": 2518,
      "281": 2519,
      "943": 2520,
      "port": 2521,
      "715": 2522,
      "BCE": 2523,
      "Py": 2524,
      "__": 2525,
      "gs": 2526,
      "gra": 2527,
      "402": 2528,
      "rio": 2529,
      "282": 2530,
      "378": 2531,
      "CAC": 2532,
      "361": 2533,
      "Cab": 2534,
      "Fw": 2535,
      "Her": 2536,
      "cza": 2537,
      "CCA": 2538,
      "356": 2539,
      "090": 2540,
      "885": 2541,
      "BZV": 2542,
      "FFB": 2543,
      "Gbj": 2544,
      "HMo": 2545,
      "IuM": 2546,
      "MX": 2547,
      "OQ": 2548,
      "QR": 2549,
      "Qv": 2550,
      "SQR": 2551,
      "TZ": 2552,
      "Ts": 2553,
      "Tw": 2554,
      "UoF": 2555,
      "Vx": 2556,
      "WQ": 2557,
      "WYo": 2558,
      "WlL": 2559,
      "XGbj": 2560,
      "ZHY": 2561,
      "aLB": 2562,
      "bCX": 2563,
      "fr": 2564,
      "fz": 2565,
      "kd": 2566,
      "kHO": 2567,
      "oim": 2568,
      "qx": 2569,
      "qcic": 2570,
      "wbm": 2571,
      "wWlL": 2572,
      "xZHY": 2573,
      "yPa": 2574,
      "yMy": 2575,
      "yqcic": 2576,
      "zjJ": 2577,
      "onQv": 2578,
      "okFC": 2579,
      "272": 2580,
      "urV": 2581,
      "651": 2582,
      "jpgyPa": 2583,
      "NDMy": 2584,
      "MjEu": 2585,
      "MTIuM": 2586,
      "saurV": 2587,
      "MDc": 2588,
      "NTU": 2589,
      "NzUz": 2590,
      "neFw": 2591,
      "sImRlbGV": 2592,
      "RBneFw": 2593,
      "pYeO": 2594,
      "YzbCX": 2595,
      "IjoiIiwicHJvZmlsZUltYWdlIjoi": 2596,
      "pYyHMo": 2597,
      "svVx": 2598,
      "LBRBneFw": 2599,
      "IjIwMjUtMTEtMjAgMTE": 2600,
      "IjIwMjUtMTEtMjAgMDc": 2601,
      "ICswMDowMCIsInVwZGF": 2602,
      "ICswMDowMCIsImRlbGV": 2603,
      "Adqx": 2604,
      "PgLBRBneFw": 2605,
      "FrjpgyPa": 2606,
      "hhmA": 2607,
      "iqnj": 2608,
      "MzYzNzUz": 2609,
      "dpbklwIjoiIiwicHJvZmlsZUltYWdlIjoi": 2610,
      "zHzjJ": 2611,
      "HZBZV": 2612,
      "YeGd": 2613,
      "ZbXGbj": 2614,
      "BVTs": 2615,
      "PywWlL": 2616,
      "czaoim": 2617,
      "OQiqnj": 2618,
      "SQRpYyHMo": 2619,
      "TZPgLBRBneFw": 2620,
      "Twzg": 2621,
      "UoFTZPgLBRBneFw": 2622,
      "WYoG": 2623,
      "aLByqcic": 2624,
      "fzkr": 2625,
      "kHOFrjpgyPa": 2626,
      "wbmciLCJ": 2627,
      "onQvrw": 2628,
      "okFCkHOFrjpgyPa": 2629,
      "NDMyICswMDowMCIsInVwZGF": 2630,
      "MjEuNDMyICswMDowMCIsInVwZGF": 2631,
      "MTIuMDA": 2632,
      "pYeOaLByqcic": 2633,
      "svVxhhmA": 2634,
      "AdqxsaurV": 2635,
      "MzYzNzUzMX": 2636,
      "dpbklwIjoiIiwicHJvZmlsZUltYWdlIjoiYXNzZXRzL": 2637,
      "zHzjJM": 2638,
      "HZBZVH": 2639,
      "ZbXGbjw": 2640,
      "PywWlLYzbCX": 2641,
      "czaoimCu": 2642,
      "OQiqnjrU": 2643,
      "UoFTZPgLBRBneFwsvVxhhmA": 2644,
      "okFCkHOFrjpgyPaTwzg": 2645,
      "pYeOaLByqcicB": 2646,
      "UoFTZPgLBRBneFwsvVxhhmAxZHY": 2647,
      "BFD": 2648,
      "DFA": 2649,
      "Pin": 2650,
      "gue": 2651,
      "lon": 2652,
      "831": 2653,
      "CAF": 2654,
      "BBD": 2655,
      "examples": 2656,
      "314": 2657,
      "BFB": 2658,
      "BFA": 2659,
      "BDE": 2660,
      "cos": 2661,
      "861": 2662,
      "059": 2663,
      "DCF": 2664,
      "Cast": 2665,
      "In": 2666,
      "Su": 2667,
      "den": 2668,
      "sen": 2669,
      "633": 2670,
      "793": 2671,
      "CDC": 2672,
      "712": 2673,
      "Torre": 2674,
      "995": 2675,
      "Br": 2676,
      "MF": 2677,
      "gy": 2678,
      "702": 2679,
      "903": 2680,
      "char": 2681,
      "947": 2682,
      "abria": 2683,
      "489": 2684,
      "CFE": 2685,
      "FFE": 2686,
      "Oj": 2687,
      "len": 2688,
      "862": 2689,
      "999": 2690,
      "DCE": 2691,
      "687": 2692,
      "BDF": 2693,
      "CEB": 2694,
      "FED": 2695,
      "cn": 2696,
      "ces": 2697,
      "303": 2698,
      "444": 2699,
      "AEF": 2700,
      "BCF": 2701,
      "sk": 2702,
      "ABD": 2703,
      "allen": 2704,
      "215": 2705,
      "324": 2706,
      "469": 2707,
      "DEC": 2708,
      "Ga": 2709,
      "Las": 2710,
      "qui": 2711,
      "353": 2712,
      "AAB": 2713,
      "cantidadA": 2714,
      "horas": 2715,
      "037": 2716,
      "423": 2717,
      "495": 2718,
      "528": 2719,
      "ger": 2720,
      "op": 2721,
      "tt": 2722,
      "vas": 2723,
      "SER": 2724,
      "DDA": 2725,
      "EAF": 2726,
      "613": 2727,
      "Cer": 2728,
      "USER": 2729,
      "val": 2730,
      "yu": 2731,
      "602": 2732,
      "ranc": 2733,
      "DBE": 2734,
      "993": 2735,
      "ABE": 2736,
      "733": 2737,
      "DELE": 2738,
      "Vila": 2739,
      "USERS": 2740,
      "DELETE": 2741,
      "027": 2742,
      "434": 2743,
      "614": 2744,
      "BEE": 2745,
      "FK": 2746,
      "dH": 2747,
      "xM": 2748,
      "681": 2749,
      "Castell": 2750,
      "Mw": 2751,
      "NS": 2752,
      "Ser": 2753,
      "Yj": 2754,
      "yMF": 2755,
      "can": 2756,
      "782": 2757,
      "333": 2758,
      "MjAy": 2759,
      "IjoiMjAy": 2760,
      "YXRlZEF": 2761,
      "OTM": 2762,
      "QxMT": 2763,
      "xMS": 2764,
      "yMFQxMT": 2765,
      "IjoiMjAyNS": 2766,
      "080": 2767,
      "322": 2768,
      "438": 2769,
      "415": 2770,
      "585": 2771,
      "Er": 2772,
      "Tra": 2773,
      "UT": 2774,
      "ano": 2775,
      "dm": 2776,
      "dy": 2777,
      "har": 2778,
      "pp": 2779,
      "sal": 2780,
      "202": 2781,
      "601": 2782,
      "392": 2783,
      "242": 2784,
      "che": 2785,
      "FDE": 2786,
      "785": 2787,
      "Be": 2788,
      "EDo": 2789,
      "437": 2790,
      "985": 2791,
      "BFC": 2792,
      "fe": 2793,
      "reg": 2794,
      "391": 2795,
      "706": 2796,
      "871": 2797,
      "780": 2798,
      "910": 2799,
      "Sal": 2800,
      "pr": 2801,
      "samp": 2802,
      "tera": 2803,
      "642": 2804,
      "ntcA": 2805,
      "acion": 2806,
      "BBC": 2807,
      "CDE": 2808,
      "769": 2809,
      "ADF": 2810,
      "dv": 2811,
      "jan": 2812,
      "pin": 2813,
      "htm": 2814,
      "dio": 2815,
      "ric": 2816,
      "AAC": 2817,
      "888": 2818,
      "LjA": 2819,
      "*%": 2820,
      "060": 2821,
      "oso": 2822,
      "dar": 2823,
      "cpA": 2824,
      "emailA": 2825,
      "488": 2826,
      "/?": 2827,
      "038": 2828,
      "Im": 2829,
      "Ta": 2830,
      "ico": 2831,
      "/*;": 2832,
      "452": 2833,
      "amon": 2834,
      "301": 2835,
      "308": 2836,
      "Coru": 2837,
      "023": 2838,
      "225": 2839,
      "490": 2840,
      "580": 2841,
      "640": 2842,
      "Jo": 2843,
      "Por": 2844,
      "eno": 2845,
      "dniA": 2846,
      "446": 2847,
      "776": 2848,
      "allenge": 2849,
      "Est": 2850,
      "dr": 2851,
      "Ġimage": 2852,
      "webp": 2853,
      "avif": 2854,
      "428": 2855,
      "475": 2856,
      "435": 2857,
      "764": 2858,
      "915": 2859,
      "Mer": 2860,
      "IDE": 2861,
      "istrat": 2862,
      "direccionA": 2863,
      "apellidosA": 2864,
      "449": 2865,
      "CFIDE": 2866,
      "cfm": 2867,
      "administrat": 2868,
      "administrator": 2869,
      "527": 2870,
      "787": 2871,
      "775": 2872,
      "dan": 2873,
      "201": 2874,
      "891": 2875,
      "662": 2876,
      "ita": 2877,
      "034": 2878,
      "421": 2879,
      "478": 2880,
      "560": 2881,
      "927": 2882,
      "ix": 2883,
      "ini": 2884,
      "passwordA": 2885,
      "363": 2886,
      "410": 2887,
      "417": 2888,
      "474": 2889,
      "579": 2890,
      "686": 2891,
      "994": 2892,
      "Ant": 2893,
      "Mas": 2894,
      "OD": 2895,
      "QsInV": 2896,
      "382": 2897,
      "988": 2898,
      "MjQsInV": 2899,
      "abili": 2900,
      "haW": 2901,
      "MjQsInVzZXJuYW": 2902,
      "599": 2903,
      "615": 2904,
      "940": 2905,
      "Ast": 2906,
      "Fe": 2907,
      "ella": 2908,
      "zan": 2909,
      "Real": 2910,
      "ciudadA": 2911,
      "056": 2912,
      "020": 2913,
      "014": 2914,
      "269": 2915,
      "342": 2916,
      "057": 2917,
      "666": 2918,
      "Carrer": 2919,
      "045": 2920,
      "365": 2921,
      "484": 2922,
      "827": 2923,
      "net": 2924,
      "ers": 2925,
      "302": 2926,
      "ulner": 2927,
      "467": 2928,
      "540": 2929,
      "523": 2930,
      "810": 2931,
      "935": 2932,
      "Gi": 2933,
      "Ui": 2934,
      "508": 2935,
      "Challenge": 2936,
      "Ciudad": 2937,
      "364": 2938,
      "663": 2939,
      "717": 2940,
      "718": 2941,
      "990": 2942,
      "af": 2943,
      "pan": 2944,
      "provinciaA": 2945,
      "958": 2946,
      "443": 2947,
      "773": 2948,
      "nsf": 2949,
      "010": 2950,
      "439": 2951,
      "569": 2952,
      "767": 2953,
      "Il": 2954,
      "ties": 2955,
      "sto": 2956,
      "701": 2957,
      "752": 2958,
      "371": 2959,
      "424": 2960,
      "563": 2961,
      "538": 2962,
      "549": 2963,
      "719": 2964,
      "930": 2965,
      "Du": 2966,
      "doba": 2967,
      "593": 2968,
      "Plaza": 2969,
      "Cantabria": 2970,
      "029": 2971,
      "099": 2972,
      "211": 2973,
      "468": 2974,
      "514": 2975,
      "622": 2976,
      "740": 2977,
      "dos": 2978,
      "oz": 2979,
      "ament": 2980,
      "069": 2981,
      "013": 2982,
      "084": 2983,
      "517": 2984,
      "817": 2985,
      "811": 2986,
      "IO": 2987,
      "LR": 2988,
      "PW": 2989,
      "vel": 2990,
      "onio": 2991,
      "uren": 2992,
      "ill": 2993,
      "882": 2994,
      "734": 2995,
      "880": 2996,
      "820": 2997,
      "815": 2998,
      "Pon": 2999,
      "ft": 3000,
      "ip": 3001,
      "vio": 3002,
      "vulner": 3003,
      "wid": 3004,
      "cer": 3005,
      "abilities": 3006,
      "vulnerabilities": 3007,
      "074": 3008,
      "320": 3009,
      "323": 3010,
      "430": 3011,
      "524": 3012,
      "664": 3013,
      "619": 3014,
      "735": 3015,
      "Ab": 3016,
      "ote": 3017,
      "trans": 3018,
      "ug": 3019,
      "vti": 3020,
      "dia": 3021,
      "661": 3022,
      "065": 3023,
      "047": 3024,
      "338": 3025,
      "318": 3026,
      "429": 3027,
      "470": 3028,
      "499": 3029,
      "564": 3030,
      "587": 3031,
      "623": 3032,
      "618": 3033,
      "784": 3034,
      "874": 3035,
      "917": 3036,
      "964": 3037,
      "934": 3038,
      "Agu": 3039,
      "Ce": 3040,
      "nan": 3041,
      "sp": 3042,
      "ima": 3043,
      "982": 3044,
      "422": 3045,
      "419": 3046,
      "529": 3047,
      "535": 3048,
      "577": 3049,
      "611": 3050,
      "Am": 3051,
      "Ale": 3052,
      "IS": 3053,
      "Ti": 3054,
      "uer": 3055,
      "wu": 3056,
      "451": 3057,
      "957": 3058,
      "079": 3059,
      "066": 3060,
      "414": 3061,
      "570": 3062,
      "669": 3063,
      "684": 3064,
      "980": 3065,
      "For": 3066,
      "Ros": 3067,
      "my": 3068,
      "laga": 3069,
      "557": 3070,
      "untament": 3071,
      "028": 3072,
      "465": 3073,
      "974": 3074,
      "979": 3075,
      "Bas": 3076,
      "mil": 3077,
      "sid": 3078,
      "tica": 3079,
      "856": 3080,
      "312": 3081,
      "491": 3082,
      "097": 3083,
      "576": 3084,
      "420": 3085,
      "513": 3086,
      "Bm": 3087,
      "Wi": 3088,
      "gas": 3089,
      "sy": 3090,
      "yn": 3091,
      "dal": 3092,
      "901": 3093,
      "956": 3094,
      "cket": 3095,
      "319": 3096,
      "515": 3097,
      "727": 3098,
      "863": 3099,
      "929": 3100,
      "967": 3101,
      "bro": 3102,
      "fre": 3103,
      "hA": 3104,
      "kin": 3105,
      "mos": 3106,
      "dea": 3107,
      "ista": 3108,
      "341": 3109,
      "362": 3110,
      "089": 3111,
      "723": 3112,
      "867": 3113,
      "824": 3114,
      "965": 3115,
      "919": 3116,
      "Bor": 3117,
      "Mu": 3118,
      "jar": 3119,
      "mac": 3120,
      "wor": 3121,
      "017": 3122,
      "015": 3123,
      "367": 3124,
      "473": 3125,
      "539": 3126,
      "545": 3127,
      "667": 3128,
      "765": 3129,
      "789": 3130,
      "938": 3131,
      "924": 3132,
      "ala": 3133,
      "ine": 3134,
      "851": 3135,
      "050": 3136,
      "506": 3137,
      "498": 3138,
      "567": 3139,
      "720": 3140,
      "729": 3141,
      "714": 3142,
      "774": 3143,
      "860": 3144,
      "889": 3145,
      "813": 3146,
      "913": 3147,
      "556": 3148,
      "781": 3149,
      "772": 3150,
      "ajuntament": 3151,
      "040": 3152,
      "018": 3153,
      "325": 3154,
      "480": 3155,
      "vent": 3156,
      "est": 3157,
      "Almer": 3158,
      "413": 3159,
      "629": 3160,
      "722": 3161,
      "770": 3162,
      "Vir": 3163,
      "bas": 3164,
      "far": 3165,
      "lt": 3166,
      "zZ": 3167,
      "socket": 3168,
      "Maria": 3169,
      "044": 3170,
      "310": 3171,
      "334": 3172,
      "510": 3173,
      "589": 3174,
      "822": 3175,
      "BhZ": 3176,
      "BhYm": 3177,
      "CJl": 3178,
      "LCJl": 3179,
      "UiOiJ": 3180,
      "ZGV": 3181,
      "bert": 3182,
      "bWF": 3183,
      "cGF": 3184,
      "ctor": 3185,
      "dCB": 3186,
      "gzZ": 3187,
      "lIjo": 3188,
      "nJv": 3189,
      "tIiwi": 3190,
      "tZS": 3191,
      "wNT": 3192,
      "zLj": 3193,
      "zOT": 3194,
      "802": 3195,
      "elli": 3196,
      "idGV": 3197,
      "CBtZS": 3198,
      "000": 3199,
      "JlMT": 3200,
      "FiYm": 3201,
      "MjBm": 3202,
      "GMzOT": 3203,
      "NThA": 3204,
      "cmQiOi": 3205,
      "Nzgy": 3206,
      "YmE": 3207,
      "sbCBtZS": 3208,
      "pbCI": 3209,
      "bGUiOiJ": 3210,
      "OTk": 3211,
      "OWFiYm": 3212,
      "SIsInJv": 3213,
      "uMC": 3214,
      "NmUwNT": 3215,
      "dmMjBm": 3216,
      "dvcmQiOi": 3217,
      "ODgzZ": 3218,
      "haWwu": 3219,
      "UiLCJl": 3220,
      "BhZGMzOT": 3221,
      "bWFpbCI": 3222,
      "cGFzc": 3223,
      "lIjoidGV": 3224,
      "tIiwicGFzc": 3225,
      "zLjk": 3226,
      "JlMTBhZGMzOT": 3227,
      "NThAZ": 3228,
      "NzgyNThAZ": 3229,
      "sbCBtZSBhYm": 3230,
      "OWFiYmU": 3231,
      "SIsInJvbGUiOiJ": 3232,
      "NmUwNTdmMjBm": 3233,
      "dvcmQiOiJlMTBhZGMzOT": 3234,
      "ODgzZSIsInJvbGUiOiJ": 3235,
      "haWwuY": 3236,
      "UiLCJlbWFpbCI": 3237,
      "lIjoidGVsbCBtZSBhYm": 3238,
      "NmUwNTdmMjBmODgzZSIsInJvbGUiOiJ": 3239,
      "dvcmQiOiJlMTBhZGMzOTQ": 3240,
      "039": 3241,
      "369": 3242,
      "738": 3243,
      "838": 3244,
      "814": 3245,
      "819": 3246,
      "869": 3247,
      "920": 3248,
      "970": 3249,
      "EIO": 3250,
      "fu": 3251,
      "eros": 3252,
      "rest": 3253,
      "isco": 3254,
      "amar": 3255,
      "751": 3256,
      "953": 3257,
      "559": 3258,
      "481": 3259,
      "732": 3260,
      "transport": 3261,
      "345": 3262,
      "479": 3263,
      "433": 3264,
      "530": 3265,
      "713": 3266,
      "Fl": 3267,
      "acete": 3268,
      "images": 3269,
      "902": 3270,
      "Pass": 3271,
      "Casti": 3272,
      "Aven": 3273,
      "polling": 3274,
      "460": 3275,
      "525": 3276,
      "763": 3277,
      "728": 3278,
      "840": 3279,
      "884": 3280,
      "945": 3281,
      "IIS": 3282,
      "bia": 3283,
      "ene": 3284,
      "ardo": 3285,
      "rell": 3286,
      "nto": 3287,
      "riz": 3288,
      "ello": 3289,
      "550": 3290,
      "Jose": 3291,
      "sdk": 3292,
      "IISSamples": 3293,
      "082": 3294,
      "329": 3295,
      "969": 3296,
      "Cruz": 3297,
      "Sol": 3298,
      "Te": 3299,
      "api": 3300,
      "una": 3301,
      "Fuente": 3302,
      "Avenida": 3303,
      "077": 3304,
      "574": 3305,
      "725": 3306,
      "783": 3307,
      "830": 3308,
      "984": 3309,
      "Cr": 3310,
      "Di": 3311,
      "Ouren": 3312,
      "Tr": 3313,
      "bra": 3314,
      "ira": 3315,
      "ment": 3316,
      "852": 3317,
      "546": 3318,
      "Ourense": 3319,
      "766": 3320,
      "887": 3321,
      "963": 3322,
      "922": 3323,
      "Bal": 3324,
      "ZSI": 3325,
      "bon": 3326,
      "wLjA": 3327,
      "das": 3328,
      "351": 3329,
      "591": 3330,
      "Iiwid": 3331,
      "NjM": 3332,
      "-%": 3333,
      "024": 3334,
      "083": 3335,
      "316": 3336,
      "534": 3337,
      "594": 3338,
      "536": 3339,
      "710": 3340,
      "825": 3341,
      "823": 3342,
      "914": 3343,
      "983": 3344,
      "Flor": 3345,
      "ku": 3346,
      "vig": 3347,
      "976": 3348,
      "022": 3349,
      "794": 3350,
      "961": 3351,
      "od": 3352,
      "tal": 3353,
      "Rey": 3354,
      "352": 3355,
      "791": 3356,
      "332": 3357,
      "urias": 3358,
      "Albacete": 3359,
      "Asturias": 3360,
      "025": 3361,
      "427": 3362,
      "790": 3363,
      "829": 3364,
      "865": 3365,
      "883": 3366,
      "939": 3367,
      "911": 3368,
      "987": 3369,
      "Gr": 3370,
      "Me": 3371,
      "Pr": 3372,
      "bb": 3373,
      "zu": 3374,
      "952": 3375,
      "555": 3376,
      "007": 3377,
      "008": 3378,
      "496": 3379,
      "aje": 3380,
      "nueva": 3381,
      "070": 3382,
      "048": 3383,
      "088": 3384,
      "411": 3385,
      "519": 3386,
      "737": 3387,
      "923": 3388,
      "978": 3389,
      "Huel": 3390,
      "jos": 3391,
      "ola": 3392,
      "war": 3393,
      "572": 3394,
      "Mont": 3395,
      "067": 3396,
      "511": 3397,
      "617": 3398,
      "724": 3399,
      "936": 3400,
      "Iy": 3401,
      "om": 3402,
      "oli": 3403,
      "093": 3404,
      "mente": 3405,
      "075": 3406,
      "340": 3407,
      "487": 3408,
      "418": 3409,
      "590": 3410,
      "928": 3411,
      "App": 3412,
      "fan": 3413,
      "tab": 3414,
      "wZ": 3415,
      "ase": 3416,
      "946": 3417,
      "998": 3418,
      "682": 3419,
      "Huelva": 3420,
      "336": 3421,
      "584": 3422,
      "864": 3423,
      "886": 3424,
      "960": 3425,
      "Bon": 3426,
      "Don": 3427,
      "bre": 3428,
      "nie": 3429,
      "ua": 3430,
      "ud": 3431,
      "006": 3432,
      "996": 3433,
      "503": 3434,
      "ols": 3435,
      "425": 3436,
      "477": 3437,
      "537": 3438,
      "581": 3439,
      "736": 3440,
      "926": 3441,
      "931": 3442,
      "GY": 3443,
      "gan": 3444,
      "jas": 3445,
      "ron": 3446,
      "rdoba": 3447,
      "win": 3448,
      "col": 3449,
      "eck": 3450,
      "leta": 3451,
      "esa": 3452,
      "551": 3453,
      "881": 3454,
      "soy": 3455,
      "Monte": 3456,
      "Traves": 3457,
      "016": 3458,
      "575": 3459,
      "578": 3460,
      "625": 3461,
      "cur": 3462,
      "vlet": 3463,
      "wen": 3464,
      "llar": 3465,
      "llas": 3466,
      "cios": 3467,
      "001": 3468,
      "441": 3469,
      "492": 3470,
      "043": 3471,
      "078": 3472,
      "098": 3473,
      "416": 3474,
      "621": 3475,
      "916": 3476,
      "gal": 3477,
      "ges": 3478,
      "ham": 3479,
      "sl": 3480,
      "ye": 3481,
      "792": 3482,
      "543": 3483,
      "barcelona": 3484,
      "012": 3485,
      "313": 3486,
      "522": 3487,
      "624": 3488,
      "966": 3489,
      "Ala": 3490,
      "Men": 3491,
      "QX": 3492,
      "kQX": 3493,
      "Ġna": 3494,
      "ies": 3495,
      "mbra": 3496,
      "092": 3497,
      "gol": 3498,
      "GVkQX": 3499,
      "Pedro": 3500,
      "vigate": 3501,
      "Ġnavigate": 3502,
      "030": 3503,
      "033": 3504,
      "548": 3505,
      "977": 3506,
      "Franc": 3507,
      "Id": 3508,
      "Iv": 3509,
      "MDA": 3510,
      "gre": 3511,
      "ws": 3512,
      "553": 3513,
      "009": 3514,
      "476": 3515,
      "hiper": 3516,
      "mann": 3517,
      "086": 3518,
      "311": 3519,
      "326": 3520,
      "321": 3521,
      "520": 3522,
      "565": 3523,
      "533": 3524,
      "821": 3525,
      "ay": 3526,
      "bri": 3527,
      "bus": 3528,
      "zco": 3529,
      "enla": 3530,
      "erto": 3531,
      "dev": 3532,
      "isa": 3533,
      "442": 3534,
      "448": 3535,
      "501": 3536,
      "542": 3537,
      "Cala": 3538,
      "Sierra": 3539,
      "526": 3540,
      "721": 3541,
      "925": 3542,
      "=*": 3543,
      "FRioja": 3544,
      "Mur": 3545,
      "ai": 3546,
      "hy": 3547,
      "jm": 3548,
      "mus": 3549,
      "dez": 3550,
      "imi": 3551,
      "951": 3552,
      "991": 3553,
      "adc": 3554,
      "Sevilla": 3555,
      "Camino": 3556,
      "+.*%": 3557,
      "426": 3558,
      "547": 3559,
      "786": 3560,
      "Bi": 3561,
      "Mm": 3562,
      "Nu": 3563,
      "Oli": 3564,
      "Qz": 3565,
      "bel": 3566,
      "gn": 3567,
      "sf": 3568,
      "mat": 3569,
      "php": 3570,
      "036": 3571,
      "440": 3572,
      "583": 3573,
      "598": 3574,
      "532": 3575,
      "932": 3576,
      "sel": 3577,
      "zca": 3578,
      "mira": 3579,
      "026": 3580,
      "073": 3581,
      "nes": 3582,
      "ines": 3583,
      "eria": 3584,
      "554": 3585,
      "004": 3586,
      "019": 3587,
      "586": 3588,
      "918": 3589,
      "Ang": 3590,
      "bur": 3591,
      "cd": 3592,
      "cl": 3593,
      "mes": 3594,
      "sho": 3595,
      "tri": 3596,
      "vt": 3597,
      "ento": 3598,
      "carritoany": 3599,
      "002": 3600,
      "Puerto": 3601,
      "Ponte": 3602,
      "573": 3603,
      "683": 3604,
      "762": 3605,
      "986": 3606,
      "968": 3607,
      "933": 3608,
      "bs": 3609,
      "ming": 3610,
      "372": 3611,
      "504": 3612,
      "096": 3613,
      "518": 3614,
      "616": 3615,
      "716": 3616,
      "731": 3617,
      "826": 3618,
      "Au": 3619,
      "gon": 3620,
      "iis": 3621,
      "nat": 3622,
      "ple": 3623,
      "pvt": 3624,
      "tan": 3625,
      "tico": 3626,
      "053": 3627,
      "992": 3628,
      "592": 3629,
      "Pala": 3630,
      "zcoa": 3631,
      "011": 3632,
      "512": 3633,
      "816": 3634,
      "962": 3635,
      "Fj": 3636,
      "Gl": 3637,
      "Ne": 3638,
      "cla": 3639,
      "zon": 3640,
      "FAzcoa": 3641,
      "Guip": 3642,
      "Villanueva": 3643,
      "UTF": 3644,
      "049": 3645,
      "431": 3646,
      "471": 3647,
      "432": 3648,
      "612": 3649,
      "711": 3650,
      "937": 3651,
      "ant": 3652,
      "ker": 3653,
      "pc": 3654,
      "uk": 3655,
      "lina": 3656,
      "942": 3657,
      "051": 3658,
      "046": 3659,
      "818": 3660,
      "912": 3661,
      "Fon": 3662,
      "Uw": 3663,
      "dre": 3664,
      "tv": 3665,
      "ze": 3666,
      "anda": 3667,
      "981": 3668,
      "091": 3669,
      "597": 3670,
      "Carre": 3671,
      "Antonio": 3672,
      "031": 3673,
      "071": 3674,
      "483": 3675,
      "OC": 3676,
      "OS": 3677,
      "eda": 3678,
      "kh": 3679,
      "xi": 3680,
      "acio": 3681,
      "ray": 3682,
      "058": 3683,
      "ull": 3684,
      "dell": 3685,
      "061": 3686,
      "081": 3687,
      "626": 3688,
      "Cap": 3689,
      "Hor": 3690,
      "Ol": 3691,
      "cA": 3692,
      "hol": 3693,
      "ren": 3694,
      "tur": 3695,
      "ting": 3696,
      "nuel": 3697,
      "asset": 3698,
      "472": 3699,
      "adm": 3700,
      "vera": 3701,
      "Castro": 3702,
      ".%": 3703,
      "032": 3704,
      "Gal": 3705,
      "Llo": 3706,
      "Mig": 3707,
      "cli": 3708,
      "dro": 3709,
      "up": 3710,
      "vis": 3711,
      "auto": 3712,
      "vedra": 3713,
      "Casas": 3714,
      "sky": 3715,
      "461": 3716,
      "588": 3717,
      "726": 3718,
      "761": 3719,
      "Mart": 3720,
      "Ve": 3721,
      "bla": 3722,
      "fession": 3723,
      "hen": 3724,
      "ring": 3725,
      "san": 3726,
      "info": 3727,
      "berto": 3728,
      "assets": 3729,
      "fessional": 3730,
      "076": 3731,
      "568": 3732,
      "562": 3733,
      "Feli": 3734,
      "Tar": 3735,
      "bet": 3736,
      "hn": 3737,
      "wal": 3738,
      "eral": 3739,
      "rillo": 3740,
      "EDas": 3741,
      "atge": 3742,
      "042": 3743,
      "erta": 3744,
      "gui": 3745,
      "Travesia": 3746,
      "068": 3747,
      "062": 3748,
      "072": 3749,
      "531": 3750,
      "571": 3751,
      "Bk": 3752,
      "Ver": 3753,
      "tti": 3754,
      "uda": 3755,
      "tero": 3756,
      "lis": 3757,
      "public": 3758,
      "esp": 3759,
      "742": 3760,
      "796": 3761,
      "Santi": 3762,
      "Carretera": 3763,
      "516": 3764,
      "541": 3765,
      "778": 3766,
      "921": 3767,
      "BU": 3768,
      "Cla": 3769,
      "Lla": 3770,
      "Ni": 3771,
      "On": 3772,
      "ben": 3773,
      "ps": 3774,
      "ut": 3775,
      "tec": 3776,
      "ieta": 3777,
      "558": 3778,
      "482": 3779,
      "Valle": 3780,
      "IjIwMjUtMTEtMjBU": 3781,
      "IjIwMjUtMTEtMjBUMTE": 3782,
      "412": 3783,
      "582": 3784,
      "812": 3785,
      "971": 3786,
      "AyO": 3787,
      "AuMC": 3788,
      "DZ": 3789,
      "GUiLCJ": 3790,
      "GUw": 3791,
      "IsI": 3792,
      "Ln": 3793,
      "MmU": 3794,
      "MWU": 3795,
      "Nm": 3796,
      "Njo": 3797,
      "Rk": 3798,
      "SW": 3799,
      "Swi": 3800,
      "TG": 3801,
      "Tk": 3802,
      "UiOi": 3803,
      "VhZ": 3804,
      "XBk": 3805,
      "YTk": 3806,
      "Zu": 3807,
      "Zy": 3808,
      "Zhd": 3809,
      "aWF": 3810,
      "cti": 3811,
      "dWx": 3812,
      "dGl": 3813,
      "eGUiLCJ": 3814,
      "fQ": 3815,
      "hYj": 3816,
      "kZW": 3817,
      "lp": 3818,
      "lSW": 3819,
      "sZX": 3820,
      "sYX": 3821,
      "vdH": 3822,
      "wil": 3823,
      "wcm": 3824,
      "xND": 3825,
      "xNz": 3826,
      "xOC": 3827,
      "yNj": 3828,
      "zNj": 3829,
      "ong": 3830,
      "eng": 3831,
      "daIiwid": 3832,
      "ques": 3833,
      "pudWx": 3834,
      "maWx": 3835,
      "552": 3836,
      "wiY": 3837,
      "JlYXRlZEF": 3838,
      "FiMWU": 3839,
      "oxMz": 3840,
      "MjRk": 3841,
      "IjoxNz": 3842,
      "ZXQiOi": 3843,
      "BTZW": 3844,
      "naW": 3845,
      "NTFiMWU": 3846,
      "NzMw": 3847,
      "IiwiZGV": 3848,
      "Mzg": 3849,
      "MzNk": 3850,
      "YmM": 3851,
      "iLCJsYX": 3852,
      "iLCJwcm": 3853,
      "NjAyO": 3854,
      "IjMw": 3855,
      "IjAuMC": 3856,
      "IjpudWx": 3857,
      "owNjo": 3858,
      "NyZXQiOi": 3859,
      "YzNjM": 3860,
      "Luis": 3861,
      "ZlNmU": 3862,
      "nRvdH": 3863,
      "IiLCJpc": 3864,
      "FaIiwiZGV": 3865,
      "QxYmM": 3866,
      "ZSwiY": 3867,
      "NkMmU": 3868,
      "JcCI": 3869,
      "dHJ": 3870,
      "YjNkMmU": 3871,
      "yMFQxMToxMz": 3872,
      "yMFQxMTowNjo": 3873,
      "ozOS": 3874,
      "NmUwNTdmMjBmODgzZSIsInJvbGUiOiJkZWx": 3875,
      "wLjAiLCJwcm": 3876,
      "wZGUw": 3877,
      "IvYXNzZXRzL": 3878,
      "MmQz": 3879,
      "sfSwi": 3880,
      "FjdGl": 3881,
      "DZhYj": 3882,
      "IsInRvdH": 3883,
      "LnN": 3884,
      "NmZlNmU": 3885,
      "UiOiIvYXNzZXRzL": 3886,
      "VhZGY": 3887,
      "XBkYXRlZEF": 3888,
      "YTkiLCJsYX": 3889,
      "ZyIsInRvdH": 3890,
      "ZhdWx": 3891,
      "eGUiLCJkZWx": 3892,
      "kZWZhdWx": 3893,
      "sZXRlZEF": 3894,
      "xNDQxYmM": 3895,
      "yNjFaIiwiZGV": 3896,
      "zNjdaIiwid": 3897,
      "maWxlSW": 3898,
      "MjRkYTkiLCJsYX": 3899,
      "IjoxNzYzNjM": 3900,
      "BTZWNyZXQiOi": 3901,
      "NTFiMWUxNDQxYmM": 3902,
      "NzMwMmQz": 3903,
      "MzNkNjAyO": 3904,
      "IjMwOTM": 3905,
      "IjpudWxsfSwi": 3906,
      "YjNkMmUwZGUw": 3907,
      "yMFQxMToxMzozOS": 3908,
      "yMFQxMTowNjoxOC": 3909,
      "DZhYjVhZGY": 3910,
      "ZyIsInRvdHBTZWNyZXQiOi": 3911,
      "yNjFaIiwiZGVsZXRlZEF": 3912,
      "zNjdaIiwidXBkYXRlZEF": 3913,
      "MjRkYTkiLCJsYXN": 3914,
      "NzMwMmQzMzNkNjAyO": 3915,
      "IjpudWxsfSwiaWF": 3916,
      "YjNkMmUwZGUwNzMwMmQzMzNkNjAyO": 3917,
      "ZyIsInRvdHBTZWNyZXQiOiIiLCJpc": 3918,
      "YjNkMmUwZGUwNzMwMmQzMzNkNjAyODZhYjVhZGY": 3919,
      "331": 3920,
      "Cb": 3921,
      "Fm": 3922,
      "TU": 3923,
      "jer": 3924,
      "tre": 3925,
      "leares": 3926,
      "guer": 3927,
      "Baleares": 3928,
      "berg": 3929,
      "Illes": 3930,
      "Virgen": 3931,
      "Francisco": 3932,
      "566": 3933,
      "Ben": 3934,
      "Hi": 3935,
      "Va": 3936,
      "py": 3937,
      "sz": 3938,
      "ten": 3939,
      "aro": 3940,
      "cial": 3941,
      "003": 3942,
      "soft": 3943,
      "462": 3944,
      "521": 3945,
      "771": 3946,
      "972": 3947,
      "Script": 3948,
      "cb": 3949,
      "ky": 3950,
      "pain": 3951,
      "verde": 3952,
      "Vall": 3953,
      "Doctor": 3954,
      "021": 3955,
      "768": 3956,
      "JU": 3957,
      "Sim": 3958,
      "bU": 3959,
      "iego": 3960,
      "052": 3961,
      "Vizca": 3962,
      "Gra": 3963,
      "HMv": 3964,
      "Os": 3965,
      "gg": 3966,
      "lle": 3967,
      "uni": 3968,
      "oni": 3969,
      "lom": 3970,
      "4560": 3971,
      "chu": 3972,
      "cher": 3973,
      "Quint": 3974,
      "Miguel": 3975,
      "Vizcaya": 3976,
      "Ho": 3977,
      "Sp": 3978,
      "Sil": 3979,
      "dora": 3980,
      "fran": 3981,
      "ks": 3982,
      "ny": 3983,
      "sha": 3984,
      "ure": 3985,
      "kel": 3986,
      "rey": 3987,
      "502": 3988,
      "Valde": 3989,
      "exp": 3990,
      "041": 3991,
      "436": 3992,
      "973": 3993,
      "Plan": 3994,
      "gl": 3995,
      "mul": 3996,
      "np": 3997,
      "vil": 3998,
      "may": 3999,
      "madrid": 4000,
      "nchez": 4001,
      "webapp": 4002,
      "msadc": 4003,
      "cnf": 4004,
      "Blan": 4005,
      "Gen": 4006,
      "Gor": 4007,
      "Pro": 4008,
      "cro": 4009,
      "kar": 4010,
      "ral": 4011,
      "sin": 4012,
      "tella": 4013,
      "esta": 4014,
      "596": 4015,
      "CM": 4016,
      "hal": 4017,
      "nd": 4018,
      "sr": 4019,
      "sim": 4020,
      "wo": 4021,
      "inform": 4022,
      "pal": 4023,
      "May": 4024,
      "Alcal": 4025,
      "Rodri": 4026,
      "FlA": 4027,
      "Bla": 4028,
      "Ir": 4029,
      "ati": 4030,
      "bes": 4031,
      "hel": 4032,
      "ila": 4033,
      "ias": 4034,
      "iana": 4035,
      "kp": 4036,
      "tino": 4037,
      "Barri": 4038,
      "561": 4039,
      "Adel": 4040,
      "Ing": 4041,
      "Imo": 4042,
      "IdX": 4043,
      "Ily": 4044,
      "JP": 4045,
      "JcH": 4046,
      "JLR": 4047,
      "LT": 4048,
      "Lk": 4049,
      "LTE": 4050,
      "Nlp": 4051,
      "OV": 4052,
      "PLe": 4053,
      "QM": 4054,
      "QiO": 4055,
      "QOV": 4056,
      "Rm": 4057,
      "YE": 4058,
      "aa": 4059,
      "aImo": 4060,
      "bPLe": 4061,
      "cG": 4062,
      "cQ": 4063,
      "eId": 4064,
      "eFm": 4065,
      "hRm": 4066,
      "jq": 4067,
      "jz": 4068,
      "lec": 4069,
      "mag": 4070,
      "mJLR": 4071,
      "pq": 4072,
      "sq": 4073,
      "tFe": 4074,
      "xLT": 4075,
      "till": 4076,
      "lie": 4077,
      "quin": 4078,
      "Reina": 4079,
      "ider": 4080,
      "MseId": 4081,
      "onso": 4082,
      "iOH": 4083,
      "MDI": 4084,
      "Carlos": 4085,
      "IwcQ": 4086,
      "owJU": 4087,
      "OWhRm": 4088,
      "liano": 4089,
      "CiZ": 4090,
      "LIQOV": 4091,
      "QiOiIy": 4092,
      "hdGVkQX": 4093,
      "hdjq": 4094,
      "Jcj": 4095,
      "gsCiZ": 4096,
      "BrLk": 4097,
      "FKi": 4098,
      "UTJcj": 4099,
      "LRgsCiZ": 4100,
      "PWK": 4101,
      "PWBrLk": 4102,
      "Pontevedra": 4103,
      "TUjm": 4104,
      "IdXLIQOV": 4105,
      "JPUTJcj": 4106,
      "JcHeFm": 4107,
      "LTExLT": 4108,
      "aaowJU": 4109,
      "jzhdjq": 4110,
      "mJLRH": 4111,
      "tFeL": 4112,
      "MseIdI": 4113,
      "OWhRmIwcQ": 4114,
      "QiOiIyMDI": 4115,
      "hdGVkQXQiOiIyMDI": 4116,
      "PWBrLkIdXLIQOV": 4117,
      "JcHeFmTUjm": 4118,
      "LTExLTIw": 4119,
      "aaowJUFKi": 4120,
      "jzhdjqpq": 4121,
      "PWBrLkIdXLIQOVNlp": 4122,
      "aw": 4123,
      "ds": 4124,
      "iti": 4125,
      "td": 4126,
      "lava": 4127,
      "ens": 4128,
      "ston": 4129,
      "onales": 4130,
      "ruc": 4131,
      "Passatge": 4132,
      "BScript": 4133,
      "Lor": 4134,
      "Mag": 4135,
      "VBScript": 4136,
      "cin": 4137,
      "jon": 4138,
      "pis": 4139,
      "ui": 4140,
      "we": 4141,
      "yen": 4142,
      "inguda": 4143,
      "royo": 4144,
      "vide": 4145,
      "WebApp": 4146,
      "undo": 4147,
      "Rom": 4148,
      "Avinguda": 4149,
      "PgW": 4150,
      "examplesWebApp": 4151,
      "Pad": 4152,
      "Res": 4153,
      "mal": 4154,
      "mel": 4155,
      "sc": 4156,
      "lado": 4157,
      "htr": 4158,
      "ncia": 4159,
      "ario": 4160,
      "ett": 4161,
      "rez": 4162,
      "ante": 4163,
      "rich": 4164,
      "ciano": 4165,
      "ames": 4166,
      "Puig": 4167,
      "And": 4168,
      "iisadm": 4169,
      "iisadmpwd": 4170,
      "Far": 4171,
      "Ig": 4172,
      "Medi": 4173,
      "Mir": 4174,
      "Sag": 4175,
      "iN": 4176,
      "ins": 4177,
      "inter": 4178,
      "ore": 4179,
      "zano": 4180,
      "fica": 4181,
      "linos": 4182,
      "Avda": 4183,
      "Urban": 4184,
      "As": 4185,
      "Ger": 4186,
      "Gali": 4187,
      "Mora": 4188,
      "Za": 4189,
      "ee": 4190,
      "edu": 4191,
      "iiss": 4192,
      "mh": 4193,
      "pre": 4194,
      "rie": 4195,
      "tch": 4196,
      "ula": 4197,
      "degol": 4198,
      "ise": 4199,
      "ando": 4200,
      "professional": 4201,
      "rado": 4202,
      "Com": 4203,
      "uelas": 4204,
      "Torres": 4205,
      "monte": 4206,
      "Garcia": 4207,
      "iissamples": 4208,
      "degolf": 4209,
      "Cat": 4210,
      "Dan": 4211,
      "bau": 4212,
      "clu": 4213,
      "mir": 4214,
      "yr": 4215,
      "one": 4216,
      "cam": 4217,
      "cala": 4218,
      "eci": 4219,
      "ath": 4220,
      "ajes": 4221,
      "Alber": 4222,
      "sampsite": 4223,
      "Ge": 4224,
      "Ron": 4225,
      "Ten": 4226,
      "ado": 4227,
      "gran": 4228,
      "of": 4229,
      "pri": 4230,
      "tele": 4231,
      "lino": 4232,
      "cant": 4233,
      "acia": 4234,
      "ajuntamentbarcelona": 4235,
      "5179": 4236,
      "Ali": 4237,
      "Ya": 4238,
      "bir": 4239,
      "fle": 4240,
      "hr": 4241,
      "iu": 4242,
      "kw": 4243,
      "lv": 4244,
      "mk": 4245,
      "nf": 4246,
      "pm": 4247,
      "pres": 4248,
      "ris": 4249,
      "sm": 4250,
      "tj": 4251,
      "laz": 4252,
      "ori": 4253,
      "servlet": 4254,
      "incorrectasany": 4255,
      "nova": 4256,
      "dun": 4257,
      "bay": 4258,
      "travio": 4259,
      "LjM": 4260,
      "Campo": 4261,
      "Manzan": 4262,
      "OjA": 4263,
      "travioleta": 4264,
      ",\"": 4265,
      "Cha": 4266,
      "Zur": 4267,
      "ak": 4268,
      "cs": 4269,
      "hard": 4270,
      "nar": 4271,
      "ney": 4272,
      "enti": 4273,
      "nge": 4274,
      "are": 4275,
      "quil": 4276,
      "mbo": 4277,
      "urn": 4278,
      "elle": 4279,
      "mad": 4280,
      "sito": 4281,
      "bru": 4282,
      "travel": 4283,
      "nez": 4284,
      "Este": 4285,
      "quez": 4286,
      "Lugo": 4287,
      "=+&": 4288,
      "TI": 4289,
      "bos": 4290,
      "eh": 4291,
      "ica": 4292,
      "jet": 4293,
      "nz": 4294,
      "tro": 4295,
      "vu": 4296,
      "line": 4297,
      "det": 4298,
      "led": 4299,
      "quet": 4300,
      "roduc": 4301,
      "pez": 4302,
      "esc": 4303,
      "espa": 4304,
      "rada": 4305,
      "uez": 4306,
      "Valverde": 4307,
      "Villar": 4308,
      "mont": 4309,
      "guez": 4310,
      "TR": 4311,
      "fb": 4312,
      "gf": 4313,
      "gh": 4314,
      "kn": 4315,
      "pl": 4316,
      "zzi": 4317,
      "orio": 4318,
      "datab": 4319,
      "artes": 4320,
      "ebas": 4321,
      "mari": 4322,
      "zada": 4323,
      "Leon": 4324,
      "nandez": 4325,
      "Urbaniz": 4326,
      "Nog": 4327,
      "Sar": 4328,
      "bn": 4329,
      "ite": 4330,
      "she": 4331,
      "spain": 4332,
      "ubi": 4333,
      "vc": 4334,
      "ensa": 4335,
      "ech": 4336,
      "ield": 4337,
      "lei": 4338,
      "arra": 4339,
      "ford": 4340,
      "cars": 4341,
      "rosa": 4342,
      "adilla": 4343,
      "aus": 4344,
      "Paseo": 4345,
      "\":\"": 4346,
      "say": 4347,
      "land": 4348,
      "docs": 4349,
      "Villal": 4350,
      "dbsamp": 4351,
      "charset": 4352,
      "Cata": 4353,
      "FI": 4354,
      "Fun": 4355,
      "Hel": 4356,
      "mx": 4357,
      "nell": 4358,
      "oh": 4359,
      "ot": 4360,
      "sj": 4361,
      "wn": 4362,
      "whi": 4363,
      "tis": 4364,
      "ery": 4365,
      "nch": 4366,
      "ciru": 4367,
      "Pasaje": 4368,
      "abel": 4369,
      "zarote": 4370,
      "adas": 4371,
      "Escri": 4372,
      "club": 4373,
      "Urbanizacion": 4374,
      "Eli": 4375,
      "bil": 4376,
      "din": 4377,
      "dEn": 4378,
      "fY": 4379,
      "hk": 4380,
      "if": 4381,
      "kim": 4382,
      "sar": 4383,
      "vell": 4384,
      "zK": 4385,
      "zy": 4386,
      "til": 4387,
      "orn": 4388,
      "etti": 4389,
      "isto": 4390,
      "aldo": 4391,
      "nom": 4392,
      "aste": 4393,
      "2420": 4394,
      "audi": 4395,
      "AAAg": 4396,
      "EFdEn": 4397,
      "Seg": 4398,
      "here": 4399,
      "show": 4400,
      "yrAAAg": 4401,
      "EFdEnyrAAAg": 4402,
      "Cur": 4403,
      "Cru": 4404,
      "Fre": 4405,
      "HI": 4406,
      "Llu": 4407,
      "Mal": 4408,
      "Nar": 4409,
      "Ram": 4410,
      "Sel": 4411,
      "bea": 4412,
      "cle": 4413,
      "cbf": 4414,
      "has": 4415,
      "ito": 4416,
      "ji": 4417,
      "lb": 4418,
      "rent": 4419,
      "script": 4420,
      "tH": 4421,
      "word": 4422,
      "zal": 4423,
      "indo": 4424,
      "deh": 4425,
      "orca": 4426,
      "dol": 4427,
      "anes": 4428,
      "3823": 4429,
      "mala": 4430,
      "EDs": 4431,
      "WebSp": 4432,
      "igu": 4433,
      "iguer": 4434,
      "Alf": 4435,
      "Vic": 4436,
      "Arag": 4437,
      "stein": 4438,
      "PgX": 4439,
      "Password": 4440,
      "cdac": 4441,
      "517918": 4442,
      "database": 4443,
      "hereSamples": 4444,
      "cbfc": 4445,
      "WebSphereSamples": 4446,
      "Ada": 4447,
      "Ama": 4448,
      "Ara": 4449,
      "Air": 4450,
      "Int": 4451,
      "aq": 4452,
      "cc": 4453,
      "cul": 4454,
      "jw": 4455,
      "ram": 4456,
      "sn": 4457,
      "ache": 4458,
      "acruz": 4459,
      "naci": 4460,
      "ordo": 4461,
      "loma": 4462,
      "kov": 4463,
      "IDEx": 4464,
      "4015": 4465,
      "nico": 4466,
      "8319": 4467,
      "sign": 4468,
      "Manuel": 4469,
      "Conde": 4470,
      "ader": 4471,
      "ArMDA": 4472,
      "Martin": 4473,
      "Cuesta": 4474,
      "Santo": 4475,
      "NyArMDA": 4476,
      "ther": 4477,
      "poli": 4478,
      "ExAir": 4479,
      "Cami": 4480,
      "OjE": 4481,
      "MDAiLCJ": 4482,
      "LTExLTIwIDEx": 4483,
      "LTExLTIwIDExOjA": 4484,
      "=.": 4485,
      "Fzc": 4486,
      "Gas": 4487,
      "Jsa": 4488,
      "Mva": 4489,
      "Sab": 4490,
      "Vw": 4491,
      "VzL": 4492,
      "WJsa": 4493,
      "WMva": 4494,
      "hat": 4495,
      "ice": 4496,
      "iro": 4497,
      "rera": 4498,
      "sur": 4499,
      "tZ": 4500,
      "vet": 4501,
      "enlan": 4502,
      "cad": 4503,
      "oro": 4504,
      "nta": 4505,
      "esto": 4506,
      "wdWJsa": 4507,
      "viajes": 4508,
      "sala": 4509,
      "ueda": 4510,
      "products": 4511,
      "styles": 4512,
      "Pueb": 4513,
      "hZHMv": 4514,
      "Riu": 4515,
      "erife": 4516,
      "Tenerife": 4517,
      "VwbG": 4518,
      "WMvaW": 4519,
      "enlanzarote": 4520,
      "wdWJsaWMvaW": 4521,
      "/~": 4522,
      "Diego": 4523,
      "Fed": 4524,
      "Min": 4525,
      "Pan": 4526,
      "cI": 4527,
      "hos": 4528,
      "hue": 4529,
      "vador": 4530,
      "llan": 4531,
      "Ġ/.": 4532,
      "rid": 4533,
      "jada": 4534,
      "cortin": 4535,
      "casa": 4536,
      "Quin": 4537,
      "ultravioleta": 4538,
      "abo": 4539,
      "eiro": 4540,
      "Campos": 4541,
      "white": 4542,
      "cortinas": 4543,
      "=-": 4544,
      "Cin": 4545,
      "EN": 4546,
      "He": 4547,
      "Lab": 4548,
      "Mos": 4549,
      "ale": 4550,
      "bera": 4551,
      "cx": 4552,
      "dE": 4553,
      "dj": 4554,
      "gad": 4555,
      "ken": 4556,
      "tia": 4557,
      "enzo": 4558,
      "tions": 4559,
      "2735": 4560,
      "rigo": 4561,
      "elles": 4562,
      "Reg": 4563,
      "aul": 4564,
      "cubi": 4565,
      "Cameros": 4566,
      "Pica": 4567,
      "roduction": 4568,
      "Introduction": 4569,
      "Bat": 4570,
      "Bra": 4571,
      "Fran": 4572,
      "Les": 4573,
      "WN": 4574,
      "cv": 4575,
      "cpan": 4576,
      "dz": 4577,
      "eas": 4578,
      "mascript": 4579,
      "ode": 4580,
      "vg": 4581,
      "zuela": 4582,
      "teo": 4583,
      "ecmascript": 4584,
      "2545": 4585,
      "dilla": 4586,
      "nil": 4587,
      "tools": 4588,
      "4538": 4589,
      "1115": 4590,
      "ator": 4591,
      "incorrectasbob": 4592,
      "gold": 4593,
      "Alba": 4594,
      "Vilar": 4595,
      "Barrio": 4596,
      "lastica": 4597,
      "tras": 4598,
      "lores": 4599,
      "Merce": 4600,
      "cpanel": 4601,
      "Ace": 4602,
      "Dor": 4603,
      "Fab": 4604,
      "Teo": 4605,
      "mis": 4606,
      "nas": 4607,
      "pen": 4608,
      "rh": 4609,
      "uli": 4610,
      "vir": 4611,
      "vol": 4612,
      "yan": 4613,
      "cole": 4614,
      "dado": 4615,
      "lez": 4616,
      "ropa": 4617,
      "rome": 4618,
      "4054": 4619,
      "stor": 4620,
      "chin": 4621,
      "7119": 4622,
      "vida": 4623,
      "Marti": 4624,
      "home": 4625,
      "Esp": 4626,
      "Espa": 4627,
      "bella": 4628,
      "eix": 4629,
      "Servlet": 4630,
      "Puebla": 4631,
      "Blas": 4632,
      "Gin": 4633,
      "Mata": 4634,
      "Ven": 4635,
      "blo": 4636,
      "dera": 4637,
      "fau": 4638,
      "gil": 4639,
      "hil": 4640,
      "ire": 4641,
      "pon": 4642,
      "sca": 4643,
      "shi": 4644,
      "tora": 4645,
      "wat": 4646,
      "ys": 4647,
      "zs": 4648,
      "tic": 4649,
      "tech": 4650,
      "nci": 4651,
      "4011": 4652,
      "asal": 4653,
      "3817": 4654,
      "7080": 4655,
      "vina": 4656,
      "3439": 4657,
      "chet": 4658,
      "vier": 4659,
      "uelos": 4660,
      "exe": 4661,
      "seig": 4662,
      "Nav": 4663,
      "mila": 4664,
      "Doming": 4665,
      "Castrillo": 4666,
      "Joan": 4667,
      "Merca": 4668,
      "Des": 4669,
      "Llor": 4670,
      "NU": 4671,
      "Sen": 4672,
      "Serra": 4673,
      "aexp": 4674,
      "bor": 4675,
      "gw": 4676,
      "hir": 4677,
      "hig": 4678,
      "mit": 4679,
      "oR": 4680,
      "sas": 4681,
      "zr": 4682,
      "zas": 4683,
      "tivo": 4684,
      "cata": 4685,
      "aggs": 4686,
      "acha": 4687,
      "8069": 4688,
      "low": 4689,
      "lem": 4690,
      "2744": 4691,
      "alt": 4692,
      "elda": 4693,
      "ash": 4694,
      "3845": 4695,
      "4937": 4696,
      "Arte": 4697,
      "linda": 4698,
      "Rafa": 4699,
      "long": 4700,
      "Castillo": 4701,
      "Bus": 4702,
      "Beni": 4703,
      "Je": 4704,
      "Pab": 4705,
      "ae": 4706,
      "bt": 4707,
      "ek": 4708,
      "ele": 4709,
      "fal": 4710,
      "fad": 4711,
      "his": 4712,
      "ide": 4713,
      "mq": 4714,
      "nal": 4715,
      "rus": 4716,
      "rena": 4717,
      "sam": 4718,
      "uG": 4719,
      "tillo": 4720,
      "lares": 4721,
      "coop": 4722,
      "eres": 4723,
      "eras": 4724,
      "pat": 4725,
      "cias": 4726,
      "ntas": 4727,
      "mobi": 4728,
      "4089": 4729,
      "anne": 4730,
      "ril": 4731,
      "1455": 4732,
      "2215": 4733,
      "6424": 4734,
      "8994": 4735,
      "order": 4736,
      "6729": 4737,
      "gia": 4738,
      "corjet": 4739,
      "usa": 4740,
      "alia": 4741,
      "Aldea": 4742,
      "Arri": 4743,
      "Arroyo": 4744,
      "varez": 4745,
      "spider": 4746,
      "ajuntamentde": 4747,
      "Federi": 4748,
      "zsK": 4749,
      "spiderman": 4750,
      "AL": 4751,
      "Ari": 4752,
      "Bw": 4753,
      "Bri": 4754,
      "DU": 4755,
      "Ed": 4756,
      "ETR": 4757,
      "Gon": 4758,
      "HV": 4759,
      "Hp": 4760,
      "Hq": 4761,
      "Hrh": 4762,
      "Iu": 4763,
      "IsInVwZGF": 4764,
      "Jt": 4765,
      "KM": 4766,
      "KMT": 4767,
      "Ll": 4768,
      "LKM": 4769,
      "Nor": 4770,
      "OCo": 4771,
      "OoF": 4772,
      "PL": 4773,
      "Pelli": 4774,
      "QWi": 4775,
      "Rva": 4776,
      "SP": 4777,
      "Session": 4778,
      "SXA": 4779,
      "Tur": 4780,
      "Ttz": 4781,
      "UY": 4782,
      "UNk": 4783,
      "UHo": 4784,
      "Vu": 4785,
      "Vsd": 4786,
      "WTP": 4787,
      "Xtz": 4788,
      "Yd": 4789,
      "Yr": 4790,
      "Zg": 4791,
      "bGF": 4792,
      "bAd": 4793,
      "bcn": 4794,
      "ehh": 4795,
      "fB": 4796,
      "gd": 4797,
      "ght": 4798,
      "gel": 4799,
      "jdX": 4800,
      "kL": 4801,
      "kz": 4802,
      "lci": 4803,
      "lns": 4804,
      "mYX": 4805,
      "mciLCJ": 4806,
      "oETR": 4807,
      "qg": 4808,
      "vZ": 4809,
      "wj": 4810,
      "wIiwi": 4811,
      "xab": 4812,
      "xjw": 4813,
      "cano": 4814,
      "ncH": 4815,
      "aria": 4816,
      "bles": 4817,
      "2580": 4818,
      "2595": 4819,
      "isp": 4820,
      "pel": 4821,
      "ani": 4822,
      "ells": 4823,
      "1713": 4824,
      "6490": 4825,
      "6585": 4826,
      "illi": 4827,
      "adio": 4828,
      "1164": 4829,
      "chan": 4830,
      "mez": 4831,
      "DBHI": 4832,
      "4929": 4833,
      "MsS": 4834,
      "6185": 4835,
      "iga": 4836,
      "heal": 4837,
      "Dev": 4838,
      "MTgu": 4839,
      "bot": 4840,
      "Aren": 4841,
      "MDY": 4842,
      "MDk": 4843,
      "NTIy": 4844,
      "NTIu": 4845,
      "zdEx": 4846,
      "zdmciLCJ": 4847,
      "som": 4848,
      "luSXA": 4849,
      "IwLjA": 4850,
      "Njk": 4851,
      "hoja": 4852,
      "Naval": 4853,
      "YXoETR": 4854,
      "Zjq": 4855,
      "Plxab": 4856,
      "IjoiIiwibGF": 4857,
      "iOiIwLjA": 4858,
      "you": 4859,
      "andra": 4860,
      "IsImRlb": 4861,
      "IsImRlbGV": 4862,
      "NBUY": 4863,
      "GlsXtz": 4864,
      "ZVRva": 4865,
      "MzYzNjk": 4866,
      "cHJvZmlsZUltYWdlIjoiL": 4867,
      "JcNU": 4868,
      "DuUHo": 4869,
      "WiIsInVwZGF": 4870,
      "WiIsImRlbGV": 4871,
      "fredo": 4872,
      "ZGVmYX": 4873,
      "NmUwNTdmMjBmODgzZSIsInJvbGUiOiJjdX": 4874,
      "ware": 4875,
      "Rodrigo": 4876,
      "sqJcNU": 4877,
      "tHwj": 4878,
      "tZDBHI": 4879,
      "hZHMvZGVmYX": 4880,
      "romeDev": 4881,
      "aggsYr": 4882,
      "Pablo": 4883,
      "uGQWi": 4884,
      "Bwtd": 4885,
      "DUkL": 4886,
      "HpNBUY": 4887,
      "HrhDUkL": 4888,
      "KMTncH": 4889,
      "LKMfa": 4890,
      "OCoqg": 4891,
      "OoFbAd": 4892,
      "Ttzlns": 4893,
      "UNkGe": 4894,
      "VuIjoiIiwibGF": 4895,
      "VsdC": 4896,
      "WTPR": 4897,
      "YdK": 4898,
      "ZgGlsXtz": 4899,
      "ehhfB": 4900,
      "lciIsImRlb": 4901,
      "wIiwicHJvZmlsZUltYWdlIjoiL": 4902,
      "xjwE": 4903,
      "MTguMzY": 4904,
      "NTIyWiIsImRlbGV": 4905,
      "NTIuNTIyWiIsImRlbGV": 4906,
      "zdExvZ": 4907,
      "luSXAiOiIwLjA": 4908,
      "YXoETRtHwj": 4909,
      "PlxabOoFbAd": 4910,
      "DuUHoHrhDUkL": 4911,
      "NmUwNTdmMjBmODgzZSIsInJvbGUiOiJjdXN": 4912,
      "tZDBHIYXoETRtHwj": 4913,
      "hZHMvZGVmYXVsdC": 4914,
      "aggsYrS": 4915,
      "HpNBUYF": 4916,
      "VuIjoiIiwibGFzdExvZ": 4917,
      "ZgGlsXtztZDBHIYXoETRtHwj": 4918,
      "lciIsImRlbHV": 4919,
      "luSXAiOiIwLjAuMC": 4920,
      "PlxabOoFbAdUNkGe": 4921,
      "Bell": 4922,
      "Fil": 4923,
      "Ming": 4924,
      "Mel": 4925,
      "Nt": 4926,
      "Pra": 4927,
      "Rr": 4928,
      "Sebas": 4929,
      "Vil": 4930,
      "Wal": 4931,
      "Xo": 4932,
      "dina": 4933,
      "edo": 4934,
      "fla": 4935,
      "fra": 4936,
      "flor": 4937,
      "lc": 4938,
      "md": 4939,
      "mm": 4940,
      "pra": 4941,
      "rs": 4942,
      "rero": 4943,
      "ski": 4944,
      "tm": 4945,
      "von": 4946,
      "ysi": 4947,
      "tila": 4948,
      "osti": 4949,
      "invent": 4950,
      "cero": 4951,
      "lee": 4952,
      "pas": 4953,
      "imo": 4954,
      "tienes": 4955,
      "rella": 4956,
      "cillo": 4957,
      "dom": 4958,
      "molinos": 4959,
      "ander": 4960,
      "anilla": 4961,
      "3855": 4962,
      "6460": 4963,
      "6567": 4964,
      "mau": 4965,
      "profile": 4966,
      "2317": 4967,
      "1374": 4968,
      "6735": 4969,
      "3484": 4970,
      "2613": 4971,
      "2115": 4972,
      "usi": 4973,
      "3189": 4974,
      "vic": 4975,
      "lessoninfo": 4976,
      "way": 4977,
      "Luci": 4978,
      "Polig": 4979,
      "andro": 4980,
      "Vega": 4981,
      "Poligono": 4982,
      "\",\"": 4983,
      "Em": 4984,
      "Hon": 4985,
      "Jal": 4986,
      "Us": 4987,
      "bol": 4988,
      "blan": 4989,
      "cz": 4990,
      "dge": 4991,
      "field": 4992,
      "gio": 4993,
      "iv": 4994,
      "ian": 4995,
      "kX": 4996,
      "nda": 4997,
      "oles": 4998,
      "qa": 4999,
      "sti": 5000,
      "sey": 5001,
      "sms": 5002,
      "tn": 5003,
      "ueta": 5004,
      "udio": 5005,
      "tig": 5006,
      "tit": 5007,
      "inn": 5008,
      "ncha": 5009,
      "enta": 5010,
      "ette": 5011,
      "2554": 5012,
      "roman": 5013,
      "1700": 5014,
      "2860": 5015,
      "struc": 5016,
      "aut": 5017,
      "arta": 5018,
      "Arg": 5019,
      "beach": 5020,
      "pers": 5021,
      "Puente": 5022,
      "Isabel": 5023,
      "Alex": 5024,
      "General": 5025,
      "video": 5026,
      "Cli": 5027,
      "Glor": 5028,
      "Ht": 5029,
      "Ori": 5030,
      "Sali": 5031,
      "VX": 5032,
      "Zo": 5033,
      "Zor": 5034,
      "ax": 5035,
      "bg": 5036,
      "cis": 5037,
      "dll": 5038,
      "fil": 5039,
      "hin": 5040,
      "hint": 5041,
      "ier": 5042,
      "jes": 5043,
      "nl": 5044,
      "nor": 5045,
      "ning": 5046,
      "pf": 5047,
      "pet": 5048,
      "rap": 5049,
      "tc": 5050,
      "tk": 5051,
      "tta": 5052,
      "udi": 5053,
      "tek": 5054,
      "lada": 5055,
      "lit": 5056,
      "camb": 5057,
      "apa": 5058,
      "aplastica": 5059,
      "nga": 5060,
      "arte": 5061,
      "mbar": 5062,
      "dillo": 5063,
      "2725": 5064,
      "2770": 5065,
      "1063": 5066,
      "2939": 5067,
      "1480": 5068,
      "2245": 5069,
      "8937": 5070,
      "7028": 5071,
      "8627": 5072,
      "2685": 5073,
      "8316": 5074,
      "hea": 5075,
      "Calzada": 5076,
      "Comp": 5077,
      "Parser": 5078,
      "veros": 5079,
      "nego": 5080,
      "hambra": 5081,
      "Valder": 5082,
      "gues": 5083,
      "Corre": 5084,
      "Esco": 5085,
      "Esgue": 5086,
      "hua": 5087,
      "Perez": 5088,
      "gram": 5089,
      "Pintor": 5090,
      "Padre": 5091,
      "scripts": 5092,
      "Az": 5093,
      "Jer": 5094,
      "Nico": 5095,
      "Ofi": 5096,
      "Sec": 5097,
      "Tu": 5098,
      "ao": 5099,
      "dA": 5100,
      "die": 5101,
      "dona": 5102,
      "eve": 5103,
      "gri": 5104,
      "hog": 5105,
      "mw": 5106,
      "pw": 5107,
      "pio": 5108,
      "pint": 5109,
      "sab": 5110,
      "tus": 5111,
      "ones": 5112,
      "encu": 5113,
      "encio": 5114,
      "8056": 5115,
      "imar": 5116,
      "nuy": 5117,
      "ket": 5118,
      "Ġchar": 5119,
      "quel": 5120,
      "cidad": 5121,
      "moto": 5122,
      "4059": 5123,
      "alfo": 5124,
      "anti": 5125,
      "sse": 5126,
      "6450": 5127,
      "6595": 5128,
      "manuel": 5129,
      "1360": 5130,
      "6780": 5131,
      "3084": 5132,
      "2169": 5133,
      "eber": 5134,
      "3620": 5135,
      "7918": 5136,
      "5024": 5137,
      "Passeig": 5138,
      "sant": 5139,
      "uevo": 5140,
      "billa": 5141,
      "Tools": 5142,
      "ChromeDev": 5143,
      "Soto": 5144,
      "Isla": 5145,
      "Alcalde": 5146,
      "cinco": 5147,
      "Andres": 5148,
      "Rafael": 5149,
      "Ġcharset": 5150,
      "Bel": 5151,
      "Fres": 5152,
      "Mat": 5153,
      "Pat": 5154,
      "Pol": 5155,
      "Rog": 5156,
      "Ramon": 5157,
      "ama": 5158,
      "ef": 5159,
      "fj": 5160,
      "gor": 5161,
      "hl": 5162,
      "mr": 5163,
      "pru": 5164,
      "sE": 5165,
      "sol": 5166,
      "tg": 5167,
      "uc": 5168,
      "tell": 5169,
      "enko": 5170,
      "ace": 5171,
      "dec": 5172,
      "deFil": 5173,
      "entSi": 5174,
      "pant": 5175,
      "kes": 5176,
      "2599": 5177,
      "roo": 5178,
      "row": 5179,
      "2750": 5180,
      "movi": 5181,
      "4044": 5182,
      "1000": 5183,
      "ande": 5184,
      "asia": 5185,
      "2014": 5186,
      "2065": 5187,
      "2914": 5188,
      "6544": 5189,
      "6547": 5190,
      "6047": 5191,
      "7495": 5192,
      "3970": 5193,
      "6945": 5194,
      "2830": 5195,
      "stri": 5196,
      "1335": 5197,
      "ntcug": 5198,
      "6714": 5199,
      "6799": 5200,
      "1127": 5201,
      "2434": 5202,
      "8464": 5203,
      "chez": 5204,
      "aud": 5205,
      "aula": 5206,
      "audio": 5207,
      "1818": 5208,
      "9974": 5209,
      "tering": 5210,
      "0360": 5211,
      "ontijo": 5212,
      "zara": 5213,
      "santcug": 5214,
      "Victor": 5215,
      "gay": 5216,
      "bien": 5217,
      "beau": 5218,
      "barni": 5219,
      "Poeta": 5220,
      "lyn": 5221,
      "fertas": 5222,
      "work": 5223,
      "Alame": 5224,
      "imiento": 5225,
      "automovi": 5226,
      "ringring": 5227,
      "Mayor": 5228,
      "pisos": 5229,
      "Domingo": 5230,
      "alfombra": 5231,
      "deFiltering": 5232,
      "entSideFiltering": 5233,
      "santcugat": 5234,
      "automoviles": 5235,
      "Amar": 5236,
      "By": 5237,
      "Cel": 5238,
      "Cue": 5239,
      "Figuer": 5240,
      "Ijp": 5241,
      "IsIml": 5242,
      "Jb": 5243,
      "MC": 5244,
      "Mit": 5245,
      "Pen": 5246,
      "QWN": 5247,
      "RhdGVkQXQiOiIyMDI": 5248,
      "Vie": 5249,
      "XQiO": 5250,
      "Zpb": 5251,
      "breg": 5252,
      "cFN": 5253,
      "cnV": 5254,
      "fig": 5255,
      "fit": 5256,
      "hid": 5257,
      "ile": 5258,
      "jE": 5259,
      "jy": 5260,
      "kg": 5261,
      "lY": 5262,
      "lLCJ": 5263,
      "nIiwid": 5264,
      "rt": 5265,
      "the": 5266,
      "uen": 5267,
      "uMCI": 5268,
      "zin": 5269,
      "zQWN": 5270,
      "ende": 5271,
      "iete": 5272,
      "eth": 5273,
      "rel": 5274,
      "reda": 5275,
      "2539": 5276,
      "mbr": 5277,
      "2785": 5278,
      "2781": 5279,
      "4019": 5280,
      "4047": 5281,
      "1060": 5282,
      "2060": 5283,
      "6313": 5284,
      "1714": 5285,
      "1744": 5286,
      "3870": 5287,
      "ssa": 5288,
      "6590": 5289,
      "6095": 5290,
      "6099": 5291,
      "1543": 5292,
      "7449": 5293,
      "2887": 5294,
      "8924": 5295,
      "8977": 5296,
      "6763": 5297,
      "ams": 5298,
      "1167": 5299,
      "8735": 5300,
      "8660": 5301,
      "8329": 5302,
      "eback": 5303,
      "0093": 5304,
      "7730": 5305,
      "menorca": 5306,
      "Mala": 5307,
      "JldCI": 5308,
      "sInB": 5309,
      "Qui": 5310,
      "IiIsIml": 5311,
      "IjoiMC": 5312,
      "LCJpY": 5313,
      "GVJb": 5314,
      "Nava": 5315,
      "bGx": 5316,
      "ldGVkQX": 5317,
      "entes": 5318,
      "kZWxldGVkQX": 5319,
      "mucho": 5320,
      "ZlIjp": 5321,
      "vilano": 5322,
      "cfda": 5323,
      "WFnZSI": 5324,
      "aXZlIjp": 5325,
      "jcmVhdGVkQXQiOiIyMDI": 5326,
      "dpbklwIjoiMC": 5327,
      "dalgo": 5328,
      "wLjAuMCI": 5329,
      "Murcia": 5330,
      "ness": 5331,
      "QiOm": 5332,
      "cGRhdGVkQXQiOiIyMDI": 5333,
      "Ronda": 5334,
      "cpanelweb": 5335,
      "encuent": 5336,
      "XQiOjE": 5337,
      "ZpbGVJb": 5338,
      "cFNlY": 5339,
      "cnVlLCJ": 5340,
      "nIiwidG": 5341,
      "sInByb": 5342,
      "IiIsImlzQWN": 5343,
      "LCJpYXQiOjE": 5344,
      "kZWxldGVkQXQiOm": 5345,
      "wLjAuMCIsInByb": 5346,
      "ZpbGVJbWFnZSI": 5347,
      "cnVlLCJjcmVhdGVkQXQiOiIyMDI": 5348,
      "Bos": 5349,
      "CO": 5350,
      "Enc": 5351,
      "Fo": 5352,
      "Farr": 5353,
      "Lau": 5354,
      "Oc": 5355,
      "Via": 5356,
      "fon": 5357,
      "fos": 5358,
      "fell": 5359,
      "gat": 5360,
      "gun": 5361,
      "hau": 5362,
      "ich": 5363,
      "iza": 5364,
      "jue": 5365,
      "kor": 5366,
      "lr": 5367,
      "met": 5368,
      "mur": 5369,
      "mck": 5370,
      "page": 5371,
      "run": 5372,
      "tw": 5373,
      "tura": 5374,
      "vid": 5375,
      "vate": 5376,
      "yar": 5377,
      "onia": 5378,
      "teat": 5379,
      "lad": 5380,
      "lam": 5381,
      "load": 5382,
      "quera": 5383,
      "2511": 5384,
      "2544": 5385,
      "ish": 5386,
      "isapi": 5387,
      "diz": 5388,
      "2740": 5389,
      "4017": 5390,
      "alon": 5391,
      "pedro": 5392,
      "ese": 5393,
      "elec": 5394,
      "2009": 5395,
      "2919": 5396,
      "1410": 5397,
      "6470": 5398,
      "6493": 5399,
      "6529": 5400,
      "6564": 5401,
      "6559": 5402,
      "6020": 5403,
      "6074": 5404,
      "7429": 5405,
      "program": 5406,
      "1380": 5407,
      "1340": 5408,
      "4515": 5409,
      "adia": 5410,
      "6785": 5411,
      "amente": 5412,
      "1165": 5413,
      "2464": 5414,
      "3515": 5415,
      "3554": 5416,
      "9567": 5417,
      "8339": 5418,
      "8366": 5419,
      "1629": 5420,
      "7990": 5421,
      "7817": 5422,
      "7815": 5423,
      "casab": 5424,
      "6810": 5425,
      "neros": 5426,
      "vivo": 5427,
      "7213": 5428,
      "jobs": 5429,
      "olf": 5430,
      "bano": 5431,
      "sanche": 5432,
      "hama": 5433,
      "Valls": 5434,
      "Roca": 5435,
      "orges": 5436,
      "Panc": 5437,
      "incon": 5438,
      "mine": 5439,
      "ders": 5440,
      "kawa": 5441,
      "Canal": 5442,
      "Miquel": 5443,
      "Cabez": 5444,
      "Agui": 5445,
      "hipermadrid": 5446,
      "Lorenzo": 5447,
      "Reset": 5448,
      "quiler": 5449,
      "Vicente": 5450,
      "ajuntamentdebarcelona": 5451,
      "Glorieta": 5452,
      "Clo": 5453,
      "Dam": 5454,
      "Eche": 5455,
      "Fn": 5456,
      "Fla": 5457,
      "Iq": 5458,
      "Med": 5459,
      "Nel": 5460,
      "Neg": 5461,
      "Pet": 5462,
      "Ren": 5463,
      "Rec": 5464,
      "anu": 5465,
      "aero": 5466,
      "cht": 5467,
      "ear": 5468,
      "fol": 5469,
      "franc": 5470,
      "gq": 5471,
      "lk": 5472,
      "mg": 5473,
      "nr": 5474,
      "rin": 5475,
      "tte": 5476,
      "tau": 5477,
      "teu": 5478,
      "colores": 5479,
      "cafe": 5480,
      "agan": 5481,
      "ngo": 5482,
      "ncio": 5483,
      "ister": 5484,
      "moy": 5485,
      "ania": 5486,
      "aspe": 5487,
      "2957": 5488,
      "sson": 5489,
      "6510": 5490,
      "6555": 5491,
      "6053": 5492,
      "1975": 5493,
      "1991": 5494,
      "3975": 5495,
      "6969": 5496,
      "8960": 5497,
      "3550": 5498,
      "8417": 5499,
      "8345": 5500,
      "3640": 5501,
      "1869": 5502,
      "ball": 5503,
      "vea": 5504,
      "welcome": 5505,
      "sanchez": 5506,
      "Sanz": 5507,
      "Montes": 5508,
      "mini": 5509,
      "Isid": 5510,
      "Castany": 5511,
      "Cervera": 5512,
      "amont": 5513,
      "Duero": 5514,
      "private": 5515,
      "sayuela": 5516,
      "PasswordReset": 5517,
      "hosting": 5518,
      "ChromeDevTools": 5519,
      "cincocolores": 5520,
      "Ban": 5521,
      "Big": 5522,
      "Bart": 5523,
      "Bol": 5524,
      "Cos": 5525,
      "Cre": 5526,
      "Cora": 5527,
      "Fan": 5528,
      "Nte": 5529,
      "Ner": 5530,
      "Pre": 5531,
      "bl": 5532,
      "fia": 5533,
      "gin": 5534,
      "jen": 5535,
      "king": 5536,
      "vos": 5537,
      "vill": 5538,
      "yas": 5539,
      "zer": 5540,
      "acena": 5541,
      "xtre": 5542,
      "dem": 5543,
      "apar": 5544,
      "8015": 5545,
      "8067": 5546,
      "lef": 5547,
      "losa": 5548,
      "rei": 5549,
      "2579": 5550,
      "ismo": 5551,
      "2758": 5552,
      "uria": 5553,
      "4014": 5554,
      "4024": 5555,
      "alhambra": 5556,
      "1034": 5557,
      "ann": 5558,
      "elsen": 5559,
      "2018": 5560,
      "2965": 5561,
      "2989": 5562,
      "1790": 5563,
      "3885": 5564,
      "3866": 5565,
      "2221": 5566,
      "6517": 5567,
      "1939": 5568,
      "1924": 5569,
      "1984": 5570,
      "1978": 5571,
      "1998": 5572,
      "maj": 5573,
      "3990": 5574,
      "star": 5575,
      "8900": 5576,
      "8567": 5577,
      "6771": 5578,
      "6791": 5579,
      "carritobob": 5580,
      "1163": 5581,
      "1169": 5582,
      "3559": 5583,
      "3499": 5584,
      "chie": 5585,
      "3791": 5586,
      "1669": 5587,
      "3129": 5588,
      "7731": 5589,
      "6815": 5590,
      "5960": 5591,
      "5715": 5592,
      "gob": 5593,
      "gov": 5594,
      "5436": 5595,
      "WebGoatIntroduction": 5596,
      "velaz": 5597,
      "0723": 5598,
      "5238": 5599,
      "iano": 5600,
      "adra": 5601,
      "adora": 5602,
      "Alci": 5603,
      "Carmen": 5604,
      "Monaste": 5605,
      "under": 5606,
      "minas": 5607,
      "Lugar": 5608,
      "Ribera": 5609,
      "doro": 5610,
      "scha": 5611,
      "jeda": 5612,
      "part": 5613,
      "Noel": 5614,
      "brook": 5615,
      "estre": 5616,
      "Cristo": 5617,
      "busca": 5618,
      "selec": 5619,
      "Font": 5620,
      "mayor": 5621,
      "Manzanares": 5622,
      "cirugi": 5623,
      "nacionales": 5624,
      "Arriba": 5625,
      "Fresno": 5626,
      "automovilesalhambra": 5627,
      "velazquez": 5628,
      "Ces": 5629,
      "Edu": 5630,
      "Fg": 5631,
      "Fru": 5632,
      "Gel": 5633,
      "Gab": 5634,
      "Greg": 5635,
      "HAAA": 5636,
      "Io": 5637,
      "JJ": 5638,
      "Jan": 5639,
      "Lli": 5640,
      "Lara": 5641,
      "Lima": 5642,
      "Mali": 5643,
      "PX": 5644,
      "Rab": 5645,
      "St": 5646,
      "TO": 5647,
      "Vent": 5648,
      "Vera": 5649,
      "dencia": 5650,
      "eco": 5651,
      "feli": 5652,
      "gm": 5653,
      "idad": 5654,
      "jun": 5655,
      "kam": 5656,
      "lI": 5657,
      "mtos": 5658,
      "pg": 5659,
      "rO": 5660,
      "wei": 5661,
      "zana": 5662,
      "tio": 5663,
      "tido": 5664,
      "tian": 5665,
      "tina": 5666,
      "lian": 5667,
      "acr": 5668,
      "htmlsamp": 5669,
      "lol": 5670,
      "pav": 5671,
      "ime": 5672,
      "aren": 5673,
      "inga": 5674,
      "etu": 5675,
      "2584": 5676,
      "2557": 5677,
      "mba": 5678,
      "rou": 5679,
      "roya": 5680,
      "digo": 5681,
      "mol": 5682,
      "anca": 5683,
      "ast": 5684,
      "2034": 5685,
      "6394": 5686,
      "2955": 5687,
      "2993": 5688,
      "2996": 5689,
      "iol": 5690,
      "6591": 5691,
      "6075": 5692,
      "6096": 5693,
      "1517": 5694,
      "1550": 5695,
      "1928": 5696,
      "7460": 5697,
      "mail": 5698,
      "2880": 5699,
      "ilda": 5700,
      "2360": 5701,
      "2339": 5702,
      "2370": 5703,
      "2318": 5704,
      "2379": 5705,
      "2300": 5706,
      "2353": 5707,
      "8588": 5708,
      "8769": 5709,
      "8799": 5710,
      "FAcar": 5711,
      "3539": 5712,
      "3585": 5713,
      "2119": 5714,
      "9505": 5715,
      "1828": 5716,
      "1813": 5717,
      "1845": 5718,
      "3119": 5719,
      "7124": 5720,
      "7775": 5721,
      "castella": 5722,
      "DEs": 5723,
      "8887": 5724,
      "Gochez": 5725,
      "Codigo": 5726,
      "ith": 5727,
      "vero": 5728,
      "rup": 5729,
      "Marce": 5730,
      "Santander": 5731,
      "trPX": 5732,
      "reta": 5733,
      "much": 5734,
      "Pozo": 5735,
      "ZlHAAA": 5736,
      "garra": 5737,
      "grim": 5738,
      "Garc": 5739,
      "Josep": 5740,
      "Prin": 5741,
      "enlaces": 5742,
      "Felipe": 5743,
      "Santib": 5744,
      "Quintana": 5745,
      "informati": 5746,
      "Rodriguez": 5747,
      "iNmc": 5748,
      "intercamb": 5749,
      "Morales": 5750,
      "hardt": 5751,
      "artesol": 5752,
      "Aragon": 5753,
      "cortinasartesol": 5754,
      "faders": 5755,
      "hojainformati": 5756,
      "personales": 5757,
      "uenga": 5758,
      "velazquezlar": 5759,
      "JJtrPX": 5760,
      "ZlHAAAc": 5761,
      "intercambio": 5762,
      "JJtrPXZlHAAAc": 5763,
      "5805": 5764,
      "Dur": 5765,
      "Dal": 5766,
      "Ian": 5767,
      "Milla": 5768,
      "Oca": 5769,
      "Tri": 5770,
      "ain": 5771,
      "ade": 5772,
      "atica": 5773,
      "bab": 5774,
      "cg": 5775,
      "cra": 5776,
      "eS": 5777,
      "fin": 5778,
      "mt": 5779,
      "ov": 5780,
      "ska": 5781,
      "tres": 5782,
      "zen": 5783,
      "tiana": 5784,
      "coch": 5785,
      "calla": 5786,
      "caro": 5787,
      "acch": 5788,
      "acho": 5789,
      "nger": 5790,
      "agel": 5791,
      "ages": 5792,
      "ort": 5793,
      "leda": 5794,
      "imen": 5795,
      "comer": 5796,
      "roco": 5797,
      "roig": 5798,
      "2714": 5799,
      "1042": 5800,
      "pes": 5801,
      "nou": 5802,
      "este": 5803,
      "2004": 5804,
      "6395": 5805,
      "6398": 5806,
      "1771": 5807,
      "1797": 5808,
      "3887": 5809,
      "3831": 5810,
      "1440": 5811,
      "2220": 5812,
      "6004": 5813,
      "1574": 5814,
      "1584": 5815,
      "1980": 5816,
      "1909": 5817,
      "maz": 5818,
      "6923": 5819,
      "8964": 5820,
      "8516": 5821,
      "adiana": 5822,
      "tari": 5823,
      "6734": 5824,
      "carritoparos": 5825,
      "8716": 5826,
      "8625": 5827,
      "8615": 5828,
      "3418": 5829,
      "8375": 5830,
      "ramo": 5831,
      "ebo": 5832,
      "use": 5833,
      "9930": 5834,
      "7728": 5835,
      "6887": 5836,
      "3328": 5837,
      "alina": 5838,
      "5977": 5839,
      "5469": 5840,
      "wick": 5841,
      "7263": 5842,
      "9365": 5843,
      "Alc": 5844,
      "Alto": 5845,
      "Alvarez": 5846,
      "tanto": 5847,
      "tugal": 5848,
      "uelo": 5849,
      "Guar": 5850,
      "gua": 5851,
      "Barber": 5852,
      "Juli": 5853,
      "Baix": 5854,
      "yama": 5855,
      "Palmas": 5856,
      "munt": 5857,
      "Huer": 5858,
      "Bern": 5859,
      "37621": 5860,
      "atanto": 5861,
      "Lopez": 5862,
      "Hernandez": 5863,
      "Indu": 5864,
      "Calatra": 5865,
      "Palacios": 5866,
      "informatica": 5867,
      "campo": 5868,
      "Esteban": 5869,
      "montamont": 5870,
      "Catalan": 5871,
      "health": 5872,
      "zarahealth": 5873,
      "Monasterio": 5874,
      "tantomontamont": 5875,
      "tantomontamontatanto": 5876,
      "Ac": 5877,
      "Cali": 5878,
      "Cerra": 5879,
      "Dora": 5880,
      "Ili": 5881,
      "Jor": 5882,
      "Larra": 5883,
      "Pera": 5884,
      "Qk": 5885,
      "Sha": 5886,
      "Vid": 5887,
      "Vit": 5888,
      "Yas": 5889,
      "box": 5890,
      "ful": 5891,
      "igo": 5892,
      "jam": 5893,
      "mundo": 5894,
      "nos": 5895,
      "nsito": 5896,
      "rE": 5897,
      "rau": 5898,
      "sos": 5899,
      "sio": 5900,
      "uy": 5901,
      "uz": 5902,
      "enzuela": 5903,
      "agen": 5904,
      "cep": 5905,
      "8024": 5906,
      "ageles": 5907,
      "lea": 5908,
      "inger": 5909,
      "eto": 5910,
      "2521": 5911,
      "2505": 5912,
      "2555": 5913,
      "2577": 5914,
      "isio": 5915,
      "motor": 5916,
      "urt": 5917,
      "urce": 5918,
      "4013": 5919,
      "caraz": 5920,
      "noti": 5921,
      "logon": 5922,
      "eso": 5923,
      "rilla": 5924,
      "assa": 5925,
      "2020": 5926,
      "2044": 5927,
      "2098": 5928,
      "2985": 5929,
      "2944": 5930,
      "2948": 5931,
      "3854": 5932,
      "2219": 5933,
      "6428": 5934,
      "6455": 5935,
      "6468": 5936,
      "6457": 5937,
      "6594": 5938,
      "6578": 5939,
      "1594": 5940,
      "1595": 5941,
      "1960": 5942,
      "3991": 5943,
      "6919": 5944,
      "2885": 5945,
      "2888": 5946,
      "illos": 5947,
      "8587": 5948,
      "atriz": 5949,
      "7542": 5950,
      "3578": 5951,
      "8680": 5952,
      "8434": 5953,
      "9437": 5954,
      "8310": 5955,
      "idor": 5956,
      "1812": 5957,
      "7920": 5958,
      "uso": 5959,
      "7610": 5960,
      "Coll": 5961,
      "Colon": 5962,
      "5812": 5963,
      "5320": 5964,
      "0790": 5965,
      "9265": 5966,
      "ados": 5967,
      "Alde": 5968,
      "Sanchez": 5969,
      "delavida": 5970,
      "zaro": 5971,
      "mane": 5972,
      "Mari": 5973,
      "Carras": 5974,
      "Jui": 5975,
      "hote": 5976,
      "Palom": 5977,
      "Dels": 5978,
      "Huerta": 5979,
      "Bergu": 5980,
      "Eula": 5981,
      "Fuen": 5982,
      "illas": 5983,
      "raso": 5984,
      "Ferre": 5985,
      "Fernandez": 5986,
      "Salvador": 5987,
      "pintor": 5988,
      "Joa": 5989,
      "Forn": 5990,
      "cursos": 5991,
      "devuelos": 5992,
      "espacio": 5993,
      "Planelles": 5994,
      "multas": 5995,
      "andomucho": 5996,
      "nillos": 5997,
      "ropadegolf": 5998,
      "inventos": 5999,
      "pintandomucho": 6000,
      "elsentido": 6001,
      "agelespa": 6002,
      "elsentidodelavida": 6003,
      "+*": 6004,
      "4253": 6005,
      "=+": 6006,
      "Bs": 6007,
      "Der": 6008,
      "Edel": 6009,
      "IJ": 6010,
      "Ica": 6011,
      "Jes": 6012,
      "Lag": 6013,
      "NG": 6014,
      "Oro": 6015,
      "RP": 6016,
      "Tera": 6017,
      "Var": 6018,
      "Yago": 6019,
      "ang": 6020,
      "aad": 6021,
      "bw": 6022,
      "bag": 6023,
      "bat": 6024,
      "cent": 6025,
      "elo": 6026,
      "eza": 6027,
      "fru": 6028,
      "gna": 6029,
      "gru": 6030,
      "iber": 6031,
      "kat": 6032,
      "lj": 6033,
      "mona": 6034,
      "ndi": 6035,
      "pag": 6036,
      "ping": 6037,
      "sun": 6038,
      "sher": 6039,
      "token": 6040,
      "wan": 6041,
      "yvi": 6042,
      "tet": 6043,
      "lap": 6044,
      "lagon": 6045,
      "lawn": 6046,
      "encial": 6047,
      "inar": 6048,
      "inas": 6049,
      "inst": 6050,
      "aggio": 6051,
      "xta": 6052,
      "dam": 6053,
      "serv": 6054,
      "ingeni": 6055,
      "Moli": 6056,
      "quie": 6057,
      "2581": 6058,
      "rob": 6059,
      "rot": 6060,
      "rodo": 6061,
      "2789": 6062,
      "2798": 6063,
      "2759": 6064,
      "uru": 6065,
      "uras": 6066,
      "4027": 6067,
      "4031": 6068,
      "foro": 6069,
      "1012": 6070,
      "pell": 6071,
      "2084": 6072,
      "2012": 6073,
      "nic": 6074,
      "night": 6075,
      "1705": 6076,
      "1510": 6077,
      "1567": 6078,
      "1500": 6079,
      "1544": 6080,
      "malla": 6081,
      "2869": 6082,
      "2831": 6083,
      "miel": 6084,
      "8974": 6085,
      "2320": 6086,
      "2369": 6087,
      "2342": 6088,
      "Reza": 6089,
      "1313": 6090,
      "7054": 6091,
      "8515": 6092,
      "6739": 6093,
      "6794": 6094,
      "3014": 6095,
      "3085": 6096,
      "1124": 6097,
      "8730": 6098,
      "2417": 6099,
      "2435": 6100,
      "7513": 6101,
      "7505": 6102,
      "3574": 6103,
      "8640": 6104,
      "8411": 6105,
      "2620": 6106,
      "2660": 6107,
      "2618": 6108,
      "auth": 6109,
      "2160": 6110,
      "2124": 6111,
      "8360": 6112,
      "3714": 6113,
      "1870": 6114,
      "1611": 6115,
      "1687": 6116,
      "FFFD": 6117,
      "7884": 6118,
      "7123": 6119,
      "6828": 6120,
      "8883": 6121,
      "4714": 6122,
      "good": 6123,
      "mares": 6124,
      "3239": 6125,
      "9775": 6126,
      "heim": 6127,
      "vella": 6128,
      "9263": 6129,
      "ady": 6130,
      "ummer": 6131,
      "olsa": 6132,
      "9891": 6133,
      "Alco": 6134,
      "Pare": 6135,
      "source": 6136,
      "Gui": 6137,
      "llero": 6138,
      "Roman": 6139,
      "orge": 6140,
      "tort": 6141,
      "Montor": 6142,
      "Tormes": 6143,
      "26321": 6144,
      "chih": 6145,
      "8703": 6146,
      "3748": 6147,
      "yola": 6148,
      "3302": 6149,
      "andras": 6150,
      "EFAF": 6151,
      "emp": 6152,
      "Ferr": 6153,
      "drae": 6154,
      "Mira": 6155,
      "Cerro": 6156,
      "pinosa": 6157,
      "Murillo": 6158,
      "Olme": 6159,
      "Tarciano": 6160,
      "Blanco": 6161,
      "Romera": 6162,
      "presti": 6163,
      "easyvi": 6164,
      "atorre": 6165,
      "hispa": 6166,
      "Calatrava": 6167,
      "Cerrato": 6168,
      "noticias": 6169,
      "aadsl": 6170,
      "easyviaggio": 6171,
      "0876": 6172,
      "Aro": 6173,
      "Aba": 6174,
      "Amor": 6175,
      "Areg": 6176,
      "AQk": 6177,
      "BK": 6178,
      "BYa": 6179,
      "Cros": 6180,
      "Cres": 6181,
      "Cho": 6182,
      "Cela": 6183,
      "Ceci": 6184,
      "DS": 6185,
      "FY": 6186,
      "Fol": 6187,
      "Hh": 6188,
      "Hen": 6189,
      "Han": 6190,
      "HQu": 6191,
      "Iz": 6192,
      "JN": 6193,
      "Kmh": 6194,
      "KJui": 6195,
      "LJ": 6196,
      "LV": 6197,
      "MI": 6198,
      "NX": 6199,
      "Nld": 6200,
      "Of": 6201,
      "Oo": 6202,
      "PV": 6203,
      "Pq": 6204,
      "PKJui": 6205,
      "RI": 6206,
      "Tamar": 6207,
      "Uo": 6208,
      "Vz": 6209,
      "ZnIiwidG": 6210,
      "bina": 6211,
      "bby": 6212,
      "bHQu": 6213,
      "cci": 6214,
      "dB": 6215,
      "dino": 6216,
      "ev": 6217,
      "frec": 6218,
      "fel": 6219,
      "fVz": 6220,
      "gx": 6221,
      "gell": 6222,
      "hon": 6223,
      "hsz": 6224,
      "iy": 6225,
      "iFY": 6226,
      "jFg": 6227,
      "kos": 6228,
      "kDo": 6229,
      "lcy": 6230,
      "mF": 6231,
      "mz": 6232,
      "nHY": 6233,
      "oad": 6234,
      "pX": 6235,
      "pBE": 6236,
      "qDS": 6237,
      "qhsz": 6238,
      "rag": 6239,
      "sue": 6240,
      "sGY": 6241,
      "sPKJui": 6242,
      "tf": 6243,
      "ulo": 6244,
      "ucy": 6245,
      "uqhsz": 6246,
      "vn": 6247,
      "vq": 6248,
      "vYW": 6249,
      "vUo": 6250,
      "wer": 6251,
      "xvYW": 6252,
      "yic": 6253,
      "tista": 6254,
      "lah": 6255,
      "lat": 6256,
      "deal": 6257,
      "deteat": 6258,
      "apo": 6259,
      "apoli": 6260,
      "applications": 6261,
      "8044": 6262,
      "8007": 6263,
      "orra": 6264,
      "day": 6265,
      "server": 6266,
      "playa": 6267,
      "2510": 6268,
      "pul": 6269,
      "roy": 6270,
      "2745": 6271,
      "4069": 6272,
      "4007": 6273,
      "pear": 6274,
      "riza": 6275,
      "rique": 6276,
      "asa": 6277,
      "2079": 6278,
      "nit": 6279,
      "6339": 6280,
      "6334": 6281,
      "2937": 6282,
      "1784": 6283,
      "1704": 6284,
      "3869": 6285,
      "3824": 6286,
      "sso": 6287,
      "ioAQk": 6288,
      "6414": 6289,
      "6499": 6290,
      "6471": 6291,
      "6505": 6292,
      "6068": 6293,
      "6007": 6294,
      "1538": 6295,
      "1505": 6296,
      "1599": 6297,
      "1947": 6298,
      "1904": 6299,
      "7463": 6300,
      "7450": 6301,
      "max": 6302,
      "3967": 6303,
      "6974": 6304,
      "6924": 6305,
      "6905": 6306,
      "6953": 6307,
      "tode": 6308,
      "2374": 6309,
      "2348": 6310,
      "2349": 6311,
      "1355": 6312,
      "1307": 6313,
      "7068": 6314,
      "8590": 6315,
      "3089": 6316,
      "BADA": 6317,
      "2474": 6318,
      "2484": 6319,
      "2444": 6320,
      "9043": 6321,
      "7535": 6322,
      "7599": 6323,
      "3530": 6324,
      "8685": 6325,
      "8460": 6326,
      "8466": 6327,
      "8340": 6328,
      "8379": 6329,
      "3624": 6330,
      "1881": 6331,
      "1661": 6332,
      "7987": 6333,
      "EEOf": 6334,
      "wdsl": 6335,
      "9914": 6336,
      "terry": 6337,
      "6838": 6338,
      "1001": 6339,
      "4984": 6340,
      "issa": 6341,
      "3329": 6342,
      "09390": 6343,
      "6167": 6344,
      "4180": 6345,
      "AFvUo": 6346,
      "wiOiJ": 6347,
      "7269": 6348,
      "Gomez": 6349,
      "Pastor": 6350,
      "Callejon": 6351,
      "Quir": 6352,
      "adul": 6353,
      "DOp": 6354,
      "abe": 6355,
      "Almen": 6356,
      "iOuqhsz": 6357,
      "valo": 6358,
      "bou": 6359,
      "VibG": 6360,
      "NTc": 6361,
      "IiwiZW": 6362,
      "MzEEOf": 6363,
      "lujy": 6364,
      "Marcos": 6365,
      "Juana": 6366,
      "lIjoiIiwiZW": 6367,
      "Legu": 6368,
      "Sem": 6369,
      "Agueda": 6370,
      "thur": 6371,
      "enav": 6372,
      "OTR": 6373,
      "ExO": 6374,
      "Puerta": 6375,
      "rett": 6376,
      "Campa": 6377,
      "cHjFg": 6378,
      "cHVibG": 6379,
      "CiBK": 6380,
      "RlZmF": 6381,
      "Peral": 6382,
      "ltYWdlcy": 6383,
      "ZSsGY": 6384,
      "juIq": 6385,
      "zHBYa": 6386,
      "HZysi": 6387,
      "frVX": 6388,
      "SuFK": 6389,
      "register": 6390,
      "danie": 6391,
      "ODk": 6392,
      "haWwiOiJ": 6393,
      "amarina": 6394,
      "wZqDS": 6395,
      "khil": 6396,
      "HMvcHVibG": 6397,
      "cGxvYW": 6398,
      "Ignac": 6399,
      "escuela": 6400,
      "FIkX": 6401,
      "indote": 6402,
      "MDAiLCJkZWxldGVkQXQiOm": 6403,
      "Picabea": 6404,
      "Federico": 6405,
      "SPkDo": 6406,
      "Nelma": 6407,
      "cafedeteat": 6408,
      "hojainformativas": 6409,
      "rocofer": 6410,
      "IJSPkDo": 6411,
      "ljL": 6412,
      "HhExO": 6413,
      "KmhIJSPkDo": 6414,
      "LVFIkX": 6415,
      "NldHMvcHVibG": 6416,
      "PVdB": 6417,
      "bHQuc": 6418,
      "fVzZSsGY": 6419,
      "gxl": 6420,
      "iyiOuqhsz": 6421,
      "iFYy": 6422,
      "nHYOo": 6423,
      "oadLJ": 6424,
      "pBESuFK": 6425,
      "sPKJuiioAQk": 6426,
      "AFvUojuIq": 6427,
      "MzEEOfzHBYa": 6428,
      "lujyfVzZSsGY": 6429,
      "cHjFgPq": 6430,
      "CiBKcHjFgPq": 6431,
      "HZysiKmhIJSPkDo": 6432,
      "frVXdv": 6433,
      "haWwiOiJucy": 6434,
      "cGxvYWRzL": 6435,
      "cafedeteatro": 6436,
      "LVFIkXwZqDS": 6437,
      "NldHMvcHVibGljL": 6438,
      "iyiOuqhszfrVXdv": 6439,
      "sPKJuiioAQkN": 6440,
      "AFvUojuIqNX": 6441,
      "MzEEOfzHBYaH": 6442,
      "HZysiKmhIJSPkDoyic": 6443,
      "Alar": 6444,
      "Bul": 6445,
      "Borges": 6446,
      "Fonti": 6447,
      "Gil": 6448,
      "Ha": 6449,
      "Iver": 6450,
      "Jard": 6451,
      "Jorge": 6452,
      "Lim": 6453,
      "Mes": 6454,
      "Meli": 6455,
      "Nat": 6456,
      "Plas": 6457,
      "Sad": 6458,
      "Tre": 6459,
      "Tran": 6460,
      "Up": 6461,
      "Vol": 6462,
      "amo": 6463,
      "bh": 6464,
      "cons": 6465,
      "dfau": 6466,
      "eN": 6467,
      "eum": 6468,
      "mun": 6469,
      "nau": 6470,
      "tac": 6471,
      "ute": 6472,
      "uza": 6473,
      "vor": 6474,
      "ying": 6475,
      "yiu": 6476,
      "tie": 6477,
      "lamar": 6478,
      "ench": 6479,
      "lik": 6480,
      "lich": 6481,
      "caser": 6482,
      "carell": 6483,
      "oseg": 6484,
      "ceros": 6485,
      "ptog": 6486,
      "ere": 6487,
      "erro": 6488,
      "erner": 6489,
      "deux": 6490,
      "apart": 6491,
      "8086": 6492,
      "8037": 6493,
      "8000": 6494,
      "leo": 6495,
      "leen": 6496,
      "lejo": 6497,
      "lets": 6498,
      "serrat": 6499,
      "arco": 6500,
      "rea": 6501,
      "reba": 6502,
      "2509": 6503,
      "cil": 6504,
      "pura": 6505,
      "dion": 6506,
      "dida": 6507,
      "2780": 6508,
      "2726": 6509,
      "2716": 6510,
      "4020": 6511,
      "4030": 6512,
      "aly": 6513,
      "1064": 6514,
      "1045": 6515,
      "1043": 6516,
      "cara": 6517,
      "noc": 6518,
      "anz": 6519,
      "ester": 6520,
      "6380": 6521,
      "6360": 6522,
      "2238": 6523,
      "2285": 6524,
      "6448": 6525,
      "6588": 6526,
      "1506": 6527,
      "15399": 6528,
      "1990": 6529,
      "1901": 6530,
      "7491": 6531,
      "3974": 6532,
      "3989": 6533,
      "6960": 6534,
      "2819": 6535,
      "8954": 6536,
      "8951": 6537,
      "1338": 6538,
      "1334": 6539,
      "1308": 6540,
      "7055": 6541,
      "4520": 6542,
      "4514": 6543,
      "4519": 6544,
      "8544": 6545,
      "8546": 6546,
      "6740": 6547,
      "EDCA": 6548,
      "carritos": 6549,
      "3010": 6550,
      "3009": 6551,
      "1188": 6552,
      "8755": 6553,
      "8782": 6554,
      "2423": 6555,
      "2445": 6556,
      "FAs": 6557,
      "8617": 6558,
      "8496": 6559,
      "FCDC": 6560,
      "2689": 6561,
      "EABD": 6562,
      "meu": 6563,
      "3794": 6564,
      "CADD": 6565,
      "6616": 6566,
      "7186": 6567,
      "5029": 6568,
      "5083": 6569,
      "6825": 6570,
      "4975": 6571,
      "3315": 6572,
      "3324": 6573,
      "incorrectassessionid": 6574,
      "witz": 6575,
      "7265": 6576,
      "8110": 6577,
      "joan": 6578,
      "9729": 6579,
      "portugal": 6580,
      "ategui": 6581,
      "well": 6582,
      "modelos": 6583,
      "bmit": 6584,
      "ultor": 6585,
      "Alman": 6586,
      "hiro": 6587,
      "tuve": 6588,
      "Arqui": 6589,
      "neu": 6590,
      "hay": 6591,
      "Guzm": 6592,
      "Marques": 6593,
      "Casar": 6594,
      "Barr": 6595,
      "uridad": 6596,
      "bek": 6597,
      "culares": 6598,
      "2408": 6599,
      "schn": 6600,
      "Pilar": 6601,
      "andre": 6602,
      "Perio": 6603,
      "garri": 6604,
      "Bureba": 6605,
      "BCBC": 6606,
      "Lihue": 6607,
      "Fernan": 6608,
      "zgordo": 6609,
      "Lozana": 6610,
      "Mila": 6611,
      "Traver": 6612,
      "Estrella": 6613,
      "worth": 6614,
      "Virma": 6615,
      "Dios": 6616,
      "Trist": 6617,
      "museum": 6618,
      "zone": 6619,
      "jeres": 6620,
      "software": 6621,
      "travelzone": 6622,
      "Noguer": 6623,
      "FunNG": 6624,
      "clubde": 6625,
      "iguera": 6626,
      "Merced": 6627,
      "raphy": 6628,
      "encuentrodo": 6629,
      "loads": 6630,
      "sanchezgordo": 6631,
      "minios": 6632,
      "dfault": 6633,
      "yiutuve": 6634,
      "oseguridad": 6635,
      "ptography": 6636,
      "carritosessionid": 6637,
      "FunNGames": 6638,
      "encuentrodominios": 6639,
      "4194": 6640,
      "Ame": 6641,
      "Ador": 6642,
      "Bes": 6643,
      "Fin": 6644,
      "Fal": 6645,
      "Feix": 6646,
      "Hino": 6647,
      "Hello": 6648,
      "IZ": 6649,
      "Log": 6650,
      "Met": 6651,
      "Ob": 6652,
      "Pis": 6653,
      "Pes": 6654,
      "Pesca": 6655,
      "RA": 6656,
      "Rosa": 6657,
      "Sing": 6658,
      "Ses": 6659,
      "Vin": 6660,
      "Zab": 6661,
      "alo": 6662,
      "cena": 6663,
      "dista": 6664,
      "eti": 6665,
      "gla": 6666,
      "hart": 6667,
      "hana": 6668,
      "ires": 6669,
      "kil": 6670,
      "montijo": 6671,
      "ole": 6672,
      "ofertas": 6673,
      "ominas": 6674,
      "plo": 6675,
      "pit": 6676,
      "rI": 6677,
      "sor": 6678,
      "vana": 6679,
      "wy": 6680,
      "wing": 6681,
      "ward": 6682,
      "xavi": 6683,
      "yl": 6684,
      "once": 6685,
      "tiz": 6686,
      "tida": 6687,
      "tez": 6688,
      "enig": 6689,
      "caju": 6690,
      "camp": 6691,
      "camonte": 6692,
      "instein": 6693,
      "erna": 6694,
      "dese": 6695,
      "delia": 6696,
      "osta": 6697,
      "8051": 6698,
      "loc": 6699,
      "lola": 6700,
      "lome": 6701,
      "arda": 6702,
      "arse": 6703,
      "Molt": 6704,
      "Molinos": 6705,
      "2513": 6706,
      "2585": 6707,
      "25253": 6708,
      "pug": 6709,
      "ntra": 6710,
      "mbla": 6711,
      "mbri": 6712,
      "rom": 6713,
      "rola": 6714,
      "2794": 6715,
      "2795": 6716,
      "4085": 6717,
      "4026": 6718,
      "4095": 6719,
      "1036": 6720,
      "nold": 6721,
      "estel": 6722,
      "2027": 6723,
      "2095": 6724,
      "2082": 6725,
      "2046": 6726,
      "nikhil": 6727,
      "6340": 6728,
      "6355": 6729,
      "2984": 6730,
      "2905": 6731,
      "2936": 6732,
      "3875": 6733,
      "3868": 6734,
      "3881": 6735,
      "3896": 6736,
      "1450": 6737,
      "2289": 6738,
      "6458": 6739,
      "6451": 6740,
      "6514": 6741,
      "6513": 6742,
      "6518": 6743,
      "1927": 6744,
      "1965": 6745,
      "1921": 6746,
      "7467": 6747,
      "6985": 6748,
      "6957": 6749,
      "6908": 6750,
      "2868": 6751,
      "2847": 6752,
      "2896": 6753,
      "8914": 6754,
      "2343": 6755,
      "2352": 6756,
      "1305": 6757,
      "1358": 6758,
      "7014": 6759,
      "7024": 6760,
      "7094": 6761,
      "7095": 6762,
      "4539": 6763,
      "8528": 6764,
      "tarra": 6765,
      "6795": 6766,
      "EDFB": 6767,
      "3065": 6768,
      "2494": 6769,
      "9005": 6770,
      "9004": 6771,
      "7567": 6772,
      "DDDC": 6773,
      "FAl": 6774,
      "FAFF": 6775,
      "3599": 6776,
      "3512": 6777,
      "8444": 6778,
      "3486": 6779,
      "3471": 6780,
      "EABA": 6781,
      "chon": 6782,
      "2161": 6783,
      "8320": 6784,
      "melo": 6785,
      "3784": 6786,
      "idencial": 6787,
      "3667": 6788,
      "1680": 6789,
      "16638": 6790,
      "7915": 6791,
      "cordoba": 6792,
      "CDa": 6793,
      "3124": 6794,
      "9989": 6795,
      "9995": 6796,
      "9931": 6797,
      "castig": 6798,
      "6820": 6799,
      "6839": 6800,
      "7329": 6801,
      "ners": 6802,
      "2708": 6803,
      "4989": 6804,
      "10189": 6805,
      "ACED": 6806,
      "alidad": 6807,
      "4110": 6808,
      "5434": 6809,
      "7240": 6810,
      "joubi": 6811,
      "joudi": 6812,
      "ffer": 6813,
      "2502": 6814,
      "9140": 6815,
      "portes": 6816,
      "5610": 6817,
      "0345": 6818,
      "Sang": 6819,
      "baco": 6820,
      "12230": 6821,
      "bous": 6822,
      "onomos": 6823,
      "luts": 6824,
      "bios": 6825,
      "bijoubi": 6826,
      "Barto": 6827,
      "llon": 6828,
      "Corominas": 6829,
      "Espe": 6830,
      "Monta": 6831,
      "chicas": 6832,
      "Rambla": 6833,
      "construc": 6834,
      "pic": 6835,
      "Pola": 6836,
      "Anda": 6837,
      "ferente": 6838,
      "gener": 6839,
      "amiento": 6840,
      "Garros": 6841,
      "jean": 6842,
      "Rub": 6843,
      "bypass": 6844,
      "more": 6845,
      "mori": 6846,
      "portal": 6847,
      "Pinar": 6848,
      "Gala": 6849,
      "Vilanova": 6850,
      "ugh": 6851,
      "farma": 6852,
      "Gracia": 6853,
      "gesaut": 6854,
      "Horte": 6855,
      "Silva": 6856,
      "wood": 6857,
      "Residencial": 6858,
      "Sagra": 6859,
      "catalog": 6860,
      "Gonza": 6861,
      "Praza": 6862,
      "aplasticacordoba": 6863,
      "Oficial": 6864,
      "Medina": 6865,
      "Isidro": 6866,
      "cirugiaplasticacordoba": 6867,
      "Gregorio": 6868,
      "Eulalia": 6869,
      "Aregall": 6870,
      "Zabala": 6871,
      "enigma": 6872,
      "cajucar": 6873,
      "joudiferente": 6874,
      "lutscht": 6875,
      "bijoubijoudiferente": 6876,
      "construccion": 6877,
      "gesautonomos": 6878,
      "AFAA": 6879,
      "Bis": 6880,
      "Cn": 6881,
      "Dac": 6882,
      "Dami": 6883,
      "ES": 6884,
      "EEBC": 6885,
      "Esta": 6886,
      "Flu": 6887,
      "Har": 6888,
      "Mie": 6889,
      "Nuevo": 6890,
      "Pau": 6891,
      "Plu": 6892,
      "Ste": 6893,
      "Sis": 6894,
      "Sau": 6895,
      "Shar": 6896,
      "Tres": 6897,
      "Van": 6898,
      "bz": 6899,
      "cU": 6900,
      "cles": 6901,
      "cbb": 6902,
      "ccfda": 6903,
      "dg": 6904,
      "eig": 6905,
      "fd": 6906,
      "fri": 6907,
      "fred": 6908,
      "gt": 6909,
      "gab": 6910,
      "iara": 6911,
      "kley": 6912,
      "sg": 6913,
      "sell": 6914,
      "sled": 6915,
      "trar": 6916,
      "xe": 6917,
      "yi": 6918,
      "zA": 6919,
      "zw": 6920,
      "tiano": 6921,
      "labert": 6922,
      "lations": 6923,
      "enda": 6924,
      "aces": 6925,
      "ertos": 6926,
      "demas": 6927,
      "apps": 6928,
      "8020": 6929,
      "8087": 6930,
      "8094": 6931,
      "hostro": 6932,
      "ngel": 6933,
      "htrans": 6934,
      "iem": 6935,
      "leja": 6936,
      "paloma": 6937,
      "iman": 6938,
      "sera": 6939,
      "arab": 6940,
      "arapart": 6941,
      "redo": 6942,
      "digi": 6943,
      "2734": 6944,
      "2783": 6945,
      "2779": 6946,
      "rard": 6947,
      "4077": 6948,
      "4073": 6949,
      "4082": 6950,
      "alcant": 6951,
      "alquiler": 6952,
      "alselec": 6953,
      "1099": 6954,
      "noop": 6955,
      "anza": 6956,
      "estu": 6957,
      "espos": 6958,
      "2030": 6959,
      "2000": 6960,
      "6374": 6961,
      "2910": 6962,
      "2960": 6963,
      "2928": 6964,
      "2933": 6965,
      "2981": 6966,
      "1763": 6967,
      "1758": 6968,
      "3814": 6969,
      "3865": 6970,
      "3867": 6971,
      "1419": 6972,
      "1499": 6973,
      "2229": 6974,
      "2265": 6975,
      "2235": 6976,
      "6040": 6977,
      "6014": 6978,
      "1905": 6979,
      "1907": 6980,
      "7475": 6981,
      "7436": 6982,
      "mao": 6983,
      "3917": 6984,
      "3945": 6985,
      "3985": 6986,
      "3955": 6987,
      "3982": 6988,
      "3957": 6989,
      "6927": 6990,
      "6934": 6991,
      "6909": 6992,
      "2844": 6993,
      "stan": 6994,
      "todo": 6995,
      "8941": 6996,
      "8906": 6997,
      "2340": 6998,
      "2329": 6999,
      "2355": 7000,
      "7075": 7001,
      "4580": 7002,
      "4569": 7003,
      "4578": 7004,
      "adillo": 7005,
      "6764": 7006,
      "6787": 7007,
      "3071": 7008,
      "3006": 7009,
      "1140": 7010,
      "8710": 7011,
      "8731": 7012,
      "BACC": 7013,
      "2429": 7014,
      "2424": 7015,
      "2448": 7016,
      "CCDF": 7017,
      "9078": 7018,
      "7558": 7019,
      "3516": 7020,
      "3500": 7021,
      "3549": 7022,
      "3509": 7023,
      "8475": 7024,
      "3423": 7025,
      "2626": 7026,
      "EACF": 7027,
      "chat": 7028,
      "9490": 7029,
      "9495": 7030,
      "2181": 7031,
      "953439": 7032,
      "8318": 7033,
      "rant": 7034,
      "DAEF": 7035,
      "3664": 7036,
      "18178": 7037,
      "1624": 7038,
      "CDBC": 7039,
      "3169": 7040,
      "6663": 7041,
      "5094": 7042,
      "7740": 7043,
      "7794": 7044,
      "4863": 7045,
      "4974": 7046,
      "4994": 7047,
      "CFFC": 7048,
      "8885": 7049,
      "8835": 7050,
      "BDBA": 7051,
      "0919": 7052,
      "6125": 7053,
      "4167": 7054,
      "Calz": 7055,
      "9180": 7056,
      "brera": 7057,
      "4663": 7058,
      "5815": 7059,
      "Confirmarany": 7060,
      "crip": 7061,
      "Query": 7062,
      "Sada": 7063,
      "zaragoza": 7064,
      "valos": 7065,
      "manzan": 7066,
      "new": 7067,
      "Gual": 7068,
      "luz": 7069,
      "sber": 7070,
      "Curell": 7071,
      "Palo": 7072,
      "Paloma": 7073,
      "Escul": 7074,
      "lasco": 7075,
      "Torrent": 7076,
      "10520": 7077,
      "10320": 7078,
      "allasled": 7079,
      "coni": 7080,
      "Ripol": 7081,
      "2397": 7082,
      "Pico": 7083,
      "BBAC": 7084,
      "achina": 7085,
      "Fuer": 7086,
      "hann": 7087,
      "agua": 7088,
      "villas": 7089,
      "chotel": 7090,
      "cosur": 7091,
      "Astor": 7092,
      "Gilabert": 7093,
      "stock": 7094,
      "uerga": 7095,
      "world": 7096,
      "ajuntamentbcn": 7097,
      "berta": 7098,
      "Angel": 7099,
      "Hornillos": 7100,
      "clichotel": 7101,
      "especi": 7102,
      "Adelqui": 7103,
      "Asad": 7104,
      "Zurita": 7105,
      "artesania": 7106,
      "showcars": 7107,
      "surcosur": 7108,
      "cubiertos": 7109,
      "Teodo": 7110,
      "ClientSideFiltering": 7111,
      "Esgueva": 7112,
      "pantallasled": 7113,
      "strial": 7114,
      "00931975": 7115,
      "font": 7116,
      "Bigorra": 7117,
      "Industrial": 7118,
      "087683": 7119,
      "Periodista": 7120,
      "Pescador": 7121,
      "castigadas": 7122,
      "bacoespeci": 7123,
      "Dacil": 7124,
      "hostrofessional": 7125,
      "htranslations": 7126,
      "arapartners": 7127,
      "alcantarapartners": 7128,
      "alquilerpantallasled": 7129,
      "alselecci": 7130,
      "95343977": 7131,
      "cubiertoscbb": 7132,
      "0093197595343977": 7133,
      "bacoespecialselecci": 7134,
      "2637": 7135,
      "4300": 7136,
      "4344": 7137,
      "4808": 7138,
      "5175": 7139,
      "7900": 7140,
      "ACDF": 7141,
      "Bab": 7142,
      "Bed": 7143,
      "Ball": 7144,
      "Beg": 7145,
      "Cadi": 7146,
      "Chi": 7147,
      "Carta": 7148,
      "Et": 7149,
      "Gio": 7150,
      "Ida": 7151,
      "Ivan": 7152,
      "Jara": 7153,
      "Lar": 7154,
      "Lib": 7155,
      "Luna": 7156,
      "Mul": 7157,
      "Oti": 7158,
      "Pela": 7159,
      "RF": 7160,
      "Rd": 7161,
      "Rinc": 7162,
      "Sas": 7163,
      "SRF": 7164,
      "able": 7165,
      "ct": 7166,
      "cen": 7167,
      "cum": 7168,
      "cOR": 7169,
      "dok": 7170,
      "eR": 7171,
      "fas": 7172,
      "fina": 7173,
      "hp": 7174,
      "hur": 7175,
      "hit": 7176,
      "jO": 7177,
      "jera": 7178,
      "kur": 7179,
      "mio": 7180,
      "mig": 7181,
      "mund": 7182,
      "mpi": 7183,
      "nA": 7184,
      "nand": 7185,
      "oth": 7186,
      "rd": 7187,
      "rac": 7188,
      "sil": 7189,
      "tA": 7190,
      "ysh": 7191,
      "ticas": 7192,
      "tintas": 7193,
      "lao": 7194,
      "lach": 7195,
      "end": 7196,
      "enia": 7197,
      "cob": 7198,
      "cola": 7199,
      "count": 7200,
      "osat": 7201,
      "indi": 7202,
      "zio": 7203,
      "xto": 7204,
      "deven": 7205,
      "design": 7206,
      "aper": 7207,
      "8019": 7208,
      "8034": 7209,
      "8083": 7210,
      "8093": 7211,
      "agement": 7212,
      "oran": 7213,
      "lobar": 7214,
      "data": 7215,
      "dades": 7216,
      "iello": 7217,
      "leSamples": 7218,
      "pado": 7219,
      "iment": 7220,
      "kova": 7221,
      "quillo": 7222,
      "bley": 7223,
      "real": 7224,
      "remos": 7225,
      "roito": 7226,
      "2764": 7227,
      "2713": 7228,
      "2757": 7229,
      "mobley": 7230,
      "urr": 7231,
      "alba": 7232,
      "fort": 7233,
      "1089": 7234,
      "1087": 7235,
      "1094": 7236,
      "petit": 7237,
      "carlos": 7238,
      "ankawa": 7239,
      "2089": 7240,
      "2099": 7241,
      "2081": 7242,
      "nio": 7243,
      "nica": 7244,
      "6385": 7245,
      "6311": 7246,
      "6348": 7247,
      "6393": 7248,
      "6308": 7249,
      "2900": 7250,
      "1764": 7251,
      "1719": 7252,
      "1774": 7253,
      "1785": 7254,
      "1753": 7255,
      "3882": 7256,
      "1425": 7257,
      "1449": 7258,
      "roso": 7259,
      "2228": 7260,
      "2237": 7261,
      "2244": 7262,
      "2248": 7263,
      "6465": 7264,
      "6439": 7265,
      "6580": 7266,
      "6535": 7267,
      "6536": 7268,
      "6027": 7269,
      "6028": 7270,
      "1511": 7271,
      "1548": 7272,
      "1547": 7273,
      "1502": 7274,
      "1967": 7275,
      "1987": 7276,
      "1955": 7277,
      "7485": 7278,
      "7473": 7279,
      "3920": 7280,
      "3947": 7281,
      "6946": 7282,
      "2817": 7283,
      "2814": 7284,
      "2854": 7285,
      "ilena": 7286,
      "tomo": 7287,
      "8987": 7288,
      "8975": 7289,
      "8995": 7290,
      "Redon": 7291,
      "1350": 7292,
      "7034": 7293,
      "7061": 7294,
      "4589": 7295,
      "4595": 7296,
      "4579": 7297,
      "direct": 7298,
      "6751": 7299,
      "EDFD": 7300,
      "ampa": 7301,
      "aman": 7302,
      "3030": 7303,
      "3034": 7304,
      "1113": 7305,
      "8779": 7306,
      "2467": 7307,
      "2482": 7308,
      "atos": 7309,
      "CCEE": 7310,
      "9014": 7311,
      "7544": 7312,
      "DDDA": 7313,
      "8482": 7314,
      "3463": 7315,
      "2629": 7316,
      "2129": 7317,
      "2189": 7318,
      "EBCD": 7319,
      "9536": 7320,
      "8311": 7321,
      "05279": 7322,
      "mee": 7323,
      "3775": 7324,
      "BBDB": 7325,
      "ebe": 7326,
      "1880": 7327,
      "1882": 7328,
      "5562": 7329,
      "AADA": 7330,
      "AAAB": 7331,
      "CDED": 7332,
      "CDBD": 7333,
      "7822": 7334,
      "lesias": 7335,
      "DBCF": 7336,
      "7184": 7337,
      "9874": 7338,
      "9882": 7339,
      "EFFC": 7340,
      "48220": 7341,
      "6863": 7342,
      "1269": 7343,
      "12170": 7344,
      "7367": 7345,
      "1003": 7346,
      "1004": 7347,
      "baldo": 7348,
      "discon": 7349,
      "6164": 7350,
      "5729": 7351,
      "5465": 7352,
      "8180": 7353,
      "3217": 7354,
      "3267": 7355,
      "9728": 7356,
      "Maz": 7357,
      "7665": 7358,
      "9138": 7359,
      "5163": 7360,
      "itan": 7361,
      "0323": 7362,
      "Alhama": 7363,
      "Parque": 7364,
      "hibri": 7365,
      "verd": 7366,
      "bao": 7367,
      "management": 7368,
      "ture": 7369,
      "nato": 7370,
      "Arce": 7371,
      "rana": 7372,
      "Guadiana": 7373,
      "fotosero": 7374,
      "respon": 7375,
      "Marina": 7376,
      "Cay": 7377,
      "sev": 7378,
      "Segarra": 7379,
      "Corta": 7380,
      "torio": 7381,
      "toria": 7382,
      "lanca": 7383,
      "miami": 7384,
      "bee": 7385,
      "Agus": 7386,
      "baran": 7387,
      "desinventos": 7388,
      "1650": 7389,
      "19490": 7390,
      "Boli": 7391,
      "Boix": 7392,
      "conac": 7393,
      "Ricar": 7394,
      "tespersonales": 7395,
      "15613": 7396,
      "shin": 7397,
      "introito": 7398,
      "Sola": 7399,
      "fernand": 7400,
      "Ferran": 7401,
      "jugue": 7402,
      "banking": 7403,
      "Submit": 7404,
      "vasi": 7405,
      "yuan": 7406,
      "salvador": 7407,
      "chev": 7408,
      "prensa": 7409,
      "osoto": 7410,
      "Agua": 7411,
      "Castille": 7412,
      "Application": 7413,
      "green": 7414,
      "enlaplaya": 7415,
      "gonza": 7416,
      "andaluz": 7417,
      "Simple": 7418,
      "unidades": 7419,
      "franca": 7420,
      "tillero": 7421,
      "videos": 7422,
      "grandesinventos": 7423,
      "fleur": 7424,
      "Sarri": 7425,
      "audiosat": 7426,
      "Martinez": 7427,
      "49372725": 7428,
      "Sebastian": 7429,
      "tilacion": 7430,
      "Orion": 7431,
      "Alameda": 7432,
      "ringringrent": 7433,
      "santcugatpisos": 7434,
      "Pancr": 7435,
      "Aguilar": 7436,
      "privatebanking": 7437,
      "Marcelino": 7438,
      "comercios": 7439,
      "Baixada": 7440,
      "cursosenlaplaya": 7441,
      "Abajo": 7442,
      "Ignacio": 7443,
      "deuxmanagement": 7444,
      "SingleSamples": 7445,
      "xavipetit": 7446,
      "tintasultravioleta": 7447,
      "deventilacion": 7448,
      "ankawaelda": 7449,
      "hibridos": 7450,
      "fotoseroticas": 7451,
      "fernandosoto": 7452,
      "juguetespersonales": 7453,
      "prensahp": 7454,
      "unidadesdeventilacion": 7455,
      "**": 7456,
      "2253": 7457,
      "4899": 7458,
      "4388": 7459,
      "6130": 7460,
      "6147": 7461,
      "7299": 7462,
      "8270": 7463,
      "Anti": 7464,
      "Abi": 7465,
      "Abe": 7466,
      "Bru": 7467,
      "BFAB": 7468,
      "Bene": 7469,
      "Cc": 7470,
      "Cry": 7471,
      "Els": 7472,
      "EECA": 7473,
      "EEBD": 7474,
      "Emanuel": 7475,
      "Fd": 7476,
      "Fri": 7477,
      "FCCB": 7478,
      "FEDE": 7479,
      "Igu": 7480,
      "Jun": 7481,
      "Monti": 7482,
      "Munt": 7483,
      "Nd": 7484,
      "Neb": 7485,
      "Ola": 7486,
      "Ras": 7487,
      "ST": 7488,
      "Son": 7489,
      "Terra": 7490,
      "Vali": 7491,
      "Vaz": 7492,
      "Zap": 7493,
      "Zul": 7494,
      "ato": 7495,
      "bad": 7496,
      "bart": 7497,
      "cT": 7498,
      "clar": 7499,
      "dura": 7500,
      "ever": 7501,
      "gU": 7502,
      "ggs": 7503,
      "hes": 7504,
      "jag": 7505,
      "kle": 7506,
      "mera": 7507,
      "moso": 7508,
      "ou": 7509,
      "opel": 7510,
      "pk": 7511,
      "sco": 7512,
      "ub": 7513,
      "uar": 7514,
      "woff": 7515,
      "who": 7516,
      "zosa": 7517,
      "tifica": 7518,
      "tex": 7519,
      "telog": 7520,
      "cap": 7521,
      "cass": 7522,
      "camente": 7523,
      "inal": 7524,
      "into": 7525,
      "inaldo": 7526,
      "deenlaces": 7527,
      "8030": 7528,
      "8005": 7529,
      "8055": 7530,
      "8054": 7531,
      "8091": 7532,
      "lot": 7533,
      "lock": 7534,
      "arro": 7535,
      "nunci": 7536,
      "llares": 7537,
      "comp": 7538,
      "revi": 7539,
      "2542": 7540,
      "cipal": 7541,
      "rol": 7542,
      "rocke": 7543,
      "dig": 7544,
      "2755": 7545,
      "dola": 7546,
      "40906": 7547,
      "40943": 7548,
      "alles": 7549,
      "almas": 7550,
      "1070": 7551,
      "1090": 7552,
      "1049": 7553,
      "peines": 7554,
      "ricio": 7555,
      "2080": 7556,
      "nier": 7557,
      "nich": 7558,
      "nill": 7559,
      "2911": 7560,
      "2995": 7561,
      "1730": 7562,
      "1724": 7563,
      "1761": 7564,
      "1741": 7565,
      "1772": 7566,
      "3874": 7567,
      "3833": 7568,
      "1470": 7569,
      "1477": 7570,
      "iola": 7571,
      "2246": 7572,
      "6440": 7573,
      "6473": 7574,
      "6540": 7575,
      "6569": 7576,
      "6584": 7577,
      "6549": 7578,
      "6036": 7579,
      "6078": 7580,
      "6033": 7581,
      "1539": 7582,
      "1512": 7583,
      "1983": 7584,
      "1979": 7585,
      "1948": 7586,
      "7430": 7587,
      "7416": 7588,
      "7479": 7589,
      "maher": 7590,
      "3937": 7591,
      "3999": 7592,
      "6965": 7593,
      "6967": 7594,
      "6950": 7595,
      "6947": 7596,
      "2884": 7597,
      "promotor": 7598,
      "8940": 7599,
      "8916": 7600,
      "2375": 7601,
      "2305": 7602,
      "1320": 7603,
      "1315": 7604,
      "1354": 7605,
      "7064": 7606,
      "4528": 7607,
      "4555": 7608,
      "4500": 7609,
      "4504": 7610,
      "8534": 7611,
      "vino": 7612,
      "6720": 7613,
      "6719": 7614,
      "6769": 7615,
      "6789": 7616,
      "6736": 7617,
      "6733": 7618,
      "EDf": 7619,
      "EDAC": 7620,
      "EDne": 7621,
      "carritoSet": 7622,
      "1168": 7623,
      "BABA": 7624,
      "2437": 7625,
      "2497": 7626,
      "CCEC": 7627,
      "CCFD": 7628,
      "FBDD": 7629,
      "FBBD": 7630,
      "9045": 7631,
      "9094": 7632,
      "9044": 7633,
      "9048": 7634,
      "7550": 7635,
      "DDEA": 7636,
      "DDAA": 7637,
      "DDDB": 7638,
      "FAn": 7639,
      "FAr": 7640,
      "FACD": 7641,
      "FAAB": 7642,
      "3580": 7643,
      "8674": 7644,
      "ECDA": 7645,
      "ECBE": 7646,
      "8418": 7647,
      "8478": 7648,
      "8473": 7649,
      "FCBA": 7650,
      "3440": 7651,
      "3437": 7652,
      "2616": 7653,
      "2612": 7654,
      "EADD": 7655,
      "EAEC": 7656,
      "EAEA": 7657,
      "9416": 7658,
      "9412": 7659,
      "FDBD": 7660,
      "2186": 7661,
      "9594": 7662,
      "jano": 7663,
      "raj": 7664,
      "CAFB": 7665,
      "CAFE": 7666,
      "3689": 7667,
      "1820": 7668,
      "1666": 7669,
      "corn": 7670,
      "auten": 7671,
      "7127": 7672,
      "7163": 7673,
      "5070": 7674,
      "7716": 7675,
      "2702": 7676,
      "4935": 7677,
      "6238": 7678,
      "3339": 7679,
      "47182": 7680,
      "sierra": 7681,
      "sitienes": 7682,
      "BEED": 7683,
      "BEFC": 7684,
      "6189": 7685,
      "4165": 7686,
      "5774": 7687,
      "AFFB": 7688,
      "5477": 7689,
      "3229": 7690,
      "Max": 7691,
      "hem": 7692,
      "veh": 7693,
      "velo": 7694,
      "veda": 7695,
      "2503": 7696,
      "7625": 7697,
      "Cobo": 7698,
      "4320": 7699,
      "brun": 7700,
      "9339": 7701,
      "9611": 7702,
      "5185": 7703,
      "Fidalgo": 7704,
      "Deu": 7705,
      "ulle": 7706,
      "une": 7707,
      "unda": 7708,
      "unnego": 7709,
      "zarasal": 7710,
      "delvo": 7711,
      "ueh": 7712,
      "ueey": 7713,
      "nano": 7714,
      "creacion": 7715,
      "Sando": 7716,
      "luc": 7717,
      "bias": 7718,
      "Casola": 7719,
      "sexta": 7720,
      "Nazar": 7721,
      "Villafranca": 7722,
      "Tob": 7723,
      "19119": 7724,
      "pola": 7725,
      "Delgad": 7726,
      "17731": 7727,
      "webtienes": 7728,
      "40926": 7729,
      "1636": 7730,
      "2659": 7731,
      "mujeres": 7732,
      "Camar": 7733,
      "Poma": 7734,
      "BEAA": 7735,
      "osalagon": 7736,
      "7605": 7737,
      "shan": 7738,
      "7950": 7739,
      "97543": 7740,
      "elina": 7741,
      "21319": 7742,
      "Pereg": 7743,
      "emas": 7744,
      "amien": 7745,
      "vens": 7746,
      "vender": 7747,
      "3761167": 7748,
      "Rut": 7749,
      "Moral": 7750,
      "Herrera": 7751,
      "guejos": 7752,
      "lones": 7753,
      "48940": 7754,
      "Port": 7755,
      "Portal": 7756,
      "enoza": 7757,
      "nett": 7758,
      "nette": 7759,
      "Gian": 7760,
      "afiel": 7761,
      "Ildef": 7762,
      "Abenoza": 7763,
      "Borras": 7764,
      "ventura": 7765,
      "unawebtienes": 7766,
      "Crisp": 7767,
      "soyandaluz": 7768,
      "Vahid": 7769,
      "Quintanilla": 7770,
      "Planells": 7771,
      "Romero": 7772,
      "Medio": 7773,
      "Comte": 7774,
      "flex": 7775,
      "Zurbaran": 7776,
      "csrf": 7777,
      "areina": 7778,
      "Villalba": 7779,
      "Funes": 7780,
      "Cruces": 7781,
      "Alfonso": 7782,
      "acruzdelvo": 7783,
      "viajesnacionales": 7784,
      "Mercado": 7785,
      "Http": 7786,
      "santacruzdelvo": 7787,
      "feller": 7788,
      "paviment": 7789,
      "intercambiodeenlaces": 7790,
      "manecer": 7791,
      "espaciopintor": 7792,
      "chihchie": 7793,
      "hispadis": 7794,
      "dealcaraz": 7795,
      "Volta": 7796,
      "153993761167": 7797,
      "Arquitec": 7798,
      "Feixas": 7799,
      "Metauten": 7800,
      "cripting": 7801,
      "Escultor": 7802,
      "Fuerte": 7803,
      "4808153993761167": 7804,
      "Begonia": 7805,
      "whoami": 7806,
      "telogis": 7807,
      "rockefeller": 7808,
      "promotorareina": 7809,
      "sierradealcaraz": 7810,
      "sitienesunawebtienes": 7811,
      "unnegocio": 7812,
      "zarasalud": 7813,
      "Delgados": 7814,
      "Peregr": 7815,
      "VahidReza": 7816,
      "santacruzdelvoto": 7817,
      "pavimentosalagon": 7818,
      "sitienesunawebtienesunnegocio": 7819,
      "\"}": 7820,
      "0254": 7821,
      "2146": 7822,
      "3390": 7823,
      "4390": 7824,
      "6244": 7825,
      "8174": 7826,
      "9690": 7827,
      "=_": 7828,
      "At": 7829,
      "Amer": 7830,
      "Adol": 7831,
      "Aires": 7832,
      "Cir": 7833,
      "CFDA": 7834,
      "DEDE": 7835,
      "EECE": 7836,
      "Fro": 7837,
      "Fra": 7838,
      "FFDA": 7839,
      "Fruc": 7840,
      "Gru": 7841,
      "Geral": 7842,
      "It": 7843,
      "Ker": 7844,
      "Liz": 7845,
      "Nie": 7846,
      "RE": 7847,
      "Rox": 7848,
      "Sig": 7849,
      "Scripting": 7850,
      "Tap": 7851,
      "Tem": 7852,
      "Ull": 7853,
      "Wolf": 7854,
      "btr": 7855,
      "bach": 7856,
      "beck": 7857,
      "cOr": 7858,
      "dh": 7859,
      "eus": 7860,
      "fro": 7861,
      "fam": 7862,
      "gaudio": 7863,
      "hara": 7864,
      "ici": 7865,
      "ido": 7866,
      "kir": 7867,
      "lles": 7868,
      "mina": 7869,
      "melli": 7870,
      "ova": 7871,
      "pec": 7872,
      "sla": 7873,
      "sSi": 7874,
      "tru": 7875,
      "tamarina": 7876,
      "vec": 7877,
      "vaj": 7878,
      "vert": 7879,
      "visco": 7880,
      "zza": 7881,
      "tiga": 7882,
      "tipos": 7883,
      "teScripting": 7884,
      "lak": 7885,
      "enci": 7886,
      "coach": 7887,
      "lib": 7888,
      "inless": 7889,
      "acy": 7890,
      "zia": 7891,
      "xmlfile": 7892,
      "erre": 7893,
      "erbd": 7894,
      "desa": 7895,
      "8049": 7896,
      "8032": 7897,
      "8096": 7898,
      "80899": 7899,
      "dana": 7900,
      "ars": 7901,
      "arroyo": 7902,
      "nutr": 7903,
      "compra": 7904,
      "Ġ//": 7905,
      "quilla": 7906,
      "2576": 7907,
      "pur": 7908,
      "rogas": 7909,
      "2727": 7910,
      "moon": 7911,
      "4074": 7912,
      "4009": 7913,
      "40007": 7914,
      "alsan": 7915,
      "1020": 7916,
      "1029": 7917,
      "1015": 7918,
      "1096": 7919,
      "noz": 7920,
      "dedrogas": 7921,
      "logic": 7922,
      "estar": 7923,
      "elcarrito": 7924,
      "elmos": 7925,
      "2019": 7926,
      "2024": 7927,
      "2088": 7928,
      "2047": 7929,
      "6397": 7930,
      "63154": 7931,
      "2930": 7932,
      "2994": 7933,
      "2997": 7934,
      "1715": 7935,
      "1769": 7936,
      "1770": 7937,
      "1767": 7938,
      "1737": 7939,
      "3835": 7940,
      "3853": 7941,
      "38747": 7942,
      "1414": 7943,
      "1421": 7944,
      "1447": 7945,
      "2239": 7946,
      "2243": 7947,
      "6434": 7948,
      "6571": 7949,
      "6048": 7950,
      "6056": 7951,
      "1560": 7952,
      "1555": 7953,
      "1592": 7954,
      "1910": 7955,
      "1914": 7956,
      "1931": 7957,
      "1906": 7958,
      "7438": 7959,
      "7415": 7960,
      "madri": 7961,
      "3980": 7962,
      "3948": 7963,
      "3909": 7964,
      "6980": 7965,
      "6940": 7966,
      "6921": 7967,
      "stac": 7968,
      "studio": 7969,
      "8967": 7970,
      "2361": 7971,
      "1375": 7972,
      "1301": 7973,
      "1353": 7974,
      "13195": 7975,
      "7078": 7976,
      "7099": 7977,
      "7047": 7978,
      "7093": 7979,
      "4587": 7980,
      "4583": 7981,
      "4537": 7982,
      "4551": 7983,
      "8506": 7984,
      "6784": 7985,
      "6716": 7986,
      "EDFA": 7987,
      "EDEB": 7988,
      "amor": 7989,
      "3055": 7990,
      "3053": 7991,
      "1125": 7992,
      "8787": 7993,
      "8775": 7994,
      "8791": 7995,
      "8792": 7996,
      "BAAA": 7997,
      "2426": 7998,
      "2479": 7999,
      "2446": 8000,
      "7587": 8001,
      "8610": 8002,
      "8689": 8003,
      "8668": 8004,
      "ECEC": 8005,
      "8422": 8006,
      "FCe": 8007,
      "2669": 8008,
      "EAFE": 8009,
      "EABF": 8010,
      "9424": 8011,
      "FDEA": 8012,
      "9510": 8013,
      "9537": 8014,
      "9555": 8015,
      "gida": 8016,
      "med": 8017,
      "3766": 8018,
      "2566": 8019,
      "FEEB": 8020,
      "3680": 8021,
      "3614": 8022,
      "1665": 8023,
      "5565": 8024,
      "5521": 8025,
      "5516": 8026,
      "CDFD": 8027,
      "EEBA": 8028,
      "EEFA": 8029,
      "EEFE": 8030,
      "0040": 8031,
      "0098": 8032,
      "7869": 8033,
      "7828": 8034,
      "3163": 8035,
      "3164": 8036,
      "31227": 8037,
      "31407": 8038,
      "6666": 8039,
      "9865": 8040,
      "ABFC": 8041,
      "ABDB": 8042,
      "5074": 8043,
      "7735": 8044,
      "4828": 8045,
      "DCEB": 8046,
      "DCEE": 8047,
      "6867": 8048,
      "6834": 8049,
      "1215": 8050,
      "7340": 8051,
      "7315": 8052,
      "7328": 8053,
      "7330": 8054,
      "2709": 8055,
      "4965": 8056,
      "8810": 8057,
      "8839": 8058,
      "8845": 8059,
      "4717": 8060,
      "8239": 8061,
      "0979": 8062,
      "alino": 8063,
      "0163": 8064,
      "mara": 8065,
      "7239": 8066,
      "9713": 8067,
      "Mai": 8068,
      "Matar": 8069,
      "0412": 8070,
      "2507": 8071,
      "7670": 8072,
      "7684": 8073,
      "4327": 8074,
      "4329": 8075,
      "4628": 8076,
      "5823": 8077,
      "5834": 8078,
      "9325": 8079,
      "0883": 8080,
      "08281": 8081,
      "Alt": 8082,
      "Alfa": 8083,
      "Alfredo": 8084,
      "Parra": 8085,
      "delacompra": 8086,
      "tanga": 8087,
      "veria": 8088,
      "deltamarina": 8089,
      "adal": 8090,
      "boqu": 8091,
      "bour": 8092,
      "ueca": 8093,
      "Arist": 8094,
      "nex": 8095,
      "hang": 8096,
      "guera": 8097,
      "bull": 8098,
      "jackSession": 8099,
      "fic": 8100,
      "fila": 8101,
      "Roble": 8102,
      "Bala": 8103,
      "Bazan": 8104,
      "Correspon": 8105,
      "Navas": 8106,
      "bareback": 8107,
      "pot": 8108,
      "links": 8109,
      "minia": 8110,
      "1652": 8111,
      "stylestudio": 8112,
      "weblogic": 8113,
      "2401": 8114,
      "1648": 8115,
      "derParser": 8116,
      "Teresa": 8117,
      "Raim": 8118,
      "config": 8119,
      "6858": 8120,
      "Pobla": 8121,
      "1406": 8122,
      "herminia": 8123,
      "OrderParser": 8124,
      "64416": 8125,
      "2293": 8126,
      "2298": 8127,
      "lings": 8128,
      "ADDE": 8129,
      "80321": 8130,
      "Garri": 8131,
      "etano": 8132,
      "stainless": 8133,
      "Pedrosa": 8134,
      "euro": 8135,
      "grafos": 8136,
      "Caba": 8137,
      "Pineda": 8138,
      "open": 8139,
      "Cervell": 8140,
      "Portillo": 8141,
      "76421319": 8142,
      "ixa": 8143,
      "Masia": 8144,
      "Pont": 8145,
      "imama": 8146,
      "brad": 8147,
      "Florida": 8148,
      "music": 8149,
      "matache": 8150,
      "cliff": 8151,
      "HijackSession": 8152,
      "softstylestudio": 8153,
      "shaw": 8154,
      "Gorosti": 8155,
      "src": 8156,
      "telegrafos": 8157,
      "baybay": 8158,
      "dette": 8159,
      "Escritor": 8160,
      "Segundo": 8161,
      "acheco": 8162,
      "Cinco": 8163,
      "Batalla": 8164,
      "Navac": 8165,
      "Benito": 8166,
      "orderParser": 8167,
      "mauroman": 8168,
      "filtr": 8169,
      "Compres": 8170,
      "Correos": 8171,
      "Victoria": 8172,
      "velazquezlarra": 8173,
      "Joaquin": 8174,
      "Laguna": 8175,
      "authbypass": 8176,
      "CrossSi": 8177,
      "suecas": 8178,
      "Casaramon": 8179,
      "Fernando": 8180,
      "cumming": 8181,
      "17731646": 8182,
      "Fructu": 8183,
      "viscotek": 8184,
      "tiposdedrogas": 8185,
      "coaching": 8186,
      "nutrimama": 8187,
      "elcarritodelacompra": 8188,
      "63154198": 8189,
      "Correspondencia": 8190,
      "7642131917731646": 8191,
      "CrossSiteScripting": 8192,
      "3118": 8193,
      "3344": 8194,
      "4179": 8195,
      "4197": 8196,
      "5155": 8197,
      "5699": 8198,
      "5384": 8199,
      "6190": 8200,
      "6135": 8201,
      "6649": 8202,
      "7744": 8203,
      "8173": 8204,
      "9458": 8205,
      "9457": 8206,
      "9606": 8207,
      "AG": 8208,
      "Aless": 8209,
      "AFCD": 8210,
      "ABAB": 8211,
      "ACDB": 8212,
      "Asen": 8213,
      "Atico": 8214,
      "Bl": 8215,
      "Bad": 8216,
      "BFDB": 8217,
      "Cl": 8218,
      "Cus": 8219,
      "Ero": 8220,
      "Einstein": 8221,
      "Gis": 8222,
      "JY": 8223,
      "Ken": 8224,
      "Koh": 8225,
      "Lon": 8226,
      "Llar": 8227,
      "Nadal": 8228,
      "Ph": 8229,
      "Paj": 8230,
      "Path": 8231,
      "Sh": 8232,
      "Sin": 8233,
      "Stor": 8234,
      "Spo": 8235,
      "Tamper": 8236,
      "Trans": 8237,
      "UeR": 8238,
      "Ves": 8239,
      "VDA": 8240,
      "Yuli": 8241,
      "Zala": 8242,
      "ange": 8243,
      "bv": 8244,
      "blog": 8245,
      "cim": 8246,
      "dac": 8247,
      "eon": 8248,
      "efer": 8249,
      "gent": 8250,
      "garr": 8251,
      "hum": 8252,
      "icho": 8253,
      "jP": 8254,
      "jea": 8255,
      "jarr": 8256,
      "kal": 8257,
      "kno": 8258,
      "lE": 8259,
      "mue": 8260,
      "mach": 8261,
      "nin": 8262,
      "nag": 8263,
      "nardo": 8264,
      "oPh": 8265,
      "psy": 8266,
      "rdo": 8267,
      "ster": 8268,
      "sandras": 8269,
      "tE": 8270,
      "uch": 8271,
      "vall": 8272,
      "vsky": 8273,
      "wx": 8274,
      "wol": 8275,
      "xss": 8276,
      "zt": 8277,
      "zzy": 8278,
      "tiful": 8279,
      "mlTamper": 8280,
      "code": 8281,
      "liver": 8282,
      "cath": 8283,
      "iner": 8284,
      "intera": 8285,
      "agos": 8286,
      "erlich": 8287,
      "deaspe": 8288,
      "8022": 8289,
      "8065": 8290,
      "8089": 8291,
      "8095": 8292,
      "8046": 8293,
      "ngos": 8294,
      "orr": 8295,
      "lodg": 8296,
      "dambo": 8297,
      "leon": 8298,
      "ledon": 8299,
      "para": 8300,
      "oka": 8301,
      "key": 8302,
      "kess": 8303,
      "Mola": 8304,
      "kola": 8305,
      "quis": 8306,
      "quili": 8307,
      "IDOR": 8308,
      "redirect": 8309,
      "2550": 8310,
      "2504": 8311,
      "cilla": 8312,
      "mbi": 8313,
      "rove": 8314,
      "2790": 8315,
      "urch": 8316,
      "4039": 8317,
      "4023": 8318,
      "4050": 8319,
      "4033": 8320,
      "albe": 8321,
      "1027": 8322,
      "1084": 8323,
      "1044": 8324,
      "peda": 8325,
      "cardo": 8326,
      "novi": 8327,
      "noff": 8328,
      "noly": 8329,
      "rios": 8330,
      "ritte": 8331,
      "elf": 8332,
      "asy": 8333,
      "2063": 8334,
      "2038": 8335,
      "2070": 8336,
      "2042": 8337,
      "6315": 8338,
      "6369": 8339,
      "6324": 8340,
      "6301": 8341,
      "2901": 8342,
      "2907": 8343,
      "1775": 8344,
      "1788": 8345,
      "1796": 8346,
      "3821": 8347,
      "3872": 8348,
      "1445": 8349,
      "1424": 8350,
      "1486": 8351,
      "1484": 8352,
      "6410": 8353,
      "6430": 8354,
      "6487": 8355,
      "6436": 8356,
      "6560": 8357,
      "6528": 8358,
      "6534": 8359,
      "6583": 8360,
      "65185": 8361,
      "6030": 8362,
      "6055": 8363,
      "6051": 8364,
      "1565": 8365,
      "1534": 8366,
      "1950": 8367,
      "1972": 8368,
      "7427": 8369,
      "7459": 8370,
      "maest": 8371,
      "3919": 8372,
      "6937": 8373,
      "2820": 8374,
      "2890": 8375,
      "ille": 8376,
      "str": 8377,
      "stad": 8378,
      "togra": 8379,
      "8909": 8380,
      "2365": 8381,
      "2373": 8382,
      "2354": 8383,
      "2332": 8384,
      "Reca": 8385,
      "1379": 8386,
      "7065": 8387,
      "4575": 8388,
      "8545": 8389,
      "8547": 8390,
      "8501": 8391,
      "8532": 8392,
      "ordera": 8393,
      "emadrid": 8394,
      "EDBB": 8395,
      "EDCF": 8396,
      "EDvar": 8397,
      "3001": 8398,
      "1185": 8399,
      "8737": 8400,
      "8753": 8401,
      "BAFB": 8402,
      "BADD": 8403,
      "BAEA": 8404,
      "BABC": 8405,
      "2443": 8406,
      "FBBE": 8407,
      "9068": 8408,
      "7560": 8409,
      "7545": 8410,
      "7598": 8411,
      "7549": 8412,
      "FACE": 8413,
      "3544": 8414,
      "8619": 8415,
      "8688": 8416,
      "ECFC": 8417,
      "8489": 8418,
      "8423": 8419,
      "8435": 8420,
      "8449": 8421,
      "FCDD": 8422,
      "3474": 8423,
      "2628": 8424,
      "EABB": 8425,
      "9418": 8426,
      "FDCA": 8427,
      "FDCD": 8428,
      "21240": 8429,
      "EBFC": 8430,
      "EBFD": 8431,
      "EBDE": 8432,
      "gico": 8433,
      "gilio": 8434,
      "8363": 8435,
      "8369": 8436,
      "8312": 8437,
      "raca": 8438,
      "0530": 8439,
      "0557": 8440,
      "3717": 8441,
      "3796": 8442,
      "BBEA": 8443,
      "BBEF": 8444,
      "ebs": 8445,
      "ebre": 8446,
      "FEBA": 8447,
      "3615": 8448,
      "3686": 8449,
      "1840": 8450,
      "1864": 8451,
      "1618": 8452,
      "corp": 8453,
      "CDCA": 8454,
      "CDBE": 8455,
      "EEED": 8456,
      "7863": 8457,
      "4499": 8458,
      "4461": 8459,
      "ush": 8460,
      "uste": 8461,
      "3114": 8462,
      "3184": 8463,
      "DBEE": 8464,
      "9933": 8465,
      "7120": 8466,
      "7160": 8467,
      "7189": 8468,
      "6860": 8469,
      "6889": 8470,
      "1225": 8471,
      "1009": 8472,
      "baller": 8473,
      "6240": 8474,
      "6220": 8475,
      "CFED": 8476,
      "3363": 8477,
      "3337": 8478,
      "DFCC": 8479,
      "sica": 8480,
      "BCFC": 8481,
      "BCDA": 8482,
      "0974": 8483,
      "viana": 8484,
      "viaje": 8485,
      "6128": 8486,
      "6184": 8487,
      "AEED": 8488,
      "incorrectasparos": 8489,
      "8169": 8490,
      "jol": 8491,
      "WebWolf": 8492,
      "meneg": 8493,
      "0430": 8494,
      "bral": 8495,
      "4687": 8496,
      "5165": 8497,
      "4220": 8498,
      "ates": 8499,
      "9280": 8500,
      "itren": 8501,
      "ajed": 8502,
      "0365": 8503,
      "ulz": 8504,
      "abl": 8505,
      "Albal": 8506,
      "Alonso": 8507,
      "3604": 8508,
      "Say": 8509,
      "Sanc": 8510,
      "Sanch": 8511,
      "unko": 8512,
      "tamb": 8513,
      "sang": 8514,
      "bow": 8515,
      "book": 8516,
      "body": 8517,
      "anya": 8518,
      "Vigilio": 8519,
      "errada": 8520,
      "navar": 8521,
      "ransito": 8522,
      "resort": 8523,
      "expo": 8524,
      "Carr": 8525,
      "Carden": 8526,
      "Julio": 8527,
      "Roa": 8528,
      "Roc": 8529,
      "Roque": 8530,
      "Santamar": 8531,
      "Cato": 8532,
      "vooPh": 8533,
      "lash": 8534,
      "Torro": 8535,
      "Torra": 8536,
      "2633": 8537,
      "posas": 8538,
      "queo": 8539,
      "Salares": 8540,
      "18518": 8541,
      "trin": 8542,
      "trat": 8543,
      "Palmira": 8544,
      "40923": 8545,
      "Zarzosa": 8546,
      "2278": 8547,
      "conmaest": 8548,
      "Campan": 8549,
      "1393": 8550,
      "CDAB": 8551,
      "3757": 8552,
      "DEAC": 8553,
      "DEAE": 8554,
      "Giras": 8555,
      "33597543": 8556,
      "BBAE": 8557,
      "buco": 8558,
      "EEAA": 8559,
      "uration": 8560,
      "Berro": 8561,
      "Bernuy": 8562,
      "1692": 8563,
      "Jaled": 8564,
      "79531407": 8565,
      "Sole": 8566,
      "Sobre": 8567,
      "AAAi": 8568,
      "258806": 8569,
      "egan": 8570,
      "rasa": 8571,
      "reras": 8572,
      "empe": 8573,
      "super": 8574,
      "vantes": 8575,
      "Yomona": 8576,
      "Ruiz": 8577,
      "Urda": 8578,
      "Urgell": 8579,
      "Morera": 8580,
      "juni": 8581,
      "aguda": 8582,
      "Petit": 8583,
      "Manzano": 8584,
      "Infan": 8585,
      "Ojos": 8586,
      "52864416": 8587,
      "yuki": 8588,
      "salsas": 8589,
      "jani": 8590,
      "enova": 8591,
      "08470": 8592,
      "51755": 8593,
      "Ponce": 8594,
      "spina": 8595,
      "Tier": 8596,
      "Rosario": 8597,
      "4981": 8598,
      "fuente": 8599,
      "taber": 8600,
      "brea": 8601,
      "rones": 8602,
      "wenvivo": 8603,
      "aire": 8604,
      "Bier": 8605,
      "Oliva": 8606,
      "eriadela": 8607,
      "bury": 8608,
      "showenvivo": 8609,
      "zeat": 8610,
      "Llobet": 8611,
      "Felix": 8612,
      "willi": 8613,
      "msadcs": 8614,
      "srl": 8615,
      "palma": 8616,
      "Barriada": 8617,
      "Adelmo": 8618,
      "Ingeni": 8619,
      "Ingelmos": 8620,
      "magicho": 8621,
      "magritte": 8622,
      "LTExLTIwVDA": 8623,
      "weat": 8624,
      "rezconmaest": 8625,
      "Galin": 8626,
      "professionalhost": 8627,
      "professionalhosting": 8628,
      "risiber": 8629,
      "madura": 8630,
      "brujas": 8631,
      "detransito": 8632,
      "espanoly": 8633,
      "Nogue": 8634,
      "FIlate": 8635,
      "Escriba": 8636,
      "Saba": 8637,
      "homepage": 8638,
      "mitj": 8639,
      "Aldeanueva": 8640,
      "young": 8641,
      "romani": 8642,
      "Alexia": 8643,
      "HtmlTamper": 8644,
      "Zorrilla": 8645,
      "negocios": 8646,
      "hogar": 8647,
      "beautiful": 8648,
      "Bypass": 8649,
      "Penagos": 8650,
      "casablanca": 8651,
      "francis": 8652,
      "Corado": 8653,
      "19393302": 8654,
      "07233516": 8655,
      "buscamoto": 8656,
      "Eduardo": 8657,
      "tresbrujas": 8658,
      "imenez": 8659,
      "Ferreol": 8660,
      "multasdetransito": 8661,
      "Jesus": 8662,
      "ingenieriadela": 8663,
      "forohh": 8664,
      "apolicial": 8665,
      "pearl": 8666,
      "Bullones": 8667,
      "lamarsrl": 8668,
      "caseros": 8669,
      "Traversal": 8670,
      "Gonzalez": 8671,
      "Fluvi": 8672,
      "esposa": 8673,
      "Calzadilla": 8674,
      "sberg": 8675,
      "comerciosdeaspe": 8676,
      "Cryptography": 8677,
      "cTMm": 8678,
      "nuncios": 8679,
      "configuration": 8680,
      "Gorostiza": 8681,
      "JYvooPh": 8682,
      "Kohls": 8683,
      "PathTraversal": 8684,
      "Stored": 8685,
      "Spoof": 8686,
      "Yulisa": 8687,
      "sandrasummer": 8688,
      "interanuncios": 8689,
      "lodgemadrid": 8690,
      "damboise": 8691,
      "menegilda": 8692,
      "itrends": 8693,
      "ajedrezconmaest": 8694,
      "3359754319393302": 8695,
      "Sobremunt": 8696,
      "25880614": 8697,
      "salsaspain": 8698,
      "magichobby": 8699,
      "risiberia": 8700,
      "espanolynegocios": 8701,
      "HtmlTampering": 8702,
      "beautifulbody": 8703,
      "casablancabeach": 8704,
      "0723351625880614": 8705,
      "JYvooPhK": 8706,
      "ajedrezconmaestros": 8707,
      "0253": 8708,
      "0270": 8709,
      "0909": 8710,
      "0447": 8711,
      "1285": 8712,
      "3270": 8713,
      "3155": 8714,
      "4150": 8715,
      "4102": 8716,
      "5118": 8717,
      "5698": 8718,
      "6195": 8719,
      "7118": 8720,
      "8145": 8721,
      "8157": 8722,
      "9805": 8723,
      "Atien": 8724,
      "Abo": 8725,
      "AEDB": 8726,
      "AECA": 8727,
      "Bau": 8728,
      "Bida": 8729,
      "Cec": 8730,
      "Cle": 8731,
      "CFAA": 8732,
      "CEBE": 8733,
      "CFBD": 8734,
      "Die": 8735,
      "DCCB": 8736,
      "DECD": 8737,
      "DEBE": 8738,
      "Edi": 8739,
      "EBAB": 8740,
      "EFBD": 8741,
      "EFEF": 8742,
      "FFAF": 8743,
      "Mex": 8744,
      "Nal": 8745,
      "Num": 8746,
      "PU": 8747,
      "Pru": 8748,
      "Prat": 8749,
      "Siete": 8750,
      "TA": 8751,
      "Tro": 8752,
      "Veli": 8753,
      "aL": 8754,
      "ajo": 8755,
      "azo": 8756,
      "aebo": 8757,
      "bI": 8758,
      "bie": 8759,
      "cros": 8760,
      "eme": 8761,
      "eosa": 8762,
      "event": 8763,
      "fm": 8764,
      "ghan": 8765,
      "hab": 8766,
      "jec": 8767,
      "jor": 8768,
      "juela": 8769,
      "kie": 8770,
      "knight": 8771,
      "lz": 8772,
      "nad": 8773,
      "oN": 8774,
      "pn": 8775,
      "prest": 8776,
      "scan": 8777,
      "spin": 8778,
      "tag": 8779,
      "tat": 8780,
      "tric": 8781,
      "vad": 8782,
      "onda": 8783,
      "onel": 8784,
      "onari": 8785,
      "tiS": 8786,
      "teria": 8787,
      "endo": 8788,
      "encasa": 8789,
      "coli": 8790,
      "lien": 8791,
      "litz": 8792,
      "cali": 8793,
      "osh": 8794,
      "acu": 8795,
      "acti": 8796,
      "cesu": 8797,
      "pta": 8798,
      "deu": 8799,
      "deimagenes": 8800,
      "8070": 8801,
      "8036": 8802,
      "8079": 8803,
      "8066": 8804,
      "8077": 8805,
      "8057": 8806,
      "left": 8807,
      "paq": 8808,
      "pay": 8809,
      "pablo": 8810,
      "paremos": 8811,
      "arman": 8812,
      "llada": 8813,
      "quec": 8814,
      "rejo": 8815,
      "2571": 8816,
      "25185": 8817,
      "cir": 8818,
      "mbard": 8819,
      "roe": 8820,
      "rojo": 8821,
      "rock": 8822,
      "robb": 8823,
      "did": 8824,
      "dier": 8825,
      "2739": 8826,
      "dow": 8827,
      "doceros": 8828,
      "4045": 8829,
      "4067": 8830,
      "4036": 8831,
      "40100": 8832,
      "aldi": 8833,
      "alter": 8834,
      "aldu": 8835,
      "forall": 8836,
      "1022": 8837,
      "1028": 8838,
      "1033": 8839,
      "1059": 8840,
      "10130": 8841,
      "card": 8842,
      "carre": 8843,
      "ans": 8844,
      "esi": 8845,
      "rija": 8846,
      "rius": 8847,
      "2008": 8848,
      "6319": 8849,
      "2998": 8850,
      "2949": 8851,
      "2954": 8852,
      "1739": 8853,
      "1745": 8854,
      "1783": 8855,
      "1755": 8856,
      "1778": 8857,
      "1757": 8858,
      "1701": 8859,
      "1746": 8860,
      "3884": 8861,
      "1463": 8862,
      "1464": 8863,
      "ssel": 8864,
      "ssori": 8865,
      "2240": 8866,
      "2217": 8867,
      "2226": 8868,
      "2231": 8869,
      "6498": 8870,
      "6454": 8871,
      "6453": 8872,
      "64845": 8873,
      "64976": 8874,
      "6563": 8875,
      "6550": 8876,
      "6504": 8877,
      "6576": 8878,
      "6038": 8879,
      "6060": 8880,
      "6019": 8881,
      "6089": 8882,
      "6090": 8883,
      "6031": 8884,
      "6054": 8885,
      "1530": 8886,
      "1537": 8887,
      "1546": 8888,
      "1966": 8889,
      "1932": 8890,
      "1993": 8891,
      "7470": 8892,
      "7445": 8893,
      "7412": 8894,
      "7447": 8895,
      "mati": 8896,
      "mang": 8897,
      "mauri": 8898,
      "malas": 8899,
      "3929": 8900,
      "3924": 8901,
      "3966": 8902,
      "3949": 8903,
      "6930": 8904,
      "6955": 8905,
      "6998": 8906,
      "6952": 8907,
      "2828": 8908,
      "2824": 8909,
      "ilusi": 8910,
      "prov": 8911,
      "stop": 8912,
      "tour": 8913,
      "8923": 8914,
      "8933": 8915,
      "8997": 8916,
      "2338": 8917,
      "Rebes": 8918,
      "1325": 8919,
      "1319": 8920,
      "1328": 8921,
      "1324": 8922,
      "1312": 8923,
      "13100": 8924,
      "1302": 8925,
      "13641": 8926,
      "7063": 8927,
      "7038": 8928,
      "7009": 8929,
      "4590": 8930,
      "4534": 8931,
      "4516": 8932,
      "4509": 8933,
      "8509": 8934,
      "8554": 8935,
      "8593": 8936,
      "6712": 8937,
      "6772": 8938,
      "EDDB": 8939,
      "2533": 8940,
      "3040": 8941,
      "3090": 8942,
      "8714": 8943,
      "8784": 8944,
      "8750": 8945,
      "8754": 8946,
      "BAFD": 8947,
      "BAAB": 8948,
      "BADE": 8949,
      "2475": 8950,
      "2447": 8951,
      "2481": 8952,
      "CCDC": 8953,
      "FBFA": 8954,
      "FBBB": 8955,
      "9011": 8956,
      "7570": 8957,
      "DDFA": 8958,
      "DDEE": 8959,
      "FAa": 8960,
      "FAFC": 8961,
      "FABB": 8962,
      "3520": 8963,
      "3505": 8964,
      "3579": 8965,
      "8670": 8966,
      "8667": 8967,
      "8682": 8968,
      "aciano": 8969,
      "ECAB": 8970,
      "8480": 8971,
      "8498": 8972,
      "FCFE": 8973,
      "FCDF": 8974,
      "FCBD": 8975,
      "3422": 8976,
      "3481": 8977,
      "3493": 8978,
      "2610": 8979,
      "2615": 8980,
      "2674": 8981,
      "26292": 8982,
      "EACC": 8983,
      "EAFA": 8984,
      "EAFC": 8985,
      "EACE": 8986,
      "9483": 8987,
      "9468": 8988,
      "FDAA": 8989,
      "2162": 8990,
      "21870": 8991,
      "EBEB": 8992,
      "EBFF": 8993,
      "EBCE": 8994,
      "EBBE": 8995,
      "9561": 8996,
      "8328": 8997,
      "83627": 8998,
      "rales": 8999,
      "DACB": 9000,
      "0527": 9001,
      "0586": 9002,
      "0500": 9003,
      "3763": 9004,
      "3729": 9005,
      "3723": 9006,
      "3716": 9007,
      "3778": 9008,
      "idt": 9009,
      "CAED": 9010,
      "CADA": 9011,
      "3629": 9012,
      "1867": 9013,
      "1667": 9014,
      "5534": 9015,
      "7982": 9016,
      "CDEF": 9017,
      "CDCF": 9018,
      "FFFA": 9019,
      "7880": 9020,
      "7887": 9021,
      "7883": 9022,
      "784015": 9023,
      "4492": 9024,
      "DBEB": 9025,
      "9965": 9026,
      "9968": 9027,
      "6664": 9028,
      "7115": 9029,
      "ters": 9030,
      "terra": 9031,
      "9815": 9032,
      "ABEA": 9033,
      "DCFB": 9034,
      "DCEF": 9035,
      "6829": 9036,
      "6865": 9037,
      "1210": 9038,
      "1229": 9039,
      "7327": 9040,
      "7370": 9041,
      "DEEA": 9042,
      "CFFA": 9043,
      "CFEC": 9044,
      "8214": 9045,
      "8215": 9046,
      "BDEE": 9047,
      "09610": 9048,
      "vich": 9049,
      "6169": 9050,
      "4127": 9051,
      "5775": 9052,
      "BFCC": 9053,
      "gois": 9054,
      "goog": 9055,
      "job": 9056,
      "Godo": 9057,
      "mend": 9058,
      "3227": 9059,
      "9725": 9060,
      "9717": 9061,
      "9761": 9062,
      "Mailena": 9063,
      "Pascu": 9064,
      "Col": 9065,
      "Comer": 9066,
      "porque": 9067,
      "4375": 9068,
      "4337": 9069,
      "9375": 9070,
      "5340": 9071,
      "5687": 9072,
      "0794": 9073,
      "5127": 9074,
      "artforall": 9075,
      "umos": 9076,
      "9894": 9077,
      "Alti": 9078,
      "Alta": 9079,
      "Paratge": 9080,
      "Salo": 9081,
      "due": 9082,
      "dualidad": 9083,
      "tay": 9084,
      "banc": 9085,
      "110511": 9086,
      "botill": 9087,
      "servicio": 9088,
      "Argan": 9089,
      "Arrun": 9090,
      "gaz": 9091,
      "soa": 9092,
      "Sanl": 9093,
      "Sans": 9094,
      "Guil": 9095,
      "gual": 9096,
      "Marqu": 9097,
      "Casa": 9098,
      "Casal": 9099,
      "Carbot": 9100,
      "Caridad": 9101,
      "eddy": 9102,
      "homa": 9103,
      "hotele": 9104,
      "Bay": 9105,
      "Cordo": 9106,
      "landa": 9107,
      "celli": 9108,
      "Espr": 9109,
      "Espinosa": 9110,
      "varr": 9111,
      "person": 9112,
      "26312": 9113,
      "165703": 9114,
      "256769": 9115,
      "sten": 9116,
      "Bote": 9117,
      "kay": 9118,
      "kaya": 9119,
      "2645": 9120,
      "2457": 9121,
      "160525": 9122,
      "2205": 9123,
      "Lude": 9124,
      "Riba": 9125,
      "25585": 9126,
      "Polica": 9127,
      "8701": 9128,
      "37488": 9129,
      "6659": 9130,
      "8459": 9131,
      "8356": 9132,
      "8948319": 9133,
      "Piquer": 9134,
      "24764976": 9135,
      "1846": 9136,
      "BBAD": 9137,
      "bueno": 9138,
      "65569": 9139,
      "62815": 9140,
      "ECCC": 9141,
      "ECCF": 9142,
      "67474": 9143,
      "elio": 9144,
      "339363": 9145,
      "DCCF": 9146,
      "Fky": 9147,
      "FEAC": 9148,
      "31750": 9149,
      "Fron": 9150,
      "lers": 9151,
      "ddie": 9152,
      "Anna": 9153,
      "Andr": 9154,
      "Andre": 9155,
      "Europa": 9156,
      "ADAF": 9157,
      "ABBC": 9158,
      "archivodeimagenes": 9159,
      "elalz": 9160,
      "DCDE": 9161,
      "Ferrer": 9162,
      "BDCF": 9163,
      "enice": 9164,
      "gratis": 9165,
      "Pinilla": 9166,
      "31495": 9167,
      "gerindote": 9168,
      "Salv": 9169,
      "aciondeh": 9170,
      "Porto": 9171,
      "Maslo": 9172,
      "network": 9173,
      "afranc": 9174,
      "Celinda": 9175,
      "Mut": 9176,
      "86080899": 9177,
      "basket": 9178,
      "bracamonte": 9179,
      "Florencio": 9180,
      "waremas": 9181,
      "devall": 9182,
      "zones": 9183,
      "Velasco": 9184,
      "Verge": 9185,
      "tecno": 9186,
      "quesada": 9187,
      "softwaremas": 9188,
      "cbgerindote": 9189,
      "urePassword": 9190,
      "sindualidad": 9191,
      "Adelfo": 9192,
      "PgWy": 9193,
      "montessori": 9194,
      "iteria": 9195,
      "leika": 9196,
      "Narros": 9197,
      "chinas": 9198,
      "Venus": 9199,
      "Arroyomolinos": 9200,
      "Federica": 9201,
      "6185712": 9202,
      "somino": 9203,
      "SecurePassword": 9204,
      "ssextre": 9205,
      "5024784015": 9206,
      "aulahost": 9207,
      "barnicesu": 9208,
      "Figueruelas": 9209,
      "Malaqu": 9210,
      "juegois": 9211,
      "351535": 9212,
      "Cabezas": 9213,
      "Echevarr": 9214,
      "sanchezquesada": 9215,
      "Gelsomino": 9216,
      "Principal": 9217,
      "Bernaus": 9218,
      "Calixto": 9219,
      "tetde": 9220,
      "heimer": 9221,
      "daniele": 9222,
      "escuelamontessori": 9223,
      "Hinoj": 9224,
      "palomaj": 9225,
      "9078165703": 9226,
      "Cartaya": 9227,
      "silver": 9228,
      "Cayetano": 9229,
      "velocidad": 9230,
      "803216185712": 9231,
      "filtraciondeh": 9232,
      "albeiteria": 9233,
      "WebWolfIntroduction": 9234,
      "Atienza": 9235,
      "Diez": 9236,
      "onarium": 9237,
      "pablobracamonte": 9238,
      "paremoselalz": 9239,
      "ilusionarium": 9240,
      "stopsecret": 9241,
      "8682803216185712": 9242,
      "google": 9243,
      "porqueagel": 9244,
      "11051114": 9245,
      "botilleria": 9246,
      "Arrunategui": 9247,
      "eddydaniele": 9248,
      "hotelestopsecret": 9249,
      "16052504": 9250,
      "8948319901": 9251,
      "3393638948319901": 9252,
      "8608089924764976": 9253,
      "softwaremasservicio": 9254,
      "SecurePasswords": 9255,
      "ssextremadura": 9256,
      "5024784015351535": 9257,
      "barnicesuv": 9258,
      "9078165703256769": 9259,
      "filtraciondehumos": 9260,
      "paremoselalzheimer": 9261,
      "++": 9262,
      "1800": 9263,
      "1275": 9264,
      "2143": 9265,
      "3188": 9266,
      "3295": 9267,
      "4809": 9268,
      "4373": 9269,
      "5877": 9270,
      "5244": 9271,
      "5355": 9272,
      "5798": 9273,
      "6270": 9274,
      "6170": 9275,
      "6285": 9276,
      "8216": 9277,
      "9630": 9278,
      "9377": 9279,
      "Ani": 9280,
      "ACCB": 9281,
      "AFCA": 9282,
      "AECB": 9283,
      "AFDB": 9284,
      "Atal": 9285,
      "Bn": 9286,
      "Bate": 9287,
      "Bea": 9288,
      "Bover": 9289,
      "BEDF": 9290,
      "Bages": 9291,
      "Cana": 9292,
      "CECD": 9293,
      "CBAC": 9294,
      "Dag": 9295,
      "DECA": 9296,
      "DBAD": 9297,
      "Eme": 9298,
      "ECCB": 9299,
      "EEDE": 9300,
      "EECF": 9301,
      "FX": 9302,
      "Ft": 9303,
      "Fac": 9304,
      "FFAA": 9305,
      "FFCE": 9306,
      "Gorg": 9307,
      "Galla": 9308,
      "Hal": 9309,
      "Isa": 9310,
      "Ko": 9311,
      "Morg": 9312,
      "NO": 9313,
      "Oso": 9314,
      "Oria": 9315,
      "Oberto": 9316,
      "Pur": 9317,
      "Pall": 9318,
      "PEr": 9319,
      "Pacheco": 9320,
      "Rida": 9321,
      "Rach": 9322,
      "Rillo": 9323,
      "Riel": 9324,
      "Rueda": 9325,
      "Sor": 9326,
      "Sty": 9327,
      "Ton": 9328,
      "Teix": 9329,
      "Un": 9330,
      "Vena": 9331,
      "VoR": 9332,
      "Wen": 9333,
      "Xar": 9334,
      "Yes": 9335,
      "Yam": 9336,
      "Yab": 9337,
      "av": 9338,
      "ake": 9339,
      "aas": 9340,
      "blu": 9341,
      "dk": 9342,
      "dt": 9343,
      "drv": 9344,
      "dero": 9345,
      "dns": 9346,
      "elas": 9347,
      "fen": 9348,
      "fiel": 9349,
      "gO": 9350,
      "genes": 9351,
      "gria": 9352,
      "hag": 9353,
      "huel": 9354,
      "kan": 9355,
      "lde": 9356,
      "lue": 9357,
      "mcf": 9358,
      "mpart": 9359,
      "nall": 9360,
      "ob": 9361,
      "oc": 9362,
      "pho": 9363,
      "phd": 9364,
      "rto": 9365,
      "rente": 9366,
      "rzano": 9367,
      "sie": 9368,
      "sat": 9369,
      "sme": 9370,
      "siete": 9371,
      "uap": 9372,
      "uet": 9373,
      "umeu": 9374,
      "ytv": 9375,
      "yks": 9376,
      "oney": 9377,
      "onora": 9378,
      "tilla": 9379,
      "tigas": 9380,
      "tiway": 9381,
      "tela": 9382,
      "tear": 9383,
      "temp": 9384,
      "tejani": 9385,
      "last": 9386,
      "laba": 9387,
      "enmenorca": 9388,
      "envivo": 9389,
      "core": 9390,
      "liti": 9391,
      "lida": 9392,
      "lices": 9393,
      "libro": 9394,
      "ceo": 9395,
      "cey": 9396,
      "ceto": 9397,
      "deap": 9398,
      "ecrm": 9399,
      "aps": 9400,
      "apu": 9401,
      "apic": 9402,
      "8027": 9403,
      "8075": 9404,
      "8050": 9405,
      "8048": 9406,
      "dau": 9407,
      "dav": 9408,
      "iela": 9409,
      "ents": 9410,
      "enthal": 9411,
      "imes": 9412,
      "arca": 9413,
      "oki": 9414,
      "okie": 9415,
      "llah": 9416,
      "calle": 9417,
      "kemp": 9418,
      "Mojeda": 9419,
      "quida": 9420,
      "quiz": 9421,
      "patient": 9422,
      "citiway": 9423,
      "2763": 9424,
      "2774": 9425,
      "doqueo": 9426,
      "movil": 9427,
      "mobil": 9428,
      "uran": 9429,
      "4021": 9430,
      "40291": 9431,
      "ald": 9432,
      "almente": 9433,
      "1010": 9434,
      "esia": 9435,
      "estor": 9436,
      "rip": 9437,
      "asi": 9438,
      "ass": 9439,
      "2090": 9440,
      "2083": 9441,
      "2033": 9442,
      "2057": 9443,
      "niques": 9444,
      "6320": 9445,
      "6317": 9446,
      "6300": 9447,
      "6361": 9448,
      "2927": 9449,
      "2969": 9450,
      "2986": 9451,
      "2979": 9452,
      "1780": 9453,
      "1765": 9454,
      "1734": 9455,
      "1762": 9456,
      "1756": 9457,
      "17143": 9458,
      "17650": 9459,
      "3880": 9460,
      "3840": 9461,
      "3815": 9462,
      "3886": 9463,
      "3834": 9464,
      "3837": 9465,
      "3879": 9466,
      "3844": 9467,
      "1420": 9468,
      "1415": 9469,
      "1479": 9470,
      "1466": 9471,
      "rosenthal": 9472,
      "2269": 9473,
      "2282": 9474,
      "222785": 9475,
      "6480": 9476,
      "6467": 9477,
      "6486": 9478,
      "6447": 9479,
      "6497": 9480,
      "6531": 9481,
      "6554": 9482,
      "65875": 9483,
      "6022": 9484,
      "6094": 9485,
      "6018": 9486,
      "6001": 9487,
      "6042": 9488,
      "6006": 9489,
      "1563": 9490,
      "1513": 9491,
      "1583": 9492,
      "1573": 9493,
      "1900": 9494,
      "1968": 9495,
      "1959": 9496,
      "1981": 9497,
      "1943": 9498,
      "1958": 9499,
      "1903": 9500,
      "19110": 9501,
      "19144": 9502,
      "19278": 9503,
      "7411": 9504,
      "7468": 9505,
      "7451": 9506,
      "3914": 9507,
      "3936": 9508,
      "6989": 9509,
      "6987": 9510,
      "6944": 9511,
      "6992": 9512,
      "2870": 9513,
      "2855": 9514,
      "2876": 9515,
      "2893": 9516,
      "2853": 9517,
      "2851": 9518,
      "8930": 9519,
      "8911": 9520,
      "2334": 9521,
      "23391": 9522,
      "1365": 9523,
      "1370": 9524,
      "1356": 9525,
      "1303": 9526,
      "1306": 9527,
      "13776": 9528,
      "7027": 9529,
      "7015": 9530,
      "7021": 9531,
      "7018": 9532,
      "4594": 9533,
      "4503": 9534,
      "4506": 9535,
      "45200": 9536,
      "8564": 9537,
      "8598": 9538,
      "8551": 9539,
      "adix": 9540,
      "Registrarany": 9541,
      "6775": 9542,
      "6721": 9543,
      "6768": 9544,
      "EDBA": 9545,
      "EDEA": 9546,
      "EDDC": 9547,
      "EDBD": 9548,
      "3069": 9549,
      "3011": 9550,
      "3047": 9551,
      "3004": 9552,
      "1111": 9553,
      "1187": 9554,
      "1116": 9555,
      "8763": 9556,
      "8715": 9557,
      "8719": 9558,
      "8767": 9559,
      "8736": 9560,
      "BADF": 9561,
      "2415": 9562,
      "2469": 9563,
      "2498": 9564,
      "CCCC": 9565,
      "CCCA": 9566,
      "FBBA": 9567,
      "FBFC": 9568,
      "FBCA": 9569,
      "9035": 9570,
      "9095": 9571,
      "9054": 9572,
      "7519": 9573,
      "DDEB": 9574,
      "FAEF": 9575,
      "FADF": 9576,
      "3534": 9577,
      "3577": 9578,
      "3532": 9579,
      "35273": 9580,
      "8611": 9581,
      "ECFF": 9582,
      "ECEF": 9583,
      "ECBC": 9584,
      "8420": 9585,
      "8430": 9586,
      "8495": 9587,
      "FCFB": 9588,
      "FCEA": 9589,
      "34309": 9590,
      "2670": 9591,
      "2621": 9592,
      "chap": 9593,
      "chami": 9594,
      "chima": 9595,
      "9426": 9596,
      "9448": 9597,
      "FDCC": 9598,
      "FDBB": 9599,
      "FDAC": 9600,
      "2163": 9601,
      "2165": 9602,
      "EBBB": 9603,
      "9525": 9604,
      "9513": 9605,
      "gib": 9606,
      "8325": 9607,
      "8337": 9608,
      "8331": 9609,
      "8376": 9610,
      "rae": 9611,
      "rano": 9612,
      "DAAD": 9613,
      "0514": 9614,
      "0583": 9615,
      "0555": 9616,
      "0588": 9617,
      "meera": 9618,
      "3725": 9619,
      "3728": 9620,
      "3771": 9621,
      "CAAA": 9622,
      "CACB": 9623,
      "CACD": 9624,
      "eba": 9625,
      "ebert": 9626,
      "FEFC": 9627,
      "1826": 9628,
      "1610": 9629,
      "1689": 9630,
      "5514": 9631,
      "5537": 9632,
      "554929": 9633,
      "7963": 9634,
      "7969": 9635,
      "7928": 9636,
      "AAEF": 9637,
      "AADE": 9638,
      "AACE": 9639,
      "CBFB": 9640,
      "CBEB": 9641,
      "CBEF": 9642,
      "CDCC": 9643,
      "FFEA": 9644,
      "FFFE": 9645,
      "0000": 9646,
      "7810": 9647,
      "7813": 9648,
      "7834": 9649,
      "4439": 9650,
      "4445": 9651,
      "4490": 9652,
      "4412": 9653,
      "3113": 9654,
      "DBED": 9655,
      "DBBA": 9656,
      "DBFB": 9657,
      "9925": 9658,
      "9910": 9659,
      "9994": 9660,
      "6629": 9661,
      "6668": 9662,
      "6688": 9663,
      "71294": 9664,
      "Entrarany": 9665,
      "insertarany": 9666,
      "ABED": 9667,
      "ABCF": 9668,
      "7767": 9669,
      "7726": 9670,
      "4825": 9671,
      "482580": 9672,
      "DCBA": 9673,
      "DCFA": 9674,
      "7363": 9675,
      "100125": 9676,
      "dise": 9677,
      "CFBA": 9678,
      "3320": 9679,
      "3375": 9680,
      "DFDD": 9681,
      "8827": 9682,
      "iran": 9683,
      "4775": 9684,
      "4718": 9685,
      "BDED": 9686,
      "BDEB": 9687,
      "BDCA": 9688,
      "BDFE": 9689,
      "BDCD": 9690,
      "ADED": 9691,
      "ADEA": 9692,
      "BCFA": 9693,
      "0983": 9694,
      "09129": 9695,
      "09640": 9696,
      "vita": 9697,
      "6110": 9698,
      "4114": 9699,
      "59337": 9700,
      "AFFA": 9701,
      "tosh": 9702,
      "gola": 9703,
      "goperson": 9704,
      "maria": 9705,
      "5413": 9706,
      "5435": 9707,
      "7227": 9708,
      "3263": 9709,
      "ffey": 9710,
      "9764": 9711,
      "ight": 9712,
      "Mang": 9713,
      "Mayo": 9714,
      "Maquie": 9715,
      "vein": 9716,
      "Pastora": 9717,
      "Collan": 9718,
      "9160": 9719,
      "9126": 9720,
      "4339": 9721,
      "4689": 9722,
      "5839": 9723,
      "5816": 9724,
      "5370": 9725,
      "564059": 9726,
      "9670": 9727,
      "4215": 9728,
      "4219": 9729,
      "4269": 9730,
      "itron": 9731,
      "5220": 9732,
      "5260": 9733,
      "Queral": 9734,
      "0338": 9735,
      "0330": 9736,
      "0627": 9737,
      "0628": 9738,
      "indel": 9739,
      "zati": 9740,
      "zama": 9741,
      "0265": 9742,
      "oluap": 9743,
      "Alu": 9744,
      "Alfor": 9745,
      "Alcubi": 9746,
      "Paragu": 9747,
      "Paramo": 9748,
      "wai": 9749,
      "untes": 9750,
      "onay": 9751,
      "onato": 9752,
      "tak": 9753,
      "tavia": 9754,
      "four": 9755,
      "fotogra": 9756,
      "delmar": 9757,
      "boy": 9758,
      "bollar": 9759,
      "Lazca": 9760,
      "anyi": 9761,
      "nair": 9762,
      "Arbanc": 9763,
      "neg": 9764,
      "nelas": 9765,
      "gant": 9766,
      "gama": 9767,
      "Guare": 9768,
      "lutz": 9769,
      "bioso": 9770,
      "guapa": 9771,
      "Marc": 9772,
      "Mardoqueo": 9773,
      "Robert": 9774,
      "Robus": 9775,
      "Robles": 9776,
      "orgis": 9777,
      "Baja": 9778,
      "Segre": 9779,
      "Esper": 9780,
      "beatriz": 9781,
      "gecars": 9782,
      "thw": 9783,
      "25721": 9784,
      "Monestel": 9785,
      "Tom": 9786,
      "Tolaba": 9787,
      "perfu": 9788,
      "lindo": 9789,
      "cumbar": 9790,
      "merlina": 9791,
      "10524": 9792,
      "styleperfu": 9793,
      "1295": 9794,
      "2403": 9795,
      "Boca": 9796,
      "17826": 9797,
      "cki": 9798,
      "1647": 9799,
      "deri": 9800,
      "1204": 9801,
      "2642": 9802,
      "40068": 9803,
      "15863": 9804,
      "conera": 9805,
      "Luz": 9806,
      "Rica": 9807,
      "Ribes": 9808,
      "6850": 9809,
      "Pomp": 9810,
      "67582": 9811,
      "3741": 9812,
      "Chil": 9813,
      "29410": 9814,
      "6658": 9815,
      "6703": 9816,
      "22439": 9817,
      "scho": 9818,
      "schia": 9819,
      "DEAA": 9820,
      "3552004": 9821,
      "7452244": 9822,
      "intg": 9823,
      "8071991": 9824,
      "67499": 9825,
      "3397": 9826,
      "FDDD": 9827,
      "Soma": 9828,
      "tsu": 9829,
      "AnTe": 9830,
      "vestre": 9831,
      "Peri": 9832,
      "DBBE": 9833,
      "iliad": 9834,
      "ABBE": 9835,
      "lette": 9836,
      "75925253": 9837,
      "Fabr": 9838,
      "BDBF": 9839,
      "vanda": 9840,
      "amirez": 9841,
      "95418": 9842,
      "Liana": 9843,
      "22640068": 9844,
      "74313": 9845,
      "Candela": 9846,
      "paris": 9847,
      "49325": 9848,
      "Nov": 9849,
      "05571": 9850,
      "stanc": 9851,
[...]
