{"<s>":0,"<pad>":1,"</s>":2,"<unk>":3,"<mask>":4,"!":5,"\"":6,"#":7,"$":8,"%":9,"&":10,"'":11,"(":12,")":13,"*":14,"+":15,",":16,"-":17,".":18,"/":19,"0":20,"1":21,"2":22,"3":23,"4":24,"5":25,"6":26,"7":27,"8":28,"9":29,":":30,";":31,"<":32,"=":33,">":34,"?":35,"@":36,"A":37,"B":38,"C":39,"D":40,"E":41,"F":42,"G":43,"H":44,"I":45,"J":46,"K":47,"L":48,"M":49,"N":50,"O":51,"P":52,"Q":53,"R":54,"S":55,"T":56,"U":57,"V":58,"W":59,"X":60,"Y":61,"Z":62,"[":63,"\\":64,"]":65,"^":66,"_":67,"`":68,"a":69,"b":70,"c":71,"d":72,"e":73,"f":74,"g":75,"h":76,"i":77,"j":78,"k":79,"l":80,"m":81,"n":82,"o":83,"p":84,"q":85,"r":86,"s":87,"t":88,"u":89,"v":90,"w":91,"x":92,"y":93,"z":94,"{":95,"|":96,"}":97,"~":98,"¡":99,"¢":100,"£":101,"¤":102,"¥":103,"¦":104,"§":105,"¨":106,"©":107,"ª":108,"«":109,"¬":110,"®":111,"¯":112,"°":113,"±":114,"²":115,"³":116,"´":117,"µ":118,"¶":119,"·":120,"¸":121,"¹":122,"º":123,"»":124,"¼":125,"½":126,"¾":127,"¿":128,"À":129,"Á":130,"Â":131,"Ã":132,"Ä":133,"Å":134,"Æ":135,"Ç":136,"È":137,"É":138,"Ê":139,"Ë":140,"Ì":141,"Í":142,"Î":143,"Ï":144,"Ð":145,"Ñ":146,"Ò":147,"Ó":148,"Ô":149,"Õ":150,"Ö":151,"×":152,"Ø":153,"Ù":154,"Ú":155,"Û":156,"Ü":157,"Ý":158,"Þ":159,"ß":160,"à":161,"á":162,"â":163,"ã":164,"ä":165,"å":166,"æ":167,"ç":168,"è":169,"é":170,"ê":171,"ë":172,"ì":173,"í":174,"î":175,"ï":176,"ð":177,"ñ":178,"ò":179,"ó":180,"ô":181,"õ":182,"ö":183,"÷":184,"ø":185,"ù":186,"ú":187,"û":188,"ü":189,"ý":190,"þ":191,"ÿ":192,"Ā":193,"ā":194,"Ă":195,"ă":196,"Ą":197,"ą":198,"Ć":199,"ć":200,"Ĉ":201,"ĉ":202,"Ċ":203,"ċ":204,"Č":205,"č":206,"Ď":207,"ď":208,"Đ":209,"đ":210,"Ē":211,"ē":212,"Ĕ":213,"ĕ":214,"Ė":215,"ė":216,"Ę":217,"ę":218,"Ě":219,"ě":220,"Ĝ":221,"ĝ":222,"Ğ":223,"ğ":224,"Ġ":225,"ġ":226,"Ģ":227,"ģ":228,"Ĥ":229,"ĥ":230,"Ħ":231,"ħ":232,"Ĩ":233,"ĩ":234,"Ī":235,"ī":236,"Ĭ":237,"ĭ":238,"Į":239,"į":240,"İ":241,"ı":242,"Ĳ":243,"ĳ":244,"Ĵ":245,"ĵ":246,"Ķ":247,"ķ":248,"ĸ":249,"Ĺ":250,"ĺ":251,"Ļ":252,"ļ":253,"Ľ":254,"ľ":255,"Ŀ":256,"ŀ":257,"Ł":258,"ł":259,"Ń":260,"on":261,"ti":262,"te":263,"la":264,"en":265,"ml":266,"co":267,"li":268,"ca":269,"os":270,"in":271,"ag":272,"tion":273,"ac":274,"ce":275,"pt":276,"nac":277,"cept":278,"naccept":279,"zi":280,"xt":281,"text":282,"xml":283,"er":284,"de":285,"ec":286,"ap":287,"ost":288,"lica":289,"app":290,"lication":291,"application":292,"80":293,"host":294,"ng":295,"age":296,"ht":297,"def":298,"late":299,"Ġ(":300,"HT":301,"Ġx":302,"zip":303,"gzip":304,"deflate":305,"html":306,"ĠK":307,"or":308,"lo":309,"nc":310,"ncon":311,"enco":312,"da":313,"ie":314,"le":315,"ent":316,"pa":317,"im":318,"ser":319,"ar":320,"ok":321,"cook":322,"nu":323,"lla":324,"cookie":325,"lang":326,"SI":327,"cal":328,"local":329,"localhost":330,"uage":331,"language":332,"SE":333,"com":334,"SSI":335,"SESSI":336,"ing":337,"ke":338,"Mo":339,"ko":340,"/*":341,"ux":342,"TP":343,"Lin":344,"Ġc":345,"nec":346,"ding":347,"nuser":348,"agent":349,"ecko":350,"encoding":351,"Gecko":352,"nhost":353,"Ġ/":354,"Ġen":355,"ĠHT":356,"Ġlocalhost":357,"ĠMo":358,"ĠLin":359,"ĠGecko":360,"zilla":361,"nconnec":362,"ĠHTTP":363,"ĠMozilla":364,"ĠLinux":365,"nconnection":366,"*/*":367,"Ġgzip":368,"Ġdeflate":369,"ncookie":370,"qu":371,"ID":372,"Ġtext":373,"los":374,"*/*;":375,"ON":376,"JSESSI":377,"ĠJSESSI":378,"ONID":379,"ĠJSESSIONID":380,"image":381,"ble":382,"pla":383,",*/*;":384,"png":385,"plain":386,"quer":387,"xhtml":388,"pati":389,"like":390,"onquer":391,"lose":392,")\\":393,"ML":394,"HTML":395,"ĠKonquer":396,"ĠKHTML":397,"compati":398,"Ġclose":399,"ĠKonqueror":400,"compatible":401,"8080":402,"tien":403,"tienda":404,"et":405,"re":406,"js":407,"25":408,"jsp":409,"get":410,"is":411,"ww":412,"ci":413,"pu":414,"nt":415,"bli":416,"publi":417,"publico":418,"mb":419,"ro":420,"di":421,"27":422,"ist":423,"gist":424,"rar":425,"do":426,"rec":427,"mo":428,"ur":429,"40":430,"al":431,"for":432,"Ġapplication":433,"modo":434,"ty":435,"10":436,"pe":437,"car":438,"no":439,"url":440,"form":441,"tent":442,"ncontent":443,"type":444,"ded":445,"www":446,"encoded":447,"urlencoded":448,"post":449,"log":450,"an":451,"es":452,"ri":453,"el":454,"as":455,"20":456,"ni":457,"dad":458,"mbre":459,"nombre":460,"63":461,"login":462,"regist":463,"registro":464,"29":465,"17":466,"cia":467,"38":468,"14":469,"ss":470,"io":471,"ros":472,"22":473,"64":474,"65":475,"60":476,"15":477,"19":478,"74":479,"ma":480,"39":481,"69":482,"28":483,"il":484,"mie":485,"mbros":486,"miembros":487,"pro":488,"st":489,"to":490,"89":491,"23":492,"Re":493,"13":494,"70":495,"45":496,"85":497,"adi":498,"pass":499,"lid":500,"passw":501,"ord":502,"vin":503,"nti":504,"tar":505,"udad":506,"adir":507,"cion":508,"nmodo":509,"ema":510,"password":511,"ntc":512,"direc":513,"apel":514,"cp":515,"provin":516,"email":517,"dni":518,"prec":519,"ciudad":520,"lidos":521,"direccion":522,"apellidos":523,"provincia":524,"precio":525,"gistrar":526,"Registrar":527,"67":528,"ED":529,"253":530,"carri":531,"am":532,"carrito":533,"30":534,"11":535,"87":536,"BA":537,"entrar":538,"24":539,"at":540,"enes":541,"agenes":542,"imagenes":543,"CC":544,"FB":545,"90":546,"75":547,"DD":548,"FA":549,"35":550,"86":551,"aci":552,"EC":553,"84":554,"FC":555,"34":556,"26":557,"EA":558,"aciar":559,"ch":560,"au":561,"94":562,"FD":563,"21":564,"EB":565,"95":566,"ja":567,"gi":568,"83":569,"ra":570,"DA":571,"05":572,"me":573,"37":574,"256":575,"id":576,"CA":577,"BB":578,"eb":579,"FE":580,"gif":581,"36":582,"18":583,"16":584,"55":585,"79":586,"AA":587,"cor":588,"CB":589,"CD":590,"FF":591,"EE":592,"00":593,"78":594,"44":595,"wd":596,"edi":597,"us":598,"anadir":599,"31":600,"aute":601,"les":602,"nticar":603,"autenticar":604,"pwd":605,"agar":606,"editar":607,"mber":608,"canti":609,"cantidad":610,"+&":611,"DB":612,"reme":613,"pagar":614,"remember":615,"99":616,"Ent":617,"66":618,"71":619,"Entrar":620,"ter":621,"inser":622,"insertar":623,"98":624,"EF":625,"AB":626,"50":627,"nid":628,"77":629,"cas":630,"48":631,"sec":632,"DC":633,"68":634,"12":635,"73":636,"ner":637,"100":638,"270":639,"49":640,"Ms":641,"isti":642,"bal":643,"142":644,"acter":645,"caracter":646,"isticas":647,"caracteristicas":648,"encia":649,"62":650,"dis":651,"vaciar":652,"DE":653,"CF":654,"jp":655,"iss":656,"CE":657,"jpg":658,"ror":659,"33":660,"=%":661,"Msg":662,"rorMsg":663,"glo":664,"ref":665,"fet":666,"global":667,"nsec":668,"DF":669,"fetch":670,"stat":671,"miss":672,"status":673,"dismiss":674,"88":675,"ir":676,"47":677,"82":678,"si":679,"BD":680,"tas":681,"AD":682,"BC":683,"09":684,"vi":685,"red":686,"101":687,"BE":688,"61":689,"AC":690,"ali":691,"41":692,"Vaciar":693,"59":694,"57":695,"AF":696,"AE":697,"ZR":698,"BF":699,"correc":700,"Cred":701,"incorrec":702,"enciales":703,"Credenciales":704,"incorrectas":705,"01":706,"tos":707,"go":708,"mar":709,"+%":710,"54":711,"173":712,"wi":713,"252":714,"72":715,"81":716,"jo":717,"--":718,"Go":719,"Web":720,"men":721,"32":722,"ff":723,"97":724,"ig":725,"Ma":726,"04":727,"he":728,"mv":729,"Goat":730,"WebGoat":731,"ve":732,"5173":733,"250":734,"Cal":735,"Pas":736,"76":737,"amp":738,"logo":739,"Co":740,"91":741,"por":742,"Con":743,"ND":744,"43":745,"br":746,"46":747,"2563":748,"ame":749,"58":750,"mvc":751,"93":752,"53":753,"Calle":754,"fir":755,"56":756,"Confir":757,"Confirmar":758,"96":759,"off":760,"cri":761,"Wx":762,"07":763,"51":764,"42":765,"ate":766,"Pasar":767,"Jl":768,"sI":769,"caja":770,"Fi":771,"cript":772,"nB":773,"92":774,"it":775,"aj":776,"ino":777,"52":778,"08":779,"tp":780,"Qu":781,"03":782,"ons":783,"06":784,"2574":785,"http":786,"ox":787,"Rio":788,"ep":789,"nue":790,"onti":791,"CI":792,"De":793,"ia":794,"site":795,"Mj":796,"\":":797,"wel":798,"inde":799,"mode":800,"nerrorMsg":801,"index":802,"rv":803,"za":804,"welcom":805,"jav":806,"{\"":807,"US":808,":/":809,"bm":810,"erer":811,"Code":812,"PH":813,"igin":814,"iec":815,"20100":816,"refox":817,"same":818,"Ġke":819,"ĠFi":820,"Ġrv":821,"alive":822,"20100101":823,"Ġkeep":824,"ĠFirefox":825,"errorMsg":826,"eban":827,"Ġsame":828,"origin":829,"ul":830,"zst":831,"Ġbr":832,"Ġzst":833,"state":834,"ontinue":835,"Ġzstd":836,"={\"":837,"PSESSI":838,"};":839,"Ġg":840,"Ġcook":841,"Ġlanguage":842,"Ġwelcom":843,"ĠPH":844,"Ġcontinue":845,"onsent":846,"ieconsent":847,"ebanner":848,"PSESSID":849,"Ġcookieconsent":850,"Ġwelcomebanner":851,"ĠPHPSESSID":852,"ĠcontinueCode":853,"nref":854,"Ġhttp":855,"://":856,"nreferer":857,"Rioja":858,"Ii":859,"02":860,"nche":861,"ad":862,"ert":863,"less":864,"nov":865,"GM":866,"Ijo":867,"cors":868,"zm":869,"art":870,"DO":871,"um":872,"lesson":873,"yO":874,"199":875,"ab":876,"Ques":877,"Manche":878,"Manchego":879,"--%":880,"ol":881,"989":882,"Al":883,"360":884,"VA":885,"Par":886,"asf":887,"CJ":888,"wide":889,"Vino":890,"iO":891,"EQ":892,"Bbm":893,"KyO":894,"Lzm":895,"PJ":896,"QDO":897,"Xk":898,"YVA":899,"gYVA":900,"qPJ":901,"wWx":902,"zZR":903,"reZR":904,"alND":905,"JlGM":906,"novp":907,"BbmzZR":908,"KyOqPJ":909,"LzmXk":910,"gYVAJlGM":911,"wWxalND":912,"reZRLzmXk":913,"BbmzZRb":914,"ascript":915,"FBE":916,"ZX":917,"ack":918,"javascript":919,"Sa":920,"Queso":921,"iJ":922,"Ijoi":923,"2529":924,"Ġcors":925,"941":926,"du":927,"2569":928,"MT":929,"2565":930,"Ib":931,"wa":932,"LCJ":933,"Jam":934,"rico":935,"un":936,"hi":937,"SC":938,"bf":939,"dela":940,"IP":941,"SCR":942,"IPT":943,"ona":944,"ta":945,"ey":946,"283":947,"zar":948,"alert":949,"Paros":950,"4199":951,"start":952,"BT":953,"989941":954,"2522":955,"fo":956,"json":957,"va":958,"wait":959,"amper":960,"Bwait":961,"delay":962,"Bwaitfor":963,"ver":964,"ba":965,"man":966,"del":967,"Set":968,"122":969,"YW":970,"ada":971,"BTamper":972,"sa":973,"110":974,"bo":975,"La":976,"tu":977,"any":978,"ue":979,"Vi":980,"Ġq":981,"Ġ*/*;":982,"erra":983,"na":984,"og":985,"servi":986,"387":987,"123":988,"Ar":989,"tra":990,"747":991,"service":992,"MD":993,"NT":994,"cm":995,"7098":996,"28336":997,"dbf":998,"7098101":999,"dbfd":1000,"ZW":1001,"Nz":1002,"GF":1003,"ASet":1004,"Iiwi":1005,"css":1006,"ono":1007,"eyJ":1008,"ne":1009,"duc":1010,"ga":1011,"ha":1012,"zd":1013,"Mz":1014,"ran":1015,"cre":1016,"2528":1017,"FN":1018,"Val":1019,"Ym":1020,"ru":1021,"ls":1022,"637":1023,"produc":1024,"2561":1025,"dCI":1026,"esti":1027,"so":1028,"CSCR":1029,"Ealert":1030,"San":1031,"GV":1032,"era":1033,"6363":1034,"titu":1035,"Gu":1036,"estilos":1037,"6005":1038,"sali":1039,"136":1040,"lu":1041,"cast":1042,"6420":1043,"fotos":1044,"estra":1045,"bi":1046,"res":1047,"690":1048,"4839":1049,"gu":1050,"tierra":1051,"sIm":1052,"bul":1053,"290":1054,"auz":1055,"credi":1056,"salir":1057,"jack":1058,"menum":1059,"titulo":1060,"creditos":1061,"zarauz":1062,"nuestra":1063,"nuestratierra":1064,"iLCJ":1065,"castro":1066,"ea":1067,"ex":1068,"ogono":1069,"productos":1070,"Mar":1071,"Cas":1072,"cmen":1073,"cmenbul":1074,"38725":1075,"Bar":1076,"Ġhi":1077,"176363":1078,"746420":1079,"786005":1080,"6238725":1081,"4839122":1082,"Ġhijack":1083,"1763634839122":1084,"7464206238725":1085,"7860057464206238725":1086,"paros":1087,"RB":1088,"Car":1089,"Iw":1090,"8082":1091,"730":1092,"2527":1093,"nV":1094,"ll":1095,"2640":1096,"ora":1097,"iOiJ":1098,"1041":1099,"74727":1100,"235":1101,"25374727":1102,"11025374727":1103,"264011025374727":1104,"1041264011025374727":1105,"fa":1106,"Ju":1107,"ana":1108,"2570":1109,"Rl":1110,"Nj":1111,"297":1112,"ed":1113,"2573":1114,"sb":1115,"fi":1116,"234":1117,"Cu":1118,"Ro":1119,"486":1120,"dX":1121,"ho":1122,"MTE":1123,"Fs":1124,"Sant":1125,"221":1126,"876":1127,"Ij":1128,"Ca":1129,"org":1130,"se":1131,"ZWRB":1132,"ZWRBdCI":1133,"RO":1134,"pY":1135,"Ba":1136,"Pa":1137,"lIjoi":1138,"pb":1139,"tYW":1140,"inc":1141,"Le":1142,"ara":1143,"Se":1144,"ow":1145,"amples":1146,"--&":1147,"ina":1148,"ero":1149,"uri":1150,"271":1151,"8789":1152,"idA":1153,"nidA":1154,"Cor":1155,"tor":1156,"Ġt":1157,"ber":1158,"cmd":1159,"Na":1160,"uel":1161,"YX":1162,"AND":1163,"cr":1164,"lan":1165,"466":1166,"Cs":1167,"mi":1168,"cel":1169,"bG":1170,"Ny":1171,"9030":1172,"130":1173,"Es":1174,"dri":1175,"sion":1176,"2572":1177,"menu":1178,"lessonmenu":1179,"be":1180,"Ag":1181,"ZGF":1182,"ld":1183,"OL":1184,"ge":1185,"ida":1186,"278789":1187,".+":1188,"th":1189,"2529278789":1190,"1362529278789":1191,"4861362529278789":1192,"4861362529278789730":1193,"ente":1194,"832563":1195,"637832563":1196,"6909030":1197,"637832563290":1198,"6909030637832563290":1199,"Lj":1200,"vie":1201,"vo":1202,"257":1203,"MjU":1204,"Mon":1205,"TE":1206,"las":1207,"EDa":1208,"var":1209,"ago":1210,"precioA":1211,"Bur":1212,"und":1213,"doc":1214,"name":1215,"ession":1216,"Villa":1217,"Uz":1218,"WF":1219,"mU":1220,"ya":1221,"170":1222,"gos":1223,"IN":1224,"nerrorMsgA":1225,"errorMsgA":1226,"834":1227,"user":1228,"6520":1229,"bar":1230,"9090":1231,"To":1232,"per":1233,"sty":1234,"191":1235,"ECT":1236,"Yz":1237,"Tor":1238,"ell":1239,"bob":1240,"celona":1241,"all":1242,"179":1243,"263":1244,"Zj":1245,"cy":1246,"po":1247,"xy":1248,"over":1249,"view":1250,"ena":1251,"proxy":1252,"lin":1253,"ipt":1254,"min":1255,"pos":1256,"190":1257,"CSCRipt":1258,"parosproxy":1259,"Fscr":1260,"FscrIPT":1261,"put":1262,"872":1263,"5567":1264,"hc":1265,"arr":1266,"155":1267,"des":1268,"OT":1269,"FSCR":1270,"CSCRIPT":1271,"FSCRIPT":1272,"Pl":1273,"576520":1274,"234876":1275,"5567234876":1276,"5765205567234876":1277,"5765205567234876235":1278,"165":1279,"cu":1280,"800":1281,"que":1282,"Sala":1283,"Burgos":1284,"+--%":1285,"185":1286,"tMj":1287,"tMTE":1288,"6575":1289,"IjoiIiwi":1290,"IwMjU":1291,"IjIwMjU":1292,"tMTEtMj":1293,"IjIwMjUtMTEtMj":1294,"135":1295,"pYy":1296,"mer":1297,"105":1298,"194":1299,"Del":1300,"tr":1301,"overview":1302,"/.":1303,"lessonoverview":1304,"style":1305,"177":1306,"154":1307,"username":1308,"Pal":1309,"150":1310,"lor":1311,"web":1312,"2564":1313,"2567":1314,"108":1315,"174":1316,"2520":1317,"145":1318,"189":1319,"118":1320,"129":1321,"LE":1322,"143":1323,"240":1324,"gro":1325,"cgi":1326,"45297":1327,"ument":1328,"document":1329,"ste":1330,"Bo":1331,"aea":1332,"175":1333,"178":1334,"chi":1335,"ZWx":1336,"kZWx":1337,"409":1338,"zo":1339,"147":1340,"ck":1341,"144":1342,"164":1343,"back":1344,"OW":1345,"Guada":1346,"Ex":1347,"sv":1348,"275":1349,"der":1350,"660":1351,"Zar":1352,"drid":1353,"AR":1354,"103":1355,"via":1356,"ka":1357,"iOi":1358,"163":1359,"Aurl":1360,"Aalert":1361,"Ter":1362,"ground":1363,"background":1364,"120":1365,"Pu":1366,"alla":1367,"ret":1368,"264":1369,"FRO":1370,"159":1371,"697":1372,"FROM":1373,"285":1374,"jJ":1375,"134":1376,"193":1377,"197":1378,"133":1379,"265":1380,"12312":1381,"Gd":1382,"MCI":1383,"400":1384,"MDU":1385,"hZ":1386,"158":1387,"12312312":1388,"essionid":1389,"mu":1390,"254":1391,"227":1392,"245":1393,"620":1394,"2575":1395,"160":1396,"EX":1397,"650":1398,"ria":1399,"ari":1400,"220":1401,"805":1402,"405":1403,"manca":1404,"/\\":1405,"Ra":1406,"157":1407,"694":1408,"XA":1409,"nombreA":1410,"148":1411,"167":1412,"con":1413,"Salamanca":1414,"EXEC":1415,"lia":1416,"195":1417,"urity":1418,"Lu":1419,"2568":1420,"180":1421,"107":1422,"Cam":1423,"Ri":1424,"jara":1425,"pi":1426,"sInV":1427,"127":1428,"124":1429,"255":1430,"security":1431,"139":1432,"llo":1433,"loginA":1434,"153":1435,"oken":1436,"OiJ":1437,"cH":1438,"146":1439,"685":1440,"Po":1441,"Barcelona":1442,"870":1443,"Pla":1444,"Zl":1445,"140":1446,"Ġ*/*":1447,"Ġ*/*\\":1448,"dor":1449,"lajara":1450,"agoza":1451,"675":1452,"679":1453,"ICs":1454,"LB":1455,"My":1456,"wMD":1457,"owMCI":1458,"IjIwMjUtMTEtMjAg":1459,"ICswMD":1460,"ICswMDowMCI":1461,"374":1462,"299":1463,"390":1464,"Guadalajara":1465,"Ch":1466,"Ci":1467,"294":1468,"ez":1469,"lar":1470,"192":1471,"128":1472,"CDA":1473,"Mv":1474,"lig":1475,"109":1476,"Hu":1477,"104":1478,"tl":1479,"389":1480,"375":1481,"665":1482,"tes":1483,"279":1484,"630":1485,"Santa":1486,"Av":1487,"Jv":1488,"634":1489,"695":1490,"670":1491,"El":1492,"845":1493,"156":1494,"839":1495,"835":1496,"sible":1497,"impos":1498,"259":1499,"asp":1500,"impossible":1501,"BEA":1502,"KV":1503,"MiOiJ":1504,"NiJ":1505,"QiLCJ":1506,"SUz":1507,"WNj":1508,"YSI":1509,"ZCI":1510,"eXA":1511,"hYm":1512,"hbG":1513,"pZCI":1514,"zL":1515,"zZX":1516,"SIsI":1517,"ciOiJ":1518,"224":1519,"ZXNz":1520,"IiwiZGF":1521,"eyJzd":1522,"eyJpZCI":1523,"zdWNj":1524,"iOiJKV":1525,"JuYW":1526,"dXMiOiJ":1527,"Ġtoken":1528,"QiLCJhbG":1529,"SUzI":1530,"eXAiOiJKV":1531,"zZXJuYW":1532,"ciOiJSUzI":1533,"ZXNzIiwiZGF":1534,"eyJzdGF":1535,"zdWNjZXNzIiwiZGF":1536,"dXMiOiJzdWNjZXNzIiwiZGF":1537,"QiLCJhbGciOiJSUzI":1538,"sch":1539,"her":1540,"osa":1541,"ard":1542,"877":1543,"vila":1544,"modoA":1545,"699":1546,"nmodoA":1547,"244":1548,"Zaragoza":1549,"FH":1550,"yo":1551,"106":1552,"200":1553,"EDB":1554,"sessionid":1555,"ly":1556,"804":1557,"384":1558,"Ġsecurity":1559,"639":1560,"300":1561,"old":1562,"239":1563,"DEA":1564,"137":1565,"Ad":1566,"230":1567,"CCB":1568,"ECA":1569,"168":1570,"ns":1571,"385":1572,"894":1573,"FAA":1574,"Pi":1575,"149":1576,"638":1577,"649":1578,"Gir":1579,"Or":1580,"644":1581,"875":1582,"247":1583,"248":1584,"ECD":1585,"184":1586,"cat":1587,"744":1588,"890":1589,"183":1590,"FDA":1591,"EBE":1592,"335":1593,"277":1594,"698":1595,"249":1596,"Palencia":1597,"BBA":1598,"bu":1599,"cf":1600,"635":1601,"229":1602,"Zam":1603,"+.":1604,"645":1605,"198":1606,"274":1607,"FCD":1608,"809":1609,"654":1610,"655":1611,"344":1612,"Valencia":1613,"260":1614,"330":1615,"CEA":1616,"EEA":1617,"176":1618,"355":1619,"FDF":1620,"760":1621,"739":1622,"855":1623,"Teruel":1624,"Ub":1625,"oria":1626,"337":1627,"ura":1628,"745":1629,"Ber":1630,"bin":1631,"677":1632,"FBB":1633,"sh":1634,"204":1635,"Old":1636,"899":1637,"Madrid":1638,"file":1639,"Zamora":1640,"LI":1641,"WU":1642,"nR":1643,"uM":1644,"169":1645,"Pg":1646,"709":1647,"844":1648,"EBC":1649,"kr":1650,"ach":1651,"407":1652,"and":1653,"205":1654,"FCB":1655,"268":1656,"188":1657,"EFA":1658,"IsIm":1659,"Ja":1660,"EDF":1661,"628":1662,"UiLCJ":1663,"eGV":1664,"int":1665,"807":1666,"408":1667,"112":1668,"IiLCJ":1669,"biI":1670,"OLD":1671,"WFn":1672,"tlbiI":1673,"eGVUb":1674,"ECC":1675,"yb":1676,"cio":1677,"600":1678,"117":1679,"674":1680,"795":1681,"975":1682,"eli":1683,"mc":1684,"295":1685,"BAB":1686,"FCF":1687,"EBD":1688,"125":1689,"ER":1690,"nte":1691,"152":1692,"705":1693,"459":1694,"EBB":1695,"404":1696,"339":1697,"ib":1698,"604":1699,"EDE":1700,"111":1701,"FCA":1702,"RzL":1703,"828":1704,"FDD":1705,"So":1706,"rat":1707,"ts":1708,"707":1709,"light":1710,"AM":1711,"BCA":1712,"DCC":1713,"Fk":1714,"OR":1715,"141":1716,"132":1717,"700":1718,"EDC":1719,"BAD":1720,"315":1721,"627":1722,"095":1723,"FEA":1724,"hu":1725,"317":1726,"610":1727,"enca":1728,"648":1729,"ECE":1730,"187":1731,"680":1732,"Fr":1733,"Valla":1734,"ler":1735,"657":1736,"java":1737,"121":1738,"505":1739,"DCA":1740,"BAA":1741,"FAB":1742,"Navar":1743,"445":1744,"dolid":1745,"609":1746,"196":1747,"237":1748,"850":1749,"EDA":1750,"FBD":1751,"ECB":1752,"ECF":1753,"FDB":1754,"heme":1755,"328":1756,"FG":1757,"QiOi":1758,"dd":1759,"FCE":1760,"govia":1761,"689":1762,"Lle":1763,"iz":1764,"298":1765,"FDC":1766,"An":1767,"388":1768,"377":1769,"RlZ":1770,"Valladolid":1771,"Inc":1772,"db":1773,"AAA":1774,"Segovia":1775,"213":1776,"ling":1777,"273":1778,"278":1779,"857":1780,"218":1781,"ACA":1782,"ves":1783,"403":1784,"209":1785,"455":1786,"859":1787,"FAD":1788,"uela":1789,"Per":1790,"hor":1791,"258":1792,"FAC":1793,"FEE":1794,"162":1795,"659":1796,"EDn":1797,"879":1798,"750":1799,"FEF":1800,"Eu":1801,"ms":1802,"ley":1803,"292":1804,"646":1805,"673":1806,"CBB":1807,"DBB":1808,"2540":1809,"207":1810,"FBF":1811,"357":1812,"EBF":1813,"EEF":1814,"Ġtheme":1815,"ADD":1816,"BCC":1817,"En":1818,"289":1819,"350":1820,"2500":1821,"138":1822,"NB":1823,"gar":1824,"ili":1825,"233":1826,"FBC":1827,"FAF":1828,"Rlb":1829,"Bsb":1830,"Fu":1831,"bd":1832,"xpYy":1833,"CDB":1834,"ZXMv":1835,"ZXRzL":1836,"NzZXRzL":1837,"YmxpYy":1838,"dXBsb":1839,"pbWFn":1840,"YXNzZXRzL":1841,"Fkcy":1842,"ZXMvdXBsb":1843,"pbWFnZXMvdXBsb":1844,"*+":1845,"113":1846,"tin":1847,"848":1848,"bak":1849,"Navarra":1850,"Lleida":1851,"ACB":1852,"Gran":1853,"illa":1854,"mon":1855,"693":1856,"BAC":1857,"166":1858,"admin":1859,"Cuenca":1860,"119":1861,"ADA":1862,"ABB":1863,"BDA":1864,"eg":1865,"172":1866,"909":1867,"359":1868,"let":1869,"236":1870,"BAE":1871,"Girona":1872,"Do":1873,"aX":1874,"jcm":1875,"607":1876,"EDD":1877,"sIml":1878,"MzY":1879,"jcmV":1880,"115":1881,"PAR":1882,"ic":1883,"ki":1884,"ras":1885,"Bak":1886,"AEA":1887,"JECT":1888,"wf":1889,"223":1890,"696":1891,"FAE":1892,"349":1893,"EEE":1894,"INJECT":1895,"PARAM":1896,"INJECTED":1897,"395":1898,"759":1899,"837":1900,"406":1901,"228":1902,"900":1903,"358":1904,"FFF":1905,"Fa":1906,"Si":1907,"bj":1908,"647":1909,"288":1910,"BDD":1911,"FCC":1912,"643":1913,"605":1914,"895":1915,"849":1916,"DCB":1917,"Qx":1918,"yd":1919,"305":1920,"878":1921,"243":1922,"266":1923,"RlZEF":1924,"ltYW":1925,"rm":1926,"102":1927,"450":1928,"BAF":1929,"ltYWd":1930,"unt":1931,"454":1932,"678":1933,"307":1934,"BAK":1935,"758":1936,"217":1937,"BDB":1938,"ledo":1939,"151":1940,"284":1941,"287":1942,"illo":1943,"Ay":1944,"208":1945,"Caste":1946,"094":1947,"280":1948,"380":1949,"AFB":1950,"Bu":1951,"rf":1952,"rer":1953,"hh":1954,"636":1955,"238":1956,"hd":1957,"secret":1958,"Nv":1959,"Tarr":1960,"em":1961,"archi":1962,"esca":1963,"archivo":1964,"CED":1965,"loca":1966,"672":1967,"usu":1968,"iq":1969,"su":1970,"CDF":1971,"Toledo":1972,"BCB":1973,"399":1974,"216":1975,"EFD":1976,"sZ":1977,"agona":1978,"658":1979,"608":1980,"897":1981,"868":1982,"HER":1983,"ZS":1984,"fer":1985,"DAC":1986,"ABLE":1987,"HERE":1988,"CDD":1989,"FFC":1990,"gen":1991,"206":1992,"755":1993,"+*+":1994,"126":1995,"210":1996,"DRO":1997,"KE":1998,"LECT":1999,"TABLE":2000,"WHERE":2001,"son":2002,"803":2003,"datos":2004,"SELECT":2005,"854":2006,"lude":2007,"include":2008,"arios":2009,"LIKE":2010,"usuarios":2011,"DROP":2012,"BM":2013,"Gls":2014,"van":2015,"aga":2016,"ami":2017,"354":2018,"954":2019,"Li":2020,"ela":2021,"293":2022,"226":2023,"704":2024,"054":2025,"368":2026,"ACC":2027,"gr":2028,"653":2029,"458":2030,"Fh":2031,"Gar":2032,"Yo":2033,"kq":2034,"pd":2035,"394":2036,"131":2037,"908":2038,"EAE":2039,"Juan":2040,"BCD":2041,"847":2042,"348":2043,"688":2044,"lw":2045,"ven":2046,"tel":2047,"4040":2048,"171":2049,"304":2050,"je":2051,"808":2052,"748":2053,"757":2054,"799":2055,"+-":2056,"DED":2057,"DCD":2058,"etc":2059,"743":2060,"676":2061,"DDF":2062,"212":2063,"376":2064,"exec":2065,"INC":2066,"secreto":2067,"085":2068,"Rw":2069,"Rpd":2070,"UltYWd":2071,"VjcmV":2072,"ZV":2073,"Zml":2074,"avi":2075,"bnV":2076,"hdCI":2077,"oF":2078,"wZGF":2079,"ciLCJ":2080,"203":2081,"291":2082,"898":2083,"309":2084,"DDC":2085,"Alb":2086,"iOnR":2087,"MTc":2088,"ZWF":2089,"MzYz":2090,"sImNy":2091,"sbH":2092,"mUiOnR":2093,"IjoiIiwiaX":2094,"sInVwZGF":2095,"cHJv":2096,"WUsImNy":2097,"NBY":2098,"RlbGV":2099,"sImlhdCI":2100,"ydWUsImNy":2101,"Tarragona":2102,"sZUltYWd":2103,"RwU":2104,"RpdmUiOnR":2105,"ZmlsZUltYWd":2106,"bnVsbH":2107,"IjoiIiwiaXNBY":2108,"cHJvZmlsZUltYWd":2109,"ydWUsImNyZWF":2110,"RpdmUiOnRydWUsImNyZWF":2111,"cHJvZmlsZUltYWdlIjoi":2112,"Bcat":2113,"Fpassw":2114,"Fetc":2115,"Ru":2116,"Soria":2117,"Ur":2118,"ares":2119,"457":2120,"116":2121,"873":2122,"DDD":2123,"Fpasswd":2124,"595":2125,"ADB":2126,"Jh":2127,"Lm":2128,"Mb":2129,"Wr":2130,"don":2131,"rw":2132,"373":2133,"AAD":2134,"DQ":2135,"MWr":2136,"Pea":2137,"XV":2138,"YRl":2139,"ZMWr":2140,"gjJ":2141,"mas":2142,"mOL":2143,"nmv":2144,"wK":2145,"246":2146,"ata":2147,"CBD":2148,"brgjJ":2149,"NyXV":2150,"ExW":2151,"BMNyXV":2152,"kqYRl":2153,"PeaBMNyXV":2154,"ZMWrX":2155,"mOLbrgjJ":2156,"nmvd":2157,"kqYRlExW":2158,"mOLbrgjJwK":2159,"AED":2160,"AEB":2161,"CEC":2162,"296":2163,"383":2164,"393":2165,"904":2166,"EAB":2167,"948":2168,"acker":2169,"Bstyle":2170,"Los":2171,"ceres":2172,"eri":2173,"dir":2174,"CCC":2175,"866":2176,"944":2177,"182":2178,"pbk":2179,"779":2180,"DBA":2181,"FFD":2182,"Jk":2183,"QGd":2184,"Rj":2185,"RMb":2186,"Vzd":2187,"ZTE":2188,"bSIsI":2189,"dpbk":2190,"lhYm":2191,"set":2192,"tZX":2193,"wYW":2194,"xlIjoi":2195,"xhc":2196,"DAA":2197,"JlNT":2198,"nBhc":2199,"IiIsIm":2200,"IjoiZTE":2201,"NTlhYm":2202,"Mzk":2203,"lsLm":2204,"IwZj":2205,"tYWlsLm":2206,"ZjIwZj":2207,"OWJh":2208,"ZlMDU":2209,"UiLCJyb":2210,"IiLCJkZWx":2211,"NvbSIsI":2212,"JkIjoiZTE":2213,"QGdtYWlsLm":2214,"RjMzk":2215,"VzdG":2216,"dpbklw":2217,"tZXIiLCJkZWx":2218,"wYWRjMzk":2219,"xlIjoiY":2220,"JlNTZlMDU":2221,"IiIsImxhc":2222,"NTlhYmJlNTZlMDU":2223,"ZjIwZjg":2224,"OWJhNTlhYmJlNTZlMDU":2225,"NvbSIsInBhc":2226,"JkIjoiZTEwYWRjMzk":2227,"QGdtYWlsLmNvbSIsInBhc":2228,"BEB":2229,"Can":2230,"DEB":2231,"FFA":2232,"par":2233,"CCD":2234,"261":2235,"544":2236,"BED":2237,"CFA":2238,"Jos":2239,"8081":2240,"379":2241,"CBE":2242,"ample":2243,"EEC":2244,"Edocument":2245,"Fcookie":2246,"Fcgi":2247,"az":2248,"ei":2249,"806":2250,"222":2251,"397":2252,"398":2253,"241":2254,"AAF":2255,"joz":2256,"example":2257,"Fscript":2258,"Cscript":2259,"steal":2260,"location":2261,"Fhacker":2262,"Fcookiesteal":2263,"FEC":2264,"bff":2265,"25320":2266,"347":2267,"BBF":2268,"Bada":2269,"EED":2270,"Fer":2271,"754":2272,"CBC":2273,"DBC":2274,"493":2275,"edf":2276,"bffc":2277,"267":2278,"AFC":2279,"Mor":2280,"Nk":2281,"No":2282,"NmU":2283,"ju":2284,"zH":2285,"905":2286,"950":2287,"ABA":2288,"AFA":2289,"BDC":2290,"sd":2291,"zg":2292,"631":2293,"741":2294,"749":2295,"955":2296,"ACD":2297,"EFF":2298,"FEB":2299,"HY":2300,"HZ":2301,"Ġno":2302,"Ġ/_":2303,"2578":2304,"DBD":2305,"327":2306,"CFB":2307,"EBA":2308,"EFC":2309,"eo":2310,"tz":2311,"cha":2312,"959":2313,"055":2314,"BFF":2315,"nj":2316,"licante":2317,"656":2318,"606":2319,"708":2320,"846":2321,"BFE":2322,"lio":2323,"386":2324,"641":2325,"691":2326,"EAA":2327,"BBB":2328,"Badajoz":2329,"219":2330,"ADC":2331,"CFD":2332,"eta":2333,"401":2334,"EAD":2335,"DAD":2336,"788":2337,"447":2338,"BEF":2339,"Da":2340,"EEB":2341,"Is":2342,"han":2343,"agu":2344,"746":2345,"907":2346,"BBE":2347,"AFF":2348,"FBA":2349,"iel":2350,"893":2351,"842":2352,"843":2353,"EAC":2354,"214":2355,"dra":2356,"801":2357,"381":2358,"sta":2359,"703":2360,"949":2361,"797":2362,"villa":2363,"Plza":2364,"064":2365,"485":2366,"Camp":2367,"DFB":2368,"Pe":2369,"Samples":2370,"pol":2371,"cic":2372,"CAA":2373,"CAE":2374,"161":2375,"CBF":2376,"BEC":2377,"Jc":2378,"mp":2379,"ph":2380,"276":2381,"DAE":2382,"ABC":2383,"by":2384,"zc":2385,"892":2386,"CCE":2387,"DAB":2388,"CAB":2389,"997":2390,"Granada":2391,"005":2392,"114":2393,"186":2394,"CFC":2395,"DFE":2396,"Lo":2397,"Man":2398,"mA":2399,"603":2400,"853":2401,"906":2402,"753":2403,"756":2404,"836":2405,"pwdA":2406,"DBF":2407,"Cant":2408,"063":2409,"AEC":2410,"Alicante":2411,"CX":2412,"Mi":2413,"ete":2414,"231":2415,"232":2416,"DDB":2417,"CAD":2418,"366":2419,"ABF":2420,"ador":2421,"svg":2422,"500":2423,"AFE":2424,"AEE":2425,"ACE":2426,"DFF":2427,"Ped":2428,"hha":2429,"samples":2430,"858":2431,"346":2432,"DAF":2433,"AAE":2434,"rememberA":2435,"509":2436,"777":2437,"497":2438,"035":2439,"370":2440,"463":2441,"464":2442,"DFD":2443,"InV":2444,"DDE":2445,"2562":2446,"668":2447,"087":2448,"AFD":2449,"CEF":2450,"DEE":2451,"HO":2452,"VtYW":2453,"lsI":2454,"ry":2455,"wQGdtYWlsLmNvbSIsInBhc":2456,"mlra":2457,"SIsIm":2458,"251":2459,"652":2460,"896":2461,"841":2462,"343":2463,"833":2464,"181":2465,"MsInV":2466,"joib":2467,"MjMsInV":2468,"lIjoiQ":2469,"LjY":2470,"MzYwQGdtYWlsLmNvbSIsInBhc":2471,"GlsLjY":2472,"hhaSIsIm":2473,"VtYWlsI":2474,"mlraGlsLjY":2475,"joibmlraGlsLjY":2476,"MjMsInVzZXJuYW":2477,"hhaSIsImVtYWlsI":2478,"hhaSIsImVtYWlsIjoibmlraGlsLjY":2479,"CFF":2480,"EFE":2481,"eO":2482,"632":2483,"286":2484,"832":2485,"ACF":2486,"Ye":2487,"Zb":2488,"ban":2489,"mor":2490,"ton":2491,"eni":2492,"CCF":2493,"798":2494,"507":2495,"ruz":2496,"494":2497,"cke":2498,"396":2499,"692":2500,"456":2501,"671":2502,"262":2503,"CBA":2504,"CEE":2505,"DFC":2506,"DEF":2507,"eu":2508,"lL":2509,"453":2510,"306":2511,"cho":2512,"rans":2513,"Huesca":2514,"ADE":2515,"BV":2516,"EFB":2517,"rU":2518,"281":2519,"943":2520,"port":2521,"715":2522,"BCE":2523,"Py":2524,"__":2525,"gs":2526,"gra":2527,"402":2528,"rio":2529,"282":2530,"378":2531,"CAC":2532,"361":2533,"Cab":2534,"Fw":2535,"Her":2536,"cza":2537,"CCA":2538,"356":2539,"090":2540,"885":2541,"BZV":2542,"FFB":2543,"Gbj":2544,"HMo":2545,"IuM":2546,"MX":2547,"OQ":2548,"QR":2549,"Qv":2550,"SQR":2551,"TZ":2552,"Ts":2553,"Tw":2554,"UoF":2555,"Vx":2556,"WQ":2557,"WYo":2558,"WlL":2559,"XGbj":2560,"ZHY":2561,"aLB":2562,"bCX":2563,"fr":2564,"fz":2565,"kd":2566,"kHO":2567,"oim":2568,"qx":2569,"qcic":2570,"wbm":2571,"wWlL":2572,"xZHY":2573,"yPa":2574,"yMy":2575,"yqcic":2576,"zjJ":2577,"onQv":2578,"okFC":2579,"272":2580,"urV":2581,"651":2582,"jpgyPa":2583,"NDMy":2584,"MjEu":2585,"MTIuM":2586,"saurV":2587,"MDc":2588,"NTU":2589,"NzUz":2590,"neFw":2591,"sImRlbGV":2592,"RBneFw":2593,"pYeO":2594,"YzbCX":2595,"IjoiIiwicHJvZmlsZUltYWdlIjoi":2596,"pYyHMo":2597,"svVx":2598,"LBRBneFw":2599,"IjIwMjUtMTEtMjAgMTE":2600,"IjIwMjUtMTEtMjAgMDc":2601,"ICswMDowMCIsInVwZGF":2602,"ICswMDowMCIsImRlbGV":2603,"Adqx":2604,"PgLBRBneFw":2605,"FrjpgyPa":2606,"hhmA":2607,"iqnj":2608,"MzYzNzUz":2609,"dpbklwIjoiIiwicHJvZmlsZUltYWdlIjoi":2610,"zHzjJ":2611,"HZBZV":2612,"YeGd":2613,"ZbXGbj":2614,"BVTs":2615,"PywWlL":2616,"czaoim":2617,"OQiqnj":2618,"SQRpYyHMo":2619,"TZPgLBRBneFw":2620,"Twzg":2621,"UoFTZPgLBRBneFw":2622,"WYoG":2623,"aLByqcic":2624,"fzkr":2625,"kHOFrjpgyPa":2626,"wbmciLCJ":2627,"onQvrw":2628,"okFCkHOFrjpgyPa":2629,"NDMyICswMDowMCIsInVwZGF":2630,"MjEuNDMyICswMDowMCIsInVwZGF":2631,"MTIuMDA":2632,"pYeOaLByqcic":2633,"svVxhhmA":2634,"AdqxsaurV":2635,"MzYzNzUzMX":2636,"dpbklwIjoiIiwicHJvZmlsZUltYWdlIjoiYXNzZXRzL":2637,"zHzjJM":2638,"HZBZVH":2639,"ZbXGbjw":2640,"PywWlLYzbCX":2641,"czaoimCu":2642,"OQiqnjrU":2643,"UoFTZPgLBRBneFwsvVxhhmA":2644,"okFCkHOFrjpgyPaTwzg":2645,"pYeOaLByqcicB":2646,"UoFTZPgLBRBneFwsvVxhhmAxZHY":2647,"BFD":2648,"DFA":2649,"Pin":2650,"gue":2651,"lon":2652,"831":2653,"CAF":2654,"BBD":2655,"examples":2656,"314":2657,"BFB":2658,"BFA":2659,"BDE":2660,"cos":2661,"861":2662,"059":2663,"DCF":2664,"Cast":2665,"In":2666,"Su":2667,"den":2668,"sen":2669,"633":2670,"793":2671,"CDC":2672,"712":2673,"Torre":2674,"995":2675,"Br":2676,"MF":2677,"gy":2678,"702":2679,"903":2680,"char":2681,"947":2682,"abria":2683,"489":2684,"CFE":2685,"FFE":2686,"Oj":2687,"len":2688,"862":2689,"999":2690,"DCE":2691,"687":2692,"BDF":2693,"CEB":2694,"FED":2695,"cn":2696,"ces":2697,"303":2698,"444":2699,"AEF":2700,"BCF":2701,"sk":2702,"ABD":2703,"allen":2704,"215":2705,"324":2706,"469":2707,"DEC":2708,"Ga":2709,"Las":2710,"qui":2711,"353":2712,"AAB":2713,"cantidadA":2714,"horas":2715,"037":2716,"423":2717,"495":2718,"528":2719,"ger":2720,"op":2721,"tt":2722,"vas":2723,"SER":2724,"DDA":2725,"EAF":2726,"613":2727,"Cer":2728,"USER":2729,"val":2730,"yu":2731,"602":2732,"ranc":2733,"DBE":2734,"993":2735,"ABE":2736,"733":2737,"DELE":2738,"Vila":2739,"USERS":2740,"DELETE":2741,"027":2742,"434":2743,"614":2744,"BEE":2745,"FK":2746,"dH":2747,"xM":2748,"681":2749,"Castell":2750,"Mw":2751,"NS":2752,"Ser":2753,"Yj":2754,"yMF":2755,"can":2756,"782":2757,"333":2758,"MjAy":2759,"IjoiMjAy":2760,"YXRlZEF":2761,"OTM":2762,"QxMT":2763,"xMS":2764,"yMFQxMT":2765,"IjoiMjAyNS":2766,"080":2767,"322":2768,"438":2769,"415":2770,"585":2771,"Er":2772,"Tra":2773,"UT":2774,"ano":2775,"dm":2776,"dy":2777,"har":2778,"pp":2779,"sal":2780,"202":2781,"601":2782,"392":2783,"242":2784,"che":2785,"FDE":2786,"785":2787,"Be":2788,"EDo":2789,"437":2790,"985":2791,"BFC":2792,"fe":2793,"reg":2794,"391":2795,"706":2796,"871":2797,"780":2798,"910":2799,"Sal":2800,"pr":2801,"samp":2802,"tera":2803,"642":2804,"ntcA":2805,"acion":2806,"BBC":2807,"CDE":2808,"769":2809,"ADF":2810,"dv":2811,"jan":2812,"pin":2813,"htm":2814,"dio":2815,"ric":2816,"AAC":2817,"888":2818,"LjA":2819,"*%":2820,"060":2821,"oso":2822,"dar":2823,"cpA":2824,"emailA":2825,"488":2826,"/?":2827,"038":2828,"Im":2829,"Ta":2830,"ico":2831,"/*;":2832,"452":2833,"amon":2834,"301":2835,"308":2836,"Coru":2837,"023":2838,"225":2839,"490":2840,"580":2841,"640":2842,"Jo":2843,"Por":2844,"eno":2845,"dniA":2846,"446":2847,"776":2848,"allenge":2849,"Est":2850,"dr":2851,"Ġimage":2852,"webp":2853,"avif":2854,"428":2855,"475":2856,"435":2857,"764":2858,"915":2859,"Mer":2860,"IDE":2861,"istrat":2862,"direccionA":2863,"apellidosA":2864,"449":2865,"CFIDE":2866,"cfm":2867,"administrat":2868,"administrator":2869,"527":2870,"787":2871,"775":2872,"dan":2873,"201":2874,"891":2875,"662":2876,"ita":2877,"034":2878,"421":2879,"478":2880,"560":2881,"927":2882,"ix":2883,"ini":2884,"passwordA":2885,"363":2886,"410":2887,"417":2888,"474":2889,"579":2890,"686":2891,"994":2892,"Ant":2893,"Mas":2894,"OD":2895,"QsInV":2896,"382":2897,"988":2898,"MjQsInV":2899,"abili":2900,"haW":2901,"MjQsInVzZXJuYW":2902,"599":2903,"615":2904,"940":2905,"Ast":2906,"Fe":2907,"ella":2908,"zan":2909,"Real":2910,"ciudadA":2911,"056":2912,"020":2913,"014":2914,"269":2915,"342":2916,"057":2917,"666":2918,"Carrer":2919,"045":2920,"365":2921,"484":2922,"827":2923,"net":2924,"ers":2925,"302":2926,"ulner":2927,"467":2928,"540":2929,"523":2930,"810":2931,"935":2932,"Gi":2933,"Ui":2934,"508":2935,"Challenge":2936,"Ciudad":2937,"364":2938,"663":2939,"717":2940,"718":2941,"990":2942,"af":2943,"pan":2944,"provinciaA":2945,"958":2946,"443":2947,"773":2948,"nsf":2949,"010":2950,"439":2951,"569":2952,"767":2953,"Il":2954,"ties":2955,"sto":2956,"701":2957,"752":2958,"371":2959,"424":2960,"563":2961,"538":2962,"549":2963,"719":2964,"930":2965,"Du":2966,"doba":2967,"593":2968,"Plaza":2969,"Cantabria":2970,"029":2971,"099":2972,"211":2973,"468":2974,"514":2975,"622":2976,"740":2977,"dos":2978,"oz":2979,"ament":2980,"069":2981,"013":2982,"084":2983,"517":2984,"817":2985,"811":2986,"IO":2987,"LR":2988,"PW":2989,"vel":2990,"onio":2991,"uren":2992,"ill":2993,"882":2994,"734":2995,"880":2996,"820":2997,"815":2998,"Pon":2999,"ft":3000,"ip":3001,"vio":3002,"vulner":3003,"wid":3004,"cer":3005,"abilities":3006,"vulnerabilities":3007,"074":3008,"320":3009,"323":3010,"430":3011,"524":3012,"664":3013,"619":3014,"735":3015,"Ab":3016,"ote":3017,"trans":3018,"ug":3019,"vti":3020,"dia":3021,"661":3022,"065":3023,"047":3024,"338":3025,"318":3026,"429":3027,"470":3028,"499":3029,"564":3030,"587":3031,"623":3032,"618":3033,"784":3034,"874":3035,"917":3036,"964":3037,"934":3038,"Agu":3039,"Ce":3040,"nan":3041,"sp":3042,"ima":3043,"982":3044,"422":3045,"419":3046,"529":3047,"535":3048,"577":3049,"611":3050,"Am":3051,"Ale":3052,"IS":3053,"Ti":3054,"uer":3055,"wu":3056,"451":3057,"957":3058,"079":3059,"066":3060,"414":3061,"570":3062,"669":3063,"684":3064,"980":3065,"For":3066,"Ros":3067,"my":3068,"laga":3069,"557":3070,"untament":3071,"028":3072,"465":3073,"974":3074,"979":3075,"Bas":3076,"mil":3077,"sid":3078,"tica":3079,"856":3080,"312":3081,"491":3082,"097":3083,"576":3084,"420":3085,"513":3086,"Bm":3087,"Wi":3088,"gas":3089,"sy":3090,"yn":3091,"dal":3092,"901":3093,"956":3094,"cket":3095,"319":3096,"515":3097,"727":3098,"863":3099,"929":3100,"967":3101,"bro":3102,"fre":3103,"hA":3104,"kin":3105,"mos":3106,"dea":3107,"ista":3108,"341":3109,"362":3110,"089":3111,"723":3112,"867":3113,"824":3114,"965":3115,"919":3116,"Bor":3117,"Mu":3118,"jar":3119,"mac":3120,"wor":3121,"017":3122,"015":3123,"367":3124,"473":3125,"539":3126,"545":3127,"667":3128,"765":3129,"789":3130,"938":3131,"924":3132,"ala":3133,"ine":3134,"851":3135,"050":3136,"506":3137,"498":3138,"567":3139,"720":3140,"729":3141,"714":3142,"774":3143,"860":3144,"889":3145,"813":3146,"913":3147,"556":3148,"781":3149,"772":3150,"ajuntament":3151,"040":3152,"018":3153,"325":3154,"480":3155,"vent":3156,"est":3157,"Almer":3158,"413":3159,"629":3160,"722":3161,"770":3162,"Vir":3163,"bas":3164,"far":3165,"lt":3166,"zZ":3167,"socket":3168,"Maria":3169,"044":3170,"310":3171,"334":3172,"510":3173,"589":3174,"822":3175,"BhZ":3176,"BhYm":3177,"CJl":3178,"LCJl":3179,"UiOiJ":3180,"ZGV":3181,"bert":3182,"bWF":3183,"cGF":3184,"ctor":3185,"dCB":3186,"gzZ":3187,"lIjo":3188,"nJv":3189,"tIiwi":3190,"tZS":3191,"wNT":3192,"zLj":3193,"zOT":3194,"802":3195,"elli":3196,"idGV":3197,"CBtZS":3198,"000":3199,"JlMT":3200,"FiYm":3201,"MjBm":3202,"GMzOT":3203,"NThA":3204,"cmQiOi":3205,"Nzgy":3206,"YmE":3207,"sbCBtZS":3208,"pbCI":3209,"bGUiOiJ":3210,"OTk":3211,"OWFiYm":3212,"SIsInJv":3213,"uMC":3214,"NmUwNT":3215,"dmMjBm":3216,"dvcmQiOi":3217,"ODgzZ":3218,"haWwu":3219,"UiLCJl":3220,"BhZGMzOT":3221,"bWFpbCI":3222,"cGFzc":3223,"lIjoidGV":3224,"tIiwicGFzc":3225,"zLjk":3226,"JlMTBhZGMzOT":3227,"NThAZ":3228,"NzgyNThAZ":3229,"sbCBtZSBhYm":3230,"OWFiYmU":3231,"SIsInJvbGUiOiJ":3232,"NmUwNTdmMjBm":3233,"dvcmQiOiJlMTBhZGMzOT":3234,"ODgzZSIsInJvbGUiOiJ":3235,"haWwuY":3236,"UiLCJlbWFpbCI":3237,"lIjoidGVsbCBtZSBhYm":3238,"NmUwNTdmMjBmODgzZSIsInJvbGUiOiJ":3239,"dvcmQiOiJlMTBhZGMzOTQ":3240,"039":3241,"369":3242,"738":3243,"838":3244,"814":3245,"819":3246,"869":3247,"920":3248,"970":3249,"EIO":3250,"fu":3251,"eros":3252,"rest":3253,"isco":3254,"amar":3255,"751":3256,"953":3257,"559":3258,"481":3259,"732":3260,"transport":3261,"345":3262,"479":3263,"433":3264,"530":3265,"713":3266,"Fl":3267,"acete":3268,"images":3269,"902":3270,"Pass":3271,"Casti":3272,"Aven":3273,"polling":3274,"460":3275,"525":3276,"763":3277,"728":3278,"840":3279,"884":3280,"945":3281,"IIS":3282,"bia":3283,"ene":3284,"ardo":3285,"rell":3286,"nto":3287,"riz":3288,"ello":3289,"550":3290,"Jose":3291,"sdk":3292,"IISSamples":3293,"082":3294,"329":3295,"969":3296,"Cruz":3297,"Sol":3298,"Te":3299,"api":3300,"una":3301,"Fuente":3302,"Avenida":3303,"077":3304,"574":3305,"725":3306,"783":3307,"830":3308,"984":3309,"Cr":3310,"Di":3311,"Ouren":3312,"Tr":3313,"bra":3314,"ira":3315,"ment":3316,"852":3317,"546":3318,"Ourense":3319,"766":3320,"887":3321,"963":3322,"922":3323,"Bal":3324,"ZSI":3325,"bon":3326,"wLjA":3327,"das":3328,"351":3329,"591":3330,"Iiwid":3331,"NjM":3332,"-%":3333,"024":3334,"083":3335,"316":3336,"534":3337,"594":3338,"536":3339,"710":3340,"825":3341,"823":3342,"914":3343,"983":3344,"Flor":3345,"ku":3346,"vig":3347,"976":3348,"022":3349,"794":3350,"961":3351,"od":3352,"tal":3353,"Rey":3354,"352":3355,"791":3356,"332":3357,"urias":3358,"Albacete":3359,"Asturias":3360,"025":3361,"427":3362,"790":3363,"829":3364,"865":3365,"883":3366,"939":3367,"911":3368,"987":3369,"Gr":3370,"Me":3371,"Pr":3372,"bb":3373,"zu":3374,"952":3375,"555":3376,"007":3377,"008":3378,"496":3379,"aje":3380,"nueva":3381,"070":3382,"048":3383,"088":3384,"411":3385,"519":3386,"737":3387,"923":3388,"978":3389,"Huel":3390,"jos":3391,"ola":3392,"war":3393,"572":3394,"Mont":3395,"067":3396,"511":3397,"617":3398,"724":3399,"936":3400,"Iy":3401,"om":3402,"oli":3403,"093":3404,"mente":3405,"075":3406,"340":3407,"487":3408,"418":3409,"590":3410,"928":3411,"App":3412,"fan":3413,"tab":3414,"wZ":3415,"ase":3416,"946":3417,"998":3418,"682":3419,"Huelva":3420,"336":3421,"584":3422,"864":3423,"886":3424,"960":3425,"Bon":3426,"Don":3427,"bre":3428,"nie":3429,"ua":3430,"ud":3431,"006":3432,"996":3433,"503":3434,"ols":3435,"425":3436,"477":3437,"537":3438,"581":3439,"736":3440,"926":3441,"931":3442,"GY":3443,"gan":3444,"jas":3445,"ron":3446,"rdoba":3447,"win":3448,"col":3449,"eck":3450,"leta":3451,"esa":3452,"551":3453,"881":3454,"soy":3455,"Monte":3456,"Traves":3457,"016":3458,"575":3459,"578":3460,"625":3461,"cur":3462,"vlet":3463,"wen":3464,"llar":3465,"llas":3466,"cios":3467,"001":3468,"441":3469,"492":3470,"043":3471,"078":3472,"098":3473,"416":3474,"621":3475,"916":3476,"gal":3477,"ges":3478,"ham":3479,"sl":3480,"ye":3481,"792":3482,"543":3483,"barcelona":3484,"012":3485,"313":3486,"522":3487,"624":3488,"966":3489,"Ala":3490,"Men":3491,"QX":3492,"kQX":3493,"Ġna":3494,"ies":3495,"mbra":3496,"092":3497,"gol":3498,"GVkQX":3499,"Pedro":3500,"vigate":3501,"Ġnavigate":3502,"030":3503,"033":3504,"548":3505,"977":3506,"Franc":3507,"Id":3508,"Iv":3509,"MDA":3510,"gre":3511,"ws":3512,"553":3513,"009":3514,"476":3515,"hiper":3516,"mann":3517,"086":3518,"311":3519,"326":3520,"321":3521,"520":3522,"565":3523,"533":3524,"821":3525,"ay":3526,"bri":3527,"bus":3528,"zco":3529,"enla":3530,"erto":3531,"dev":3532,"isa":3533,"442":3534,"448":3535,"501":3536,"542":3537,"Cala":3538,"Sierra":3539,"526":3540,"721":3541,"925":3542,"=*":3543,"FRioja":3544,"Mur":3545,"ai":3546,"hy":3547,"jm":3548,"mus":3549,"dez":3550,"imi":3551,"951":3552,"991":3553,"adc":3554,"Sevilla":3555,"Camino":3556,"+.*%":3557,"426":3558,"547":3559,"786":3560,"Bi":3561,"Mm":3562,"Nu":3563,"Oli":3564,"Qz":3565,"bel":3566,"gn":3567,"sf":3568,"mat":3569,"php":3570,"036":3571,"440":3572,"583":3573,"598":3574,"532":3575,"932":3576,"sel":3577,"zca":3578,"mira":3579,"026":3580,"073":3581,"nes":3582,"ines":3583,"eria":3584,"554":3585,"004":3586,"019":3587,"586":3588,"918":3589,"Ang":3590,"bur":3591,"cd":3592,"cl":3593,"mes":3594,"sho":3595,"tri":3596,"vt":3597,"ento":3598,"carritoany":3599,"002":3600,"Puerto":3601,"Ponte":3602,"573":3603,"683":3604,"762":3605,"986":3606,"968":3607,"933":3608,"bs":3609,"ming":3610,"372":3611,"504":3612,"096":3613,"518":3614,"616":3615,"716":3616,"731":3617,"826":3618,"Au":3619,"gon":3620,"iis":3621,"nat":3622,"ple":3623,"pvt":3624,"tan":3625,"tico":3626,"053":3627,"992":3628,"592":3629,"Pala":3630,"zcoa":3631,"011":3632,"512":3633,"816":3634,"962":3635,"Fj":3636,"Gl":3637,"Ne":3638,"cla":3639,"zon":3640,"FAzcoa":3641,"Guip":3642,"Villanueva":3643,"UTF":3644,"049":3645,"431":3646,"471":3647,"432":3648,"612":3649,"711":3650,"937":3651,"ant":3652,"ker":3653,"pc":3654,"uk":3655,"lina":3656,"942":3657,"051":3658,"046":3659,"818":3660,"912":3661,"Fon":3662,"Uw":3663,"dre":3664,"tv":3665,"ze":3666,"anda":3667,"981":3668,"091":3669,"597":3670,"Carre":3671,"Antonio":3672,"031":3673,"071":3674,"483":3675,"OC":3676,"OS":3677,"eda":3678,"kh":3679,"xi":3680,"acio":3681,"ray":3682,"058":3683,"ull":3684,"dell":3685,"061":3686,"081":3687,"626":3688,"Cap":3689,"Hor":3690,"Ol":3691,"cA":3692,"hol":3693,"ren":3694,"tur":3695,"ting":3696,"nuel":3697,"asset":3698,"472":3699,"adm":3700,"vera":3701,"Castro":3702,".%":3703,"032":3704,"Gal":3705,"Llo":3706,"Mig":3707,"cli":3708,"dro":3709,"up":3710,"vis":3711,"auto":3712,"vedra":3713,"Casas":3714,"sky":3715,"461":3716,"588":3717,"726":3718,"761":3719,"Mart":3720,"Ve":3721,"bla":3722,"fession":3723,"hen":3724,"ring":3725,"san":3726,"info":3727,"berto":3728,"assets":3729,"fessional":3730,"076":3731,"568":3732,"562":3733,"Feli":3734,"Tar":3735,"bet":3736,"hn":3737,"wal":3738,"eral":3739,"rillo":3740,"EDas":3741,"atge":3742,"042":3743,"erta":3744,"gui":3745,"Travesia":3746,"068":3747,"062":3748,"072":3749,"531":3750,"571":3751,"Bk":3752,"Ver":3753,"tti":3754,"uda":3755,"tero":3756,"lis":3757,"public":3758,"esp":3759,"742":3760,"796":3761,"Santi":3762,"Carretera":3763,"516":3764,"541":3765,"778":3766,"921":3767,"BU":3768,"Cla":3769,"Lla":3770,"Ni":3771,"On":3772,"ben":3773,"ps":3774,"ut":3775,"tec":3776,"ieta":3777,"558":3778,"482":3779,"Valle":3780,"IjIwMjUtMTEtMjBU":3781,"IjIwMjUtMTEtMjBUMTE":3782,"412":3783,"582":3784,"812":3785,"971":3786,"AyO":3787,"AuMC":3788,"DZ":3789,"GUiLCJ":3790,"GUw":3791,"IsI":3792,"Ln":3793,"MmU":3794,"MWU":3795,"Nm":3796,"Njo":3797,"Rk":3798,"SW":3799,"Swi":3800,"TG":3801,"Tk":3802,"UiOi":3803,"VhZ":3804,"XBk":3805,"YTk":3806,"Zu":3807,"Zy":3808,"Zhd":3809,"aWF":3810,"cti":3811,"dWx":3812,"dGl":3813,"eGUiLCJ":3814,"fQ":3815,"hYj":3816,"kZW":3817,"lp":3818,"lSW":3819,"sZX":3820,"sYX":3821,"vdH":3822,"wil":3823,"wcm":3824,"xND":3825,"xNz":3826,"xOC":3827,"yNj":3828,"zNj":3829,"ong":3830,"eng":3831,"daIiwid":3832,"ques":3833,"pudWx":3834,"maWx":3835,"552":3836,"wiY":3837,"JlYXRlZEF":3838,"FiMWU":3839,"oxMz":3840,"MjRk":3841,"IjoxNz":3842,"ZXQiOi":3843,"BTZW":3844,"naW":3845,"NTFiMWU":3846,"NzMw":3847,"IiwiZGV":3848,"Mzg":3849,"MzNk":3850,"YmM":3851,"iLCJsYX":3852,"iLCJwcm":3853,"NjAyO":3854,"IjMw":3855,"IjAuMC":3856,"IjpudWx":3857,"owNjo":3858,"NyZXQiOi":3859,"YzNjM":3860,"Luis":3861,"ZlNmU":3862,"nRvdH":3863,"IiLCJpc":3864,"FaIiwiZGV":3865,"QxYmM":3866,"ZSwiY":3867,"NkMmU":3868,"JcCI":3869,"dHJ":3870,"YjNkMmU":3871,"yMFQxMToxMz":3872,"yMFQxMTowNjo":3873,"ozOS":3874,"NmUwNTdmMjBmODgzZSIsInJvbGUiOiJkZWx":3875,"wLjAiLCJwcm":3876,"wZGUw":3877,"IvYXNzZXRzL":3878,"MmQz":3879,"sfSwi":3880,"FjdGl":3881,"DZhYj":3882,"IsInRvdH":3883,"LnN":3884,"NmZlNmU":3885,"UiOiIvYXNzZXRzL":3886,"VhZGY":3887,"XBkYXRlZEF":3888,"YTkiLCJsYX":3889,"ZyIsInRvdH":3890,"ZhdWx":3891,"eGUiLCJkZWx":3892,"kZWZhdWx":3893,"sZXRlZEF":3894,"xNDQxYmM":3895,"yNjFaIiwiZGV":3896,"zNjdaIiwid":3897,"maWxlSW":3898,"MjRkYTkiLCJsYX":3899,"IjoxNzYzNjM":3900,"BTZWNyZXQiOi":3901,"NTFiMWUxNDQxYmM":3902,"NzMwMmQz":3903,"MzNkNjAyO":3904,"IjMwOTM":3905,"IjpudWxsfSwi":3906,"YjNkMmUwZGUw":3907,"yMFQxMToxMzozOS":3908,"yMFQxMTowNjoxOC":3909,"DZhYjVhZGY":3910,"ZyIsInRvdHBTZWNyZXQiOi":3911,"yNjFaIiwiZGVsZXRlZEF":3912,"zNjdaIiwidXBkYXRlZEF":3913,"MjRkYTkiLCJsYXN":3914,"NzMwMmQzMzNkNjAyO":3915,"IjpudWxsfSwiaWF":3916,"YjNkMmUwZGUwNzMwMmQzMzNkNjAyO":3917,"ZyIsInRvdHBTZWNyZXQiOiIiLCJpc":3918,"YjNkMmUwZGUwNzMwMmQzMzNkNjAyODZhYjVhZGY":3919,"331":3920,"Cb":3921,"Fm":3922,"TU":3923,"jer":3924,"tre":3925,"leares":3926,"guer":3927,"Baleares":3928,"berg":3929,"Illes":3930,"Virgen":3931,"Francisco":3932,"566":3933,"Ben":3934,"Hi":3935,"Va":3936,"py":3937,"sz":3938,"ten":3939,"aro":3940,"cial":3941,"003":3942,"soft":3943,"462":3944,"521":3945,"771":3946,"972":3947,"Script":3948,"cb":3949,"ky":3950,"pain":3951,"verde":3952,"Vall":3953,"Doctor":3954,"021":3955,"768":3956,"JU":3957,"Sim":3958,"bU":3959,"iego":3960,"052":3961,"Vizca":3962,"Gra":3963,"HMv":3964,"Os":3965,"gg":3966,"lle":3967,"uni":3968,"oni":3969,"lom":3970,"4560":3971,"chu":3972,"cher":3973,"Quint":3974,"Miguel":3975,"Vizcaya":3976,"Ho":3977,"Sp":3978,"Sil":3979,"dora":3980,"fran":3981,"ks":3982,"ny":3983,"sha":3984,"ure":3985,"kel":3986,"rey":3987,"502":3988,"Valde":3989,"exp":3990,"041":3991,"436":3992,"973":3993,"Plan":3994,"gl":3995,"mul":3996,"np":3997,"vil":3998,"may":3999,"madrid":4000,"nchez":4001,"webapp":4002,"msadc":4003,"cnf":4004,"Blan":4005,"Gen":4006,"Gor":4007,"Pro":4008,"cro":4009,"kar":4010,"ral":4011,"sin":4012,"tella":4013,"esta":4014,"596":4015,"CM":4016,"hal":4017,"nd":4018,"sr":4019,"sim":4020,"wo":4021,"inform":4022,"pal":4023,"May":4024,"Alcal":4025,"Rodri":4026,"FlA":4027,"Bla":4028,"Ir":4029,"ati":4030,"bes":4031,"hel":4032,"ila":4033,"ias":4034,"iana":4035,"kp":4036,"tino":4037,"Barri":4038,"561":4039,"Adel":4040,"Ing":4041,"Imo":4042,"IdX":4043,"Ily":4044,"JP":4045,"JcH":4046,"JLR":4047,"LT":4048,"Lk":4049,"LTE":4050,"Nlp":4051,"OV":4052,"PLe":4053,"QM":4054,"QiO":4055,"QOV":4056,"Rm":4057,"YE":4058,"aa":4059,"aImo":4060,"bPLe":4061,"cG":4062,"cQ":4063,"eId":4064,"eFm":4065,"hRm":4066,"jq":4067,"jz":4068,"lec":4069,"mag":4070,"mJLR":4071,"pq":4072,"sq":4073,"tFe":4074,"xLT":4075,"till":4076,"lie":4077,"quin":4078,"Reina":4079,"ider":4080,"MseId":4081,"onso":4082,"iOH":4083,"MDI":4084,"Carlos":4085,"IwcQ":4086,"owJU":4087,"OWhRm":4088,"liano":4089,"CiZ":4090,"LIQOV":4091,"QiOiIy":4092,"hdGVkQX":4093,"hdjq":4094,"Jcj":4095,"gsCiZ":4096,"BrLk":4097,"FKi":4098,"UTJcj":4099,"LRgsCiZ":4100,"PWK":4101,"PWBrLk":4102,"Pontevedra":4103,"TUjm":4104,"IdXLIQOV":4105,"JPUTJcj":4106,"JcHeFm":4107,"LTExLT":4108,"aaowJU":4109,"jzhdjq":4110,"mJLRH":4111,"tFeL":4112,"MseIdI":4113,"OWhRmIwcQ":4114,"QiOiIyMDI":4115,"hdGVkQXQiOiIyMDI":4116,"PWBrLkIdXLIQOV":4117,"JcHeFmTUjm":4118,"LTExLTIw":4119,"aaowJUFKi":4120,"jzhdjqpq":4121,"PWBrLkIdXLIQOVNlp":4122,"aw":4123,"ds":4124,"iti":4125,"td":4126,"lava":4127,"ens":4128,"ston":4129,"onales":4130,"ruc":4131,"Passatge":4132,"BScript":4133,"Lor":4134,"Mag":4135,"VBScript":4136,"cin":4137,"jon":4138,"pis":4139,"ui":4140,"we":4141,"yen":4142,"inguda":4143,"royo":4144,"vide":4145,"WebApp":4146,"undo":4147,"Rom":4148,"Avinguda":4149,"PgW":4150,"examplesWebApp":4151,"Pad":4152,"Res":4153,"mal":4154,"mel":4155,"sc":4156,"lado":4157,"htr":4158,"ncia":4159,"ario":4160,"ett":4161,"rez":4162,"ante":4163,"rich":4164,"ciano":4165,"ames":4166,"Puig":4167,"And":4168,"iisadm":4169,"iisadmpwd":4170,"Far":4171,"Ig":4172,"Medi":4173,"Mir":4174,"Sag":4175,"iN":4176,"ins":4177,"inter":4178,"ore":4179,"zano":4180,"fica":4181,"linos":4182,"Avda":4183,"Urban":4184,"As":4185,"Ger":4186,"Gali":4187,"Mora":4188,"Za":4189,"ee":4190,"edu":4191,"iiss":4192,"mh":4193,"pre":4194,"rie":4195,"tch":4196,"ula":4197,"degol":4198,"ise":4199,"ando":4200,"professional":4201,"rado":4202,"Com":4203,"uelas":4204,"Torres":4205,"monte":4206,"Garcia":4207,"iissamples":4208,"degolf":4209,"Cat":4210,"Dan":4211,"bau":4212,"clu":4213,"mir":4214,"yr":4215,"one":4216,"cam":4217,"cala":4218,"eci":4219,"ath":4220,"ajes":4221,"Alber":4222,"sampsite":4223,"Ge":4224,"Ron":4225,"Ten":4226,"ado":4227,"gran":4228,"of":4229,"pri":4230,"tele":4231,"lino":4232,"cant":4233,"acia":4234,"ajuntamentbarcelona":4235,"5179":4236,"Ali":4237,"Ya":4238,"bir":4239,"fle":4240,"hr":4241,"iu":4242,"kw":4243,"lv":4244,"mk":4245,"nf":4246,"pm":4247,"pres":4248,"ris":4249,"sm":4250,"tj":4251,"laz":4252,"ori":4253,"servlet":4254,"incorrectasany":4255,"nova":4256,"dun":4257,"bay":4258,"travio":4259,"LjM":4260,"Campo":4261,"Manzan":4262,"OjA":4263,"travioleta":4264,",\"":4265,"Cha":4266,"Zur":4267,"ak":4268,"cs":4269,"hard":4270,"nar":4271,"ney":4272,"enti":4273,"nge":4274,"are":4275,"quil":4276,"mbo":4277,"urn":4278,"elle":4279,"mad":4280,"sito":4281,"bru":4282,"travel":4283,"nez":4284,"Este":4285,"quez":4286,"Lugo":4287,"=+&":4288,"TI":4289,"bos":4290,"eh":4291,"ica":4292,"jet":4293,"nz":4294,"tro":4295,"vu":4296,"line":4297,"det":4298,"led":4299,"quet":4300,"roduc":4301,"pez":4302,"esc":4303,"espa":4304,"rada":4305,"uez":4306,"Valverde":4307,"Villar":4308,"mont":4309,"guez":4310,"TR":4311,"fb":4312,"gf":4313,"gh":4314,"kn":4315,"pl":4316,"zzi":4317,"orio":4318,"datab":4319,"artes":4320,"ebas":4321,"mari":4322,"zada":4323,"Leon":4324,"nandez":4325,"Urbaniz":4326,"Nog":4327,"Sar":4328,"bn":4329,"ite":4330,"she":4331,"spain":4332,"ubi":4333,"vc":4334,"ensa":4335,"ech":4336,"ield":4337,"lei":4338,"arra":4339,"ford":4340,"cars":4341,"rosa":4342,"adilla":4343,"aus":4344,"Paseo":4345,"\":\"":4346,"say":4347,"land":4348,"docs":4349,"Villal":4350,"dbsamp":4351,"charset":4352,"Cata":4353,"FI":4354,"Fun":4355,"Hel":4356,"mx":4357,"nell":4358,"oh":4359,"ot":4360,"sj":4361,"wn":4362,"whi":4363,"tis":4364,"ery":4365,"nch":4366,"ciru":4367,"Pasaje":4368,"abel":4369,"zarote":4370,"adas":4371,"Escri":4372,"club":4373,"Urbanizacion":4374,"Eli":4375,"bil":4376,"din":4377,"dEn":4378,"fY":4379,"hk":4380,"if":4381,"kim":4382,"sar":4383,"vell":4384,"zK":4385,"zy":4386,"til":4387,"orn":4388,"etti":4389,"isto":4390,"aldo":4391,"nom":4392,"aste":4393,"2420":4394,"audi":4395,"AAAg":4396,"EFdEn":4397,"Seg":4398,"here":4399,"show":4400,"yrAAAg":4401,"EFdEnyrAAAg":4402,"Cur":4403,"Cru":4404,"Fre":4405,"HI":4406,"Llu":4407,"Mal":4408,"Nar":4409,"Ram":4410,"Sel":4411,"bea":4412,"cle":4413,"cbf":4414,"has":4415,"ito":4416,"ji":4417,"lb":4418,"rent":4419,"script":4420,"tH":4421,"word":4422,"zal":4423,"indo":4424,"deh":4425,"orca":4426,"dol":4427,"anes":4428,"3823":4429,"mala":4430,"EDs":4431,"WebSp":4432,"igu":4433,"iguer":4434,"Alf":4435,"Vic":4436,"Arag":4437,"stein":4438,"PgX":4439,"Password":4440,"cdac":4441,"517918":4442,"database":4443,"hereSamples":4444,"cbfc":4445,"WebSphereSamples":4446,"Ada":4447,"Ama":4448,"Ara":4449,"Air":4450,"Int":4451,"aq":4452,"cc":4453,"cul":4454,"jw":4455,"ram":4456,"sn":4457,"ache":4458,"acruz":4459,"naci":4460,"ordo":4461,"loma":4462,"kov":4463,"IDEx":4464,"4015":4465,"nico":4466,"8319":4467,"sign":4468,"Manuel":4469,"Conde":4470,"ader":4471,"ArMDA":4472,"Martin":4473,"Cuesta":4474,"Santo":4475,"NyArMDA":4476,"ther":4477,"poli":4478,"ExAir":4479,"Cami":4480,"OjE":4481,"MDAiLCJ":4482,"LTExLTIwIDEx":4483,"LTExLTIwIDExOjA":4484,"=.":4485,"Fzc":4486,"Gas":4487,"Jsa":4488,"Mva":4489,"Sab":4490,"Vw":4491,"VzL":4492,"WJsa":4493,"WMva":4494,"hat":4495,"ice":4496,"iro":4497,"rera":4498,"sur":4499,"tZ":4500,"vet":4501,"enlan":4502,"cad":4503,"oro":4504,"nta":4505,"esto":4506,"wdWJsa":4507,"viajes":4508,"sala":4509,"ueda":4510,"products":4511,"styles":4512,"Pueb":4513,"hZHMv":4514,"Riu":4515,"erife":4516,"Tenerife":4517,"VwbG":4518,"WMvaW":4519,"enlanzarote":4520,"wdWJsaWMvaW":4521,"/~":4522,"Diego":4523,"Fed":4524,"Min":4525,"Pan":4526,"cI":4527,"hos":4528,"hue":4529,"vador":4530,"llan":4531,"Ġ/.":4532,"rid":4533,"jada":4534,"cortin":4535,"casa":4536,"Quin":4537,"ultravioleta":4538,"abo":4539,"eiro":4540,"Campos":4541,"white":4542,"cortinas":4543,"=-":4544,"Cin":4545,"EN":4546,"He":4547,"Lab":4548,"Mos":4549,"ale":4550,"bera":4551,"cx":4552,"dE":4553,"dj":4554,"gad":4555,"ken":4556,"tia":4557,"enzo":4558,"tions":4559,"2735":4560,"rigo":4561,"elles":4562,"Reg":4563,"aul":4564,"cubi":4565,"Cameros":4566,"Pica":4567,"roduction":4568,"Introduction":4569,"Bat":4570,"Bra":4571,"Fran":4572,"Les":4573,"WN":4574,"cv":4575,"cpan":4576,"dz":4577,"eas":4578,"mascript":4579,"ode":4580,"vg":4581,"zuela":4582,"teo":4583,"ecmascript":4584,"2545":4585,"dilla":4586,"nil":4587,"tools":4588,"4538":4589,"1115":4590,"ator":4591,"incorrectasbob":4592,"gold":4593,"Alba":4594,"Vilar":4595,"Barrio":4596,"lastica":4597,"tras":4598,"lores":4599,"Merce":4600,"cpanel":4601,"Ace":4602,"Dor":4603,"Fab":4604,"Teo":4605,"mis":4606,"nas":4607,"pen":4608,"rh":4609,"uli":4610,"vir":4611,"vol":4612,"yan":4613,"cole":4614,"dado":4615,"lez":4616,"ropa":4617,"rome":4618,"4054":4619,"stor":4620,"chin":4621,"7119":4622,"vida":4623,"Marti":4624,"home":4625,"Esp":4626,"Espa":4627,"bella":4628,"eix":4629,"Servlet":4630,"Puebla":4631,"Blas":4632,"Gin":4633,"Mata":4634,"Ven":4635,"blo":4636,"dera":4637,"fau":4638,"gil":4639,"hil":4640,"ire":4641,"pon":4642,"sca":4643,"shi":4644,"tora":4645,"wat":4646,"ys":4647,"zs":4648,"tic":4649,"tech":4650,"nci":4651,"4011":4652,"asal":4653,"3817":4654,"7080":4655,"vina":4656,"3439":4657,"chet":4658,"vier":4659,"uelos":4660,"exe":4661,"seig":4662,"Nav":4663,"mila":4664,"Doming":4665,"Castrillo":4666,"Joan":4667,"Merca":4668,"Des":4669,"Llor":4670,"NU":4671,"Sen":4672,"Serra":4673,"aexp":4674,"bor":4675,"gw":4676,"hir":4677,"hig":4678,"mit":4679,"oR":4680,"sas":4681,"zr":4682,"zas":4683,"tivo":4684,"cata":4685,"aggs":4686,"acha":4687,"8069":4688,"low":4689,"lem":4690,"2744":4691,"alt":4692,"elda":4693,"ash":4694,"3845":4695,"4937":4696,"Arte":4697,"linda":4698,"Rafa":4699,"long":4700,"Castillo":4701,"Bus":4702,"Beni":4703,"Je":4704,"Pab":4705,"ae":4706,"bt":4707,"ek":4708,"ele":4709,"fal":4710,"fad":4711,"his":4712,"ide":4713,"mq":4714,"nal":4715,"rus":4716,"rena":4717,"sam":4718,"uG":4719,"tillo":4720,"lares":4721,"coop":4722,"eres":4723,"eras":4724,"pat":4725,"cias":4726,"ntas":4727,"mobi":4728,"4089":4729,"anne":4730,"ril":4731,"1455":4732,"2215":4733,"6424":4734,"8994":4735,"order":4736,"6729":4737,"gia":4738,"corjet":4739,"usa":4740,"alia":4741,"Aldea":4742,"Arri":4743,"Arroyo":4744,"varez":4745,"spider":4746,"ajuntamentde":4747,"Federi":4748,"zsK":4749,"spiderman":4750,"AL":4751,"Ari":4752,"Bw":4753,"Bri":4754,"DU":4755,"Ed":4756,"ETR":4757,"Gon":4758,"HV":4759,"Hp":4760,"Hq":4761,"Hrh":4762,"Iu":4763,"IsInVwZGF":4764,"Jt":4765,"KM":4766,"KMT":4767,"Ll":4768,"LKM":4769,"Nor":4770,"OCo":4771,"OoF":4772,"PL":4773,"Pelli":4774,"QWi":4775,"Rva":4776,"SP":4777,"Session":4778,"SXA":4779,"Tur":4780,"Ttz":4781,"UY":4782,"UNk":4783,"UHo":4784,"Vu":4785,"Vsd":4786,"WTP":4787,"Xtz":4788,"Yd":4789,"Yr":4790,"Zg":4791,"bGF":4792,"bAd":4793,"bcn":4794,"ehh":4795,"fB":4796,"gd":4797,"ght":4798,"gel":4799,"jdX":4800,"kL":4801,"kz":4802,"lci":4803,"lns":4804,"mYX":4805,"mciLCJ":4806,"oETR":4807,"qg":4808,"vZ":4809,"wj":4810,"wIiwi":4811,"xab":4812,"xjw":4813,"cano":4814,"ncH":4815,"aria":4816,"bles":4817,"2580":4818,"2595":4819,"isp":4820,"pel":4821,"ani":4822,"ells":4823,"1713":4824,"6490":4825,"6585":4826,"illi":4827,"adio":4828,"1164":4829,"chan":4830,"mez":4831,"DBHI":4832,"4929":4833,"MsS":4834,"6185":4835,"iga":4836,"heal":4837,"Dev":4838,"MTgu":4839,"bot":4840,"Aren":4841,"MDY":4842,"MDk":4843,"NTIy":4844,"NTIu":4845,"zdEx":4846,"zdmciLCJ":4847,"som":4848,"luSXA":4849,"IwLjA":4850,"Njk":4851,"hoja":4852,"Naval":4853,"YXoETR":4854,"Zjq":4855,"Plxab":4856,"IjoiIiwibGF":4857,"iOiIwLjA":4858,"you":4859,"andra":4860,"IsImRlb":4861,"IsImRlbGV":4862,"NBUY":4863,"GlsXtz":4864,"ZVRva":4865,"MzYzNjk":4866,"cHJvZmlsZUltYWdlIjoiL":4867,"JcNU":4868,"DuUHo":4869,"WiIsInVwZGF":4870,"WiIsImRlbGV":4871,"fredo":4872,"ZGVmYX":4873,"NmUwNTdmMjBmODgzZSIsInJvbGUiOiJjdX":4874,"ware":4875,"Rodrigo":4876,"sqJcNU":4877,"tHwj":4878,"tZDBHI":4879,"hZHMvZGVmYX":4880,"romeDev":4881,"aggsYr":4882,"Pablo":4883,"uGQWi":4884,"Bwtd":4885,"DUkL":4886,"HpNBUY":4887,"HrhDUkL":4888,"KMTncH":4889,"LKMfa":4890,"OCoqg":4891,"OoFbAd":4892,"Ttzlns":4893,"UNkGe":4894,"VuIjoiIiwibGF":4895,"VsdC":4896,"WTPR":4897,"YdK":4898,"ZgGlsXtz":4899,"ehhfB":4900,"lciIsImRlb":4901,"wIiwicHJvZmlsZUltYWdlIjoiL":4902,"xjwE":4903,"MTguMzY":4904,"NTIyWiIsImRlbGV":4905,"NTIuNTIyWiIsImRlbGV":4906,"zdExvZ":4907,"luSXAiOiIwLjA":4908,"YXoETRtHwj":4909,"PlxabOoFbAd":4910,"DuUHoHrhDUkL":4911,"NmUwNTdmMjBmODgzZSIsInJvbGUiOiJjdXN":4912,"tZDBHIYXoETRtHwj":4913,"hZHMvZGVmYXVsdC":4914,"aggsYrS":4915,"HpNBUYF":4916,"VuIjoiIiwibGFzdExvZ":4917,"ZgGlsXtztZDBHIYXoETRtHwj":4918,"lciIsImRlbHV":4919,"luSXAiOiIwLjAuMC":4920,"PlxabOoFbAdUNkGe":4921,"Bell":4922,"Fil":4923,"Ming":4924,"Mel":4925,"Nt":4926,"Pra":4927,"Rr":4928,"Sebas":4929,"Vil":4930,"Wal":4931,"Xo":4932,"dina":4933,"edo":4934,"fla":4935,"fra":4936,"flor":4937,"lc":4938,"md":4939,"mm":4940,"pra":4941,"rs":4942,"rero":4943,"ski":4944,"tm":4945,"von":4946,"ysi":4947,"tila":4948,"osti":4949,"invent":4950,"cero":4951,"lee":4952,"pas":4953,"imo":4954,"tienes":4955,"rella":4956,"cillo":4957,"dom":4958,"molinos":4959,"ander":4960,"anilla":4961,"3855":4962,"6460":4963,"6567":4964,"mau":4965,"profile":4966,"2317":4967,"1374":4968,"6735":4969,"3484":4970,"2613":4971,"2115":4972,"usi":4973,"3189":4974,"vic":4975,"lessoninfo":4976,"way":4977,"Luci":4978,"Polig":4979,"andro":4980,"Vega":4981,"Poligono":4982,"\",\"":4983,"Em":4984,"Hon":4985,"Jal":4986,"Us":4987,"bol":4988,"blan":4989,"cz":4990,"dge":4991,"field":4992,"gio":4993,"iv":4994,"ian":4995,"kX":4996,"nda":4997,"oles":4998,"qa":4999,"sti":5000,"sey":5001,"sms":5002,"tn":5003,"ueta":5004,"udio":5005,"tig":5006,"tit":5007,"inn":5008,"ncha":5009,"enta":5010,"ette":5011,"2554":5012,"roman":5013,"1700":5014,"2860":5015,"struc":5016,"aut":5017,"arta":5018,"Arg":5019,"beach":5020,"pers":5021,"Puente":5022,"Isabel":5023,"Alex":5024,"General":5025,"video":5026,"Cli":5027,"Glor":5028,"Ht":5029,"Ori":5030,"Sali":5031,"VX":5032,"Zo":5033,"Zor":5034,"ax":5035,"bg":5036,"cis":5037,"dll":5038,"fil":5039,"hin":5040,"hint":5041,"ier":5042,"jes":5043,"nl":5044,"nor":5045,"ning":5046,"pf":5047,"pet":5048,"rap":5049,"tc":5050,"tk":5051,"tta":5052,"udi":5053,"tek":5054,"lada":5055,"lit":5056,"camb":5057,"apa":5058,"aplastica":5059,"nga":5060,"arte":5061,"mbar":5062,"dillo":5063,"2725":5064,"2770":5065,"1063":5066,"2939":5067,"1480":5068,"2245":5069,"8937":5070,"7028":5071,"8627":5072,"2685":5073,"8316":5074,"hea":5075,"Calzada":5076,"Comp":5077,"Parser":5078,"veros":5079,"nego":5080,"hambra":5081,"Valder":5082,"gues":5083,"Corre":5084,"Esco":5085,"Esgue":5086,"hua":5087,"Perez":5088,"gram":5089,"Pintor":5090,"Padre":5091,"scripts":5092,"Az":5093,"Jer":5094,"Nico":5095,"Ofi":5096,"Sec":5097,"Tu":5098,"ao":5099,"dA":5100,"die":5101,"dona":5102,"eve":5103,"gri":5104,"hog":5105,"mw":5106,"pw":5107,"pio":5108,"pint":5109,"sab":5110,"tus":5111,"ones":5112,"encu":5113,"encio":5114,"8056":5115,"imar":5116,"nuy":5117,"ket":5118,"Ġchar":5119,"quel":5120,"cidad":5121,"moto":5122,"4059":5123,"alfo":5124,"anti":5125,"sse":5126,"6450":5127,"6595":5128,"manuel":5129,"1360":5130,"6780":5131,"3084":5132,"2169":5133,"eber":5134,"3620":5135,"7918":5136,"5024":5137,"Passeig":5138,"sant":5139,"uevo":5140,"billa":5141,"Tools":5142,"ChromeDev":5143,"Soto":5144,"Isla":5145,"Alcalde":5146,"cinco":5147,"Andres":5148,"Rafael":5149,"Ġcharset":5150,"Bel":5151,"Fres":5152,"Mat":5153,"Pat":5154,"Pol":5155,"Rog":5156,"Ramon":5157,"ama":5158,"ef":5159,"fj":5160,"gor":5161,"hl":5162,"mr":5163,"pru":5164,"sE":5165,"sol":5166,"tg":5167,"uc":5168,"tell":5169,"enko":5170,"ace":5171,"dec":5172,"deFil":5173,"entSi":5174,"pant":5175,"kes":5176,"2599":5177,"roo":5178,"row":5179,"2750":5180,"movi":5181,"4044":5182,"1000":5183,"ande":5184,"asia":5185,"2014":5186,"2065":5187,"2914":5188,"6544":5189,"6547":5190,"6047":5191,"7495":5192,"3970":5193,"6945":5194,"2830":5195,"stri":5196,"1335":5197,"ntcug":5198,"6714":5199,"6799":5200,"1127":5201,"2434":5202,"8464":5203,"chez":5204,"aud":5205,"aula":5206,"audio":5207,"1818":5208,"9974":5209,"tering":5210,"0360":5211,"ontijo":5212,"zara":5213,"santcug":5214,"Victor":5215,"gay":5216,"bien":5217,"beau":5218,"barni":5219,"Poeta":5220,"lyn":5221,"fertas":5222,"work":5223,"Alame":5224,"imiento":5225,"automovi":5226,"ringring":5227,"Mayor":5228,"pisos":5229,"Domingo":5230,"alfombra":5231,"deFiltering":5232,"entSideFiltering":5233,"santcugat":5234,"automoviles":5235,"Amar":5236,"By":5237,"Cel":5238,"Cue":5239,"Figuer":5240,"Ijp":5241,"IsIml":5242,"Jb":5243,"MC":5244,"Mit":5245,"Pen":5246,"QWN":5247,"RhdGVkQXQiOiIyMDI":5248,"Vie":5249,"XQiO":5250,"Zpb":5251,"breg":5252,"cFN":5253,"cnV":5254,"fig":5255,"fit":5256,"hid":5257,"ile":5258,"jE":5259,"jy":5260,"kg":5261,"lY":5262,"lLCJ":5263,"nIiwid":5264,"rt":5265,"the":5266,"uen":5267,"uMCI":5268,"zin":5269,"zQWN":5270,"ende":5271,"iete":5272,"eth":5273,"rel":5274,"reda":5275,"2539":5276,"mbr":5277,"2785":5278,"2781":5279,"4019":5280,"4047":5281,"1060":5282,"2060":5283,"6313":5284,"1714":5285,"1744":5286,"3870":5287,"ssa":5288,"6590":5289,"6095":5290,"6099":5291,"1543":5292,"7449":5293,"2887":5294,"8924":5295,"8977":5296,"6763":5297,"ams":5298,"1167":5299,"8735":5300,"8660":5301,"8329":5302,"eback":5303,"0093":5304,"7730":5305,"menorca":5306,"Mala":5307,"JldCI":5308,"sInB":5309,"Qui":5310,"IiIsIml":5311,"IjoiMC":5312,"LCJpY":5313,"GVJb":5314,"Nava":5315,"bGx":5316,"ldGVkQX":5317,"entes":5318,"kZWxldGVkQX":5319,"mucho":5320,"ZlIjp":5321,"vilano":5322,"cfda":5323,"WFnZSI":5324,"aXZlIjp":5325,"jcmVhdGVkQXQiOiIyMDI":5326,"dpbklwIjoiMC":5327,"dalgo":5328,"wLjAuMCI":5329,"Murcia":5330,"ness":5331,"QiOm":5332,"cGRhdGVkQXQiOiIyMDI":5333,"Ronda":5334,"cpanelweb":5335,"encuent":5336,"XQiOjE":5337,"ZpbGVJb":5338,"cFNlY":5339,"cnVlLCJ":5340,"nIiwidG":5341,"sInByb":5342,"IiIsImlzQWN":5343,"LCJpYXQiOjE":5344,"kZWxldGVkQXQiOm":5345,"wLjAuMCIsInByb":5346,"ZpbGVJbWFnZSI":5347,"cnVlLCJjcmVhdGVkQXQiOiIyMDI":5348,"Bos":5349,"CO":5350,"Enc":5351,"Fo":5352,"Farr":5353,"Lau":5354,"Oc":5355,"Via":5356,"fon":5357,"fos":5358,"fell":5359,"gat":5360,"gun":5361,"hau":5362,"ich":5363,"iza":5364,"jue":5365,"kor":5366,"lr":5367,"met":5368,"mur":5369,"mck":5370,"page":5371,"run":5372,"tw":5373,"tura":5374,"vid":5375,"vate":5376,"yar":5377,"onia":5378,"teat":5379,"lad":5380,"lam":5381,"load":5382,"quera":5383,"2511":5384,"2544":5385,"ish":5386,"isapi":5387,"diz":5388,"2740":5389,"4017":5390,"alon":5391,"pedro":5392,"ese":5393,"elec":5394,"2009":5395,"2919":5396,"1410":5397,"6470":5398,"6493":5399,"6529":5400,"6564":5401,"6559":5402,"6020":5403,"6074":5404,"7429":5405,"program":5406,"1380":5407,"1340":5408,"4515":5409,"adia":5410,"6785":5411,"amente":5412,"1165":5413,"2464":5414,"3515":5415,"3554":5416,"9567":5417,"8339":5418,"8366":5419,"1629":5420,"7990":5421,"7817":5422,"7815":5423,"casab":5424,"6810":5425,"neros":5426,"vivo":5427,"7213":5428,"jobs":5429,"olf":5430,"bano":5431,"sanche":5432,"hama":5433,"Valls":5434,"Roca":5435,"orges":5436,"Panc":5437,"incon":5438,"mine":5439,"ders":5440,"kawa":5441,"Canal":5442,"Miquel":5443,"Cabez":5444,"Agui":5445,"hipermadrid":5446,"Lorenzo":5447,"Reset":5448,"quiler":5449,"Vicente":5450,"ajuntamentdebarcelona":5451,"Glorieta":5452,"Clo":5453,"Dam":5454,"Eche":5455,"Fn":5456,"Fla":5457,"Iq":5458,"Med":5459,"Nel":5460,"Neg":5461,"Pet":5462,"Ren":5463,"Rec":5464,"anu":5465,"aero":5466,"cht":5467,"ear":5468,"fol":5469,"franc":5470,"gq":5471,"lk":5472,"mg":5473,"nr":5474,"rin":5475,"tte":5476,"tau":5477,"teu":5478,"colores":5479,"cafe":5480,"agan":5481,"ngo":5482,"ncio":5483,"ister":5484,"moy":5485,"ania":5486,"aspe":5487,"2957":5488,"sson":5489,"6510":5490,"6555":5491,"6053":5492,"1975":5493,"1991":5494,"3975":5495,"6969":5496,"8960":5497,"3550":5498,"8417":5499,"8345":5500,"3640":5501,"1869":5502,"ball":5503,"vea":5504,"welcome":5505,"sanchez":5506,"Sanz":5507,"Montes":5508,"mini":5509,"Isid":5510,"Castany":5511,"Cervera":5512,"amont":5513,"Duero":5514,"private":5515,"sayuela":5516,"PasswordReset":5517,"hosting":5518,"ChromeDevTools":5519,"cincocolores":5520,"Ban":5521,"Big":5522,"Bart":5523,"Bol":5524,"Cos":5525,"Cre":5526,"Cora":5527,"Fan":5528,"Nte":5529,"Ner":5530,"Pre":5531,"bl":5532,"fia":5533,"gin":5534,"jen":5535,"king":5536,"vos":5537,"vill":5538,"yas":5539,"zer":5540,"acena":5541,"xtre":5542,"dem":5543,"apar":5544,"8015":5545,"8067":5546,"lef":5547,"losa":5548,"rei":5549,"2579":5550,"ismo":5551,"2758":5552,"uria":5553,"4014":5554,"4024":5555,"alhambra":5556,"1034":5557,"ann":5558,"elsen":5559,"2018":5560,"2965":5561,"2989":5562,"1790":5563,"3885":5564,"3866":5565,"2221":5566,"6517":5567,"1939":5568,"1924":5569,"1984":5570,"1978":5571,"1998":5572,"maj":5573,"3990":5574,"star":5575,"8900":5576,"8567":5577,"6771":5578,"6791":5579,"carritobob":5580,"1163":5581,"1169":5582,"3559":5583,"3499":5584,"chie":5585,"3791":5586,"1669":5587,"3129":5588,"7731":5589,"6815":5590,"5960":5591,"5715":5592,"gob":5593,"gov":5594,"5436":5595,"WebGoatIntroduction":5596,"velaz":5597,"0723":5598,"5238":5599,"iano":5600,"adra":5601,"adora":5602,"Alci":5603,"Carmen":5604,"Monaste":5605,"under":5606,"minas":5607,"Lugar":5608,"Ribera":5609,"doro":5610,"scha":5611,"jeda":5612,"part":5613,"Noel":5614,"brook":5615,"estre":5616,"Cristo":5617,"busca":5618,"selec":5619,"Font":5620,"mayor":5621,"Manzanares":5622,"cirugi":5623,"nacionales":5624,"Arriba":5625,"Fresno":5626,"automovilesalhambra":5627,"velazquez":5628,"Ces":5629,"Edu":5630,"Fg":5631,"Fru":5632,"Gel":5633,"Gab":5634,"Greg":5635,"HAAA":5636,"Io":5637,"JJ":5638,"Jan":5639,"Lli":5640,"Lara":5641,"Lima":5642,"Mali":5643,"PX":5644,"Rab":5645,"St":5646,"TO":5647,"Vent":5648,"Vera":5649,"dencia":5650,"eco":5651,"feli":5652,"gm":5653,"idad":5654,"jun":5655,"kam":5656,"lI":5657,"mtos":5658,"pg":5659,"rO":5660,"wei":5661,"zana":5662,"tio":5663,"tido":5664,"tian":5665,"tina":5666,"lian":5667,"acr":5668,"htmlsamp":5669,"lol":5670,"pav":5671,"ime":5672,"aren":5673,"inga":5674,"etu":5675,"2584":5676,"2557":5677,"mba":5678,"rou":5679,"roya":5680,"digo":5681,"mol":5682,"anca":5683,"ast":5684,"2034":5685,"6394":5686,"2955":5687,"2993":5688,"2996":5689,"iol":5690,"6591":5691,"6075":5692,"6096":5693,"1517":5694,"1550":5695,"1928":5696,"7460":5697,"mail":5698,"2880":5699,"ilda":5700,"2360":5701,"2339":5702,"2370":5703,"2318":5704,"2379":5705,"2300":5706,"2353":5707,"8588":5708,"8769":5709,"8799":5710,"FAcar":5711,"3539":5712,"3585":5713,"2119":5714,"9505":5715,"1828":5716,"1813":5717,"1845":5718,"3119":5719,"7124":5720,"7775":5721,"castella":5722,"DEs":5723,"8887":5724,"Gochez":5725,"Codigo":5726,"ith":5727,"vero":5728,"rup":5729,"Marce":5730,"Santander":5731,"trPX":5732,"reta":5733,"much":5734,"Pozo":5735,"ZlHAAA":5736,"garra":5737,"grim":5738,"Garc":5739,"Josep":5740,"Prin":5741,"enlaces":5742,"Felipe":5743,"Santib":5744,"Quintana":5745,"informati":5746,"Rodriguez":5747,"iNmc":5748,"intercamb":5749,"Morales":5750,"hardt":5751,"artesol":5752,"Aragon":5753,"cortinasartesol":5754,"faders":5755,"hojainformati":5756,"personales":5757,"uenga":5758,"velazquezlar":5759,"JJtrPX":5760,"ZlHAAAc":5761,"intercambio":5762,"JJtrPXZlHAAAc":5763,"5805":5764,"Dur":5765,"Dal":5766,"Ian":5767,"Milla":5768,"Oca":5769,"Tri":5770,"ain":5771,"ade":5772,"atica":5773,"bab":5774,"cg":5775,"cra":5776,"eS":5777,"fin":5778,"mt":5779,"ov":5780,"ska":5781,"tres":5782,"zen":5783,"tiana":5784,"coch":5785,"calla":5786,"caro":5787,"acch":5788,"acho":5789,"nger":5790,"agel":5791,"ages":5792,"ort":5793,"leda":5794,"imen":5795,"comer":5796,"roco":5797,"roig":5798,"2714":5799,"1042":5800,"pes":5801,"nou":5802,"este":5803,"2004":5804,"6395":5805,"6398":5806,"1771":5807,"1797":5808,"3887":5809,"3831":5810,"1440":5811,"2220":5812,"6004":5813,"1574":5814,"1584":5815,"1980":5816,"1909":5817,"maz":5818,"6923":5819,"8964":5820,"8516":5821,"adiana":5822,"tari":5823,"6734":5824,"carritoparos":5825,"8716":5826,"8625":5827,"8615":5828,"3418":5829,"8375":5830,"ramo":5831,"ebo":5832,"use":5833,"9930":5834,"7728":5835,"6887":5836,"3328":5837,"alina":5838,"5977":5839,"5469":5840,"wick":5841,"7263":5842,"9365":5843,"Alc":5844,"Alto":5845,"Alvarez":5846,"tanto":5847,"tugal":5848,"uelo":5849,"Guar":5850,"gua":5851,"Barber":5852,"Juli":5853,"Baix":5854,"yama":5855,"Palmas":5856,"munt":5857,"Huer":5858,"Bern":5859,"37621":5860,"atanto":5861,"Lopez":5862,"Hernandez":5863,"Indu":5864,"Calatra":5865,"Palacios":5866,"informatica":5867,"campo":5868,"Esteban":5869,"montamont":5870,"Catalan":5871,"health":5872,"zarahealth":5873,"Monasterio":5874,"tantomontamont":5875,"tantomontamontatanto":5876,"Ac":5877,"Cali":5878,"Cerra":5879,"Dora":5880,"Ili":5881,"Jor":5882,"Larra":5883,"Pera":5884,"Qk":5885,"Sha":5886,"Vid":5887,"Vit":5888,"Yas":5889,"box":5890,"ful":5891,"igo":5892,"jam":5893,"mundo":5894,"nos":5895,"nsito":5896,"rE":5897,"rau":5898,"sos":5899,"sio":5900,"uy":5901,"uz":5902,"enzuela":5903,"agen":5904,"cep":5905,"8024":5906,"ageles":5907,"lea":5908,"inger":5909,"eto":5910,"2521":5911,"2505":5912,"2555":5913,"2577":5914,"isio":5915,"motor":5916,"urt":5917,"urce":5918,"4013":5919,"caraz":5920,"noti":5921,"logon":5922,"eso":5923,"rilla":5924,"assa":5925,"2020":5926,"2044":5927,"2098":5928,"2985":5929,"2944":5930,"2948":5931,"3854":5932,"2219":5933,"6428":5934,"6455":5935,"6468":5936,"6457":5937,"6594":5938,"6578":5939,"1594":5940,"1595":5941,"1960":5942,"3991":5943,"6919":5944,"2885":5945,"2888":5946,"illos":5947,"8587":5948,"atriz":5949,"7542":5950,"3578":5951,"8680":5952,"8434":5953,"9437":5954,"8310":5955,"idor":5956,"1812":5957,"7920":5958,"uso":5959,"7610":5960,"Coll":5961,"Colon":5962,"5812":5963,"5320":5964,"0790":5965,"9265":5966,"ados":5967,"Alde":5968,"Sanchez":5969,"delavida":5970,"zaro":5971,"mane":5972,"Mari":5973,"Carras":5974,"Jui":5975,"hote":5976,"Palom":5977,"Dels":5978,"Huerta":5979,"Bergu":5980,"Eula":5981,"Fuen":5982,"illas":5983,"raso":5984,"Ferre":5985,"Fernandez":5986,"Salvador":5987,"pintor":5988,"Joa":5989,"Forn":5990,"cursos":5991,"devuelos":5992,"espacio":5993,"Planelles":5994,"multas":5995,"andomucho":5996,"nillos":5997,"ropadegolf":5998,"inventos":5999,"pintandomucho":6000,"elsentido":6001,"agelespa":6002,"elsentidodelavida":6003,"+*":6004,"4253":6005,"=+":6006,"Bs":6007,"Der":6008,"Edel":6009,"IJ":6010,"Ica":6011,"Jes":6012,"Lag":6013,"NG":6014,"Oro":6015,"RP":6016,"Tera":6017,"Var":6018,"Yago":6019,"ang":6020,"aad":6021,"bw":6022,"bag":6023,"bat":6024,"cent":6025,"elo":6026,"eza":6027,"fru":6028,"gna":6029,"gru":6030,"iber":6031,"kat":6032,"lj":6033,"mona":6034,"ndi":6035,"pag":6036,"ping":6037,"sun":6038,"sher":6039,"token":6040,"wan":6041,"yvi":6042,"tet":6043,"lap":6044,"lagon":6045,"lawn":6046,"encial":6047,"inar":6048,"inas":6049,"inst":6050,"aggio":6051,"xta":6052,"dam":6053,"serv":6054,"ingeni":6055,"Moli":6056,"quie":6057,"2581":6058,"rob":6059,"rot":6060,"rodo":6061,"2789":6062,"2798":6063,"2759":6064,"uru":6065,"uras":6066,"4027":6067,"4031":6068,"foro":6069,"1012":6070,"pell":6071,"2084":6072,"2012":6073,"nic":6074,"night":6075,"1705":6076,"1510":6077,"1567":6078,"1500":6079,"1544":6080,"malla":6081,"2869":6082,"2831":6083,"miel":6084,"8974":6085,"2320":6086,"2369":6087,"2342":6088,"Reza":6089,"1313":6090,"7054":6091,"8515":6092,"6739":6093,"6794":6094,"3014":6095,"3085":6096,"1124":6097,"8730":6098,"2417":6099,"2435":6100,"7513":6101,"7505":6102,"3574":6103,"8640":6104,"8411":6105,"2620":6106,"2660":6107,"2618":6108,"auth":6109,"2160":6110,"2124":6111,"8360":6112,"3714":6113,"1870":6114,"1611":6115,"1687":6116,"FFFD":6117,"7884":6118,"7123":6119,"6828":6120,"8883":6121,"4714":6122,"good":6123,"mares":6124,"3239":6125,"9775":6126,"heim":6127,"vella":6128,"9263":6129,"ady":6130,"ummer":6131,"olsa":6132,"9891":6133,"Alco":6134,"Pare":6135,"source":6136,"Gui":6137,"llero":6138,"Roman":6139,"orge":6140,"tort":6141,"Montor":6142,"Tormes":6143,"26321":6144,"chih":6145,"8703":6146,"3748":6147,"yola":6148,"3302":6149,"andras":6150,"EFAF":6151,"emp":6152,"Ferr":6153,"drae":6154,"Mira":6155,"Cerro":6156,"pinosa":6157,"Murillo":6158,"Olme":6159,"Tarciano":6160,"Blanco":6161,"Romera":6162,"presti":6163,"easyvi":6164,"atorre":6165,"hispa":6166,"Calatrava":6167,"Cerrato":6168,"noticias":6169,"aadsl":6170,"easyviaggio":6171,"0876":6172,"Aro":6173,"Aba":6174,"Amor":6175,"Areg":6176,"AQk":6177,"BK":6178,"BYa":6179,"Cros":6180,"Cres":6181,"Cho":6182,"Cela":6183,"Ceci":6184,"DS":6185,"FY":6186,"Fol":6187,"Hh":6188,"Hen":6189,"Han":6190,"HQu":6191,"Iz":6192,"JN":6193,"Kmh":6194,"KJui":6195,"LJ":6196,"LV":6197,"MI":6198,"NX":6199,"Nld":6200,"Of":6201,"Oo":6202,"PV":6203,"Pq":6204,"PKJui":6205,"RI":6206,"Tamar":6207,"Uo":6208,"Vz":6209,"ZnIiwidG":6210,"bina":6211,"bby":6212,"bHQu":6213,"cci":6214,"dB":6215,"dino":6216,"ev":6217,"frec":6218,"fel":6219,"fVz":6220,"gx":6221,"gell":6222,"hon":6223,"hsz":6224,"iy":6225,"iFY":6226,"jFg":6227,"kos":6228,"kDo":6229,"lcy":6230,"mF":6231,"mz":6232,"nHY":6233,"oad":6234,"pX":6235,"pBE":6236,"qDS":6237,"qhsz":6238,"rag":6239,"sue":6240,"sGY":6241,"sPKJui":6242,"tf":6243,"ulo":6244,"ucy":6245,"uqhsz":6246,"vn":6247,"vq":6248,"vYW":6249,"vUo":6250,"wer":6251,"xvYW":6252,"yic":6253,"tista":6254,"lah":6255,"lat":6256,"deal":6257,"deteat":6258,"apo":6259,"apoli":6260,"applications":6261,"8044":6262,"8007":6263,"orra":6264,"day":6265,"server":6266,"playa":6267,"2510":6268,"pul":6269,"roy":6270,"2745":6271,"4069":6272,"4007":6273,"pear":6274,"riza":6275,"rique":6276,"asa":6277,"2079":6278,"nit":6279,"6339":6280,"6334":6281,"2937":6282,"1784":6283,"1704":6284,"3869":6285,"3824":6286,"sso":6287,"ioAQk":6288,"6414":6289,"6499":6290,"6471":6291,"6505":6292,"6068":6293,"6007":6294,"1538":6295,"1505":6296,"1599":6297,"1947":6298,"1904":6299,"7463":6300,"7450":6301,"max":6302,"3967":6303,"6974":6304,"6924":6305,"6905":6306,"6953":6307,"tode":6308,"2374":6309,"2348":6310,"2349":6311,"1355":6312,"1307":6313,"7068":6314,"8590":6315,"3089":6316,"BADA":6317,"2474":6318,"2484":6319,"2444":6320,"9043":6321,"7535":6322,"7599":6323,"3530":6324,"8685":6325,"8460":6326,"8466":6327,"8340":6328,"8379":6329,"3624":6330,"1881":6331,"1661":6332,"7987":6333,"EEOf":6334,"wdsl":6335,"9914":6336,"terry":6337,"6838":6338,"1001":6339,"4984":6340,"issa":6341,"3329":6342,"09390":6343,"6167":6344,"4180":6345,"AFvUo":6346,"wiOiJ":6347,"7269":6348,"Gomez":6349,"Pastor":6350,"Callejon":6351,"Quir":6352,"adul":6353,"DOp":6354,"abe":6355,"Almen":6356,"iOuqhsz":6357,"valo":6358,"bou":6359,"VibG":6360,"NTc":6361,"IiwiZW":6362,"MzEEOf":6363,"lujy":6364,"Marcos":6365,"Juana":6366,"lIjoiIiwiZW":6367,"Legu":6368,"Sem":6369,"Agueda":6370,"thur":6371,"enav":6372,"OTR":6373,"ExO":6374,"Puerta":6375,"rett":6376,"Campa":6377,"cHjFg":6378,"cHVibG":6379,"CiBK":6380,"RlZmF":6381,"Peral":6382,"ltYWdlcy":6383,"ZSsGY":6384,"juIq":6385,"zHBYa":6386,"HZysi":6387,"frVX":6388,"SuFK":6389,"register":6390,"danie":6391,"ODk":6392,"haWwiOiJ":6393,"amarina":6394,"wZqDS":6395,"khil":6396,"HMvcHVibG":6397,"cGxvYW":6398,"Ignac":6399,"escuela":6400,"FIkX":6401,"indote":6402,"MDAiLCJkZWxldGVkQXQiOm":6403,"Picabea":6404,"Federico":6405,"SPkDo":6406,"Nelma":6407,"cafedeteat":6408,"hojainformativas":6409,"rocofer":6410,"IJSPkDo":6411,"ljL":6412,"HhExO":6413,"KmhIJSPkDo":6414,"LVFIkX":6415,"NldHMvcHVibG":6416,"PVdB":6417,"bHQuc":6418,"fVzZSsGY":6419,"gxl":6420,"iyiOuqhsz":6421,"iFYy":6422,"nHYOo":6423,"oadLJ":6424,"pBESuFK":6425,"sPKJuiioAQk":6426,"AFvUojuIq":6427,"MzEEOfzHBYa":6428,"lujyfVzZSsGY":6429,"cHjFgPq":6430,"CiBKcHjFgPq":6431,"HZysiKmhIJSPkDo":6432,"frVXdv":6433,"haWwiOiJucy":6434,"cGxvYWRzL":6435,"cafedeteatro":6436,"LVFIkXwZqDS":6437,"NldHMvcHVibGljL":6438,"iyiOuqhszfrVXdv":6439,"sPKJuiioAQkN":6440,"AFvUojuIqNX":6441,"MzEEOfzHBYaH":6442,"HZysiKmhIJSPkDoyic":6443,"Alar":6444,"Bul":6445,"Borges":6446,"Fonti":6447,"Gil":6448,"Ha":6449,"Iver":6450,"Jard":6451,"Jorge":6452,"Lim":6453,"Mes":6454,"Meli":6455,"Nat":6456,"Plas":6457,"Sad":6458,"Tre":6459,"Tran":6460,"Up":6461,"Vol":6462,"amo":6463,"bh":6464,"cons":6465,"dfau":6466,"eN":6467,"eum":6468,"mun":6469,"nau":6470,"tac":6471,"ute":6472,"uza":6473,"vor":6474,"ying":6475,"yiu":6476,"tie":6477,"lamar":6478,"ench":6479,"lik":6480,"lich":6481,"caser":6482,"carell":6483,"oseg":6484,"ceros":6485,"ptog":6486,"ere":6487,"erro":6488,"erner":6489,"deux":6490,"apart":6491,"8086":6492,"8037":6493,"8000":6494,"leo":6495,"leen":6496,"lejo":6497,"lets":6498,"serrat":6499,"arco":6500,"rea":6501,"reba":6502,"2509":6503,"cil":6504,"pura":6505,"dion":6506,"dida":6507,"2780":6508,"2726":6509,"2716":6510,"4020":6511,"4030":6512,"aly":6513,"1064":6514,"1045":6515,"1043":6516,"cara":6517,"noc":6518,"anz":6519,"ester":6520,"6380":6521,"6360":6522,"2238":6523,"2285":6524,"6448":6525,"6588":6526,"1506":6527,"15399":6528,"1990":6529,"1901":6530,"7491":6531,"3974":6532,"3989":6533,"6960":6534,"2819":6535,"8954":6536,"8951":6537,"1338":6538,"1334":6539,"1308":6540,"7055":6541,"4520":6542,"4514":6543,"4519":6544,"8544":6545,"8546":6546,"6740":6547,"EDCA":6548,"carritos":6549,"3010":6550,"3009":6551,"1188":6552,"8755":6553,"8782":6554,"2423":6555,"2445":6556,"FAs":6557,"8617":6558,"8496":6559,"FCDC":6560,"2689":6561,"EABD":6562,"meu":6563,"3794":6564,"CADD":6565,"6616":6566,"7186":6567,"5029":6568,"5083":6569,"6825":6570,"4975":6571,"3315":6572,"3324":6573,"incorrectassessionid":6574,"witz":6575,"7265":6576,"8110":6577,"joan":6578,"9729":6579,"portugal":6580,"ategui":6581,"well":6582,"modelos":6583,"bmit":6584,"ultor":6585,"Alman":6586,"hiro":6587,"tuve":6588,"Arqui":6589,"neu":6590,"hay":6591,"Guzm":6592,"Marques":6593,"Casar":6594,"Barr":6595,"uridad":6596,"bek":6597,"culares":6598,"2408":6599,"schn":6600,"Pilar":6601,"andre":6602,"Perio":6603,"garri":6604,"Bureba":6605,"BCBC":6606,"Lihue":6607,"Fernan":6608,"zgordo":6609,"Lozana":6610,"Mila":6611,"Traver":6612,"Estrella":6613,"worth":6614,"Virma":6615,"Dios":6616,"Trist":6617,"museum":6618,"zone":6619,"jeres":6620,"software":6621,"travelzone":6622,"Noguer":6623,"FunNG":6624,"clubde":6625,"iguera":6626,"Merced":6627,"raphy":6628,"encuentrodo":6629,"loads":6630,"sanchezgordo":6631,"minios":6632,"dfault":6633,"yiutuve":6634,"oseguridad":6635,"ptography":6636,"carritosessionid":6637,"FunNGames":6638,"encuentrodominios":6639,"4194":6640,"Ame":6641,"Ador":6642,"Bes":6643,"Fin":6644,"Fal":6645,"Feix":6646,"Hino":6647,"Hello":6648,"IZ":6649,"Log":6650,"Met":6651,"Ob":6652,"Pis":6653,"Pes":6654,"Pesca":6655,"RA":6656,"Rosa":6657,"Sing":6658,"Ses":6659,"Vin":6660,"Zab":6661,"alo":6662,"cena":6663,"dista":6664,"eti":6665,"gla":6666,"hart":6667,"hana":6668,"ires":6669,"kil":6670,"montijo":6671,"ole":6672,"ofertas":6673,"ominas":6674,"plo":6675,"pit":6676,"rI":6677,"sor":6678,"vana":6679,"wy":6680,"wing":6681,"ward":6682,"xavi":6683,"yl":6684,"once":6685,"tiz":6686,"tida":6687,"tez":6688,"enig":6689,"caju":6690,"camp":6691,"camonte":6692,"instein":6693,"erna":6694,"dese":6695,"delia":6696,"osta":6697,"8051":6698,"loc":6699,"lola":6700,"lome":6701,"arda":6702,"arse":6703,"Molt":6704,"Molinos":6705,"2513":6706,"2585":6707,"25253":6708,"pug":6709,"ntra":6710,"mbla":6711,"mbri":6712,"rom":6713,"rola":6714,"2794":6715,"2795":6716,"4085":6717,"4026":6718,"4095":6719,"1036":6720,"nold":6721,"estel":6722,"2027":6723,"2095":6724,"2082":6725,"2046":6726,"nikhil":6727,"6340":6728,"6355":6729,"2984":6730,"2905":6731,"2936":6732,"3875":6733,"3868":6734,"3881":6735,"3896":6736,"1450":6737,"2289":6738,"6458":6739,"6451":6740,"6514":6741,"6513":6742,"6518":6743,"1927":6744,"1965":6745,"1921":6746,"7467":6747,"6985":6748,"6957":6749,"6908":6750,"2868":6751,"2847":6752,"2896":6753,"8914":6754,"2343":6755,"2352":6756,"1305":6757,"1358":6758,"7014":6759,"7024":6760,"7094":6761,"7095":6762,"4539":6763,"8528":6764,"tarra":6765,"6795":6766,"EDFB":6767,"3065":6768,"2494":6769,"9005":6770,"9004":6771,"7567":6772,"DDDC":6773,"FAl":6774,"FAFF":6775,"3599":6776,"3512":6777,"8444":6778,"3486":6779,"3471":6780,"EABA":6781,"chon":6782,"2161":6783,"8320":6784,"melo":6785,"3784":6786,"idencial":6787,"3667":6788,"1680":6789,"16638":6790,"7915":6791,"cordoba":6792,"CDa":6793,"3124":6794,"9989":6795,"9995":6796,"9931":6797,"castig":6798,"6820":6799,"6839":6800,"7329":6801,"ners":6802,"2708":6803,"4989":6804,"10189":6805,"ACED":6806,"alidad":6807,"4110":6808,"5434":6809,"7240":6810,"joubi":6811,"joudi":6812,"ffer":6813,"2502":6814,"9140":6815,"portes":6816,"5610":6817,"0345":6818,"Sang":6819,"baco":6820,"12230":6821,"bous":6822,"onomos":6823,"luts":6824,"bios":6825,"bijoubi":6826,"Barto":6827,"llon":6828,"Corominas":6829,"Espe":6830,"Monta":6831,"chicas":6832,"Rambla":6833,"construc":6834,"pic":6835,"Pola":6836,"Anda":6837,"ferente":6838,"gener":6839,"amiento":6840,"Garros":6841,"jean":6842,"Rub":6843,"bypass":6844,"more":6845,"mori":6846,"portal":6847,"Pinar":6848,"Gala":6849,"Vilanova":6850,"ugh":6851,"farma":6852,"Gracia":6853,"gesaut":6854,"Horte":6855,"Silva":6856,"wood":6857,"Residencial":6858,"Sagra":6859,"catalog":6860,"Gonza":6861,"Praza":6862,"aplasticacordoba":6863,"Oficial":6864,"Medina":6865,"Isidro":6866,"cirugiaplasticacordoba":6867,"Gregorio":6868,"Eulalia":6869,"Aregall":6870,"Zabala":6871,"enigma":6872,"cajucar":6873,"joudiferente":6874,"lutscht":6875,"bijoubijoudiferente":6876,"construccion":6877,"gesautonomos":6878,"AFAA":6879,"Bis":6880,"Cn":6881,"Dac":6882,"Dami":6883,"ES":6884,"EEBC":6885,"Esta":6886,"Flu":6887,"Har":6888,"Mie":6889,"Nuevo":6890,"Pau":6891,"Plu":6892,"Ste":6893,"Sis":6894,"Sau":6895,"Shar":6896,"Tres":6897,"Van":6898,"bz":6899,"cU":6900,"cles":6901,"cbb":6902,"ccfda":6903,"dg":6904,"eig":6905,"fd":6906,"fri":6907,"fred":6908,"gt":6909,"gab":6910,"iara":6911,"kley":6912,"sg":6913,"sell":6914,"sled":6915,"trar":6916,"xe":6917,"yi":6918,"zA":6919,"zw":6920,"tiano":6921,"labert":6922,"lations":6923,"enda":6924,"aces":6925,"ertos":6926,"demas":6927,"apps":6928,"8020":6929,"8087":6930,"8094":6931,"hostro":6932,"ngel":6933,"htrans":6934,"iem":6935,"leja":6936,"paloma":6937,"iman":6938,"sera":6939,"arab":6940,"arapart":6941,"redo":6942,"digi":6943,"2734":6944,"2783":6945,"2779":6946,"rard":6947,"4077":6948,"4073":6949,"4082":6950,"alcant":6951,"alquiler":6952,"alselec":6953,"1099":6954,"noop":6955,"anza":6956,"estu":6957,"espos":6958,"2030":6959,"2000":6960,"6374":6961,"2910":6962,"2960":6963,"2928":6964,"2933":6965,"2981":6966,"1763":6967,"1758":6968,"3814":6969,"3865":6970,"3867":6971,"1419":6972,"1499":6973,"2229":6974,"2265":6975,"2235":6976,"6040":6977,"6014":6978,"1905":6979,"1907":6980,"7475":6981,"7436":6982,"mao":6983,"3917":6984,"3945":6985,"3985":6986,"3955":6987,"3982":6988,"3957":6989,"6927":6990,"6934":6991,"6909":6992,"2844":6993,"stan":6994,"todo":6995,"8941":6996,"8906":6997,"2340":6998,"2329":6999,"2355":7000,"7075":7001,"4580":7002,"4569":7003,"4578":7004,"adillo":7005,"6764":7006,"6787":7007,"3071":7008,"3006":7009,"1140":7010,"8710":7011,"8731":7012,"BACC":7013,"2429":7014,"2424":7015,"2448":7016,"CCDF":7017,"9078":7018,"7558":7019,"3516":7020,"3500":7021,"3549":7022,"3509":7023,"8475":7024,"3423":7025,"2626":7026,"EACF":7027,"chat":7028,"9490":7029,"9495":7030,"2181":7031,"953439":7032,"8318":7033,"rant":7034,"DAEF":7035,"3664":7036,"18178":7037,"1624":7038,"CDBC":7039,"3169":7040,"6663":7041,"5094":7042,"7740":7043,"7794":7044,"4863":7045,"4974":7046,"4994":7047,"CFFC":7048,"8885":7049,"8835":7050,"BDBA":7051,"0919":7052,"6125":7053,"4167":7054,"Calz":7055,"9180":7056,"brera":7057,"4663":7058,"5815":7059,"Confirmarany":7060,"crip":7061,"Query":7062,"Sada":7063,"zaragoza":7064,"valos":7065,"manzan":7066,"new":7067,"Gual":7068,"luz":7069,"sber":7070,"Curell":7071,"Palo":7072,"Paloma":7073,"Escul":7074,"lasco":7075,"Torrent":7076,"10520":7077,"10320":7078,"allasled":7079,"coni":7080,"Ripol":7081,"2397":7082,"Pico":7083,"BBAC":7084,"achina":7085,"Fuer":7086,"hann":7087,"agua":7088,"villas":7089,"chotel":7090,"cosur":7091,"Astor":7092,"Gilabert":7093,"stock":7094,"uerga":7095,"world":7096,"ajuntamentbcn":7097,"berta":7098,"Angel":7099,"Hornillos":7100,"clichotel":7101,"especi":7102,"Adelqui":7103,"Asad":7104,"Zurita":7105,"artesania":7106,"showcars":7107,"surcosur":7108,"cubiertos":7109,"Teodo":7110,"ClientSideFiltering":7111,"Esgueva":7112,"pantallasled":7113,"strial":7114,"00931975":7115,"font":7116,"Bigorra":7117,"Industrial":7118,"087683":7119,"Periodista":7120,"Pescador":7121,"castigadas":7122,"bacoespeci":7123,"Dacil":7124,"hostrofessional":7125,"htranslations":7126,"arapartners":7127,"alcantarapartners":7128,"alquilerpantallasled":7129,"alselecci":7130,"95343977":7131,"cubiertoscbb":7132,"0093197595343977":7133,"bacoespecialselecci":7134,"2637":7135,"4300":7136,"4344":7137,"4808":7138,"5175":7139,"7900":7140,"ACDF":7141,"Bab":7142,"Bed":7143,"Ball":7144,"Beg":7145,"Cadi":7146,"Chi":7147,"Carta":7148,"Et":7149,"Gio":7150,"Ida":7151,"Ivan":7152,"Jara":7153,"Lar":7154,"Lib":7155,"Luna":7156,"Mul":7157,"Oti":7158,"Pela":7159,"RF":7160,"Rd":7161,"Rinc":7162,"Sas":7163,"SRF":7164,"able":7165,"ct":7166,"cen":7167,"cum":7168,"cOR":7169,"dok":7170,"eR":7171,"fas":7172,"fina":7173,"hp":7174,"hur":7175,"hit":7176,"jO":7177,"jera":7178,"kur":7179,"mio":7180,"mig":7181,"mund":7182,"mpi":7183,"nA":7184,"nand":7185,"oth":7186,"rd":7187,"rac":7188,"sil":7189,"tA":7190,"ysh":7191,"ticas":7192,"tintas":7193,"lao":7194,"lach":7195,"end":7196,"enia":7197,"cob":7198,"cola":7199,"count":7200,"osat":7201,"indi":7202,"zio":7203,"xto":7204,"deven":7205,"design":7206,"aper":7207,"8019":7208,"8034":7209,"8083":7210,"8093":7211,"agement":7212,"oran":7213,"lobar":7214,"data":7215,"dades":7216,"iello":7217,"leSamples":7218,"pado":7219,"iment":7220,"kova":7221,"quillo":7222,"bley":7223,"real":7224,"remos":7225,"roito":7226,"2764":7227,"2713":7228,"2757":7229,"mobley":7230,"urr":7231,"alba":7232,"fort":7233,"1089":7234,"1087":7235,"1094":7236,"petit":7237,"carlos":7238,"ankawa":7239,"2089":7240,"2099":7241,"2081":7242,"nio":7243,"nica":7244,"6385":7245,"6311":7246,"6348":7247,"6393":7248,"6308":7249,"2900":7250,"1764":7251,"1719":7252,"1774":7253,"1785":7254,"1753":7255,"3882":7256,"1425":7257,"1449":7258,"roso":7259,"2228":7260,"2237":7261,"2244":7262,"2248":7263,"6465":7264,"6439":7265,"6580":7266,"6535":7267,"6536":7268,"6027":7269,"6028":7270,"1511":7271,"1548":7272,"1547":7273,"1502":7274,"1967":7275,"1987":7276,"1955":7277,"7485":7278,"7473":7279,"3920":7280,"3947":7281,"6946":7282,"2817":7283,"2814":7284,"2854":7285,"ilena":7286,"tomo":7287,"8987":7288,"8975":7289,"8995":7290,"Redon":7291,"1350":7292,"7034":7293,"7061":7294,"4589":7295,"4595":7296,"4579":7297,"direct":7298,"6751":7299,"EDFD":7300,"ampa":7301,"aman":7302,"3030":7303,"3034":7304,"1113":7305,"8779":7306,"2467":7307,"2482":7308,"atos":7309,"CCEE":7310,"9014":7311,"7544":7312,"DDDA":7313,"8482":7314,"3463":7315,"2629":7316,"2129":7317,"2189":7318,"EBCD":7319,"9536":7320,"8311":7321,"05279":7322,"mee":7323,"3775":7324,"BBDB":7325,"ebe":7326,"1880":7327,"1882":7328,"5562":7329,"AADA":7330,"AAAB":7331,"CDED":7332,"CDBD":7333,"7822":7334,"lesias":7335,"DBCF":7336,"7184":7337,"9874":7338,"9882":7339,"EFFC":7340,"48220":7341,"6863":7342,"1269":7343,"12170":7344,"7367":7345,"1003":7346,"1004":7347,"baldo":7348,"discon":7349,"6164":7350,"5729":7351,"5465":7352,"8180":7353,"3217":7354,"3267":7355,"9728":7356,"Maz":7357,"7665":7358,"9138":7359,"5163":7360,"itan":7361,"0323":7362,"Alhama":7363,"Parque":7364,"hibri":7365,"verd":7366,"bao":7367,"management":7368,"ture":7369,"nato":7370,"Arce":7371,"rana":7372,"Guadiana":7373,"fotosero":7374,"respon":7375,"Marina":7376,"Cay":7377,"sev":7378,"Segarra":7379,"Corta":7380,"torio":7381,"toria":7382,"lanca":7383,"miami":7384,"bee":7385,"Agus":7386,"baran":7387,"desinventos":7388,"1650":7389,"19490":7390,"Boli":7391,"Boix":7392,"conac":7393,"Ricar":7394,"tespersonales":7395,"15613":7396,"shin":7397,"introito":7398,"Sola":7399,"fernand":7400,"Ferran":7401,"jugue":7402,"banking":7403,"Submit":7404,"vasi":7405,"yuan":7406,"salvador":7407,"chev":7408,"prensa":7409,"osoto":7410,"Agua":7411,"Castille":7412,"Application":7413,"green":7414,"enlaplaya":7415,"gonza":7416,"andaluz":7417,"Simple":7418,"unidades":7419,"franca":7420,"tillero":7421,"videos":7422,"grandesinventos":7423,"fleur":7424,"Sarri":7425,"audiosat":7426,"Martinez":7427,"49372725":7428,"Sebastian":7429,"tilacion":7430,"Orion":7431,"Alameda":7432,"ringringrent":7433,"santcugatpisos":7434,"Pancr":7435,"Aguilar":7436,"privatebanking":7437,"Marcelino":7438,"comercios":7439,"Baixada":7440,"cursosenlaplaya":7441,"Abajo":7442,"Ignacio":7443,"deuxmanagement":7444,"SingleSamples":7445,"xavipetit":7446,"tintasultravioleta":7447,"deventilacion":7448,"ankawaelda":7449,"hibridos":7450,"fotoseroticas":7451,"fernandosoto":7452,"juguetespersonales":7453,"prensahp":7454,"unidadesdeventilacion":7455,"**":7456,"2253":7457,"4899":7458,"4388":7459,"6130":7460,"6147":7461,"7299":7462,"8270":7463,"Anti":7464,"Abi":7465,"Abe":7466,"Bru":7467,"BFAB":7468,"Bene":7469,"Cc":7470,"Cry":7471,"Els":7472,"EECA":7473,"EEBD":7474,"Emanuel":7475,"Fd":7476,"Fri":7477,"FCCB":7478,"FEDE":7479,"Igu":7480,"Jun":7481,"Monti":7482,"Munt":7483,"Nd":7484,"Neb":7485,"Ola":7486,"Ras":7487,"ST":7488,"Son":7489,"Terra":7490,"Vali":7491,"Vaz":7492,"Zap":7493,"Zul":7494,"ato":7495,"bad":7496,"bart":7497,"cT":7498,"clar":7499,"dura":7500,"ever":7501,"gU":7502,"ggs":7503,"hes":7504,"jag":7505,"kle":7506,"mera":7507,"moso":7508,"ou":7509,"opel":7510,"pk":7511,"sco":7512,"ub":7513,"uar":7514,"woff":7515,"who":7516,"zosa":7517,"tifica":7518,"tex":7519,"telog":7520,"cap":7521,"cass":7522,"camente":7523,"inal":7524,"into":7525,"inaldo":7526,"deenlaces":7527,"8030":7528,"8005":7529,"8055":7530,"8054":7531,"8091":7532,"lot":7533,"lock":7534,"arro":7535,"nunci":7536,"llares":7537,"comp":7538,"revi":7539,"2542":7540,"cipal":7541,"rol":7542,"rocke":7543,"dig":7544,"2755":7545,"dola":7546,"40906":7547,"40943":7548,"alles":7549,"almas":7550,"1070":7551,"1090":7552,"1049":7553,"peines":7554,"ricio":7555,"2080":7556,"nier":7557,"nich":7558,"nill":7559,"2911":7560,"2995":7561,"1730":7562,"1724":7563,"1761":7564,"1741":7565,"1772":7566,"3874":7567,"3833":7568,"1470":7569,"1477":7570,"iola":7571,"2246":7572,"6440":7573,"6473":7574,"6540":7575,"6569":7576,"6584":7577,"6549":7578,"6036":7579,"6078":7580,"6033":7581,"1539":7582,"1512":7583,"1983":7584,"1979":7585,"1948":7586,"7430":7587,"7416":7588,"7479":7589,"maher":7590,"3937":7591,"3999":7592,"6965":7593,"6967":7594,"6950":7595,"6947":7596,"2884":7597,"promotor":7598,"8940":7599,"8916":7600,"2375":7601,"2305":7602,"1320":7603,"1315":7604,"1354":7605,"7064":7606,"4528":7607,"4555":7608,"4500":7609,"4504":7610,"8534":7611,"vino":7612,"6720":7613,"6719":7614,"6769":7615,"6789":7616,"6736":7617,"6733":7618,"EDf":7619,"EDAC":7620,"EDne":7621,"carritoSet":7622,"1168":7623,"BABA":7624,"2437":7625,"2497":7626,"CCEC":7627,"CCFD":7628,"FBDD":7629,"FBBD":7630,"9045":7631,"9094":7632,"9044":7633,"9048":7634,"7550":7635,"DDEA":7636,"DDAA":7637,"DDDB":7638,"FAn":7639,"FAr":7640,"FACD":7641,"FAAB":7642,"3580":7643,"8674":7644,"ECDA":7645,"ECBE":7646,"8418":7647,"8478":7648,"8473":7649,"FCBA":7650,"3440":7651,"3437":7652,"2616":7653,"2612":7654,"EADD":7655,"EAEC":7656,"EAEA":7657,"9416":7658,"9412":7659,"FDBD":7660,"2186":7661,"9594":7662,"jano":7663,"raj":7664,"CAFB":7665,"CAFE":7666,"3689":7667,"1820":7668,"1666":7669,"corn":7670,"auten":7671,"7127":7672,"7163":7673,"5070":7674,"7716":7675,"2702":7676,"4935":7677,"6238":7678,"3339":7679,"47182":7680,"sierra":7681,"sitienes":7682,"BEED":7683,"BEFC":7684,"6189":7685,"4165":7686,"5774":7687,"AFFB":7688,"5477":7689,"3229":7690,"Max":7691,"hem":7692,"veh":7693,"velo":7694,"veda":7695,"2503":7696,"7625":7697,"Cobo":7698,"4320":7699,"brun":7700,"9339":7701,"9611":7702,"5185":7703,"Fidalgo":7704,"Deu":7705,"ulle":7706,"une":7707,"unda":7708,"unnego":7709,"zarasal":7710,"delvo":7711,"ueh":7712,"ueey":7713,"nano":7714,"creacion":7715,"Sando":7716,"luc":7717,"bias":7718,"Casola":7719,"sexta":7720,"Nazar":7721,"Villafranca":7722,"Tob":7723,"19119":7724,"pola":7725,"Delgad":7726,"17731":7727,"webtienes":7728,"40926":7729,"1636":7730,"2659":7731,"mujeres":7732,"Camar":7733,"Poma":7734,"BEAA":7735,"osalagon":7736,"7605":7737,"shan":7738,"7950":7739,"97543":7740,"elina":7741,"21319":7742,"Pereg":7743,"emas":7744,"amien":7745,"vens":7746,"vender":7747,"3761167":7748,"Rut":7749,"Moral":7750,"Herrera":7751,"guejos":7752,"lones":7753,"48940":7754,"Port":7755,"Portal":7756,"enoza":7757,"nett":7758,"nette":7759,"Gian":7760,"afiel":7761,"Ildef":7762,"Abenoza":7763,"Borras":7764,"ventura":7765,"unawebtienes":7766,"Crisp":7767,"soyandaluz":7768,"Vahid":7769,"Quintanilla":7770,"Planells":7771,"Romero":7772,"Medio":7773,"Comte":7774,"flex":7775,"Zurbaran":7776,"csrf":7777,"areina":7778,"Villalba":7779,"Funes":7780,"Cruces":7781,"Alfonso":7782,"acruzdelvo":7783,"viajesnacionales":7784,"Mercado":7785,"Http":7786,"santacruzdelvo":7787,"feller":7788,"paviment":7789,"intercambiodeenlaces":7790,"manecer":7791,"espaciopintor":7792,"chihchie":7793,"hispadis":7794,"dealcaraz":7795,"Volta":7796,"153993761167":7797,"Arquitec":7798,"Feixas":7799,"Metauten":7800,"cripting":7801,"Escultor":7802,"Fuerte":7803,"4808153993761167":7804,"Begonia":7805,"whoami":7806,"telogis":7807,"rockefeller":7808,"promotorareina":7809,"sierradealcaraz":7810,"sitienesunawebtienes":7811,"unnegocio":7812,"zarasalud":7813,"Delgados":7814,"Peregr":7815,"VahidReza":7816,"santacruzdelvoto":7817,"pavimentosalagon":7818,"sitienesunawebtienesunnegocio":7819,"\"}":7820,"0254":7821,"2146":7822,"3390":7823,"4390":7824,"6244":7825,"8174":7826,"9690":7827,"=_":7828,"At":7829,"Amer":7830,"Adol":7831,"Aires":7832,"Cir":7833,"CFDA":7834,"DEDE":7835,"EECE":7836,"Fro":7837,"Fra":7838,"FFDA":7839,"Fruc":7840,"Gru":7841,"Geral":7842,"It":7843,"Ker":7844,"Liz":7845,"Nie":7846,"RE":7847,"Rox":7848,"Sig":7849,"Scripting":7850,"Tap":7851,"Tem":7852,"Ull":7853,"Wolf":7854,"btr":7855,"bach":7856,"beck":7857,"cOr":7858,"dh":7859,"eus":7860,"fro":7861,"fam":7862,"gaudio":7863,"hara":7864,"ici":7865,"ido":7866,"kir":7867,"lles":7868,"mina":7869,"melli":7870,"ova":7871,"pec":7872,"sla":7873,"sSi":7874,"tru":7875,"tamarina":7876,"vec":7877,"vaj":7878,"vert":7879,"visco":7880,"zza":7881,"tiga":7882,"tipos":7883,"teScripting":7884,"lak":7885,"enci":7886,"coach":7887,"lib":7888,"inless":7889,"acy":7890,"zia":7891,"xmlfile":7892,"erre":7893,"erbd":7894,"desa":7895,"8049":7896,"8032":7897,"8096":7898,"80899":7899,"dana":7900,"ars":7901,"arroyo":7902,"nutr":7903,"compra":7904,"Ġ//":7905,"quilla":7906,"2576":7907,"pur":7908,"rogas":7909,"2727":7910,"moon":7911,"4074":7912,"4009":7913,"40007":7914,"alsan":7915,"1020":7916,"1029":7917,"1015":7918,"1096":7919,"noz":7920,"dedrogas":7921,"logic":7922,"estar":7923,"elcarrito":7924,"elmos":7925,"2019":7926,"2024":7927,"2088":7928,"2047":7929,"6397":7930,"63154":7931,"2930":7932,"2994":7933,"2997":7934,"1715":7935,"1769":7936,"1770":7937,"1767":7938,"1737":7939,"3835":7940,"3853":7941,"38747":7942,"1414":7943,"1421":7944,"1447":7945,"2239":7946,"2243":7947,"6434":7948,"6571":7949,"6048":7950,"6056":7951,"1560":7952,"1555":7953,"1592":7954,"1910":7955,"1914":7956,"1931":7957,"1906":7958,"7438":7959,"7415":7960,"madri":7961,"3980":7962,"3948":7963,"3909":7964,"6980":7965,"6940":7966,"6921":7967,"stac":7968,"studio":7969,"8967":7970,"2361":7971,"1375":7972,"1301":7973,"1353":7974,"13195":7975,"7078":7976,"7099":7977,"7047":7978,"7093":7979,"4587":7980,"4583":7981,"4537":7982,"4551":7983,"8506":7984,"6784":7985,"6716":7986,"EDFA":7987,"EDEB":7988,"amor":7989,"3055":7990,"3053":7991,"1125":7992,"8787":7993,"8775":7994,"8791":7995,"8792":7996,"BAAA":7997,"2426":7998,"2479":7999,"2446":8000,"7587":8001,"8610":8002,"8689":8003,"8668":8004,"ECEC":8005,"8422":8006,"FCe":8007,"2669":8008,"EAFE":8009,"EABF":8010,"9424":8011,"FDEA":8012,"9510":8013,"9537":8014,"9555":8015,"gida":8016,"med":8017,"3766":8018,"2566":8019,"FEEB":8020,"3680":8021,"3614":8022,"1665":8023,"5565":8024,"5521":8025,"5516":8026,"CDFD":8027,"EEBA":8028,"EEFA":8029,"EEFE":8030,"0040":8031,"0098":8032,"7869":8033,"7828":8034,"3163":8035,"3164":8036,"31227":8037,"31407":8038,"6666":8039,"9865":8040,"ABFC":8041,"ABDB":8042,"5074":8043,"7735":8044,"4828":8045,"DCEB":8046,"DCEE":8047,"6867":8048,"6834":8049,"1215":8050,"7340":8051,"7315":8052,"7328":8053,"7330":8054,"2709":8055,"4965":8056,"8810":8057,"8839":8058,"8845":8059,"4717":8060,"8239":8061,"0979":8062,"alino":8063,"0163":8064,"mara":8065,"7239":8066,"9713":8067,"Mai":8068,"Matar":8069,"0412":8070,"2507":8071,"7670":8072,"7684":8073,"4327":8074,"4329":8075,"4628":8076,"5823":8077,"5834":8078,"9325":8079,"0883":8080,"08281":8081,"Alt":8082,"Alfa":8083,"Alfredo":8084,"Parra":8085,"delacompra":8086,"tanga":8087,"veria":8088,"deltamarina":8089,"adal":8090,"boqu":8091,"bour":8092,"ueca":8093,"Arist":8094,"nex":8095,"hang":8096,"guera":8097,"bull":8098,"jackSession":8099,"fic":8100,"fila":8101,"Roble":8102,"Bala":8103,"Bazan":8104,"Correspon":8105,"Navas":8106,"bareback":8107,"pot":8108,"links":8109,"minia":8110,"1652":8111,"stylestudio":8112,"weblogic":8113,"2401":8114,"1648":8115,"derParser":8116,"Teresa":8117,"Raim":8118,"config":8119,"6858":8120,"Pobla":8121,"1406":8122,"herminia":8123,"OrderParser":8124,"64416":8125,"2293":8126,"2298":8127,"lings":8128,"ADDE":8129,"80321":8130,"Garri":8131,"etano":8132,"stainless":8133,"Pedrosa":8134,"euro":8135,"grafos":8136,"Caba":8137,"Pineda":8138,"open":8139,"Cervell":8140,"Portillo":8141,"76421319":8142,"ixa":8143,"Masia":8144,"Pont":8145,"imama":8146,"brad":8147,"Florida":8148,"music":8149,"matache":8150,"cliff":8151,"HijackSession":8152,"softstylestudio":8153,"shaw":8154,"Gorosti":8155,"src":8156,"telegrafos":8157,"baybay":8158,"dette":8159,"Escritor":8160,"Segundo":8161,"acheco":8162,"Cinco":8163,"Batalla":8164,"Navac":8165,"Benito":8166,"orderParser":8167,"mauroman":8168,"filtr":8169,"Compres":8170,"Correos":8171,"Victoria":8172,"velazquezlarra":8173,"Joaquin":8174,"Laguna":8175,"authbypass":8176,"CrossSi":8177,"suecas":8178,"Casaramon":8179,"Fernando":8180,"cumming":8181,"17731646":8182,"Fructu":8183,"viscotek":8184,"tiposdedrogas":8185,"coaching":8186,"nutrimama":8187,"elcarritodelacompra":8188,"63154198":8189,"Correspondencia":8190,"7642131917731646":8191,"CrossSiteScripting":8192,"3118":8193,"3344":8194,"4179":8195,"4197":8196,"5155":8197,"5699":8198,"5384":8199,"6190":8200,"6135":8201,"6649":8202,"7744":8203,"8173":8204,"9458":8205,"9457":8206,"9606":8207,"AG":8208,"Aless":8209,"AFCD":8210,"ABAB":8211,"ACDB":8212,"Asen":8213,"Atico":8214,"Bl":8215,"Bad":8216,"BFDB":8217,"Cl":8218,"Cus":8219,"Ero":8220,"Einstein":8221,"Gis":8222,"JY":8223,"Ken":8224,"Koh":8225,"Lon":8226,"Llar":8227,"Nadal":8228,"Ph":8229,"Paj":8230,"Path":8231,"Sh":8232,"Sin":8233,"Stor":8234,"Spo":8235,"Tamper":8236,"Trans":8237,"UeR":8238,"Ves":8239,"VDA":8240,"Yuli":8241,"Zala":8242,"ange":8243,"bv":8244,"blog":8245,"cim":8246,"dac":8247,"eon":8248,"efer":8249,"gent":8250,"garr":8251,"hum":8252,"icho":8253,"jP":8254,"jea":8255,"jarr":8256,"kal":8257,"kno":8258,"lE":8259,"mue":8260,"mach":8261,"nin":8262,"nag":8263,"nardo":8264,"oPh":8265,"psy":8266,"rdo":8267,"ster":8268,"sandras":8269,"tE":8270,"uch":8271,"vall":8272,"vsky":8273,"wx":8274,"wol":8275,"xss":8276,"zt":8277,"zzy":8278,"tiful":8279,"mlTamper":8280,"code":8281,"liver":8282,"cath":8283,"iner":8284,"intera":8285,"agos":8286,"erlich":8287,"deaspe":8288,"8022":8289,"8065":8290,"8089":8291,"8095":8292,"8046":8293,"ngos":8294,"orr":8295,"lodg":8296,"dambo":8297,"leon":8298,"ledon":8299,"para":8300,"oka":8301,"key":8302,"kess":8303,"Mola":8304,"kola":8305,"quis":8306,"quili":8307,"IDOR":8308,"redirect":8309,"2550":8310,"2504":8311,"cilla":8312,"mbi":8313,"rove":8314,"2790":8315,"urch":8316,"4039":8317,"4023":8318,"4050":8319,"4033":8320,"albe":8321,"1027":8322,"1084":8323,"1044":8324,"peda":8325,"cardo":8326,"novi":8327,"noff":8328,"noly":8329,"rios":8330,"ritte":8331,"elf":8332,"asy":8333,"2063":8334,"2038":8335,"2070":8336,"2042":8337,"6315":8338,"6369":8339,"6324":8340,"6301":8341,"2901":8342,"2907":8343,"1775":8344,"1788":8345,"1796":8346,"3821":8347,"3872":8348,"1445":8349,"1424":8350,"1486":8351,"1484":8352,"6410":8353,"6430":8354,"6487":8355,"6436":8356,"6560":8357,"6528":8358,"6534":8359,"6583":8360,"65185":8361,"6030":8362,"6055":8363,"6051":8364,"1565":8365,"1534":8366,"1950":8367,"1972":8368,"7427":8369,"7459":8370,"maest":8371,"3919":8372,"6937":8373,"2820":8374,"2890":8375,"ille":8376,"str":8377,"stad":8378,"togra":8379,"8909":8380,"2365":8381,"2373":8382,"2354":8383,"2332":8384,"Reca":8385,"1379":8386,"7065":8387,"4575":8388,"8545":8389,"8547":8390,"8501":8391,"8532":8392,"ordera":8393,"emadrid":8394,"EDBB":8395,"EDCF":8396,"EDvar":8397,"3001":8398,"1185":8399,"8737":8400,"8753":8401,"BAFB":8402,"BADD":8403,"BAEA":8404,"BABC":8405,"2443":8406,"FBBE":8407,"9068":8408,"7560":8409,"7545":8410,"7598":8411,"7549":8412,"FACE":8413,"3544":8414,"8619":8415,"8688":8416,"ECFC":8417,"8489":8418,"8423":8419,"8435":8420,"8449":8421,"FCDD":8422,"3474":8423,"2628":8424,"EABB":8425,"9418":8426,"FDCA":8427,"FDCD":8428,"21240":8429,"EBFC":8430,"EBFD":8431,"EBDE":8432,"gico":8433,"gilio":8434,"8363":8435,"8369":8436,"8312":8437,"raca":8438,"0530":8439,"0557":8440,"3717":8441,"3796":8442,"BBEA":8443,"BBEF":8444,"ebs":8445,"ebre":8446,"FEBA":8447,"3615":8448,"3686":8449,"1840":8450,"1864":8451,"1618":8452,"corp":8453,"CDCA":8454,"CDBE":8455,"EEED":8456,"7863":8457,"4499":8458,"4461":8459,"ush":8460,"uste":8461,"3114":8462,"3184":8463,"DBEE":8464,"9933":8465,"7120":8466,"7160":8467,"7189":8468,"6860":8469,"6889":8470,"1225":8471,"1009":8472,"baller":8473,"6240":8474,"6220":8475,"CFED":8476,"3363":8477,"3337":8478,"DFCC":8479,"sica":8480,"BCFC":8481,"BCDA":8482,"0974":8483,"viana":8484,"viaje":8485,"6128":8486,"6184":8487,"AEED":8488,"incorrectasparos":8489,"8169":8490,"jol":8491,"WebWolf":8492,"meneg":8493,"0430":8494,"bral":8495,"4687":8496,"5165":8497,"4220":8498,"ates":8499,"9280":8500,"itren":8501,"ajed":8502,"0365":8503,"ulz":8504,"abl":8505,"Albal":8506,"Alonso":8507,"3604":8508,"Say":8509,"Sanc":8510,"Sanch":8511,"unko":8512,"tamb":8513,"sang":8514,"bow":8515,"book":8516,"body":8517,"anya":8518,"Vigilio":8519,"errada":8520,"navar":8521,"ransito":8522,"resort":8523,"expo":8524,"Carr":8525,"Carden":8526,"Julio":8527,"Roa":8528,"Roc":8529,"Roque":8530,"Santamar":8531,"Cato":8532,"vooPh":8533,"lash":8534,"Torro":8535,"Torra":8536,"2633":8537,"posas":8538,"queo":8539,"Salares":8540,"18518":8541,"trin":8542,"trat":8543,"Palmira":8544,"40923":8545,"Zarzosa":8546,"2278":8547,"conmaest":8548,"Campan":8549,"1393":8550,"CDAB":8551,"3757":8552,"DEAC":8553,"DEAE":8554,"Giras":8555,"33597543":8556,"BBAE":8557,"buco":8558,"EEAA":8559,"uration":8560,"Berro":8561,"Bernuy":8562,"1692":8563,"Jaled":8564,"79531407":8565,"Sole":8566,"Sobre":8567,"AAAi":8568,"258806":8569,"egan":8570,"rasa":8571,"reras":8572,"empe":8573,"super":8574,"vantes":8575,"Yomona":8576,"Ruiz":8577,"Urda":8578,"Urgell":8579,"Morera":8580,"juni":8581,"aguda":8582,"Petit":8583,"Manzano":8584,"Infan":8585,"Ojos":8586,"52864416":8587,"yuki":8588,"salsas":8589,"jani":8590,"enova":8591,"08470":8592,"51755":8593,"Ponce":8594,"spina":8595,"Tier":8596,"Rosario":8597,"4981":8598,"fuente":8599,"taber":8600,"brea":8601,"rones":8602,"wenvivo":8603,"aire":8604,"Bier":8605,"Oliva":8606,"eriadela":8607,"bury":8608,"showenvivo":8609,"zeat":8610,"Llobet":8611,"Felix":8612,"willi":8613,"msadcs":8614,"srl":8615,"palma":8616,"Barriada":8617,"Adelmo":8618,"Ingeni":8619,"Ingelmos":8620,"magicho":8621,"magritte":8622,"LTExLTIwVDA":8623,"weat":8624,"rezconmaest":8625,"Galin":8626,"professionalhost":8627,"professionalhosting":8628,"risiber":8629,"madura":8630,"brujas":8631,"detransito":8632,"espanoly":8633,"Nogue":8634,"FIlate":8635,"Escriba":8636,"Saba":8637,"homepage":8638,"mitj":8639,"Aldeanueva":8640,"young":8641,"romani":8642,"Alexia":8643,"HtmlTamper":8644,"Zorrilla":8645,"negocios":8646,"hogar":8647,"beautiful":8648,"Bypass":8649,"Penagos":8650,"casablanca":8651,"francis":8652,"Corado":8653,"19393302":8654,"07233516":8655,"buscamoto":8656,"Eduardo":8657,"tresbrujas":8658,"imenez":8659,"Ferreol":8660,"multasdetransito":8661,"Jesus":8662,"ingenieriadela":8663,"forohh":8664,"apolicial":8665,"pearl":8666,"Bullones":8667,"lamarsrl":8668,"caseros":8669,"Traversal":8670,"Gonzalez":8671,"Fluvi":8672,"esposa":8673,"Calzadilla":8674,"sberg":8675,"comerciosdeaspe":8676,"Cryptography":8677,"cTMm":8678,"nuncios":8679,"configuration":8680,"Gorostiza":8681,"JYvooPh":8682,"Kohls":8683,"PathTraversal":8684,"Stored":8685,"Spoof":8686,"Yulisa":8687,"sandrasummer":8688,"interanuncios":8689,"lodgemadrid":8690,"damboise":8691,"menegilda":8692,"itrends":8693,"ajedrezconmaest":8694,"3359754319393302":8695,"Sobremunt":8696,"25880614":8697,"salsaspain":8698,"magichobby":8699,"risiberia":8700,"espanolynegocios":8701,"HtmlTampering":8702,"beautifulbody":8703,"casablancabeach":8704,"0723351625880614":8705,"JYvooPhK":8706,"ajedrezconmaestros":8707,"0253":8708,"0270":8709,"0909":8710,"0447":8711,"1285":8712,"3270":8713,"3155":8714,"4150":8715,"4102":8716,"5118":8717,"5698":8718,"6195":8719,"7118":8720,"8145":8721,"8157":8722,"9805":8723,"Atien":8724,"Abo":8725,"AEDB":8726,"AECA":8727,"Bau":8728,"Bida":8729,"Cec":8730,"Cle":8731,"CFAA":8732,"CEBE":8733,"CFBD":8734,"Die":8735,"DCCB":8736,"DECD":8737,"DEBE":8738,"Edi":8739,"EBAB":8740,"EFBD":8741,"EFEF":8742,"FFAF":8743,"Mex":8744,"Nal":8745,"Num":8746,"PU":8747,"Pru":8748,"Prat":8749,"Siete":8750,"TA":8751,"Tro":8752,"Veli":8753,"aL":8754,"ajo":8755,"azo":8756,"aebo":8757,"bI":8758,"bie":8759,"cros":8760,"eme":8761,"eosa":8762,"event":8763,"fm":8764,"ghan":8765,"hab":8766,"jec":8767,"jor":8768,"juela":8769,"kie":8770,"knight":8771,"lz":8772,"nad":8773,"oN":8774,"pn":8775,"prest":8776,"scan":8777,"spin":8778,"tag":8779,"tat":8780,"tric":8781,"vad":8782,"onda":8783,"onel":8784,"onari":8785,"tiS":8786,"teria":8787,"endo":8788,"encasa":8789,"coli":8790,"lien":8791,"litz":8792,"cali":8793,"osh":8794,"acu":8795,"acti":8796,"cesu":8797,"pta":8798,"deu":8799,"deimagenes":8800,"8070":8801,"8036":8802,"8079":8803,"8066":8804,"8077":8805,"8057":8806,"left":8807,"paq":8808,"pay":8809,"pablo":8810,"paremos":8811,"arman":8812,"llada":8813,"quec":8814,"rejo":8815,"2571":8816,"25185":8817,"cir":8818,"mbard":8819,"roe":8820,"rojo":8821,"rock":8822,"robb":8823,"did":8824,"dier":8825,"2739":8826,"dow":8827,"doceros":8828,"4045":8829,"4067":8830,"4036":8831,"40100":8832,"aldi":8833,"alter":8834,"aldu":8835,"forall":8836,"1022":8837,"1028":8838,"1033":8839,"1059":8840,"10130":8841,"card":8842,"carre":8843,"ans":8844,"esi":8845,"rija":8846,"rius":8847,"2008":8848,"6319":8849,"2998":8850,"2949":8851,"2954":8852,"1739":8853,"1745":8854,"1783":8855,"1755":8856,"1778":8857,"1757":8858,"1701":8859,"1746":8860,"3884":8861,"1463":8862,"1464":8863,"ssel":8864,"ssori":8865,"2240":8866,"2217":8867,"2226":8868,"2231":8869,"6498":8870,"6454":8871,"6453":8872,"64845":8873,"64976":8874,"6563":8875,"6550":8876,"6504":8877,"6576":8878,"6038":8879,"6060":8880,"6019":8881,"6089":8882,"6090":8883,"6031":8884,"6054":8885,"1530":8886,"1537":8887,"1546":8888,"1966":8889,"1932":8890,"1993":8891,"7470":8892,"7445":8893,"7412":8894,"7447":8895,"mati":8896,"mang":8897,"mauri":8898,"malas":8899,"3929":8900,"3924":8901,"3966":8902,"3949":8903,"6930":8904,"6955":8905,"6998":8906,"6952":8907,"2828":8908,"2824":8909,"ilusi":8910,"prov":8911,"stop":8912,"tour":8913,"8923":8914,"8933":8915,"8997":8916,"2338":8917,"Rebes":8918,"1325":8919,"1319":8920,"1328":8921,"1324":8922,"1312":8923,"13100":8924,"1302":8925,"13641":8926,"7063":8927,"7038":8928,"7009":8929,"4590":8930,"4534":8931,"4516":8932,"4509":8933,"8509":8934,"8554":8935,"8593":8936,"6712":8937,"6772":8938,"EDDB":8939,"2533":8940,"3040":8941,"3090":8942,"8714":8943,"8784":8944,"8750":8945,"8754":8946,"BAFD":8947,"BAAB":8948,"BADE":8949,"2475":8950,"2447":8951,"2481":8952,"CCDC":8953,"FBFA":8954,"FBBB":8955,"9011":8956,"7570":8957,"DDFA":8958,"DDEE":8959,"FAa":8960,"FAFC":8961,"FABB":8962,"3520":8963,"3505":8964,"3579":8965,"8670":8966,"8667":8967,"8682":8968,"aciano":8969,"ECAB":8970,"8480":8971,"8498":8972,"FCFE":8973,"FCDF":8974,"FCBD":8975,"3422":8976,"3481":8977,"3493":8978,"2610":8979,"2615":8980,"2674":8981,"26292":8982,"EACC":8983,"EAFA":8984,"EAFC":8985,"EACE":8986,"9483":8987,"9468":8988,"FDAA":8989,"2162":8990,"21870":8991,"EBEB":8992,"EBFF":8993,"EBCE":8994,"EBBE":8995,"9561":8996,"8328":8997,"83627":8998,"rales":8999,"DACB":9000,"0527":9001,"0586":9002,"0500":9003,"3763":9004,"3729":9005,"3723":9006,"3716":9007,"3778":9008,"idt":9009,"CAED":9010,"CADA":9011,"3629":9012,"1867":9013,"1667":9014,"5534":9015,"7982":9016,"CDEF":9017,"CDCF":9018,"FFFA":9019,"7880":9020,"7887":9021,"7883":9022,"784015":9023,"4492":9024,"DBEB":9025,"9965":9026,"9968":9027,"6664":9028,"7115":9029,"ters":9030,"terra":9031,"9815":9032,"ABEA":9033,"DCFB":9034,"DCEF":9035,"6829":9036,"6865":9037,"1210":9038,"1229":9039,"7327":9040,"7370":9041,"DEEA":9042,"CFFA":9043,"CFEC":9044,"8214":9045,"8215":9046,"BDEE":9047,"09610":9048,"vich":9049,"6169":9050,"4127":9051,"5775":9052,"BFCC":9053,"gois":9054,"goog":9055,"job":9056,"Godo":9057,"mend":9058,"3227":9059,"9725":9060,"9717":9061,"9761":9062,"Mailena":9063,"Pascu":9064,"Col":9065,"Comer":9066,"porque":9067,"4375":9068,"4337":9069,"9375":9070,"5340":9071,"5687":9072,"0794":9073,"5127":9074,"artforall":9075,"umos":9076,"9894":9077,"Alti":9078,"Alta":9079,"Paratge":9080,"Salo":9081,"due":9082,"dualidad":9083,"tay":9084,"banc":9085,"110511":9086,"botill":9087,"servicio":9088,"Argan":9089,"Arrun":9090,"gaz":9091,"soa":9092,"Sanl":9093,"Sans":9094,"Guil":9095,"gual":9096,"Marqu":9097,"Casa":9098,"Casal":9099,"Carbot":9100,"Caridad":9101,"eddy":9102,"homa":9103,"hotele":9104,"Bay":9105,"Cordo":9106,"landa":9107,"celli":9108,"Espr":9109,"Espinosa":9110,"varr":9111,"person":9112,"26312":9113,"165703":9114,"256769":9115,"sten":9116,"Bote":9117,"kay":9118,"kaya":9119,"2645":9120,"2457":9121,"160525":9122,"2205":9123,"Lude":9124,"Riba":9125,"25585":9126,"Polica":9127,"8701":9128,"37488":9129,"6659":9130,"8459":9131,"8356":9132,"8948319":9133,"Piquer":9134,"24764976":9135,"1846":9136,"BBAD":9137,"bueno":9138,"65569":9139,"62815":9140,"ECCC":9141,"ECCF":9142,"67474":9143,"elio":9144,"339363":9145,"DCCF":9146,"Fky":9147,"FEAC":9148,"31750":9149,"Fron":9150,"lers":9151,"ddie":9152,"Anna":9153,"Andr":9154,"Andre":9155,"Europa":9156,"ADAF":9157,"ABBC":9158,"archivodeimagenes":9159,"elalz":9160,"DCDE":9161,"Ferrer":9162,"BDCF":9163,"enice":9164,"gratis":9165,"Pinilla":9166,"31495":9167,"gerindote":9168,"Salv":9169,"aciondeh":9170,"Porto":9171,"Maslo":9172,"network":9173,"afranc":9174,"Celinda":9175,"Mut":9176,"86080899":9177,"basket":9178,"bracamonte":9179,"Florencio":9180,"waremas":9181,"devall":9182,"zones":9183,"Velasco":9184,"Verge":9185,"tecno":9186,"quesada":9187,"softwaremas":9188,"cbgerindote":9189,"urePassword":9190,"sindualidad":9191,"Adelfo":9192,"PgWy":9193,"montessori":9194,"iteria":9195,"leika":9196,"Narros":9197,"chinas":9198,"Venus":9199,"Arroyomolinos":9200,"Federica":9201,"6185712":9202,"somino":9203,"SecurePassword":9204,"ssextre":9205,"5024784015":9206,"aulahost":9207,"barnicesu":9208,"Figueruelas":9209,"Malaqu":9210,"juegois":9211,"351535":9212,"Cabezas":9213,"Echevarr":9214,"sanchezquesada":9215,"Gelsomino":9216,"Principal":9217,"Bernaus":9218,"Calixto":9219,"tetde":9220,"heimer":9221,"daniele":9222,"escuelamontessori":9223,"Hinoj":9224,"palomaj":9225,"9078165703":9226,"Cartaya":9227,"silver":9228,"Cayetano":9229,"velocidad":9230,"803216185712":9231,"filtraciondeh":9232,"albeiteria":9233,"WebWolfIntroduction":9234,"Atienza":9235,"Diez":9236,"onarium":9237,"pablobracamonte":9238,"paremoselalz":9239,"ilusionarium":9240,"stopsecret":9241,"8682803216185712":9242,"google":9243,"porqueagel":9244,"11051114":9245,"botilleria":9246,"Arrunategui":9247,"eddydaniele":9248,"hotelestopsecret":9249,"16052504":9250,"8948319901":9251,"3393638948319901":9252,"8608089924764976":9253,"softwaremasservicio":9254,"SecurePasswords":9255,"ssextremadura":9256,"5024784015351535":9257,"barnicesuv":9258,"9078165703256769":9259,"filtraciondehumos":9260,"paremoselalzheimer":9261,"++":9262,"1800":9263,"1275":9264,"2143":9265,"3188":9266,"3295":9267,"4809":9268,"4373":9269,"5877":9270,"5244":9271,"5355":9272,"5798":9273,"6270":9274,"6170":9275,"6285":9276,"8216":9277,"9630":9278,"9377":9279,"Ani":9280,"ACCB":9281,"AFCA":9282,"AECB":9283,"AFDB":9284,"Atal":9285,"Bn":9286,"Bate":9287,"Bea":9288,"Bover":9289,"BEDF":9290,"Bages":9291,"Cana":9292,"CECD":9293,"CBAC":9294,"Dag":9295,"DECA":9296,"DBAD":9297,"Eme":9298,"ECCB":9299,"EEDE":9300,"EECF":9301,"FX":9302,"Ft":9303,"Fac":9304,"FFAA":9305,"FFCE":9306,"Gorg":9307,"Galla":9308,"Hal":9309,"Isa":9310,"Ko":9311,"Morg":9312,"NO":9313,"Oso":9314,"Oria":9315,"Oberto":9316,"Pur":9317,"Pall":9318,"PEr":9319,"Pacheco":9320,"Rida":9321,"Rach":9322,"Rillo":9323,"Riel":9324,"Rueda":9325,"Sor":9326,"Sty":9327,"Ton":9328,"Teix":9329,"Un":9330,"Vena":9331,"VoR":9332,"Wen":9333,"Xar":9334,"Yes":9335,"Yam":9336,"Yab":9337,"av":9338,"ake":9339,"aas":9340,"blu":9341,"dk":9342,"dt":9343,"drv":9344,"dero":9345,"dns":9346,"elas":9347,"fen":9348,"fiel":9349,"gO":9350,"genes":9351,"gria":9352,"hag":9353,"huel":9354,"kan":9355,"lde":9356,"lue":9357,"mcf":9358,"mpart":9359,"nall":9360,"ob":9361,"oc":9362,"pho":9363,"phd":9364,"rto":9365,"rente":9366,"rzano":9367,"sie":9368,"sat":9369,"sme":9370,"siete":9371,"uap":9372,"uet":9373,"umeu":9374,"ytv":9375,"yks":9376,"oney":9377,"onora":9378,"tilla":9379,"tigas":9380,"tiway":9381,"tela":9382,"tear":9383,"temp":9384,"tejani":9385,"last":9386,"laba":9387,"enmenorca":9388,"envivo":9389,"core":9390,"liti":9391,"lida":9392,"lices":9393,"libro":9394,"ceo":9395,"cey":9396,"ceto":9397,"deap":9398,"ecrm":9399,"aps":9400,"apu":9401,"apic":9402,"8027":9403,"8075":9404,"8050":9405,"8048":9406,"dau":9407,"dav":9408,"iela":9409,"ents":9410,"enthal":9411,"imes":9412,"arca":9413,"oki":9414,"okie":9415,"llah":9416,"calle":9417,"kemp":9418,"Mojeda":9419,"quida":9420,"quiz":9421,"patient":9422,"citiway":9423,"2763":9424,"2774":9425,"doqueo":9426,"movil":9427,"mobil":9428,"uran":9429,"4021":9430,"40291":9431,"ald":9432,"almente":9433,"1010":9434,"esia":9435,"estor":9436,"rip":9437,"asi":9438,"ass":9439,"2090":9440,"2083":9441,"2033":9442,"2057":9443,"niques":9444,"6320":9445,"6317":9446,"6300":9447,"6361":9448,"2927":9449,"2969":9450,"2986":9451,"2979":9452,"1780":9453,"1765":9454,"1734":9455,"1762":9456,"1756":9457,"17143":9458,"17650":9459,"3880":9460,"3840":9461,"3815":9462,"3886":9463,"3834":9464,"3837":9465,"3879":9466,"3844":9467,"1420":9468,"1415":9469,"1479":9470,"1466":9471,"rosenthal":9472,"2269":9473,"2282":9474,"222785":9475,"6480":9476,"6467":9477,"6486":9478,"6447":9479,"6497":9480,"6531":9481,"6554":9482,"65875":9483,"6022":9484,"6094":9485,"6018":9486,"6001":9487,"6042":9488,"6006":9489,"1563":9490,"1513":9491,"1583":9492,"1573":9493,"1900":9494,"1968":9495,"1959":9496,"1981":9497,"1943":9498,"1958":9499,"1903":9500,"19110":9501,"19144":9502,"19278":9503,"7411":9504,"7468":9505,"7451":9506,"3914":9507,"3936":9508,"6989":9509,"6987":9510,"6944":9511,"6992":9512,"2870":9513,"2855":9514,"2876":9515,"2893":9516,"2853":9517,"2851":9518,"8930":9519,"8911":9520,"2334":9521,"23391":9522,"1365":9523,"1370":9524,"1356":9525,"1303":9526,"1306":9527,"13776":9528,"7027":9529,"7015":9530,"7021":9531,"7018":9532,"4594":9533,"4503":9534,"4506":9535,"45200":9536,"8564":9537,"8598":9538,"8551":9539,"adix":9540,"Registrarany":9541,"6775":9542,"6721":9543,"6768":9544,"EDBA":9545,"EDEA":9546,"EDDC":9547,"EDBD":9548,"3069":9549,"3011":9550,"3047":9551,"3004":9552,"1111":9553,"1187":9554,"1116":9555,"8763":9556,"8715":9557,"8719":9558,"8767":9559,"8736":9560,"BADF":9561,"2415":9562,"2469":9563,"2498":9564,"CCCC":9565,"CCCA":9566,"FBBA":9567,"FBFC":9568,"FBCA":9569,"9035":9570,"9095":9571,"9054":9572,"7519":9573,"DDEB":9574,"FAEF":9575,"FADF":9576,"3534":9577,"3577":9578,"3532":9579,"35273":9580,"8611":9581,"ECFF":9582,"ECEF":9583,"ECBC":9584,"8420":9585,"8430":9586,"8495":9587,"FCFB":9588,"FCEA":9589,"34309":9590,"2670":9591,"2621":9592,"chap":9593,"chami":9594,"chima":9595,"9426":9596,"9448":9597,"FDCC":9598,"FDBB":9599,"FDAC":9600,"2163":9601,"2165":9602,"EBBB":9603,"9525":9604,"9513":9605,"gib":9606,"8325":9607,"8337":9608,"8331":9609,"8376":9610,"rae":9611,"rano":9612,"DAAD":9613,"0514":9614,"0583":9615,"0555":9616,"0588":9617,"meera":9618,"3725":9619,"3728":9620,"3771":9621,"CAAA":9622,"CACB":9623,"CACD":9624,"eba":9625,"ebert":9626,"FEFC":9627,"1826":9628,"1610":9629,"1689":9630,"5514":9631,"5537":9632,"554929":9633,"7963":9634,"7969":9635,"7928":9636,"AAEF":9637,"AADE":9638,"AACE":9639,"CBFB":9640,"CBEB":9641,"CBEF":9642,"CDCC":9643,"FFEA":9644,"FFFE":9645,"0000":9646,"7810":9647,"7813":9648,"7834":9649,"4439":9650,"4445":9651,"4490":9652,"4412":9653,"3113":9654,"DBED":9655,"DBBA":9656,"DBFB":9657,"9925":9658,"9910":9659,"9994":9660,"6629":9661,"6668":9662,"6688":9663,"71294":9664,"Entrarany":9665,"insertarany":9666,"ABED":9667,"ABCF":9668,"7767":9669,"7726":9670,"4825":9671,"482580":9672,"DCBA":9673,"DCFA":9674,"7363":9675,"100125":9676,"dise":9677,"CFBA":9678,"3320":9679,"3375":9680,"DFDD":9681,"8827":9682,"iran":9683,"4775":9684,"4718":9685,"BDED":9686,"BDEB":9687,"BDCA":9688,"BDFE":9689,"BDCD":9690,"ADED":9691,"ADEA":9692,"BCFA":9693,"0983":9694,"09129":9695,"09640":9696,"vita":9697,"6110":9698,"4114":9699,"59337":9700,"AFFA":9701,"tosh":9702,"gola":9703,"goperson":9704,"maria":9705,"5413":9706,"5435":9707,"7227":9708,"3263":9709,"ffey":9710,"9764":9711,"ight":9712,"Mang":9713,"Mayo":9714,"Maquie":9715,"vein":9716,"Pastora":9717,"Collan":9718,"9160":9719,"9126":9720,"4339":9721,"4689":9722,"5839":9723,"5816":9724,"5370":9725,"564059":9726,"9670":9727,"4215":9728,"4219":9729,"4269":9730,"itron":9731,"5220":9732,"5260":9733,"Queral":9734,"0338":9735,"0330":9736,"0627":9737,"0628":9738,"indel":9739,"zati":9740,"zama":9741,"0265":9742,"oluap":9743,"Alu":9744,"Alfor":9745,"Alcubi":9746,"Paragu":9747,"Paramo":9748,"wai":9749,"untes":9750,"onay":9751,"onato":9752,"tak":9753,"tavia":9754,"four":9755,"fotogra":9756,"delmar":9757,"boy":9758,"bollar":9759,"Lazca":9760,"anyi":9761,"nair":9762,"Arbanc":9763,"neg":9764,"nelas":9765,"gant":9766,"gama":9767,"Guare":9768,"lutz":9769,"bioso":9770,"guapa":9771,"Marc":9772,"Mardoqueo":9773,"Robert":9774,"Robus":9775,"Robles":9776,"orgis":9777,"Baja":9778,"Segre":9779,"Esper":9780,"beatriz":9781,"gecars":9782,"thw":9783,"25721":9784,"Monestel":9785,"Tom":9786,"Tolaba":9787,"perfu":9788,"lindo":9789,"cumbar":9790,"merlina":9791,"10524":9792,"styleperfu":9793,"1295":9794,"2403":9795,"Boca":9796,"17826":9797,"cki":9798,"1647":9799,"deri":9800,"1204":9801,"2642":9802,"40068":9803,"15863":9804,"conera":9805,"Luz":9806,"Rica":9807,"Ribes":9808,"6850":9809,"Pomp":9810,"67582":9811,"3741":9812,"Chil":9813,"29410":9814,"6658":9815,"6703":9816,"22439":9817,"scho":9818,"schia":9819,"DEAA":9820,"3552004":9821,"7452244":9822,"intg":9823,"8071991":9824,"67499":9825,"3397":9826,"FDDD":9827,"Soma":9828,"tsu":9829,"AnTe":9830,"vestre":9831,"Peri":9832,"DBBE":9833,"iliad":9834,"ABBE":9835,"lette":9836,"75925253":9837,"Fabr":9838,"BDBF":9839,"vanda":9840,"amirez":9841,"95418":9842,"Liana":9843,"22640068":9844,"74313":9845,"Candela":9846,"paris":9847,"49325":9848,"Nov":9849,"05571":9850,"stanc":9851,"4856":9852,"03579":9853,"Caban":9854,"Cabanilla":9855,"Cabeza":9856,"Subir":9857,"vasiliad":9858,"Cervantes":9859,"41585":9860,"43718":9861,"91059337":9862,"2255812":9863,"Estra":9864,"Mascarell":9865,"Giorgis":9866,"56967582":9867,"ftware":9868,"Cepeda":9869,"Ampa":9870,"Alegria":9871,"Rosal":9872,"mystyleperfu":9873,"Bastida":9874,"broad":9875,"brown":9876,"7238071991":9877,"Castilla":9878,"rizzar":9879,"Fuentes":9880,"Crist":9881,"Flores":9882,"Mej":9883,"Medel":9884,"brega":9885,"Montesion":9886,"Mengual":9887,"Pedrol":9888,"wska":9889,"wski":9890,"devlin":9891,"devore":9892,"Calaf":9893,"hyer":9894,"musculares":9895,"Nucle":9896,"Angelo":9897,"infotek":9898,"Santiago":9899,"Blanca":9900,"sindns":9901,"simple":9902,"Blanc":9903,"Blaya":9904,"ativa":9905,"Barrios":9906,"Farzati":9907,"inski":9908,"smith":9909,"narincon":9910,"Curiel":9911,"Llufri":9912,"Narva":9913,"odesoftware":9914,"453835273":9915,"Espada":9916,"techniques":9917,"70803791":9918,"Artesa":9919,"longdon":9920,"Navaluenga":9921,"floral":9922,"385549":9923,"Luciana":9924,"ivanyi":9925,"Valderr":9926,"Esguevillas":9927,"791838747":9928,"rooms":9929,"283064":9930,"99743552004":9931,"Bosco":9932,"Viabrea":9933,"casabolsa":9934,"Petr":9935,"moyna":9936,"Bartra":9937,"Bartumeu":9938,"blueey":9939,"Alcira":9940,"Ventura":9941,"feliciano":9942,"lianos":9943,"18287452244":9944,"80243620":9945,"Aldeta":9946,"Carrasco":9947,"Varela":9948,"servlets":9949,"Montori":9950,"prestigecars":9951,"noticiasenvivo":9952,"Ceciliano":9953,"frecha":9954,"todecor":9955,"Fontiveros":9956,"Ivern":9957,"Plasenzuela":9958,"Tranquili":9959,"munshin":9960,"ernero":9961,"cillos":9962,"Nogueras":9963,"clubdeviaje":9964,"Pisuerga":9965,"generador":9966,"Damian":9967,"Cortadel":9968,"greenle":9969,"Valiente":9970,"nanogenerador":9971,"Arquitecto":9972,"Roxana":9973,"0098385549":9974,"barebackspain":9975,"96068417":9976,"Asensio":9977,"eonon":9978,"Molacillos":9979,"Girasoles":9980,"tabernarincon":9981,"Ingeniero":9982,"FIlatelia":9983,"ingenieriadelaconstruccion":9984,"events":9985,"83627503":9986,"25585453835273":9987,"65569791838747":9988,"67474361":9989,"Batet":9990,"Bovera":9991,"Morgadas":9992,"Rachid":9993,"Riells":9994,"Stylianos":9995,"Wences":9996,"drvrs":9997,"mcfly":9998,"photodecor":9999,"sietepeines":10000,"yksoluap":10001,"librodeap":10002,"apicultor":10003,"mobilecrm":10004,"2227850098385549":10005,"19110618":10006,"55492932":10007,"48258022":10008,"100125453":10009,"gopersonal":10010,"Maquieira":10011,"Collantes":10012,"56405919":10013,"Paraguay":10014,"Lazcano":10015,"biosoftware":10016,"Robustiana":10017,"cumbareback":10018,"Pomponio":10019,"2255812100125453":10020,"mystyleperfume":10021,"7238071991283064":10022,"Nucleo":10023,"Llufriu":10024,"9974355200418178":10025,"blueeyes":10026,"1828745224462815":10027,"2558545383527310":10028,"6556979183874771":10029,"librodeapuntes":10030,"0649":10031,"0744":10032,"0700":10033,"0850":10034,"1400":10035,"1198":10036,"2190":10037,"3807":10038,"4135":10039,"4154":10040,"4639":10041,"4277":10042,"4654":10043,"4228":10044,"4378":10045,"5250":10046,"5604":10047,"6226":10048,"7105":10049,"7144":10050,"7209":10051,"8170":10052,"8179":10053,"8409":10054,"8275":10055,"8673":10056,"8223":10057,"9270":10058,"9150":10059,"9635":10060,"9350":10061,"AS":10062,"Aca":10063,"Alo":10064,"Avi":10065,"AEBB":10066,"Bet":10067,"Bert":10068,"BFCD":10069,"BEBD":10070,"BFBF":10071,"BFFF":10072,"Badia":10073,"CT":10074,"Ceb":10075,"Cad":10076,"CECA":10077,"Den":10078,"Dar":10079,"DCDB":10080,"Dip":10081,"Fz":10082,"FFBE":10083,"FEBE":10084,"FBAB":10085,"FEDA":10086,"FFEF":10087,"Gan":10088,"Gines":10089,"Hos":10090,"Hist":10091,"IE":10092,"Ji":10093,"Jarab":10094,"Lec":10095,"Lap":10096,"Lat":10097,"Lagar":10098,"Lad":10099,"Llan":10100,"ME":10101,"Mus":10102,"Muel":10103,"Mente":10104,"Nardo":10105,"OJ":10106,"Odi":10107,"Open":10108,"Sur":10109,"Sir":10110,"Uru":10111,"Vio":10112,"aR":10113,"aco":10114,"billo":10115,"bebe":10116,"ccio":10117,"daga":10118,"fli":10119,"fac":10120,"fes":10121,"ffet":10122,"fara":10123,"hora":10124,"iri":10125,"lero":10126,"mI":10127,"mn":10128,"mist":10129,"nT":10130,"pir":10131,"plu":10132,"rist":10133,"ramon":10134,"rbel":10135,"rincon":10136,"sex":10137,"txt":10138,"udia":10139,"wolf":10140,"wagen":10141,"xled":10142,"yce":10143,"yle":10144,"yana":10145,"zali":10146,"teg":10147,"teci":10148,"teros":10149,"teanu":10150,"engo":10151,"cow":10152,"lido":10153,"live":10154,"limi":10155,"lieu":10156,"cana":10157,"caire":10158,"camila":10159,"agre":10160,"ceda":10161,"cesch":10162,"cement":10163,"pto":10164,"zier":10165,"erd":10166,"detti":10167,"8074":10168,"8041":10169,"8052":10170,"dano":10171,"dall":10172,"iet":10173,"iega":10174,"leza":10175,"imas":10176,"import":10177,"imote":10178,"sert":10179,"keefer":10180,"kou":10181,"tiendas":10182,"rete":10183,"rement":10184,"2523":10185,"2594":10186,"2548":10187,"2597":10188,"city":10189,"rod":10190,"2711":10191,"2737":10192,"2700":10193,"2768":10194,"2743":10195,"2793":10196,"recilla":10197,"mot":10198,"motau":10199,"urke":10200,"urrio":10201,"4022":10202,"4034":10203,"4055":10204,"4099":10205,"4093":10206,"4008":10207,"forte":10208,"foreig":10209,"1035":10210,"cargo":10211,"nolinda":10212,"anima":10213,"esu":10214,"elrincon":10215,"asio":10216,"asola":10217,"2025":10218,"2016":10219,"2061":10220,"6335":10221,"6383":10222,"6312":10223,"2922":10224,"2983":10225,"2968":10226,"2961":10227,"1729":10228,"1717":10229,"1735":10230,"1766":10231,"1712":10232,"3841":10233,"3897":10234,"3858":10235,"1429":10236,"1438":10237,"1493":10238,"14148":10239,"2218":10240,"2241":10241,"22240":10242,"6474":10243,"6413":10244,"6494":10245,"6421":10246,"6589":10247,"6545":10248,"6541":10249,"6557":10250,"6508":10251,"6024":10252,"6035":10253,"6083":10254,"6071":10255,"1575":10256,"1509":10257,"1504":10258,"1995":10259,"1976":10260,"19227":10261,"74140":10262,"maxi":10263,"39253":10264,"3992":10265,"39660":10266,"6914":10267,"6995":10268,"6943":10269,"2822":10270,"2836":10271,"2857":10272,"2832":10273,"28685":10274,"stra":10275,"8915":10276,"2345":10277,"Reguer":10278,"Rebollar":10279,"1361":10280,"7070":10281,"7016":10282,"7081":10283,"7076":10284,"4517":10285,"4530":10286,"4559":10287,"4576":10288,"8579":10289,"6754":10290,"6797":10291,"EDno":10292,"2534":10293,"3067":10294,"3086":10295,"3018":10296,"3059":10297,"1120":10298,"1138":10299,"1160":10300,"1189":10301,"1184":10302,"8770":10303,"8785":10304,"8795":10305,"8757":10306,"8781":10307,"BAEC":10308,"BAFC":10309,"BACA":10310,"2438":10311,"2418":10312,"2491":10313,"24117":10314,"ats":10315,"CCBA":10316,"CCCF":10317,"FBEB":10318,"FBBC":10319,"9019":10320,"9089":10321,"9047":10322,"7580":10323,"7565":10324,"7575":10325,"DDCA":10326,"DDCF":10327,"DDCE":10328,"DDDF":10329,"FABA":10330,"FAEE":10331,"FAAF":10332,"3590":10333,"3556":10334,"8623":10335,"ECDF":10336,"ECAD":10337,"8439":10338,"8490":10339,"8486":10340,"8421":10341,"84360":10342,"FCAB":10343,"3425":10344,"3438":10345,"34126":10346,"2680":10347,"2622":10348,"2664":10349,"2667":10350,"2624":10351,"EADA":10352,"EAFF":10353,"EAEE":10354,"ault":10355,"9469":10356,"9485":10357,"FDFB":10358,"FDCB":10359,"EBFE":10360,"EBDB":10361,"EBBC":10362,"9574":10363,"9535":10364,"9557":10365,"9553":10366,"9507":10367,"8321":10368,"DACA":10369,"DACF":10370,"DACE":10371,"DAAE":10372,"DArbel":10373,"0561":10374,"05644":10375,"media":10376,"3720":10377,"3769":10378,"3737":10379,"3736":10380,"3797":10381,"CACC":10382,"CAFD":10383,"CADF":10384,"BBCD":10385,"BBDF":10386,"36256":10387,"1814":10388,"1889":10389,"1615":10390,"5540":10391,"5573":10392,"7940":10393,"7931":10394,"7996":10395,"AAAA":10396,"AAEE":10397,"AAAF":10398,"CBCA":10399,"CBEE":10400,"CDBA":10401,"CDFB":10402,"FFED":10403,"FFCC":10404,"FFEB":10405,"FFFF":10406,"0065":10407,"0077":10408,"7820":10409,"4465":10410,"4435":10411,"uster":10412,"3180":10413,"3115":10414,"DBCB":10415,"DBCD":10416,"DBEF":10417,"DBDF":10418,"6618":10419,"7165":10420,"7169":10421,"terna":10422,"EFFA":10423,"ABFA":10424,"ABCA":10425,"ABCE":10426,"5028":10427,"5091":10428,"4810":10429,"4823":10430,"DCDD":10431,"6827":10432,"1239":10433,"2704":10434,"4945":10435,"4911":10436,"DECC":10437,"DEFB":10438,"3314":10439,"3335":10440,"8869":10441,"irro":10442,"4795":10443,"BDFD":10444,"BDCB":10445,"ADFE":10446,"BCFE":10447,"0925":10448,"vico":10449,"BEFD":10450,"6121":10451,"4186":10452,"5969":10453,"5966":10454,"5716":10455,"AEEA":10456,"BFED":10457,"goo":10458,"gozzi":10459,"7280":10460,"81679":10461,"Goyen":10462,"mene":10463,"ffo":10464,"ffel":10465,"9789":10466,"97675":10467,"Mahoma":10468,"0438":10469,"0437":10470,"0477":10471,"hey":10472,"vez":10473,"7617":10474,"7619":10475,"7669":10476,"9115":10477,"9184":10478,"bris":10479,"4610":10480,"5884":10481,"9380":10482,"5367":10483,"5665":10484,"96192":10485,"5117":10486,"51247":10487,"4264":10488,"4265":10489,"9225":10490,"ajera":10491,"ajardo":10492,"inoxled":10493,"0834":10494,"0322":10495,"onsa":10496,"uls":10497,"ullos":10498,"adrones":10499,"erton":10500,"ertad":10501,"abernero":10502,"olteanu":10503,"Algo":10504,"Alcole":10505,"3603":10506,"tantra":10507,"vada":10508,"many":10509,"dels":10510,"12214":10511,"Lauren":10512,"Aran":10513,"neja":10514,"gallar":10515,"rante":10516,"Valdun":10517,"ruca":10518,"somos":10519,"Gumiel":10520,"luci":10521,"guar":10522,"gusto":10523,"March":10524,"Casta":10525,"Barca":10526,"Barros":10527,"Carles":10528,"anama":10529,"Cugat":10530,"hof":10531,"hop":10532,"hoya":10533,"22113":10534,"seca":10535,"Paz":10536,"Paterna":10537,"Lem":10538,"Leo":10539,"Coria":10540,"Corona":10541,"Corvera":10542,"mich":10543,"Esc":10544,"sionador":10545,"that":10546,"lases":10547,"laspru":10548,"Tomas":10549,"Torrecilla":10550,"165780":10551,"cup":10552,"merca":10553,"15475":10554,"15432":10555,"Palma":10556,"15076":10557,"2407":10558,"6606":10559,"kaa":10560,"Pulido":10561,"retor":10562,"134274":10563,"arias":10564,"congas":10565,"pila":10566,"Polo":10567,"dorra":10568,"Char":10569,"CDAD":10570,"Hugo":10571,"63423":10572,"8451":10573,"22415":10574,"Giron":10575,"Ortiz":10576,"1833":10577,"3379":10578,"40814148":10579,"DCCC":10580,"1878":10581,"DCAE":10582,"4457":10583,"Pervasi":10584,"Eugen":10585,"CBBF":10586,"ADDB":10587,"garda":10588,"1134011":10589,"egas":10590,"Bust":10591,"EFDE":10592,"CDDA":10593,"Rudy":10594,"masquec":10595,"ADCE":10596,"5003":10597,"Pedra":10598,"77784":10599,"grab":10600,"Herman":10601,"Herrer":10602,"31498":10603,"denas":10604,"46910":10605,"valles":10606,"Bean":10607,"Salva":10608,"janaplastica":10609,"Johana":10610,"Estru":10611,"47494":10612,"Antoni":10613,"5144167":10614,"Abdel":10615,"Agudo":10616,"Amurrio":10617,"Form":10618,"mytanga":10619,"Basiana":10620,"sys":10621,"kins":10622,"worde":10623,"wormee":10624,"Montserrat":10625,"fani":10626,"colm":10627,"soycastella":10628,"soybueno":10629,"enlapalma":10630,"musrooms":10631,"match":10632,"sells":10633,"miravalles":10634,"iisstart":10635,"Fontan":10636,"Llobreg":10637,"uploads":10638,"engel":10639,"Simo":10640,"Hoyo":10641,"sqli":10642,"Ignolinda":10643,"Miranda":10644,"Sagrada":10645,"grancoli":10646,"quillos":10647,"ebascongas":10648,"Villalbilla":10649,"tismo":10650,"cirujanaplastica":10651,"Segura":10652,"dehadrones":10653,"Riutort":10654,"about":10655,"Frances":10656,"Francesch":10657,"Vilardaga":10658,"high":10659,"erasmusrooms":10660,"Minguez":10661,"Honteci":10662,"blanquillos":10663,"255413195":10664,"Salinas":10665,"north":10666,"evelin":10667,"tuslimi":10668,"beaumont":10669,"Alamedilla":10670,"ringringcargo":10671,"pisossantcugat":10672,"Cuevas":10673,"Vieja":10674,"fitness":10675,"Negros":10676,"hostingprofessional":10677,"Neris":10678,"villero":10679,"Malias":10680,"Altozano":10681,"Huerva":10682,"Monasterioaren":10683,"Vitoria":10684,"raulla":10685,"hotels":10686,"Edelmira":10687,"28316047":10688,"enavente":10689,"Guzman":10690,"HelloPervasi":10691,"Bartolome":10692,"enigmatico":10693,"Stefani":10694,"Bedmar":10695,"Libertad":10696,"Pelayo":10697,"Sastre":10698,"aperros":10699,"carloshoya":10700,"Agustin":10701,"everrett":10702,"errebebe":10703,"004040814148":10704,"eurograb":10705,"noffice":10706,"Bautista":10707,"Bidasoa":10708,"knights":10709,"docerosas":10710,"aldufa":10711,"Andreu":10712,"tetdevelocidad":10713,"palomajimenez":10714,"estore":10715,"41585257":10716,"Jaraba":10717,"cementos":10718,"imoteo":10719,"motaung":10720,"foreignoffice":10721,"Regueras":10722,"Goyenaga":10723,"somosagelespa":10724,"sionadordehadrones":10725,"laspruebascongas":10726,"134274894":10727,"1134011255413195":10728,"masqueclases":10729,"5144167134274894":10730,"soycastellano":10731,"Llobregat":10732,"grancolisionadordehadrones":10733,"Franceschini":10734,"Hontecillas":10735,"tuslimites":10736,"HelloPervasive":10737,"0040408141488994":10738,"laspruebascongaseosa":10739,"/_":10740,"0144":10741,"0750":10742,"0287":10743,"0897":10744,"0368":10745,"1170":10746,"2690":10747,"2103":10748,"2109":10749,"3400":10750,"3212":10751,"4747":10752,"4221":10753,"5159":10754,"5600":10755,"5705":10756,"5289":10757,"5688":10758,"5907":10759,"5949":10760,"5999":10761,"5302":10762,"6194":10763,"6118":10764,"6109":10765,"7154":10766,"7176":10767,"7162":10768,"8872":10769,"8143":10770,"8650":10771,"8804":10772,"8384":10773,"8300":10774,"8744":10775,"8873":10776,"9747":10777,"9135":10778,"9159":10779,"9299":10780,"9390":10781,"9248":10782,"9648":10783,"Aco":10784,"Adela":10785,"AEDF":10786,"AFEE":10787,"Ache":10788,"Atila":10789,"Ambr":10790,"BLe":10791,"BEBE":10792,"Bib":10793,"BEDE":10794,"Biz":10795,"BFAD":10796,"BEBF":10797,"BFAF":10798,"BCDB":10799,"Billi":10800,"Baguda":10801,"Benavente":10802,"Cti":10803,"Cri":10804,"Cid":10805,"Cente":10806,"CFDF":10807,"CEBC":10808,"CECB":10809,"CFDB":10810,"CEBF":10811,"CEEF":10812,"CEDD":10813,"DI":10814,"Dul":10815,"DFBE":10816,"DEDB":10817,"DFAA":10818,"DFCF":10819,"DFAC":10820,"Dic":10821,"Ew":10822,"EECD":10823,"EFDA":10824,"EFBC":10825,"Ebro":10826,"Eraso":10827,"FU":10828,"Fen":10829,"Gig":10830,"Gamon":10831,"Hit":10832,"Hoz":10833,"Higuer":10834,"Ka":10835,"Kar":10836,"Lac":10837,"Lan":10838,"Leb":10839,"Lic":10840,"Lillo":10841,"Lacruz":10842,"MO":10843,"Macha":10844,"Nto":10845,"Nue":10846,"Noria":10847,"Oteo":10848,"Oute":10849,"Pons":10850,"Rra":10851,"Rad":10852,"Sam":10853,"Tru":10854,"Tordera":10855,"Usa":10856,"Witron":10857,"Zua":10858,"ambros":10859,"aid":10860,"ave":10861,"aDO":10862,"azar":10863,"aver":10864,"avilano":10865,"clo":10866,"cun":10867,"cimi":10868,"dc":10869,"dim":10870,"dena":10871,"elos":10872,"ejo":10873,"fE":10874,"fly":10875,"fton":10876,"ftino":10877,"gis":10878,"gge":10879,"gher":10880,"hS":10881,"hwa":10882,"hell":10883,"hns":10884,"hting":10885,"ilo":10886,"iur":10887,"iali":10888,"iCa":10889,"ibe":10890,"ipo":10891,"jona":10892,"jana":10893,"km":10894,"kus":10895,"kab":10896,"klar":10897,"kunt":10898,"muel":10899,"mcr":10900,"mpo":10901,"nel":10902,"nina":10903,"och":10904,"omi":10905,"pap":10906,"qcole":10907,"rA":10908,"sA":10909,"sgi":10910,"sino":10911,"sley":10912,"thi":10913,"uera":10914,"ujos":10915,"vA":10916,"vI":10917,"whit":10918,"yok":10919,"zko":10920,"zamp":10921,"zow":10922,"zaga":10923,"zuelo":10924,"onger":10925,"lau":10926,"ladigi":10927,"enq":10928,"enck":10929,"enka":10930,"eneta":10931,"endea":10932,"coc":10933,"cox":10934,"coso":10935,"cock":10936,"copi":10937,"cott":10938,"lix":10939,"cami":10940,"cavender":10941,"inos":10942,"inad":10943,"inmadrid":10944,"cedo":10945,"ptner":10946,"zie":10947,"erp":10948,"dear":10949,"demar":10950,"deard":10951,"degen":10952,"apote":10953,"apala":10954,"apren":10955,"aplast":10956,"8026":10957,"8071":10958,"hostprofessional":10959,"orin":10960,"lodge":10961,"nchi":10962,"davi":10963,"dane":10964,"davie":10965,"dante":10966,"leas":10967,"lego":10968,"imp":10969,"imper":10970,"ary":10971,"aras":10972,"arma":10973,"arch":10974,"arne":10975,"arnold":10976,"okai":10977,"nues":10978,"calmen":10979,"calley":10980,"comod":10981,"Mol":10982,"Ġ/?":10983,"IDor":10984,"losref":10985,"plat":10986,"placeres":10987,"etsky":10988,"rever":10989,"2514":10990,"2590":10991,"2547":10992,"2501":10993,"getti":10994,"iso":10995,"isel":10996,"ciar":10997,"ciaplast":10998,"puesto":10999,"mbas":11000,"rodri":11001,"rourke":11002,"rogge":11003,"dica":11004,"diar":11005,"2760":11006,"2769":11007,"2718":11008,"2799":11009,"2772":11010,"2797":11011,"2791":11012,"2796":11013,"moore":11014,"4005":11015,"4046":11016,"4056":11017,"40183":11018,"alm":11019,"alyn":11020,"alvarez":11021,"1017":11022,"1075":11023,"1005":11024,"1048":11025,"cart":11026,"logico":11027,"anco":11028,"anni":11029,"esbien":11030,"rill":11031,"elbau":11032,"asdevuelos":11033,"2039":11034,"2035":11035,"2036":11036,"2066":11037,"206810":11038,"dadora":11039,"6327":11040,"6310":11041,"6338":11042,"6384":11043,"63257":11044,"2925":11045,"2988":11046,"2982":11047,"2946":11048,"2992":11049,"2908":11050,"1728":11051,"1799":11052,"1798":11053,"1743":11054,"3864":11055,"3839":11056,"3877":11057,"3857":11058,"3852":11059,"1489":11060,"1495":11061,"1472":11062,"1497":11063,"1496":11064,"ssier":11065,"2214":11066,"2222":11067,"6463":11068,"6459":11069,"6522":11070,"6511":11071,"6500":11072,"6598":11073,"6086":11074,"6050":11075,"6012":11076,"6092":11077,"6002":11078,"1580":11079,"1571":11080,"1533":11081,"1588":11082,"1541":11083,"1554":11084,"1591":11085,"15707":11086,"1961":11087,"1957":11088,"196460":11089,"7440":11090,"7466":11091,"7496":11092,"3927":11093,"3930":11094,"3951":11095,"3908":11096,"6939":11097,"6926":11098,"6977":11099,"6949":11100,"6959":11101,"2839":11102,"2811":11103,"2859":11104,"28294":11105,"stre":11106,"stulo":11107,"tom":11108,"tool":11109,"toinformatica":11110,"8990":11111,"8962":11112,"2319":11113,"2372":11114,"2302":11115,"23129":11116,"1327":11117,"1329":11118,"1367":11119,"1300":11120,"1344":11121,"1343":11122,"7044":11123,"7088":11124,"7097":11125,"7092":11126,"4564":11127,"4585":11128,"4571":11129,"4550":11130,"4507":11131,"8527":11132,"8574":11133,"8553":11134,"adiaz":11135,"tarif":11136,"6750":11137,"EDAF":11138,"EDnez":11139,"amos":11140,"carritoAND":11141,"3045":11142,"3016":11143,"3099":11144,"3057":11145,"1180":11146,"1110":11147,"1117":11148,"1112":11149,"1161":11150,"11630":11151,"11659":11152,"8778":11153,"87695":11154,"8795418":11155,"BADB":11156,"BABE":11157,"BAAC":11158,"2425":11159,"2495":11160,"24292":11161,"aton":11162,"CCFB":11163,"CCAE":11164,"FBFB":11165,"FBFF":11166,"FBCF":11167,"9069":11168,"9028":11169,"9066":11170,"9008":11171,"7555":11172,"7546":11173,"7553":11174,"75272":11175,"DDFD":11176,"DDFE":11177,"DDCD":11178,"FACB":11179,"FACF":11180,"FABE":11181,"FAAE":11182,"3510":11183,"3587":11184,"3546":11185,"35265":11186,"35350":11187,"8681":11188,"86164":11189,"8413":11190,"8445":11191,"8467":11192,"8494":11193,"8488":11194,"8461":11195,"FCBB":11196,"FCDE":11197,"FCAD":11198,"3480":11199,"3475":11200,"3416":11201,"3468":11202,"34192":11203,"2665":11204,"2623":11205,"2683":11206,"2615613":11207,"chs":11208,"chino":11209,"chart":11210,"chun":11211,"chard":11212,"auer":11213,"9427":11214,"9460":11215,"9478":11216,"9477":11217,"2185":11218,"2167":11219,"2183":11220,"2182":11221,"9580":11222,"9570":11223,"9500":11224,"9550":11225,"9551":11226,"javila":11227,"8317":11228,"8364":11229,"8323":11230,"DAEC":11231,"DAFF":11232,"DABF":11233,"0563":11234,"0573":11235,"mear":11236,"3789":11237,"3734":11238,"3793":11239,"CACA":11240,"BBFB":11241,"BBFA":11242,"BBEC":11243,"BBEB":11244,"BBCB":11245,"BBDC":11246,"BBCE":11247,"BBBC":11248,"ebra":11249,"FEFB":11250,"3625":11251,"3610":11252,"3666":11253,"3662":11254,"1860":11255,"1885":11256,"1830":11257,"18108":11258,"1682":11259,"1681":11260,"5597":11261,"5506":11262,"7985":11263,"7924":11264,"7935":11265,"7934":11266,"7921":11267,"AACA":11268,"corless":11269,"CBDF":11270,"CDEB":11271,"CDCD":11272,"FFFB":11273,"EEFC":11274,"EEFF":11275,"0075":11276,"7829":11277,"7839":11278,"4486":11279,"wder":11280,"3160":11281,"3185":11282,"31270":11283,"mbert":11284,"DBDB":11285,"9988":11286,"6687":11287,"9889":11288,"9823":11289,"9830":11290,"9811":11291,"EFFE":11292,"5039":11293,"5085":11294,"5016":11295,"50805":11296,"50213":11297,"50343":11298,"7739":11299,"4864":11300,"7345":11301,"nera":11302,"1006":11303,"4939":11304,"49100":11305,"49639":11306,"6280":11307,"6214":11308,"6245":11309,"6211":11310,"issi":11311,"CEBA":11312,"CEEC":11313,"3323":11314,"DFFA":11315,"4760":11316,"4730":11317,"4734":11318,"47175":11319,"8219":11320,"sia":11321,"BDCC":11322,"ADEE":11323,"BCBB":11324,"09348":11325,"ACEB":11326,"ACFE":11327,"ACEE":11328,"4140":11329,"5914":11330,"5995":11331,"5937":11332,"5918":11333,"5769":11334,"AFED":11335,"AFBA":11336,"AEBA":11337,"incorrectasAND":11338,"5470":11339,"546828":11340,"8113":11341,"joyas":11342,"johns":11343,"ffy":11344,"Macar":11345,"Mateu":11346,"0474":11347,"hein":11348,"vela":11349,"7686":11350,"logout":11351,"Count":11352,"Cookie":11353,"9167":11354,"43143":11355,"bret":11356,"5889":11357,"9364":11358,"5330":11359,"5627":11360,"5664":11361,"5613":11362,"5667":11363,"9620":11364,"5119":11365,"5169":11366,"4210":11367,"cajaany":11368,"Fia":11369,"9260":11370,"92387":11371,"itto":11372,"0817":11373,"0865":11374,"0860":11375,"08673":11376,"0324":11377,"0334":11378,"03277":11379,"Deo":11380,"Demu":11381,"zabal":11382,"ults":11383,"02270":11384,"umi":11385,"umel":11386,"umptner":11387,"ollo":11388,"Alca":11389,"Salom":11390,"unar":11391,"hili":11392,"onati":11393,"tao":11394,"taz":11395,"283406":11396,"zaretsky":11397,"vadis":11398,"version":11399,"delujos":11400,"adada":11401,"saave":11402,"1103":11403,"1106":11404,"1107":11405,"boda":11406,"bogetti":11407,"LaDO":11408,"anyena":11409,"Viera":11410,"Viana":11411,"Viviana":11412,"Arge":11413,"Artigas":11414,"train":11415,"NTe":11416,"neke":11417,"gavens":11418,"hant":11419,"ranes":11420,"Valles":11421,"Valdea":11422,"ruf":11423,"sou":11424,"socimi":11425,"Sanlu":11426,"Sanabria":11427,"Sanagua":11428,"Gua":11429,"Guiz":11430,"lud":11431,"luca":11432,"lupe":11433,"resapala":11434,"results":11435,"guero":11436,"guapote":11437,"Casares":11438,"Card":11439,"Carbon":11440,"Carriza":11441,"Cubillo":11442,"Rojo":11443,"house":11444,"Pallares":11445,"Sejas":11446,"Corco":11447,"bern":11448,"Naiara":11449,"lany":11450,"beh":11451,"bear":11452,"beate":11453,"thy":11454,"thes":11455,"EDades":11456,"17060":11457,"goscan":11458,"barra":11459,"barata":11460,"pere":11461,"perio":11462,"2631":11463,"19033":11464,"quecole":11465,"Delva":11466,"15074727":11467,"145944":11468,"Bob":11469,"Boada":11470,"17538":11471,"40921":11472,"zozow":11473,"Guadalupe":11474,"66048":11475,"Zarza":11476,"10374":11477,"1635":11478,"mula":11479,"6203":11480,"Ravi":11481,"contro":11482,"Riera":11483,"1272948":11484,"1391":11485,"6855":11486,"3754":11487,"3755":11488,"6708069":11489,"8392":11490,"BEAE":11491,"schenck":11492,"8771500":11493,"894307":11494,"24817":11495,"1841":11496,"2602":11497,"CEAC":11498,"EEAE":11499,"oriador":11500,"33775":11501,"uray":11502,"Berd":11503,"Bernd":11504,"Bertil":11505,"677145944":11506,"krish":11507,"ECCA":11508,"1172":11509,"6748":11510,"mcdavi":11511,"8288":11512,"tson":11513,"BCAD":11514,"BCAE":11515,"DCCA":11516,"3151":11517,"hut":11518,"1873":11519,"6806":11520,"68096192":11521,"5055":11522,"DCAB":11523,"DCAD":11524,"44589":11525,"Andorra":11526,"85728685":11527,"ACAA":11528,"Pereda":11529,"Pereiro":11530,"CBBC":11531,"DBBD":11532,"BCCD":11533,"Fueros":11534,"mond":11535,"ABBD":11536,"BDAD":11537,"ics":11538,"BDDD":11539,"28474140":11540,"09471":11541,"3802993":11542,"21034":11543,"sone":11544,"Liber":11545,"Lionel":11546,"05413":11547,"458283406":11548,"RuIDor":11549,"Urbina":11550,"Joselina":11551,"eira":11552,"Novell":11553,"ACDE":11554,"chaye":11555,"Dato":11556,"aguas":11557,"06413":11558,"Campillo":11559,"pharma":11560,"bye":11561,"Loiu":11562,"Cantonati":11563,"ryle":11564,"Cabo":11565,"deng":11566,"Brau":11567,"Brzozow":11568,"3246974":11569,"Cerda":11570,"Serrez":11571,"canarias":11572,"08092387":11573,"harte":11574,"Salda":11575,"Tala":11576,"Estacion":11577,"Estrada":11578,"dren":11579,"dradiaz":11580,"Fedelia":11581,"93515707":11582,"pany":11583,"517546828":11584,"ugel":11585,"0473794":11586,"87443":11587,"9649891":11588,"Amell":11589,"Foradada":11590,"Basics":11591,"ticaday":11592,"deaestu":11593,"macdo":11594,"Castillero":11595,"Bald":11596,"Baldo":11597,"Reyes":11598,"Granyena":11599,"MeNte":11600,"Bonet":11601,"Bonitto":11602,"gesmaher":11603,"Alamo":11604,"iesgo":11605,"buses":11606,"Olivar":11607,"anton":11608,"dress":11609,"Antonioli":11610,"Olmos":11611,"holton":11612,"turri":11613,"clientSideFiltering":11614,"autobuses":11615,"Taronger":11616,"Santini":11617,"Zuleta":11618,"Zuleika":11619,"Gravina":11620,"Silvestre":11621,"doraine":11622,"multi":11623,"Prolong":11624,"crom":11625,"crowder":11626,"bauer":11627,"Alberti":11628,"fleugel":11629,"small":11630,"dunce":11631,"Manzanillo":11632,"spainpharma":11633,"Catalog":11634,"Helvec":11635,"clubdegolf":11636,"asteresapala":11637,"Fredes":11638,"Selva":11639,"Selman":11640,"cleve":11641,"indomo":11642,"Amadis":11643,"hatti":11644,"salacomp":11645,"huega":11646,"djbroad":11647,"rigola":11648,"rigoiti":11649,"east":11650,"Mercedes":11651,"watw":11652,"Serradell":11653,"rusas":11654,"14559882":11655,"Brihuega":11656,"Pellini":11657,"ispretor":11658,"NtE":11659,"Luciliano":11660,"videocasa":11661,"Zorita":11662,"Nicolas":11663,"imarbella":11664,"Patraca":11665,"Mitjavila":11666,"fighting":11667,"Encinas":11668,"Laure":11669,"eleccion":11670,"64709043":11671,"Rendor":11672,"foll":11673,"18698482":11674,"19782082":11675,"523818698482":11676,"Malinda":11677,"Stumptner":11678,"71246547":11679,"esteticaday":11680,"86251880":11681,"Yasmila":11682,"isioencasa":11683,"38543802993":11684,"hoteles":11685,"sherri":11686,"Moliner":11687,"187028474140":11688,"vellano":11689,"Handal":11690,"adultos":11691,"schnaps":11692,"garrigues":11693,"Tristana":11694,"Amelie":11695,"Sesgarrigues":11696,"ofertasrusas":11697,"ploof":11698,"oncejo":11699,"7240523818698482":11700,"Hortencia":11701,"Sharim":11702,"89061921":11703,"466385728685":11704,"51756068":11705,"Babeli":11706,"others":11707,"Bolivia":11708,"Pancracio":11709,"6147677145944":11710,"Benedetti":11711,"Montiel":11712,"Rasmira":11713,"EDfero":11714,"47182191":11715,"Ildefonso":11716,"HttpBasics":11717,"Geraldo":11718,"Alfambra":11719,"Navaconcejo":11720,"Zalarich":11721,"machines":11722,"noviasteresapala":11723,"elfisioencasa":11724,"braltar":11725,"francisluci":11726,"SpoofCookie":11727,"Argando":11728,"Policar":11729,"tecnoindomo":11730,"Hinojosa":11731,"Gorgone":11732,"Halcon":11733,"Yaben":11734,"ldelosref":11735,"onoratoinformatica":11736,"davray":11737,"chamizo":11738,"indelhogar":11739,"schiaftino":11740,"Medellin":11741,"tabernarinconete":11742,"Historiador":11743,"Lecr":11744,"Lagares":11745,"843609931":11746,"36256894307":11747,"816793870":11748,"5124736256894307":11749,"guarneros":11750,"221132397":11751,"thatcher":11752,"Salvatierra":11753,"Billini":11754,"Diclo":11755,"HitCount":11756,"Outeiro":11757,"Zuazo":11758,"iurispretor":11759,"kuntova":11760,"mueller":11761,"mcrspain":11762,"omiya":11763,"ladigianni":11764,"dearden":11765,"aprendeaestu":11766,"lodgeinmadrid":11767,"calmenso":11768,"comodindelhogar":11769,"placeresadultos":11770,"elbauldelosref":11771,"20681066048":11772,"196460600":11773,"2829438543802993":11774,"tarifasdevuelos":11775,"1165920681066048":11776,"8795418458283406":11777,"75272191":11778,"86164975":11779,"50805644":11780,"joyaseleccion":11781,"Demuner":11782,"saavedradiaz":11783,"Valdeavellano":11784,"Sanlucar":11785,"Guizasola":11786,"Carrizales":11787,"1272948221132397":11788,"6708069843609931":11789,"877150082":11790,"Bertilda":11791,"krishna":11792,"mcdavitt":11793,"chayevsky":11794,"Brzozowski":11795,"3246974816793870":11796,"Serrezuela":11797,"5175468282615613":11798,"0473794196460600":11799,"9649891877150082":11800,"gesmahernan":11801,"Prolongacion":11802,"Helvecia":11803,"salacomplices":11804,"djbroadcast":11805,"esteticadayda":11806,"1870284741408418":11807,"4663857286858703":11808,"6147677145944254":11809,"noviasteresapalacios":11810,"francislucille":11811,"aprendeaestudiar":11812,"elbauldelosrefranes":11813,"0800":11814,"0285":11815,"0197":11816,"0200":11817,"0355":11818,"0855":11819,"0807":11820,"0705":11821,"0646":11822,"0357":11823,"0607":11824,"1199":11825,"1136":11826,"1290":11827,"2150":11828,"2159":11829,"2258":11830,"3173":11831,"3145":11832,"3197":11833,"3679":11834,"3384":11835,"4250":11836,"4234":11837,"4144":11838,"4400":11839,"4279":11840,"4804":11841,"4638":11842,"4635":11843,"4705":11844,"4298":11845,"4377":11846,"4396":11847,"4831":11848,"4353":11849,"4602":11850,"5637":11851,"5800":11852,"5285":11853,"5405":11854,"5104":11855,"5204":11856,"5218":11857,"5359":11858,"5905":11859,"5497":11860,"5642":11861,"6100":11862,"6675":11863,"78789":11864,"7285":11865,"7805":11866,"7405":11867,"7894":11868,"7646":11869,"7246":11870,"7948":11871,"7641":11872,"7858":11873,"7701":11874,"8199":11875,"8679":11876,"8699":11877,"8137":11878,"8635":11879,"8855":11880,"8643":11881,"9300":11882,"9404":11883,"9604":11884,"9704":11885,"9304":11886,"9948":11887,"Ati":11888,"Aur":11889,"Aza":11890,"Aber":11891,"Ans":11892,"AFCB":11893,"Ante":11894,"BEBC":11895,"Bei":11896,"Betti":11897,"CZ":11898,"CMo":11899,"CEDB":11900,"CFCF":11901,"CECF":11902,"CFAD":11903,"CFAC":11904,"CFBC":11905,"CBAF":11906,"Ceu":11907,"DY":11908,"Due":11909,"DFDA":11910,"DECE":11911,"DFAF":11912,"Dinar":11913,"EEDB":11914,"EFAA":11915,"EFCB":11916,"EEDC":11917,"EBAC":11918,"EEDD":11919,"FFAB":11920,"Fray":11921,"GL":11922,"Gre":11923,"Gat":11924,"Gras":11925,"HK":11926,"Hue":11927,"Hero":11928,"Hom":11929,"Haro":11930,"IM":11931,"Ia":11932,"IBM":11933,"JX":11934,"JVX":11935,"KK":11936,"LA":11937,"LN":11938,"Lv":11939,"Larr":11940,"Mall":11941,"Montijo":11942,"Nad":11943,"Oni":11944,"Oha":11945,"Ocho":11946,"Ojeda":11947,"PA":11948,"Pul":11949,"POJ":11950,"QS":11951,"QBy":11952,"RsE":11953,"Retu":11954,"Stella":11955,"SSRF":11956,"Tos":11957,"Tet":11958,"Tal":11959,"Uni":11960,"Ucu":11961,"URa":11962,"Utri":11963,"Vo":11964,"Vegas":11965,"WOha":11966,"Yi":11967,"Yami":11968,"Yela":11969,"Zki":11970,"aca":11971,"bk":11972,"bio":11973,"bun":11974,"ccn":11975,"dEs":11976,"etien":11977,"emb":11978,"eMD":11979,"emi":11980,"fur":11981,"fun":11982,"iS":11983,"iones":11984,"lfo":11985,"lcke":11986,"mosa":11987,"oJX":11988,"psi":11989,"qRu":11990,"qoJX":11991,"radi":11992,"rse":11993,"spa":11994,"sko":11995,"snoop":11996,"tcm":11997,"theme":11998,"ugo":11999,"uweb":12000,"vs":12001,"vran":12002,"wie":12003,"wAA":12004,"wHK":12005,"yer":12006,"yton":12007,"yuna":12008,"zing":12009,"zell":12010,"zPOJ":12011,"tible":12012,"tiel":12013,"tidos":12014,"test":12015,"lag":12016,"lal":12017,"lant":12018,"lamo":12019,"labo":12020,"laure":12021,"labios":12022,"enelec":12023,"coche":12024,"capt":12025,"osMie":12026,"ind":12027,"incre":12028,"action":12029,"aced":12030,"cela":12031,"cess":12032,"err":12033,"demo":12034,"deman":12035,"desb":12036,"deem":12037,"decoaching":12038,"apia":12039,"apple":12040,"8029":12041,"8064":12042,"8043":12043,"orana":12044,"dah":12045,"date":12046,"ieu":12047,"leb":12048,"lew":12049,"lete":12050,"entudia":12051,"patch":12052,"sern":12053,"aran":12054,"arri":12055,"ardis":12056,"arols":12057,"nula":12058,"ingenelec":12059,"Linares":12060,"quina":12061,"quiel":12062,"quero":12063,"reh":12064,"redi":12065,"reform":12066,"reiman":12067,"2582":12068,"2558":12069,"isi":12070,"isch":12071,"isad":12072,"ispo":12073,"cienci":12074,"rolet":12075,"dip":12076,"diag":12077,"diabo":12078,"2719":12079,"2730":12080,"2736":12081,"2741":12082,"2754":12083,"4018":12084,"4016":12085,"4032":12086,"als":12087,"allo":12088,"albu":12089,"1095":12090,"1018":12091,"1058":12092,"1093":12093,"carron":12094,"anno":12095,"esmer":12096,"rig":12097,"rial":12098,"asu":12099,"asco":12100,"2064":12101,"2085":12102,"2075":12103,"2026":12104,"2005":12105,"2055":12106,"2093":12107,"2006":12108,"nik":12109,"6323":12110,"6330":12111,"6382":12112,"6354":12113,"2938":12114,"2915":12115,"2945":12116,"2999":12117,"29680":12118,"1721":12119,"1742":12120,"1703":12121,"ciales":12122,"3899":12123,"3843":12124,"1481":12125,"1458":12126,"1456":12127,"1452":12128,"2225":12129,"2267":12130,"2261":12131,"6438":12132,"6475":12133,"6435":12134,"64107":12135,"6523":12136,"6512":12137,"6573":12138,"6582":12139,"6543":12140,"6593":12141,"6503":12142,"6063":12143,"6045":12144,"6084":12145,"6009":12146,"1520":12147,"1515":12148,"1570":12149,"1587":12150,"1568":12151,"1581":12152,"1597":12153,"1922":12154,"1937":12155,"1946":12156,"1956":12157,"7414":12158,"7474":12159,"7454":12160,"7442":12161,"7492":12162,"matar":12163,"mata":12164,"malet":12165,"matal":12166,"maquilla":12167,"3910":12168,"3965":12169,"3915":12170,"3935":12171,"3983":12172,"3944":12173,"3950":12174,"3988":12175,"39628":12176,"392219":12177,"6966":12178,"6962":12179,"2865":12180,"2899":12181,"2871":12182,"2812":12183,"2846":12184,"28264":12185,"28757":12186,"8970":12187,"8936":12188,"8991":12189,"2321":12190,"2377":12191,"23264":12192,"RehS":12193,"1310":12194,"1314":12195,"1311":12196,"1326":12197,"1348":12198,"1368":12199,"1362":12200,"1309":12201,"1357":12202,"1342":12203,"136414":12204,"7085":12205,"7030":12206,"7072":12207,"7091":12208,"7056":12209,"4510":12210,"4584":12211,"4599":12212,"4542":12213,"8565":12214,"8535":12215,"8537":12216,"8562":12217,"8559":12218,"6779":12219,"6793":12220,"6753":12221,"EDCC":12222,"EDEE":12223,"EDDE":12224,"EDBF":12225,"EDguez":12226,"2536":12227,"25332":12228,"1119":12229,"8723":12230,"87157":12231,"BAFF":12232,"BACF":12233,"2422":12234,"2490":12235,"2478":12236,"2471":12237,"2488":12238,"2476":12239,"2442":12240,"enestar":12241,"CCED":12242,"CCAA":12243,"CCEF":12244,"CCAF":12245,"FBCC":12246,"FBEA":12247,"FBDA":12248,"FBCE":12249,"9017":12250,"9085":12251,"9018":12252,"9057":12253,"7563":12254,"7500":12255,"7559":12256,"DDED":12257,"DDCC":12258,"DDFF":12259,"DDEF":12260,"DDDE":12261,"DDBE":12262,"DDAF":12263,"DDAE":12264,"FAED":12265,"FAFE":12266,"FAAC":12267,"3588":12268,"3561":12269,"8629":12270,"8664":12271,"8669":12272,"ECBB":12273,"ECEE":12274,"ECDB":12275,"8440":12276,"8470":12277,"8448":12278,"8446":12279,"FCFA":12280,"FCEB":12281,"FCEF":12282,"FCBE":12283,"3460":12284,"3413":12285,"3470":12286,"3445":12287,"3466":12288,"3497":12289,"34170":12290,"34259":12291,"2686":12292,"2668":12293,"2682":12294,"2681":12295,"EAED":12296,"EAFD":12297,"EABC":12298,"chen":12299,"ches":12300,"chil":12301,"champ":12302,"chell":12303,"chua":12304,"aup":12305,"9425":12306,"9479":12307,"FDAF":12308,"2114":12309,"2164":12310,"2139":12311,"EBEC":12312,"EBCA":12313,"EBCB":12314,"EBEE":12315,"EBBF":12316,"9563":12317,"9514":12318,"9519":12319,"9586":12320,"9518":12321,"9544":12322,"9509":12323,"8322":12324,"8313":12325,"83709":12326,"DABA":12327,"DAAA":12328,"DADB":12329,"0535":12330,"0581":12331,"3715":12332,"3774":12333,"3730":12334,"37256":12335,"3712":12336,"3762":12337,"3761":12338,"3772":12339,"idos":12340,"CAEC":12341,"CACF":12342,"BBCC":12343,"BBFD":12344,"BBFF":12345,"ebetu":12346,"FECC":12347,"FEFF":12348,"3663":12349,"1887":12350,"1884":12351,"1625":12352,"1623":12353,"1613":12354,"1685":12355,"1626":12356,"16270":12357,"16122":12358,"5570":12359,"5596":12360,"5552":12361,"55080":12362,"551313":12363,"7930":12364,"7975":12365,"7979":12366,"7973":12367,"AACD":12368,"AADF":12369,"AAAC":12370,"corb":12371,"CBDC":12372,"CDFC":12373,"EEEA":12374,"EEEF":12375,"0017":12376,"7840":12377,"7889":12378,"7823":12379,"4436":12380,"4444":12381,"4447":12382,"4446":12383,"usti":12384,"3138":12385,"3122":12386,"3139":12387,"lesiones":12388,"Entrada":12389,"EFCC":12390,"EFDD":12391,"ABDC":12392,"5020":12393,"5005":12394,"50491":12395,"7738":12396,"cash":12397,"6840":12398,"6869":12399,"6882":12400,"68127":12401,"1219":12402,"7313":12403,"7311":12404,"7335":12405,"1007":12406,"4922":12407,"4970":12408,"492735":12409,"baldino":12410,"6210":12411,"6269":12412,"DEFA":12413,"DEEB":12414,"DEFE":12415,"DEFF":12416,"CFFB":12417,"CFFD":12418,"CFEB":12419,"CEFC":12420,"CEEB":12421,"3327":12422,"3370":12423,"DFFC":12424,"8811":12425,"iren":12426,"iras":12427,"4739":12428,"4779":12429,"4762":12430,"BDFA":12431,"BDBB":12432,"ADa":12433,"ADEB":12434,"ADCD":12435,"BCBA":12436,"BCEB":12437,"0934":12438,"0994":12439,"vits":12440,"6140":12441,"ACBA":12442,"ACFA":12443,"ACDA":12444,"5970":12445,"5930":12446,"5911":12447,"5924":12448,"BFFA":12449,"BFFC":12450,"BFFE":12451,"0110":12452,"0169":12453,"0189":12454,"marti":12455,"5410":12456,"5490":12457,"7229":12458,"8126":12459,"jodalgo":12460,"WebAS":12461,"meng":12462,"Maest":12463,"Madre":12464,"head":12465,"vey":12466,"Calera":12467,"Calder":12468,"7660":12469,"7613":12470,"764017":12471,"Coca":12472,"Colla":12473,"Coyo":12474,"9129":12475,"9186":12476,"Cons":12477,"4370":12478,"4664":12479,"4613":12480,"ameda":12481,"5869":12482,"5669":12483,"5670":12484,"9660":12485,"9616":12486,"0765":12487,"0789":12488,"0770":12489,"5110":12490,"5184":12491,"4263":12492,"9210":12493,"9264":12494,"9269":12495,"itz":12496,"5214":12497,"5264":12498,"52279":12499,"0825":12500,"0884":12501,"Qulcke":12502,"0622":12503,"0612":12504,"iado":12505,"iatico":12506,"MjE":12507,"PHbk":12508,"ullo":12509,"adri":12510,"Alor":12511,"Almo":12512,"Alvar":12513,"Almu":12514,"Aldeh":12515,"Almaz":12516,"Salas":12517,"Saigu":12518,"Sahag":12519,"unat":12520,"SCqRu":12521,"vers":12522,"adan":12523,"Lauran":12524,"nak":12525,"nati":12526,"Armu":12527,"Arzal":12528,"Arjona":12529,"nea":12530,"gado":12531,"titucion":12532,"Guin":12533,"bida":12534,"gula":12535,"eacoche":12536,"Barb":12537,"Barra":12538,"Barreda":12539,"Cara":12540,"Carab":12541,"Carrillo":12542,"Carvaj":12543,"filia":12544,"Romil":12545,"4862":12546,"Santos":12547,"Ledes":12548,"owens":12549,"Cortes":12550,"Corral":12551,"Corrales":12552,"cry":12553,"mida":12554,"gemas":12555,"entera":12556,"Monist":12557,"lasmil":12558,"Villares":12559,"1701163":12560,"19163":12561,"cula":12562,"queinvent":12563,"18516":12564,"Delb":12565,"15477":12566,"1633":12567,"2648":12568,"15961":12569,"muebetu":12570,"25489":12571,"22787443":12572,"6201":12573,"2203":12574,"2204":12575,"1671":12576,"1804":12577,"1803474":12578,"685764017":12579,"Pozuelo":12580,"1403":12581,"3743":12582,"3749":12583,"29963":12584,"19238":12585,"CDAF":12586,"Mvccn":12587,"63019":12588,"BEAF":12589,"schu":12590,"yofertas":12591,"lys":12592,"30045":12593,"AdOr":12594,"16830045":12595,"18370":12596,"3350":12597,"BBAB":12598,"buch":12599,"cfg":12600,"26074":12601,"CEAE":12602,"7602":12603,"7606":12604,"745952":12605,"67766":12606,"84473":12607,"achan":12608,"andy":12609,"andrest":12610,"7953":12611,"ratcliff":12612,"13217":12613,"huLv":12614,"610346":12615,"lerc":12616,"1216":12617,"Andunce":12618,"37738":12619,"37716":12620,"Increment":12621,"27829":12622,"40314":12623,"DBBB":12624,"20768":12625,"BCCC":12626,"BCCE":12627,"Enrique":12628,"ilio":12629,"Fuensa":12630,"baker":12631,"ADAD":12632,"35914":12633,"6433486":12634,"DCBC":12635,"DCBE":12636,"DCBF":12637,"3808":12638,"Buj":12639,"emina":12640,"sZtcm":12641,"35478":12642,"054750":12643,"ACCC":12644,"vendom":12645,"jee":12646,"jepara":12647,"Albor":12648,"Rua":12649,"Rupi":12650,"donkr":12651,"erico":12652,"parrena":12653,"azu":12654,"Morell":12655,"hannula":12656,"Manel":12657,"03580":12658,"ryg":12659,"fram":12660,"Inda":12661,"seng":12662,"99500":12663,"Brun":12664,"Gay":12665,"optica":12666,"Vilal":12667,"Server":12668,"dymon":12669,"Bele":12670,"Beatriz":12671,"janenko":12672,"darcy":12673,"03812":12674,"icodea":12675,"Porta":12676,"inidad":12677,"467282":12678,"Giuli":12679,"0996":12680,"velli":12681,"ugall":12682,"Alegr":12683,"Alegre":12684,"dalena":12685,"96785":12686,"maceu":12687,"vento":12688,"faro":12689,"ltMvccn":12690,"Castil":12691,"unao":12692,"menta":12693,"Balles":12694,"PrKK":12695,"Montull":12696,"fansite":12697,"aseca":12698,"33685":12699,"soyrojo":12700,"ayl":12701,"britt":12702,"Nuestra":12703,"Olivos":12704,"burn":12705,"tridge":12706,"Augusto":12707,"pleo":12708,"01120":12709,"4326433486":12710,"Clavero":12711,"Lladon":12712,"Zumala":12713,"Hijodalgo":12714,"Simon":12715,"informex":12716,"help":12717,"Ingla":12718,"Lorca":12719,"Magdalena":12720,"malcolm":12721,"Sagrado":12722,"Asparrena":12723,"rieg":12724,"Catalina":12725,"campan":12726,"travelnet":12727,"knLN":12728,"mariposas":12729,"nelly":12730,"showcfg":12731,"salaparis":12732,"ENWN":12733,"rigoyen":12734,"cpanelhost":12735,"volt":12736,"scavran":12737,"Lloret":12738,"Serrano":12739,"Pellizza":12740,"SessionServlet":12741,"Turet":12742,"Melgar":12743,"kXyl":12744,"innis":12745,"hinda":12746,"22456953":12747,"antity":12748,"21693885":12749,"8660227":12750,"Farrer":12751,"Fancelli":12752,"demjanenko":12753,"89007263":12754,"gmGM":12755,"Princep":12756,"cocheacoche":12757,"Guardia":12758,"jamin":12759,"Palomero":12760,"Icaza":12761,"106416830045":12762,"Barrameda":12763,"Milara":12764,"IZhan":12765,"80518660227":12766,"791515432":12767,"chicasdiabo":12768,"Andalu":12769,"portaldesign":12770,"demasiado":12771,"3071106416830045":12772,"Ivanco":12773,"doko":12774,"Redonda":12775,"chevrolet":12776,"Castillejo":12777,"SimpleQuery":12778,"NdFky":12779,"Maiorana":12780,"AGzPOJ":12781,"kolahi":12782,"Cardenal":12783,"paqwAA":12784,"provider":12785,"Marquesa":12786,"Beato":12787,"Dagmar":12788,"Tonk":12789,"delmarmol":12790,"lettere":12791,"gopersonaltrain":12792,"camilafansite":12793,"tiendasyofertas":12794,"elrincondelmarmol":12795,"Alcolea":12796,"Valdunquillo":12797,"Lemunao":12798,"Eugenio":12799,"raullazaro":12800,"dcbe":12801,"49100388":12802,"control":12803,"macdougall":12804,"multireform":12805,"CMoQBy":12806,"DYltMvccn":12807,"Dinardi":12808,"GLmu":12809,"Haroid":12810,"IBMWebAS":12811,"JVXeMD":12812,"Onila":12813,"QSkXyl":12814,"WOhaGLmu":12815,"YipaqwAA":12816,"ZkiCMoQBy":12817,"etienne":12818,"qoJXd":12819,"wHKAGzPOJ":12820,"captcha":12821,"increment":12822,"cienciapolicial":12823,"6410780518660227":12824,"maletti":12825,"mataluenga":12826,"maquillajepara":12827,"39628734":12828,"RehSJVXeMD":12829,"lesionesmusculares":12830,"49273589007263":12831,"Maestro":12832,"Coyoma":12833,"QulckePrKK":12834,"PHbkNT":12835,"Aldehuela":12836,"Saiguen":12837,"Sahagun":12838,"SCqRuS":12839,"Arzaluz":12840,"Carvajal":12841,"Ledesma":12842,"lasmilyuna":12843,"1701163791515432":12844,"queinvento":12845,"muebetuweb":12846,"1803474685764017":12847,"andrestabernero":12848,"Fuensanta":12849,"sZtcmqoJXd":12850,"vendomiatico":12851,"opticaweb":12852,"4326433486745952":12853,"knLNENWN":12854,"mariposasentudia":12855,"2169388539628734":12856,"chicasdiabolo":12857,"gopersonaltrainers":12858,"DYltMvccnknLNENWN":12859,"QSkXylPHbkNT":12860,"YipaqwAAWOhaGLmu":12861,"wHKAGzPOJj":12862,"maquillajeparalabios":12863,"RehSJVXeMDSe":12864,"4927358900726396":12865,"QulckePrKKUcu":12866,"-&":12867,"0690":12868,"0279":12869,"0106":12870,"0149":12871,"0644":12872,"0900":12873,"0895":12874,"0678":12875,"0206":12876,"0908":12877,"0304":12878,"0497":12879,"1252":12880,"1159":12881,"1152":12882,"2191":12883,"2698":12884,"2672":12885,"3170":12886,"36520":12887,"3294":12888,"3459":12889,"3237":12890,"3226":12891,"4235":12892,"4409":12893,"4389":12894,"4384":12895,"4673":12896,"4878":12897,"4284":12898,"4954":12899,"4748":12900,"4631":12901,"5170":12902,"5191":12903,"5154":12904,"5103":12905,"5875":12906,"5205":12907,"5298":12908,"5607":12909,"5305":12910,"5897":12911,"5843":12912,"5841":12913,"5488":12914,"5781":12915,"6253":12916,"6175":12917,"6144":12918,"6400":12919,"6192":12920,"6639":12921,"6137":12922,"6277":12923,"6408":12924,"6152":12925,"6237":12926,"6879":12927,"7191":12928,"7147":12929,"7111":12930,"7837":12931,"7849":12932,"8297":12933,"8191":12934,"8155":12935,"8104":12936,"8645":12937,"8648":12938,"8850":12939,"8659":12940,"8166":12941,"8305":12942,"8896":12943,"8602":12944,"9190":12945,"9800":12946,"9804":12947,"9639":12948,"9168":12949,"9638":12950,"9654":12951,"9807":12952,"9289":12953,"9853":12954,"9798":12955,"9671":12956,"Ach":12957,"Aman":12958,"Aya":12959,"AECD":12960,"Abu":12961,"AFDF":12962,"AFBB":12963,"AEBC":12964,"AEDE":12965,"AECE":12966,"AFAD":12967,"AEEF":12968,"AFBC":12969,"Amanecer":12970,"BFDF":12971,"BFCB":12972,"BEBB":12973,"Beta":12974,"Bello":12975,"Bnta":12976,"Cm":12977,"Cio":12978,"Cart":12979,"Clar":12980,"CFCD":12981,"CEBB":12982,"CBAA":12983,"CEEE":12984,"Cende":12985,"Dau":12986,"Deb":12987,"DEBC":12988,"DFCB":12989,"DEBD":12990,"DFCA":12991,"DEBF":12992,"DEEF":12993,"DBAF":12994,"Equ":12995,"EFBE":12996,"EFCD":12997,"EEBB":12998,"EBAD":12999,"EFDC":13000,"EFEE":13001,"EFFF":13002,"Elio":13003,"Echan":13004,"FO":13005,"Fc":13006,"FEDB":13007,"FFCA":13008,"FFBF":13009,"FEBF":13010,"FBAF":13011,"Faus":13012,"Gk":13013,"Gri":13014,"Garr":13015,"Grey":13016,"Gyana":13017,"Heli":13018,"Hacho":13019,"Ido":13020,"Ino":13021,"Iru":13022,"Ihor":13023,"Jac":13024,"Jau":13025,"JScript":13026,"Lam":13027,"Losa":13028,"Lande":13029,"Mundo":13030,"Macia":13031,"Mestre":13032,"Nim":13033,"Nurn":13034,"Nolsa":13035,"Ost":13036,"Ossa":13037,"Ospina":13038,"Pie":13039,"Pam":13040,"Pres":13041,"Paula":13042,"QU":13043,"Rer":13044,"Ral":13045,"Sch":13046,"Sit":13047,"Soro":13048,"Shop":13049,"Tel":13050,"Tau":13051,"Tol":13052,"Tampa":13053,"Uchu":13054,"Villo":13055,"Vista":13056,"Vlad":13057,"Wil":13058,"WtH":13059,"Xim":13060,"YM":13061,"Yu":13062,"Yel":13063,"ZE":13064,"Ze":13065,"Zin":13066,"Zel":13067,"alicante":13068,"bc":13069,"cE":13070,"cO":13071,"cono":13072,"cga":13073,"cchi":13074,"cAR":13075,"ctora":13076,"cencio":13077,"dine":13078,"dwatw":13079,"eles":13080,"ejos":13081,"fO":13082,"fong":13083,"fford":13084,"fegan":13085,"gall":13086,"geri":13087,"gbook":13088,"gumi":13089,"hons":13090,"hall":13091,"ii":13092,"itos":13093,"iva":13094,"jac":13095,"jami":13096,"kap":13097,"kau":13098,"lli":13099,"lter":13100,"mons":13101,"mcm":13102,"mero":13103,"mmer":13104,"moria":13105,"meck":13106,"nard":13107,"names":13108,"nosti":13109,"nbull":13110,"oce":13111,"oto":13112,"ota":13113,"olas":13114,"pA":13115,"pie":13116,"ples":13117,"phili":13118,"rre":13119,"rint":13120,"smo":13121,"szm":13122,"sana":13123,"sed":13124,"scu":13125,"sandra":13126,"tam":13127,"tsch":13128,"tador":13129,"trana":13130,"uv":13131,"uta":13132,"uchet":13133,"vac":13134,"vOL":13135,"vago":13136,"won":13137,"wares":13138,"wsk":13139,"xx":13140,"xia":13141,"yos":13142,"zap":13143,"onen":13144,"onan":13145,"onja":13146,"onero":13147,"oncillo":13148,"onuevo":13149,"onisio":13150,"onysh":13151,"tint":13152,"tius":13153,"teen":13154,"lac":13155,"enel":13156,"coN":13157,"cote":13158,"colo":13159,"coyo":13160,"cowork":13161,"codwatw":13162,"caba":13163,"calejo":13164,"osA":13165,"inf":13166,"indor":13167,"instruc":13168,"agra":13169,"acs":13170,"acri":13171,"acela":13172,"cea":13173,"celo":13174,"cega":13175,"ceagelespa":13176,"nace":13177,"zira":13178,"erno":13179,"erras":13180,"ergen":13181,"dex":13182,"deca":13183,"decal":13184,"deil":13185,"dedeu":13186,"eche":13187,"appel":13188,"8028":13189,"8045":13190,"8033":13191,"8088":13192,"8009":13193,"8072":13194,"8003":13195,"80135":13196,"80643":13197,"ngla":13198,"orhons":13199,"lof":13200,"lou":13201,"lodegolf":13202,"dato":13203,"dame":13204,"david":13205,"lella":13206,"lecom":13207,"entalsan":13208,"patri":13209,"palodegolf":13210,"imir":13211,"arde":13212,"aranca":13213,"aridos":13214,"okee":13215,"compass":13216,"comode":13217,"keene":13218,"kesc":13219,"Molin":13220,"Molina":13221,"Motj":13222,"kol":13223,"kopf":13224,"nect":13225,"quia":13226,"queta":13227,"quader":13228,"blemente":13229,"query":13230,"etr":13231,"ets":13232,"etx":13233,"revis":13234,"reben":13235,"2525":13236,"2515":13237,"2553":13238,"2552":13239,"25133":13240,"25400":13241,"punto":13242,"ntE":13243,"ntano":13244,"ntadilla":13245,"blin":13246,"roz":13247,"roll":13248,"roanne":13249,"2766":13250,"2712":13251,"2753":13252,"dog":13253,"dou":13254,"doza":13255,"rechar":13256,"mombo":13257,"ural":13258,"4025":13259,"4064":13260,"4078":13261,"4071":13262,"4048":13263,"4049":13264,"4088":13265,"4051":13266,"40355":13267,"40152":13268,"408887":13269,"forex":13270,"1038":13271,"1069":13272,"1071":13273,"10181":13274,"carme":13275,"nocaseros":13276,"anero":13277,"ancos":13278,"anella":13279,"esh":13280,"escar":13281,"esesto":13282,"rica":13283,"rici":13284,"ribas":13285,"asis":13286,"2011":13287,"2050":13288,"2053":13289,"2096":13290,"nicad":13291,"nideil":13292,"6387":13293,"6386":13294,"6379":13295,"6399":13296,"6377":13297,"6347":13298,"6346":13299,"6396":13300,"2940":13301,"2967":13302,"2947":13303,"2932":13304,"2991":13305,"2951":13306,"29189":13307,"29380":13308,"29551":13309,"1723":13310,"1795":13311,"1779":13312,"1750":13313,"17741":13314,"3810":13315,"3819":13316,"3889":13317,"3883":13318,"3878":13319,"3812":13320,"3873":13321,"3846":13322,"1427":13323,"1474":13324,"1490":13325,"1435":13326,"1437":13327,"1491":13328,"ssen":13329,"rosessionid":13330,"2280":13331,"2264":13332,"2268":13333,"2249":13334,"22255":13335,"6429":13336,"6422":13337,"6485":13338,"6484":13339,"6449":13340,"6461":13341,"6443":13342,"6442":13343,"64263":13344,"6525":13345,"6548":13346,"65317":13347,"652781":13348,"6070":13349,"6059":13350,"6072":13351,"6043":13352,"6046":13353,"6052":13354,"601164":13355,"1589":13356,"1521":13357,"1516":13358,"1582":13359,"15307":13360,"1963":13361,"1989":13362,"1935":13363,"1954":13364,"1992":13365,"1908":13366,"19264":13367,"19268":13368,"7480":13369,"7417":13370,"7419":13371,"maquin":13372,"malik":13373,"3939":13374,"3984":13375,"3998":13376,"3959":13377,"3901":13378,"6922":13379,"6913":13380,"6936":13381,"6933":13382,"6997":13383,"6991":13384,"6996":13385,"2827":13386,"2867":13387,"2850":13388,"2848":13389,"ily":13390,"iler":13391,"stok":13392,"tolan":13393,"8922":13394,"8989":13395,"8950":13396,"8981":13397,"8946":13398,"8993":13399,"8902":13400,"2323":13401,"2337":13402,"2378":13403,"2358":13404,"Rei":13405,"Reese":13406,"Revert":13407,"1317":13408,"7040":13409,"7084":13410,"7049":13411,"7062":13412,"7041":13413,"7059":13414,"4535":13415,"4586":13416,"45179":13417,"45870":13418,"45890":13419,"45111":13420,"8569":13421,"8511":13422,"8524":13423,"8505":13424,"8518":13425,"cprint":13426,"6715":13427,"6724":13428,"6737":13429,"6798":13430,"6777":13431,"6776":13432,"6758":13433,"6796":13434,"EDFF":13435,"EDBC":13436,"amis":13437,"amel":13438,"amillo":13439,"3027":13440,"3020":13441,"3079":13442,"3050":13443,"3077":13444,"3061":13445,"3051":13446,"8720":13447,"8739":13448,"8728":13449,"8734":13450,"8773":13451,"8797":13452,"8796":13453,"8752":13454,"BAEF":13455,"BACE":13456,"BABD":13457,"BAAF":13458,"2413":13459,"2430":13460,"2487":13461,"2416":13462,"2461":13463,"2496":13464,"24745":13465,"24882":13466,"att":13467,"CCDD":13468,"CCCE":13469,"CCAC":13470,"FBDE":13471,"FBBF":13472,"9036":13473,"9055":13474,"9033":13475,"9082":13476,"9093":13477,"9006":13478,"90125":13479,"7530":13480,"75356":13481,"759761":13482,"DDBB":13483,"DDCB":13484,"FACC":13485,"FADD":13486,"FAFD":13487,"3525":13488,"3529":13489,"3565":13490,"3570":13491,"3536":13492,"3571":13493,"35637":13494,"35409":13495,"8614":13496,"8613":13497,"8687":13498,"8621":13499,"ECFB":13500,"ECBD":13501,"ECAF":13502,"8485":13503,"8492":13504,"84828":13505,"FCED":13506,"FCFD":13507,"FCAA":13508,"FCFF":13509,"FCDB":13510,"FCela":13511,"3485":13512,"3490":13513,"3479":13514,"3444":13515,"3448":13516,"2614":13517,"2666":13518,"EAFB":13519,"EADB":13520,"EAAD":13521,"chis":13522,"chalon":13523,"9463":13524,"FDFA":13525,"FDAB":13526,"FDAD":13527,"FDBC":13528,"FDBE":13529,"2110":13530,"EBCC":13531,"EBFB":13532,"EBBD":13533,"9540":13534,"9528":13535,"9512":13536,"9554":13537,"9597":13538,"jala":13539,"gic":13540,"gicamente":13541,"8370":13542,"8378":13543,"rab":13544,"rad":13545,"raya":13546,"DAFC":13547,"DAEB":13548,"DAAB":13549,"DAAC":13550,"0567":13551,"0537":13552,"0518":13553,"05289":13554,"05392":13555,"056020":13556,"medi":13557,"medes":13558,"meier":13559,"3739":13560,"3783":13561,"3732":13562,"25670":13563,"idon":13564,"idura":13565,"CAr":13566,"CAEB":13567,"CABB":13568,"CAEF":13569,"BBBA":13570,"3627":13571,"3617":13572,"1825":13573,"1829":13574,"1816":13575,"18165":13576,"1617":13577,"1686":13578,"1621":13579,"16800":13580,"5539":13581,"5594":13582,"5555":13583,"5500":13584,"5571":13585,"5547":13586,"5559":13587,"5546":13588,"5592":13589,"55390":13590,"55464":13591,"7986":13592,"7994":13593,"7988":13594,"79670":13595,"793328":13596,"AAED":13597,"AACC":13598,"AADB":13599,"coradio":13600,"cortell":13601,"CBFD":13602,"CBCD":13603,"CBCF":13604,"CDs":13605,"0010":13606,"0045":13607,"0094":13608,"0046":13609,"7811":13610,"7818":13611,"78234":13612,"44620":13613,"44330":13614,"agara":13615,"DBCA":13616,"DBDC":13617,"DBuv":13618,"9940":13619,"9964":13620,"9997":13621,"99147":13622,"6674":13623,"6613":13624,"7187":13625,"insertarbob":13626,"EFEC":13627,"ABFB":13628,"ABCD":13629,"5038":13630,"50268":13631,"7720":13632,"7789":13633,"7723":13634,"7724":13635,"7721":13636,"7762":13637,"7776":13638,"DCEC":13639,"DCBB":13640,"6814":13641,"6822":13642,"1280":13643,"1211":13644,"7310":13645,"7320":13646,"7314":13647,"7331":13648,"1002":13649,"10042":13650,"2706":13651,"4925":13652,"4924":13653,"4990":13654,"6227":13655,"6264":13656,"6239":13657,"DEBA":13658,"DEEC":13659,"DEFC":13660,"CFFE":13661,"CEED":13662,"CEFE":13663,"3345":13664,"3318":13665,"33290":13666,"33175":13667,"33382":13668,"DFED":13669,"DFEC":13670,"DFFD":13671,"DFEB":13672,"8888":13673,"886007":13674,"4770":13675,"4790":13676,"sig":13677,"BDFB":13678,"BDFC":13679,"ADFB":13680,"ADEC":13681,"ADCB":13682,"BCDD":13683,"BCFF":13684,"BCEE":13685,"0913":13686,"0921":13687,"0977":13688,"09324":13689,"BEEB":13690,"BEFE":13691,"6120":13692,"6163":13693,"6165":13694,"6123":13695,"61275":13696,"616567":13697,"alinda":13698,"4113":13699,"5980":13700,"5965":13701,"5934":13702,"5780":13703,"5795":13704,"5783":13705,"AFEA":13706,"AFFD":13707,"AEEC":13708,"AEFE":13709,"BFEB":13710,"incorrectasSet":13711,"tosa":13712,"tosfu":13713,"marg":13714,"mary":13715,"martosfu":13716,"5414":13717,"5460":13718,"5445":13719,"54310":13720,"7238":13721,"7264":13722,"8164":13723,"81279":13724,"joll":13725,"Goya":13726,"3238":13727,"32650":13728,"9723":13729,"Maur":13730,"0427":13731,"0484":13732,"0495":13733,"0479":13734,"hee":13735,"hews":13736,"Calders":13737,"Pastrana":13738,"Colo":13739,"Comas":13740,"Coev":13741,"9122":13742,"pornocaseros":13743,"4380":13744,"4323":13745,"43151":13746,"462595":13747,"5828":13748,"9345":13749,"5337":13750,"5331":13751,"9628":13752,"9667":13753,"0785":13754,"07191":13755,"4227":13756,"42148":13757,"9240":13758,"itali":13759,"ajas":13760,"5217":13761,"08696":13762,"08672":13763,"Quer":13764,"Quema":13765,"Queve":13766,"0374":13767,"oxyb":13768,"eppe":13769,"02290":13770,"adu":13771,"novisa":13772,"novsky":13773,"abor":13774,"abana":13775,"olle":13776,"olmer":13777,"Altar":13778,"Aller":13779,"Alcant":13780,"Alenka":13781,"Alzira":13782,"Parti":13783,"dutt":13784,"duain":13785,"Ibar":13786,"hiu":13787,"tado":13788,"tajo":13789,"taleza":13790,"zarra":13791,"vala":13792,"bala":13793,"bado":13794,"1221":13795,"sacar":13796,"sawy":13797,"11052":13798,"bois":13799,"boeh":13800,"Lantadilla":13801,"nae":13802,"ogsq":13803,"38770":13804,"Arco":13805,"Arga":13806,"Aragona":13807,"Arrot":13808,"tradora":13809,"onotari":13810,"neote":13811,"neider":13812,"galo":13813,"gahan":13814,"haw":13815,"ranaga":13816,"Valdel":13817,"russ":13818,"rubia":13819,"soo":13820,"soon":13821,"lujo":13822,"bidea":13823,"biene":13824,"guay":13825,"exapps":13826,"Marin":13827,"Marcia":13828,"Marug":13829,"Barran":13830,"Barcel":13831,"llori":13832,"Juice":13833,"2971785":13834,"sby":13835,"Roma":13836,"Robla":13837,"Rodilla":13838,"hou":13839,"hoon":13840,"hotel":13841,"221209":13842,"Cado":13843,"Caledon":13844,"see":13845,"Pazar":13846,"Pantano":13847,"arable":13848,"Corzo":13849,"bery":13850,"berkel":13851,"bervil":13852,"Nay":13853,"Navia":13854,"miro":13855,"miweb":13856,"miplat":13857,"micga":13858,"13041":13859,"dric":13860,"bedo":13861,"thia":13862,"thrus":13863,"Monca":13864,"agoiti":13865,"Burch":13866,"Burunat":13867,"Villasev":13868,"Villagonza":13869,"Villarejo":13870,"Toto":13871,"Toro":13872,"alleres":13873,"2630":13874,"2636":13875,"263835":13876,"linkin":13877,"arron":13878,"arras":13879,"155221209":13880,"descom":13881,"culo":13882,"custo":13883,"80061275":13884,"1852":13885,"1859":13886,"13500":13887,"merry":13888,"19415":13889,"19469":13890,"Delfo":13891,"trac":13892,"tret":13893,"Palenzuela":13894,"15049":13895,"loria":13896,"189410":13897,"stei":13898,"40978":13899,"40973":13900,"14760":13901,"1642":13902,"27518":13903,"27532":13904,"ARE":13905,"Puy":13906,"Pujo":13907,"2647":13908,"264709":13909,"19764":13910,"24590":13911,"6208":13912,"160936":13913,"650481":13914,"riales":13915,"arian":13916,"40540":13917,"Rang":13918,"Rafi":13919,"Rayn":13920,"1677":13921,"connect":13922,"Luque":13923,"Lujan":13924,"Rivera":13925,"piz":13926,"pica":13927,"pilar":13928,"1272":13929,"1278501":13930,"6851":13931,"Pool":13932,"dorsay":13933,"67990":13934,"Cipri":13935,"Huaranca":13936,"6654":13937,"63434":13938,"6706":13939,"Elduain":13940,"8357":13941,"BEAB":13942,"BEAC":13943,"schulz":13944,"vilainst":13945,"69940":13946,"24413217":13947,"yoon":13948,"DEAF":13949,"894231":13950,"Pijoan":13951,"Ors":13952,"Orteu":13953,"24778234":13954,"3351":13955,"3359":13956,"BBAA":13957,"BBAF":13958,"buck":13959,"2606":13960,"CEAA":13961,"CEAF":13962,"7608":13963,"7398":13964,"Berzon":13965,"20484":13966,"achg":13967,"andrey":13968,"EFAB":13969,"EFAD":13970,"EFAE":13971,"JaR":13972,"Jaca":13973,"9758":13974,"mcca":13975,"mccre":13976,"70541":13977,"45935":13978,"Sotor":13979,"Sofan":13980,"Sotillo":13981,"ratz":13982,"BCAB":13983,"DCCD":13984,"DCCE":13985,"31522":13986,"6273":13987,"FEAA":13988,"huet":13989,"1877495":13990,"68073":13991,"leras":13992,"lerch":13993,"leria":13994,"5057":13995,"DCAA":13996,"44528":13997,"44591":13998,"689238":13999,"AAAe":14000,"ACAB":14001,"40331":14002,"CBBB":14003,"ADDD":14004,"ilidad":14005,"ACBD":14006,"ACBF":14007,"mondo":14008,"16686":14009,"ADAB":14010,"ADAC":14011,"egger":14012,"lett":14013,"Doce":14014,"rasio":14015,"AEAC":14016,"647118":14017,"FCCE":14018,"FCCF":14019,"10269":14020,"758293":14021,"2171":14022,"2175163":14023,"Ayar":14024,"Ayamon":14025,"Castej":14026,"0943":14027,"Buenav":14028,"6721943":14029,"sui":14030,"suchima":14031,"BCBD":14032,"BCBF":14033,"39974":14034,"CDDE":14035,"vani":14036,"vander":14037,"Lila":14038,"Lihu":14039,"grac":14040,"dong":14041,"9047093":14042,"39717":14043,"49331":14044,"Nova":14045,"juice":14046,"juergen":14047,"78887":14048,"Isart":14049,"aguera":14050,"21422":14051,"stant":14052,"Pelei":14053,"polk":14054,"phil":14055,"9978731":14056,"Logo":14057,"Loyola":14058,"03517":14059,"46443":14060,"832384":14061,"50761":14062,"grafo":14063,"Cabra":14064,"Herm":14065,"Hermenegilda":14066,"Invier":14067,"Suau":14068,"9951":14069,"charen":14070,"charles":14071,"Galobar":14072,"42311":14073,"valle":14074,"73319":14075,"Vilamitj":14076,"4342":14077,"Servi":14078,"Serena":14079,"Sergio":14080,"candida":14081,"43830":14082,"41540":14083,"Error":14084,"Trabuco":14085,"anot":14086,"Beca":14087,"76973319":14088,"jans":14089,"ricci":14090,"Imelda":14091,"icods":14092,"amond":14093,"enobia":14094,"7871877495":14095,"42180":14096,"42138":14097,"01427":14098,"Gij":14099,"stoesesto":14100,"719136414":14101,"Duque":14102,"62223":14103,"widuch":14104,"Abia":14105,"78433382":14106,"CeA":14107,"41928757":14108,"41955080":14109,"Fortaleza":14110,"Bastus":14111,"Basket":14112,"09786":14113,"istafotogra":14114,"Borb":14115,"Borja":14116,"macne":14117,"farber":14118,"futur":14119,"Tejer":14120,"Dionisio":14121,"Membri":14122,"5196721943":14123,"06735478":14124,"fane":14125,"Doniz":14126,"nieva":14127,"winds":14128,"colley":14129,"Montemayor":14130,"Travessera":14131,"62162":14132,"gallo":14133,"gestion":14134,"hiperbil":14135,"devistafotogra":14136,"Numa":14137,"Olimpi":14138,"natural":14139,"Palau":14140,"antacruz":14141,"07127":14142,"xian":14143,"Capela":14144,"Olv":14145,"cAt":14146,"hollen":14147,"turnbull":14148,"Galli":14149,"clinicad":14150,"hendren":14151,"walt":14152,"lisle":14153,"Clara":14154,"Zubia":14155,"softwares":14156,"Grajera":14157,"Osarte":14158,"unicorn":14159,"npWtH":14160,"Gener":14161,"Gormaz":14162,"Blasi":14163,"Irla":14164,"itia":14165,"Padul":14166,"nciano":14167,"Puigverd":14168,"Iglesias":14169,"Mediero":14170,"ficaci":14171,"prestoesesto":14172,"Comello":14173,"dunlap":14174,"areau":14175,"escusa":14176,"shear":14177,"carslisle":14178,"clubforex":14179,"istocles":14180,"Rams":14181,"theroxyb":14182,"vetuweb":14183,"Riucorb":14184,"cIA":14185,"whitepearl":14186,"Moscoso":14187,"tiaherminia":14188,"Regino":14189,"aultravioleta":14190,"Picasso":14191,"Batllori":14192,"trasla":14193,"trasantacruz":14194,"misT":14195,"711932":14196,"gilger":14197,"asalquiler":14198,"vinavilano":14199,"Llorente":14200,"catanoticias":14201,"Busquet":14202,"Gony":14203,"Norte":14204,"healy":14205,"Arenal":14206,"Arenas":14207,"hojadecal":14208,"Bellmunt":14209,"Mingo":14210,"Walerico":14211,"Xove":14212,"Emmanuel":14213,"blanca":14214,"89372971785":14215,"Nicodemo":14216,"6450056020":14217,"tgcprint":14218,"13357610":14219,"fitz":14220,"676319264":14221,"Farrera":14222,"Octavia":14223,"izador":14224,"turaolle":14225,"yarosh":14226,"65293554":14227,"6564650481":14228,"programasalquiler":14229,"39755436":14230,"welcomeexapps":14231,"Crehuet":14232,"aparos":14233,"192413357610":14234,"underdog":14235,"buscador":14236,"Cesaria":14237,"acramirez":14238,"velazquezlarranaga":14239,"finney":14240,"coches":14241,"agestion":14242,"38879978731":14243,"campodegolf":14244,"Ilizali":14245,"Vidriales":14246,"Yasm":14247,"Palomera":14248,"Derch":14249,"angeli":14250,"851590":14251,"Guijo":14252,"prestipi":14253,"Crescencio":14254,"Hansel":14255,"33293484":14256,"Jardin":14257,"Jardins":14258,"Melit":14259,"Melilla":14260,"Sadurn":14261,"Saddam":14262,"7186647118":14263,"Almansa":14264,"schnapps":14265,"Adoraci":14266,"Login":14267,"38682401":14268,"Espej":14269,"Espejo":14270,"Montanuy":14271,"Palomares":14272,"Teodocio":14273,"Mulleras":14274,"Otilia":14275,"Ricardina":14276,"videospornocaseros":14277,"72999469":14278,"Frida":14279,"Zulma":14280,"almascanarias":14281,"135429":14282,"EDneo":14283,"96118316":14284,"Peregrino":14285,"Adolfina":14286,"Lizancos":14287,"Tapasco":14288,"Temistocles":14289,"madrile":14290,"Robledo":14291,"1648176":14292,"Garriga":14293,"Fructuoso":14294,"61907460":14295,"664965293554":14296,"Alessandra":14297,"Shunko":14298,"blogsme":14299,"muevetuweb":14300,"nagy":14301,"mbikesc":14302,"Sanchis":14303,"sangareau":14304,"navartil":14305,"Torroja":14306,"Berrocalejo":14307,"weather":14308,"Cecilio":14309,"ject":14310,"didacramirez":14311,"648454":14312,"mangini":14313,"kayaalicante":14314,"Teixid":14315,"Yamand":14316,"19812448":14317,"44126450056020":14318,"brownlee":14319,"Wenceslao":14320,"Muelle":14321,"Siruela":14322,"wolfie":14323,"matchball":14324,"Bagudanc":14325,"Machado":14326,"hwaite":14327,"yokono":14328,"nuestrasantacruz":14329,"toolbar":14330,"35108015":14331,"35265294":14332,"3535089372971785":14333,"Macarena":14334,"Deodato":14335,"Corcoy":14336,"Aurora":14337,"Larragoiti":14338,"lamola":14339,"laboca":14340,"diagnosti":14341,"28264646":14342,"child":14343,"551313263835":14344,"68127894231":14345,"Calderon":14346,"Romildo":14347,"Albornoz":14348,"senghor":14349,"99500842":14350,"Gaytan":14351,"96785368":14352,"Lladonosa":14353,"Betanc":14354,"Echaniz":14355,"GkDBuv":14356,"Garreta":14357,"Jacinto":14358,"Landelina":14359,"Nurnberg":14360,"Nolsaco":14361,"Ralston":14362,"Sorolla":14363,"Uchuya":14364,"Vladimir":14365,"Yeltes":14366,"conoceagelespa":14367,"moriaty":14368,"szmidt":14369,"tschenko":14370,"onyshko":14371,"tintaultravioleta":14372,"eneltajo":14373,"coyotera":14374,"coworkers":14375,"indorec":14376,"instructions":14377,"orhonsay":14378,"entalsansalvador":14379,"aridossanchez":14380,"okeefe":14381,"comodepilar":14382,"quadernideil":14383,"puntodevistafotogra":14384,"mombour":14385,"40888726":14386,"6531738879978731":14387,"65278169":14388,"60116452279":14389,"maquinaria":14390,"90125861":14391,"75976186":14392,"3563768127894231":14393,"05392148":14394,"coradiologico":14395,"88600786":14396,"0932460116452279":14397,"616567189410":14398,"martosfut":14399,"Quevedo":14400,"ogsqnpWtH":14401,"Arrotcharen":14402,"onotarial":14403,"neotelecom":14404,"bienek":14405,"JuiceShop":14406,"Robladillo":14407,"micgael":14408,"thrush":14409,"Villagonzalo":14410,"linkinfo":14411,"custombikesc":14412,"2647099047093":14413,"16093683":14414,"1278501676319264":14415,"Cipriana":14416,"vilainstal":14417,"Berzoni":14418,"andreytschenko":14419,"Sofanor":14420,"6892387186647118":14421,"7582936564650481":14422,"2175163155221209":14423,"Ayamonte":14424,"Buenavista":14425,"juergens":14426,"Peleij":14427,"Galobard":14428,"candidaturaolle":14429,"7871877495462595":14430,"7191364141648176":14431,"futuronotarial":14432,"Tejeriego":14433,"Membrives":14434,"5196721943648454":14435,"0673547824413217":14436,"hiperbilbao":14437,"naturalchild":14438,"clinicadentalsansalvador":14439,"softwaresaas":14440,"theroxyblue":14441,"whitepearlresort":14442,"hojadecalculo":14443,"Emmanuelle":14444,"programasalquilermaquinaria":14445,"3975543619812448":14446,"1924133576102581":14447,"Ilizaliturri":14448,"6649652935543559":14449,"blogsmegumi":14450,"4412645005602081":14451,"diagnosticoradiologico":14452,"5513132638351756":14453,"comodepilarse":14454,"quadernideilgarda":14455,"puntodevistafotografia":14456,"6165671894107883":14457,"ogsqnpWtHAAAe":14458,"custombikesclo":14459,"2647099047093404":14460,".&":14461,"0173":14462,"0637":14463,"0192":14464,"0695":14465,"0638":14466,"0295":14467,"0395":14468,"0450":14469,"0658":14470,"0676":14471,"0246":14472,"0161":14473,"0444":14474,"1250":14475,"1690":14476,"1147":14477,"1148":14478,"1877":14479,"1699":14480,"2256":14481,"2250":14482,"2387":14483,"2271":14484,"2118":14485,"2299":14486,"3174":14487,"3103":14488,"3285":14489,"3244":14490,"3300":14491,"3205":14492,"3241":14493,"4101":14494,"4387":14495,"4297":14496,"4178":14497,"4697":14498,"4285":14499,"4405":14500,"4157":14501,"4694":14502,"4224":14503,"4248":14504,"4355":14505,"4709":14506,"4295":14507,"4859":14508,"4879":14509,"4909":14510,"4216":14511,"4658":14512,"4854":14513,"4676":14514,"4296":14515,"4241":14516,"4788":14517,"4366":14518,"4903":14519,"41001":14520,"5297":14521,"5872":14522,"5177":14523,"5144":14524,"5697":14525,"5254":14526,"5679":14527,"5844":14528,"5196":14529,"5377":14530,"5209":14531,"5878":14532,"5151":14533,"5954":14534,"5348":14535,"5203":14536,"5904":14537,"5846":14538,"5632":14539,"6191":14540,"6155":14541,"6894":14542,"6233":14543,"6166":14544,"6406":14545,"6836":14546,"7178":14547,"7254":14548,"7877":14549,"7639":14550,"7645":14551,"7855":14552,"7879":14553,"7757":14554,"7373":14555,"7806":14556,"7832":14557,"8253":14558,"8256":14559,"8250":14560,"8747":14561,"8637":14562,"8133":14563,"8254":14564,"8153":14565,"8630":14566,"8228":14567,"8266":14568,"8748":14569,"8276":14570,"9136":14571,"9105":14572,"9174":14573,"9145":14574,"9143":14575,"9133":14576,"9655":14577,"9677":14578,"9407":14579,"9408":14580,"9608":14581,"9873":14582,"9379":14583,"9907":14584,"9801":14585,"9797":14586,"9702":14587,"Aim":14588,"Ana":14589,"Aida":14590,"AFDA":14591,"AEBE":14592,"AFBD":14593,"AFEF":14594,"AFFF":14595,"ABAF":14596,"Azu":14597,"Amine":14598,"BECA":14599,"BFDA":14600,"BFBB":14601,"BECF":14602,"BFDC":14603,"CH":14604,"CU":14605,"Cro":14606,"Cig":14607,"CBAB":14608,"CBAD":14609,"CFEE":14610,"CFAF":14611,"Cusi":14612,"Dis":14613,"DFCD":14614,"DEBB":14615,"DBAA":14616,"DFAB":14617,"DEDA":14618,"DFAE":14619,"Eo":14620,"Ele":14621,"ENT":14622,"EEBE":14623,"EFBB":14624,"EFCF":14625,"EFCA":14626,"EBAA":14627,"EFBF":14628,"Enit":14629,"EjO":14630,"FFCB":14631,"FEDF":14632,"FFCF":14633,"FFAD":14634,"FBAC":14635,"Fadul":14636,"Ferrada":14637,"Flash":14638,"Gara":14639,"Gando":14640,"How":14641,"IA":14642,"IMo":14643,"Iri":14644,"Ke":14645,"LO":14646,"Lora":14647,"Lech":14648,"Nos":14649,"Ot":14650,"Obra":14651,"Pos":14652,"Peni":14653,"Pello":14654,"Padilla":14655,"Sq":14656,"Sca":14657,"Sep":14658,"Sul":14659,"Samper":14660,"SOr":14661,"Sagu":14662,"Snoop":14663,"Tp":14664,"Tab":14665,"Tara":14666,"Tubi":14667,"Viso":14668,"Xix":14669,"Xxi":14670,"aer":14671,"aza":14672,"avedra":14673,"bac":14674,"blica":14675,"bler":14676,"dn":14677,"dur":14678,"dEr":14679,"fk":14680,"flight":14681,"gord":14682,"gart":14683,"gard":14684,"gami":14685,"gbee":14686,"gEnit":14687,"hetti":14688,"ial":14689,"ibi":14690,"jagan":14691,"kx":14692,"kon":14693,"kent":14694,"kis":14695,"lora":14696,"morg":14697,"mell":14698,"mki":14699,"nI":14700,"nimo":14701,"ocar":14702,"oat":14703,"oter":14704,"ound":14705,"oms":14706,"ocalla":14707,"oyama":14708,"pil":14709,"rl":14710,"rue":14711,"reno":14712,"swen":14713,"sUp":14714,"tI":14715,"tzi":14716,"tha":14717,"tts":14718,"ullar":14719,"vr":14720,"vbs":14721,"xamel":14722,"zona":14723,"onde":14724,"onario":14725,"tiva":14726,"tiVa":14727,"tega":14728,"law":14729,"lay":14730,"layu":14731,"laril":14732,"enter":14733,"enna":14734,"cop":14735,"color":14736,"copar":14737,"costa":14738,"cohel":14739,"coencuent":14740,"court":14741,"coloads":14742,"list":14743,"lita":14744,"capa":14745,"cador":14746,"ose":14747,"inio":14748,"agata":14749,"acere":14750,"cet":14751,"xtrac":14752,"deS":14753,"dedef":14754,"dego":14755,"devideos":14756,"deliver":14757,"desert":14758,"ection":14759,"echea":14760,"8011":14761,"8090":14762,"8035":14763,"8021":14764,"8012":14765,"8059":14766,"8053":14767,"80374":14768,"htar":14769,"orqu":14770,"orgi":14771,"orapia":14772,"lova":14773,"lodesert":14774,"ncho":14775,"dai":14776,"leu":14777,"lev":14778,"entre":14779,"imera":14780,"arac":14781,"arders":14782,"llana":14783,"Molino":14784,"quim":14785,"quena":14786,"loso":14787,"plan":14788,"plant":14789,"queruela":14790,"etter":14791,"resa":14792,"recer":14793,"repre":14794,"jstl":14795,"2587":14796,"2526":14797,"2559":14798,"2543":14799,"25509":14800,"25046":14801,"ison":14802,"isorio":14803,"civico":14804,"nthe":14805,"mbu":14806,"mbel":14807,"rope":14808,"roth":14809,"dick":14810,"diano":14811,"2738":14812,"2722":14813,"2771":14814,"2777":14815,"27110":14816,"27118":14817,"27750":14818,"27507":14819,"4075":14820,"4000":14821,"40174":14822,"40660":14823,"401012":14824,"alb":14825,"alen":14826,"almer":14827,"1039":14828,"1030":14829,"1016":14830,"1066":14831,"1053":14832,"1056":14833,"1052":14834,"10133":14835,"10200":14836,"carr":14837,"cary":14838,"noel":14839,"logna":14840,"anos":14841,"annette":14842,"ess":14843,"espinosa":14844,"rias":14845,"els":14846,"elen":14847,"elto":14848,"asdn":14849,"2017":14850,"2045":14851,"2062":14852,"2097":14853,"2076":14854,"2091":14855,"2043":14856,"6390":14857,"6305":14858,"6336":14859,"6371":14860,"6368":14861,"6381":14862,"6353":14863,"63185":14864,"63685":14865,"2980":14866,"2974":14867,"2987":14868,"2966":14869,"2973":14870,"2972":14871,"2958":14872,"2942":14873,"2952":14874,"2903":14875,"29855":14876,"292613":14877,"1720":14878,"1787":14879,"1748":14880,"1733":14881,"1754":14882,"1791":14883,"1706":14884,"1702":14885,"17133":14886,"17857":14887,"3830":14888,"3826":14889,"3818":14890,"3862":14891,"3888":14892,"3832":14893,"3876":14894,"3893":14895,"38782":14896,"1460":14897,"1436":14898,"1416":14899,"1431":14900,"1482":14901,"rose":14902,"2236":14903,"2242":14904,"22360":14905,"22398":14906,"6445":14907,"6437":14908,"6478":14909,"6441":14910,"6481":14911,"6496":14912,"64337":14913,"6561":14914,"6546":14915,"6011":14916,"6000":14917,"6066":14918,"6049":14919,"6003":14920,"1526":14921,"1531":14922,"1558":14923,"1507":14924,"15756":14925,"1920":14926,"1917":14927,"1949":14928,"19294":14929,"7487":14930,"7488":14931,"7461":14932,"7458":14933,"74167":14934,"74981":14935,"mai":14936,"main":14937,"3969":14938,"3900":14939,"3953":14940,"6928":14941,"6935":14942,"6986":14943,"6994":14944,"6918":14945,"6916":14946,"6982":14947,"6941":14948,"6902":14949,"2864":14950,"2875":14951,"28179":14952,"28646":14953,"28605":14954,"ils":14955,"toole":14956,"8963":14957,"8986":14958,"8934":14959,"8983":14960,"8944":14961,"8966":14962,"89091":14963,"2314":14964,"2364":14965,"2328":14966,"2330":14967,"2311":14968,"2324":14969,"2366":14970,"2371":14971,"2368":14972,"2306":14973,"Reach":14974,"7029":14975,"7067":14976,"7077":14977,"7046":14978,"7053":14979,"7007":14980,"703129":14981,"4523":14982,"4526":14983,"4549":14984,"4547":14985,"4508":14986,"45355":14987,"45892":14988,"456559":14989,"8510":14990,"8563":14991,"8560":14992,"8519":14993,"8584":14994,"8521":14995,"8548":14996,"8549":14997,"8581":14998,"8597":14999,"6765":15000,"6730":15001,"6788":15002,"67347":15003,"EDFC":15004,"EDAB":15005,"EDCE":15006,"2535":15007,"carrillo":15008,"amunt":15009,"3019":15010,"3000":15011,"3049":15012,"3054":15013,"11139":15014,"8717":15015,"8764":15016,"872417":15017,"BAda":15018,"BADC":15019,"2440":15020,"2414":15021,"2465":15022,"2421":15023,"2436":15024,"atri":15025,"atApp":15026,"atzin":15027,"CCEA":15028,"CCBE":15029,"FBCB":15030,"9080":15031,"9020":15032,"9074":15033,"9084":15034,"9059":15035,"9032":15036,"7540":15037,"7569":15038,"7521":15039,"7537":15040,"7501":15041,"7576":15042,"7507":15043,"7508":15044,"DDEC":15045,"DDBD":15046,"FAFA":15047,"FACA":15048,"FAAA":15049,"FADC":15050,"FABD":15051,"3555":15052,"3566":15053,"3597":15054,"3591":15055,"3596":15056,"8665":15057,"8684":15058,"8626":15059,"acid":15060,"ECBF":15061,"8419":15062,"8484":15063,"8483":15064,"8416":15065,"8479":15066,"8472":15067,"FCAF":15068,"3417":15069,"3415":15070,"3487":15071,"3436":15072,"3461":15073,"3491":15074,"34834":15075,"34634":15076,"34706":15077,"2663":15078,"26862":15079,"EACB":15080,"EADE":15081,"EAAE":15082,"chos":15083,"chim":15084,"challenge":15085,"chine":15086,"chwal":15087,"chajes":15088,"9422":15089,"9435":15090,"FDFF":15091,"2127":15092,"2140":15093,"2117":15094,"9560":15095,"9532":15096,"9506":15097,"9502":15098,"8336":15099,"rai":15100,"radz":15101,"ravea":15102,"DAED":15103,"0515":15104,"0539":15105,"0513":15106,"0594":15107,"0512":15108,"0549":15109,"0553":15110,"05120":15111,"05146":15112,"3780":15113,"3765":15114,"3719":15115,"3713":15116,"3735":15117,"3777":15118,"idera":15119,"CAFA":15120,"CADC":15121,"CABD":15122,"CABC":15123,"CABE":15124,"CAAC":15125,"CAAE":15126,"CABF":15127,"BBFC":15128,"BBBB":15129,"FEED":15130,"FEEC":15131,"FEEE":15132,"FEEF":15133,"3660":15134,"3688":15135,"36276":15136,"1883":15137,"1627":15138,"1628":15139,"16118":15140,"16227":15141,"5564":15142,"5528":15143,"5544":15144,"5588":15145,"5504":15146,"5558":15147,"55294":15148,"55739":15149,"556455":15150,"7927":15151,"7919":15152,"7983":15153,"7998":15154,"7962":15155,"7976":15156,"79110":15157,"79845":15158,"AABA":15159,"AAEA":15160,"corba":15161,"CBED":15162,"CBCB":15163,"CBFF":15164,"CBDB":15165,"CDCB":15166,"CDFF":15167,"CDEE":15168,"FFDD":15169,"EECC":15170,"EEFB":15171,"EEEE":15172,"0044":15173,"0097":15174,"7825":15175,"7886":15176,"7888":15177,"4430":15178,"4477":15179,"4468":15180,"4433":15181,"4491":15182,"44627":15183,"usia":15184,"uspar":15185,"31229":15186,"316945":15187,"3117060":15188,"DBFC":15189,"DBEA":15190,"DBFD":15191,"DBDE":15192,"DBCE":15193,"9963":15194,"9970":15195,"6640":15196,"6610":15197,"6665":15198,"6683":15199,"7180":15200,"7122":15201,"7185":15202,"teracti":15203,"9864":15204,"9845":15205,"9867":15206,"9834":15207,"9826":15208,"9821":15209,"ABDA":15210,"ABFE":15211,"5064":15212,"5015":15213,"5089":15214,"5087":15215,"5035":15216,"5021":15217,"5031":15218,"5097":15219,"5043":15220,"50155":15221,"50494":15222,"7780":15223,"7722":15224,"7768":15225,"4811":15226,"4826":15227,"4888":15228,"DCFC":15229,"DCEA":15230,"6819":15231,"6845":15232,"6888":15233,"68259":15234,"7380":15235,"7360":15236,"7323":15237,"7334":15238,"7333":15239,"2704110":15240,"4913":15241,"49118":15242,"istina":15243,"6225":15244,"6260":15245,"6215":15246,"CFDD":15247,"CECC":15248,"CEFF":15249,"3374":15250,"DFBA":15251,"8814":15252,"8865":15253,"8886":15254,"8818":15255,"88899":15256,"4789":15257,"4723":15258,"4771":15259,"BDFF":15260,"task":15261,"ADFA":15262,"ADFD":15263,"0930":15264,"0962":15265,"09227":15266,"09343":15267,"09692":15268,"vital":15269,"vizu":15270,"10120":15271,"BECC":15272,"6129":15273,"6138":15274,"6160":15275,"611305":15276,"ACFB":15277,"4129":15278,"5910":15279,"5726":15280,"5762":15281,"AFCC":15282,"AFDD":15283,"BFEC":15284,"0138":15285,"0121":15286,"gowan":15287,"goatApp":15288,"martin":15289,"mareu":15290,"marbella":15291,"5417":15292,"5464":15293,"5439":15294,"5426":15295,"5431":15296,"5432":15297,"25211":15298,"8127":15299,"8140":15300,"8163":15301,"8114":15302,"8189":15303,"8185":15304,"menia":15305,"9720":15306,"9763":15307,"9714":15308,"9722":15309,"9774":15310,"9785":15311,"9734":15312,"igler":15313,"iguez":15314,"iglesias":15315,"Mauri":15316,"Madri":15317,"Mateo":15318,"Mancha":15319,"Maestre":15320,"0463":15321,"0417":15322,"0494":15323,"0436":15324,"04393":15325,"hed":15326,"hew":15327,"header":15328,"heRr":15329,"vegas":15330,"veQuery":15331,"7680":15332,"Colom":15333,"9114":15334,"91672":15335,"4363":15336,"4360":15337,"4330":15338,"43179":15339,"43694":15340,"bron":15341,"4626":15342,"5867":15343,"58281":15344,"9310":15345,"9363":15346,"5322":15347,"5375":15348,"first":15349,"5660":15350,"5615":15351,"5674":15352,"5628":15353,"5689":15354,"5685":15355,"9621":15356,"9618":15357,"0769":15358,"0795":15359,"07142":15360,"4214":15361,"atemala":15362,"Fide":15363,"9215":15364,"9211":15365,"5263":15366,"5219":15367,"5239":15368,"0822":15369,"08697":15370,"03603":15371,"0689":15372,"0618":15373,"Deser":15374,"Dean":15375,"Dego":15376,"iah":15377,"javas":15378,"adonde":15379,"artalleres":15380,"absi":15381,"9890":15382,"Alg":15383,"Alma":15384,"Altas":15385,"Almar":15386,"Almon":15387,"VAnT":15388,"Parc":15389,"Saiz":15390,"Saavedra":15391,"eyen":15392,"footer":15393,"verif":15394,"manek":15395,"delbi":15396,"delly":15397,"1226":15398,"1109":15399,"boarders":15400,"LaN":15401,"tuno":15402,"Vidal":15403,"1234":15404,"12300":15405,"Arme":15406,"Arena":15407,"Arcos":15408,"Arlat":15409,"Arvizu":15410,"tradedef":15411,"nece":15412,"newf":15413,"gala":15414,"create":15415,"rupa":15416,"rudos":15417,"rubir":15418,"sole":15419,"soelto":15420,"Guatemala":15421,"guil":15422,"29012":15423,"Mare":15424,"Martel":15425,"Carran":15426,"llor":15427,"edy":15428,"eden":15429,"fichajes":15430,"Cubil":15431,"Roda":15432,"hoe":15433,"hous":15434,"CaR":15435,"Canu":15436,"Caza":15437,"Cabrera":15438,"Caballer":15439,"sevilla":15440,"sepul":15441,"Bahab":15442,"Pay":15443,"Paoli":15444,"Paiva":15445,"incisorio":15446,"Legan":15447,"oweb":15448,"Corne":15449,"Cordoba":15450,"Corachan":15451,"toras":15452,"crIn":15453,"lando":15454,"lanes":15455,"thBypass":15456,"viesca":15457,"25716686":15458,"Monzon":15459,"vard":15460,"Burg":15461,"Buran":15462,"Villava":15463,"barboqu":15464,"ToReach":15465,"19184":15466,"26324":15467,"19065":15468,"87238782":15469,"80082":15470,"1857":15471,"Palmer":15472,"webhut":15473,"10867":15474,"1896":15475,"189160":15476,"1293":15477,"steven":15478,"Bologna":15479,"chiapa":15480,"zoorapia":15481,"cker":15482,"kang":15483,"1631":15484,"1632":15485,"Tersi":15486,"1205":15487,"reto":15488,"2646":15489,"15940":15490,"26526":15491,"15819238":15492,"muni":15493,"22770":15494,"16076":15495,"2208":15496,"40541":15497,"RaS":15498,"Rahal":15499,"Raich":15500,"Raidon":15501,"1672":15502,"cones":15503,"1806":15504,"180849":15505,"Rios":15506,"Riffo":15507,"piacere":15508,"12721422":15509,"12415":15510,"15338":15511,"Poza":15512,"1408":15513,"14005":15514,"675744":15515,"Civil":15516,"CDAA":15517,"CDAC":15518,"ligan":15519,"6651":15520,"6657":15521,"2796424":15522,"6709":15523,"8453":15524,"8391":15525,"22468":15526,"schat":15527,"hermoso":15528,"10640":15529,"10610":15530,"2399":15531,"16812":15532,"89470":15533,"Ortega":15534,"87514":15535,"87549":15536,"2471595":15537,"1837":15538,"698855":15539,"bugbee":15540,"65532":15541,"34485":15542,"2601":15543,"2609":15544,"EEAF":15545,"3371":15546,"74518":15547,"Berto":15548,"Bergon":15549,"shapi":15550,"84475356":15551,"26812":15552,"Jaime":15553,"6286":15554,"6287":15555,"6749":15556,"7957":15557,
[...]
