#version: 0.2
o n
t i
t e
l a
e n
m l
c o
l i
c a
o s
i n
a g
ti on
a c
c e
p t
n ac
ce pt
nac cept
z i
x t
te xt
x ml
e r
d e
e c
a p
os t
li ca
ap p
lica tion
app lication
8 0
h ost
n g
ag e
h t
de f
la te
Ġ (
H T
Ġ x
zi p
g zip
def late
ht ml
Ġ K
o r
l o
n c
nc on
en co
d a
i e
l e
en t
p a
i m
s er
a r
o k
co ok
n u
l la
cook ie
la ng
S I
ca l
lo cal
local host
u age
lang uage
S E
co m
S SI
SE SSI
in g
k e
M o
k o
/ *
u x
T P
L in
Ġ c
n ec
d ing
nu ser
ag ent
ec ko
enco ding
G ecko
n host
Ġ /
Ġ en
Ġ HT
Ġ localhost
Ġ Mo
Ġ Lin
Ġ Gecko
zi lla
ncon nec
ĠHT TP
ĠMo zilla
ĠLin ux
nconnec tion
* /*
Ġ gzip
Ġ deflate
n cookie
q u
I D
Ġ text
l os
*/* ;
O N
J SESSI
Ġ JSESSI
ON ID
ĠJSESSI ONID
im age
b le
p la
, */*;
p ng
pla in
qu er
x html
pa ti
li ke
on quer
los e
) \
M L
HT ML
ĠK onquer
ĠK HTML
com pati
Ġc lose
ĠKonquer or
compati ble
80 80
ti en
tien da
e t
r e
j s
2 5
js p
g et
i s
w w
c i
p u
n t
b li
pu bli
publi co
m b
r o
d i
2 7
is t
g ist
r ar
d o
r ec
m o
u r
4 0
a l
f or
Ġ application
mo do
t y
1 0
p e
ca r
n o
ur l
for m
te nt
ncon tent
ty pe
de d
ww w
enco ded
url encoded
p ost
lo g
a n
e s
r i
e l
a s
2 0
n i
da d
mb re
no mbre
6 3
log in
re gist
regist ro
2 9
1 7
ci a
3 8
1 4
s s
i o
r os
2 2
6 4
6 5
6 0
1 5
1 9
7 4
m a
3 9
6 9
2 8
i l
m ie
mb ros
mie mbros
p ro
s t
t o
8 9
2 3
R e
1 3
7 0
4 5
8 5
a di
pa ss
li d
pass w
or d
v in
n ti
t ar
u dad
adi r
ci on
n modo
e ma
passw ord
nt c
di rec
ap el
c p
pro vin
ema il
d ni
p rec
ci udad
lid os
direc cion
apel lidos
provin cia
prec io
gist rar
Re gistrar
6 7
E D
25 3
car ri
a m
carri to
3 0
1 1
8 7
B A
ent rar
2 4
a t
en es
ag enes
im agenes
C C
F B
9 0
7 5
D D
F A
3 5
8 6
ac i
E C
8 4
F C
3 4
2 6
E A
aci ar
c h
a u
9 4
F D
2 1
E B
9 5
j a
g i
8 3
r a
D A
0 5
m e
3 7
25 6
i d
C A
B B
e b
F E
gi f
3 6
1 8
1 6
5 5
7 9
A A
co r
C B
C D
F F
E E
0 0
7 8
4 4
w d
e di
u s
an adir
3 1
au te
le s
nti car
aute nticar
p wd
ag ar
edi tar
mb er
ca nti
canti dad
+ &
D B
re me
p agar
reme mber
9 9
E nt
6 6
7 1
Ent rar
te r
in ser
inser tar
9 8
E F
A B
5 0
ni d
7 7
ca s
4 8
s ec
D C
6 8
1 2
7 3
n er
10 0
27 0
4 9
M s
is ti
b al
14 2
ac ter
car acter
isti cas
caracter isticas
en cia
6 2
d is
v aciar
D E
C F
j p
is s
C E
jp g
r or
3 3
= %
Ms g
ror Msg
g lo
re f
f et
glo bal
n sec
D F
fet ch
st at
m iss
stat us
dis miss
8 8
i r
4 7
8 2
s i
B D
t as
A D
B C
0 9
v i
re d
10 1
B E
6 1
A C
a li
4 1
V aciar
5 9
5 7
A F
A E
Z R
B F
cor rec
C red
in correc
encia les
Cred enciales
incorrec tas
0 1
t os
g o
m ar
+ %
5 4
17 3
w i
25 2
7 2
8 1
j o
- -
G o
W eb
m en
3 2
f f
9 7
i g
M a
0 4
h e
m v
Go at
Web Goat
v e
5 173
25 0
C al
P as
7 6
am p
log o
C o
9 1
p or
C on
N D
4 3
b r
4 6
25 63
am e
5 8
mv c
9 3
5 3
Cal le
f ir
5 6
Con fir
Confir mar
9 6
o ff
c ri
W x
0 7
5 1
4 2
a te
Pas ar
J l
s I
ca ja
F i
cri pt
n B
9 2
i t
a j
in o
5 2
0 8
t p
Q u
0 3
on s
0 6
25 74
ht tp
o x
R io
e p
nu e
on ti
C I
D e
i a
si te
M j
" :
w el
in de
mo de
ner rorMsg
inde x
r v
z a
wel com
ja v
{ "
U S
: /
b m
er er
Co de
P H
ig in
i ec
20 100
ref ox
s ame
Ġ ke
Ġ Fi
Ġ rv
ali ve
20100 101
Ġke ep
ĠFi refox
er rorMsg
eb an
Ġ same
or igin
u l
z st
Ġ br
Ġ zst
st ate
onti nue
Ġzst d
= {"
P SESSI
} ;
Ġ g
Ġ cook
Ġ language
Ġ welcom
Ġ PH
Ġc ontinue
ons ent
iec onsent
eban ner
PSESSI D
Ġcook ieconsent
Ġwelcom ebanner
ĠPH PSESSID
Ġcontinue Code
n ref
Ġ http
:/ /
nref erer
Rio ja
I i
0 2
nc he
a d
er t
le ss
no v
G M
I jo
cor s
z m
ar t
D O
u m
less on
y O
19 9
a b
Qu es
Ma nche
Manche go
-- %
o l
9 89
A l
3 60
V A
P ar
as f
C J
wi de
V ino
i O
E Q
B bm
K yO
L zm
P J
Q DO
X k
Y VA
g YVA
q PJ
w Wx
z ZR
re ZR
al ND
Jl GM
nov p
Bbm zZR
KyO qPJ
Lzm Xk
gYVA JlGM
wWx alND
reZR LzmXk
BbmzZR b
as cript
FB E
Z X
ac k
jav ascript
S a
Ques o
i J
Ijo i
25 29
Ġ cors
94 1
d u
25 69
M T
25 65
I b
w a
L CJ
J am
ri co
u n
h i
S C
b f
de la
I P
SC R
IP T
on a
t a
e y
28 3
z ar
al ert
Par os
4 199
st art
B T
989 941
25 22
f o
js on
v a
wa it
amp er
B wait
dela y
Bwait for
v er
b a
m an
de l
S et
1 22
Y W
a da
BT amper
s a
1 10
b o
L a
t u
an y
u e
V i
Ġ q
Ġ */*;
er ra
n a
o g
ser vi
38 7
1 23
A r
t ra
74 7
servi ce
M D
N T
c m
70 98
283 36
d bf
7098 101
dbf d
Z W
N z
G F
A Set
Ii wi
c ss
on o
ey J
n e
du c
g a
h a
z d
M z
r an
c re
25 28
F N
V al
Y m
r u
l s
63 7
pro duc
256 1
d CI
es ti
s o
C SCR
E alert
S an
G V
er a
63 63
ti tu
G u
esti los
60 05
s ali
13 6
l u
ca st
64 20
fo tos
es tra
b i
re s
69 0
48 39
g u
ti erra
sI m
b ul
29 0
au z
cre di
sali r
j ack
men um
titu lo
credi tos
zar auz
nu estra
nuestra tierra
i LCJ
cast ro
e a
e x
og ono
produc tos
M ar
C as
c men
cmen bul
387 25
B ar
Ġ hi
17 6363
74 6420
78 6005
62 38725
4839 122
Ġhi jack
176363 4839122
746420 6238725
786005 7464206238725
pa ros
R B
C ar
I w
80 82
7 30
25 27
n V
l l
26 40
or a
iO iJ
10 41
747 27
23 5
253 74727
110 25374727
2640 11025374727
1041 264011025374727
f a
J u
an a
25 70
R l
N j
29 7
e d
25 73
s b
f i
23 4
C u
R o
4 86
d X
h o
MT E
F s
Sa nt
22 1
87 6
I j
C a
or g
s e
ZW RB
ZWRB dCI
R O
p Y
B a
P a
l Ijoi
p b
t YW
in c
L e
ar a
S e
o w
amp les
-- &
in a
er o
ur i
27 1
87 89
id A
nid A
C or
t or
Ġ t
b er
cm d
N a
u el
Y X
A ND
c r
la n
4 66
C s
m i
ce l
b G
N y
90 30
13 0
E s
d ri
si on
25 72
men u
lesson menu
b e
A g
Z GF
l d
O L
g e
i da
27 8789
. +
t h
2529 278789
136 2529278789
486 1362529278789
4861362529278789 730
en te
83 2563
637 832563
690 9030
637832563 290
6909030 637832563290
L j
v ie
v o
25 7
Mj U
M on
T E
la s
ED a
v ar
ag o
precio A
B ur
un d
do c
n ame
es sion
Vi lla
U z
W F
m U
y a
17 0
g os
I N
nerrorMsg A
errorMsg A
8 34
u ser
65 20
b ar
90 90
T o
p er
s ty
19 1
EC T
Y z
T or
el l
bo b
cel ona
al l
17 9
2 63
Z j
c y
p o
x y
o ver
vie w
en a
pro xy
li n
i pt
m in
p os
19 0
CSCR ipt
paros proxy
Fs cr
Fscr IPT
pu t
87 2
55 67
h c
ar r
15 5
de s
O T
F SCR
CSCR IPT
FSCR IPT
P l
57 6520
234 876
5567 234876
576520 5567234876
5765205567234876 235
1 65
c u
80 0
qu e
Sa la
Bur gos
+ --%
1 85
t Mj
t MTE
65 75
Ijoi Iiwi
Iw MjU
Ij IwMjU
tMTE tMj
IjIwMjU tMTEtMj
13 5
pY y
m er
10 5
19 4
D el
t r
over view
/ .
lesson overview
sty le
17 7
15 4
user name
P al
15 0
l or
w eb
25 64
25 67
10 8
17 4
25 20
14 5
1 89
11 8
1 29
L E
14 3
2 40
g ro
c gi
45 297
um ent
doc ument
s te
B o
a ea
17 5
17 8
ch i
Z Wx
k ZWx
40 9
z o
14 7
c k
14 4
1 64
b ack
O W
Gu ada
E x
s v
27 5
d er
6 60
Z ar
dri d
A R
10 3
vi a
k a
iO i
1 63
A url
A alert
T er
gro und
back ground
1 20
P u
a lla
r et
2 64
F RO
15 9
69 7
FRO M
28 5
j J
13 4
19 3
19 7
13 3
2 65
123 12
G d
M CI
40 0
MD U
h Z
15 8
123 12312
ession id
m u
25 4
2 27
2 45
6 20
25 75
1 60
E X
65 0
ri a
ar i
2 20
80 5
40 5
man ca
/ \
R a
15 7
69 4
X A
nombre A
14 8
1 67
c on
Sala manca
EX EC
li a
19 5
uri ty
L u
256 8
1 80
10 7
C am
R i
j ara
p i
sI nV
1 27
1 24
25 5
sec urity
1 39
l lo
login A
15 3
ok en
O iJ
c H
14 6
6 85
P o
Bar celona
8 70
P la
Z l
1 40
Ġ */*
Ġ*/* \
d or
la jara
ago za
67 5
67 9
I Cs
L B
M y
w MD
ow MCI
IjIwMjUtMTEtMj Ag
ICs wMD
ICswMD owMCI
3 74
29 9
39 0
Guada lajara
C h
C i
29 4
e z
la r
19 2
1 28
C DA
M v
li g
10 9
H u
10 4
t l
38 9
3 75
6 65
te s
27 9
63 0
Sant a
A v
J v
63 4
69 5
6 70
E l
8 45
15 6
8 39
8 35
si ble
im pos
25 9
as p
impos sible
B EA
K V
M iOiJ
N iJ
Q iLCJ
S Uz
W Nj
Y SI
Z CI
e XA
h Ym
h bG
p ZCI
z L
z ZX
SI sI
ci OiJ
22 4
ZX Nz
Iiwi ZGF
eyJ zd
eyJ pZCI
zd WNj
iOiJ KV
Ju YW
dX MiOiJ
Ġt oken
QiLCJ hbG
SUz I
eXA iOiJKV
zZX JuYW
ciOiJ SUzI
ZXNz IiwiZGF
eyJzd GF
zdWNj ZXNzIiwiZGF
dXMiOiJ zdWNjZXNzIiwiZGF
QiLCJhbG ciOiJSUzI
s ch
h er
os a
ar d
87 7
vi la
modo A
69 9
nmodo A
24 4
Zar agoza
F H
y o
10 6
20 0
ED B
s essionid
l y
80 4
38 4
Ġ security
63 9
30 0
ol d
2 39
D EA
13 7
A d
23 0
CC B
EC A
16 8
n s
38 5
89 4
FA A
P i
14 9
63 8
64 9
G ir
O r
64 4
87 5
24 7
24 8
EC D
1 84
ca t
74 4
89 0
1 83
FD A
EB E
3 35
27 7
69 8
24 9
Pal encia
B BA
b u
c f
63 5
2 29
Z am
+ .
64 5
19 8
27 4
FC D
80 9
65 4
65 5
34 4
Val encia
2 60
3 30
C EA
E EA
17 6
35 5
FD F
7 60
7 39
85 5
Ter uel
U b
or ia
3 37
ur a
74 5
B er
b in
67 7
FB B
s h
20 4
O ld
89 9
Ma drid
fi le
Zam ora
L I
W U
n R
u M
1 69
P g
70 9
84 4
EB C
k r
ac h
40 7
an d
20 5
FC B
26 8
18 8
E FA
I sIm
J a
ED F
6 28
U iLCJ
e GV
in t
80 7
40 8
11 2
Ii LCJ
bi I
OL D
WF n
tl biI
eGV Ub
E CC
y b
ci o
60 0
1 17
6 74
7 95
9 75
e li
m c
29 5
BA B
FC F
EB D
1 25
E R
n te
15 2
70 5
45 9
EB B
40 4
3 39
i b
60 4
ED E
11 1
FC A
R zL
8 28
F DD
S o
r at
t s
70 7
lig ht
A M
B CA
D CC
F k
O R
14 1
13 2
70 0
ED C
BA D
3 15
6 27
0 95
F EA
h u
3 17
6 10
en ca
64 8
EC E
1 87
6 80
F r
V alla
l er
65 7
jav a
1 21
5 05
D CA
BA A
FA B
Na var
4 45
do lid
60 9
19 6
23 7
85 0
ED A
FB D
EC B
EC F
FD B
he me
3 28
F G
Q iOi
d d
FC E
go via
6 89
L le
i z
29 8
FD C
A n
38 8
37 7
Rl Z
Valla dolid
I nc
d b
AA A
Se govia
2 13
li ng
27 3
27 8
85 7
21 8
A CA
v es
40 3
20 9
45 5
85 9
FA D
ue la
P er
h or
25 8
FA C
FE E
16 2
65 9
ED n
87 9
75 0
FE F
E u
m s
le y
29 2
64 6
67 3
C BB
D BB
25 40
20 7
FB F
35 7
EB F
EE F
Ġt heme
A DD
B CC
E n
28 9
35 0
25 00
1 38
N B
g ar
i li
23 3
FB C
FA F
Rl b
B sb
F u
b d
x pYy
CD B
ZX Mv
ZX RzL
Nz ZXRzL
Ym xpYy
dX Bsb
pb WFn
YX NzZXRzL
Fk cy
ZXMv dXBsb
pbWFn ZXMvdXBsb
* +
1 13
ti n
84 8
ba k
Navar ra
Lle ida
A CB
G ran
i lla
m on
69 3
BA C
16 6
ad min
Cu enca
1 19
A DA
A BB
B DA
e g
17 2
90 9
35 9
le t
23 6
BA E
Gir ona
D o
a X
j cm
60 7
ED D
sI ml
Mz Y
jcm V
1 15
P AR
i c
k i
r as
Ba k
A EA
J ECT
w f
22 3
69 6
FA E
34 9
EE E
IN JECT
PAR AM
INJECT ED
39 5
75 9
83 7
40 6
22 8
90 0
35 8
FF F
F a
S i
b j
64 7
28 8
B DD
F CC
64 3
60 5
89 5
84 9
D CB
Q x
y d
30 5
87 8
24 3
26 6
RlZ EF
l tYW
r m
10 2
45 0
BA F
ltYW d
u nt
45 4
67 8
30 7
BA K
75 8
2 17
B DB
le do
15 1
28 4
28 7
il lo
A y
20 8
Cas te
0 94
2 80
3 80
A FB
B u
r f
r er
h h
63 6
2 38
h d
sec ret
N v
T arr
e m
ar chi
es ca
archi vo
C ED
lo ca
67 2
us u
i q
s u
CD F
To ledo
B CB
39 9
21 6
E FD
s Z
ag ona
65 8
60 8
89 7
86 8
H ER
Z S
f er
DA C
AB LE
HER E
C DD
F FC
g en
20 6
75 5
+ *+
1 26
2 10
D RO
K E
L ECT
T ABLE
W HERE
s on
80 3
da tos
SE LECT
85 4
lu de
inc lude
ari os
LI KE
usu arios
DRO P
B M
G ls
v an
ag a
am i
35 4
95 4
L i
e la
29 3
22 6
70 4
05 4
36 8
A CC
g r
65 3
45 8
F h
G ar
Y o
k q
p d
39 4
13 1
90 8
EA E
Ju an
B CD
84 7
34 8
68 8
l w
v en
te l
40 40
17 1
30 4
j e
80 8
74 8
75 7
79 9
+ -
D ED
D CD
et c
74 3
67 6
DD F
21 2
37 6
ex ec
IN C
secret o
0 85
R w
R pd
U ltYWd
V jcmV
Z V
Z ml
a vi
b nV
h dCI
o F
w ZGF
ci LCJ
20 3
29 1
89 8
30 9
DD C
Al b
iO nR
MT c
ZW F
Mz Yz
sIm Ny
sb H
mU iOnR
IjoiIiwi aX
sInV wZGF
cH Jv
WU sImNy
NB Y
Rlb GV
sIml hdCI
yd WUsImNy
Tarr agona
sZ UltYWd
Rw U
Rpd mUiOnR
Zml sZUltYWd
bnV sbH
IjoiIiwiaX NBY
cHJv ZmlsZUltYWd
ydWUsImNy ZWF
RpdmUiOnR ydWUsImNyZWF
cHJvZmlsZUltYWd lIjoi
B cat
F passw
F etc
R u
S oria
U r
ar es
45 7
11 6
87 3
DD D
Fpassw d
5 95
A DB
J h
L m
M b
W r
d on
r w
37 3
AA D
D Q
M Wr
P ea
X V
Y Rl
Z MWr
g jJ
m as
m OL
n mv
w K
24 6
at a
CB D
br gjJ
Ny XV
Ex W
BM NyXV
kq YRl
Pea BMNyXV
ZMWr X
mOL brgjJ
nmv d
kqYRl ExW
mOLbrgjJ wK
A ED
A EB
C EC
29 6
38 3
39 3
90 4
EA B
94 8
ack er
B style
L os
ce res
er i
di r
CC C
86 6
94 4
18 2
pb k
7 79
D BA
F FD
J k
Q Gd
R j
R Mb
V zd
Z TE
b SIsI
d pbk
l hYm
s et
t ZX
w YW
x lIjoi
x hc
DA A
Jl NT
nB hc
Ii IsIm
Ijoi ZTE
NT lhYm
Mz k
ls Lm
Iw Zj
tYW lsLm
Zj IwZj
OW Jh
Zl MDU
UiLCJ yb
IiLCJ kZWx
Nv bSIsI
Jk IjoiZTE
QGd tYWlsLm
Rj Mzk
Vzd G
dpbk lw
tZX IiLCJkZWx
wYW RjMzk
xlIjoi Y
JlNT ZlMDU
IiIsIm xhc
NTlhYm JlNTZlMDU
ZjIwZj g
OWJh NTlhYmJlNTZlMDU
NvbSIsI nBhc
JkIjoiZTE wYWRjMzk
QGdtYWlsLm NvbSIsInBhc
B EB
C an
D EB
F FA
pa r
CC D
26 1
5 44
B ED
C FA
J os
80 81
37 9
CB E
amp le
E EC
E document
F cookie
F cgi
a z
e i
80 6
22 2
39 7
39 8
24 1
AA F
jo z
ex ample
Fs cript
Cs cript
ste al
loca tion
Fh acker
Fcookie steal
F EC
b ff
253 20
34 7
BB F
B ada
E ED
F er
75 4
CB C
DB C
49 3
ed f
bff c
2 67
A FC
M or
N k
N o
N mU
j u
z H
90 5
95 0
A BA
A FA
B DC
s d
z g
63 1
74 1
74 9
95 5
A CD
E FF
F EB
H Y
H Z
Ġ no
Ġ/ _
25 78
DB D
3 27
C FB
E BA
E FC
e o
t z
ch a
95 9
05 5
B FF
n j
lica nte
65 6
60 6
70 8
84 6
B FE
li o
38 6
64 1
69 1
EA A
BB B
Bada joz
2 19
A DC
C FD
et a
40 1
EA D
DA D
78 8
44 7
B EF
D a
E EB
I s
h an
ag u
74 6
90 7
BB E
A FF
F BA
ie l
89 3
84 2
84 3
EA C
2 14
d ra
80 1
38 1
st a
70 3
94 9
79 7
vi lla
Pl za
0 64
4 85
C amp
D FB
P e
S amples
p ol
ci c
CA A
CA E
16 1
CB F
B EC
J c
m p
p h
27 6
DA E
AB C
b y
z c
89 2
CC E
DA B
CA B
99 7
Gran ada
0 05
1 14
1 86
C FC
D FE
L o
M an
m A
60 3
85 3
90 6
75 3
75 6
83 6
pwd A
DB F
Ca nt
0 63
A EC
A licante
C X
M i
e te
23 1
23 2
DD B
CA D
36 6
AB F
ad or
sv g
5 00
A FE
A EE
A CE
D FF
P ed
h ha
s amples
85 8
34 6
DA F
AA E
remember A
50 9
77 7
49 7
0 35
3 70
4 63
4 64
D FD
I nV
DD E
256 2
66 8
0 87
A FD
C EF
D EE
H O
V tYW
l sI
r y
w QGdtYWlsLmNvbSIsInBhc
ml ra
SI sIm
25 1
65 2
89 6
84 1
34 3
83 3
18 1
Ms InV
jo ib
Mj MsInV
lIjoi Q
Lj Y
MzY wQGdtYWlsLmNvbSIsInBhc
Gls LjY
hha SIsIm
VtYW lsI
mlra GlsLjY
joib mlraGlsLjY
MjMsInV zZXJuYW
hhaSIsIm VtYWlsI
hhaSIsImVtYWlsI joibmlraGlsLjY
C FF
E FE
e O
63 2
28 6
83 2
A CF
Y e
Z b
b an
m or
t on
en i
CC F
79 8
50 7
ru z
4 94
c ke
39 6
69 2
45 6
67 1
26 2
C BA
C EE
D FC
D EF
e u
l L
45 3
30 6
ch o
ran s
Hu esca
A DE
B V
E FB
r U
28 1
94 3
por t
7 15
B CE
P y
_ _
g s
g ra
40 2
ri o
28 2
37 8
CA C
36 1
C ab
F w
H er
c za
CC A
35 6
0 90
8 85
B ZV
F FB
G bj
H Mo
I uM
M X
O Q
Q R
Q v
S QR
T Z
T s
T w
U oF
V x
W Q
W Yo
W lL
X Gbj
Z HY
a LB
b CX
f r
f z
k d
k HO
o im
q x
q cic
w bm
w WlL
x ZHY
y Pa
y My
y qcic
z jJ
on Qv
ok FC
27 2
ur V
65 1
jpg yPa
ND My
Mj Eu
MT IuM
sa urV
MD c
NT U
Nz Uz
ne Fw
sIm RlbGV
RB neFw
pY eO
Yz bCX
IjoiIiwi cHJvZmlsZUltYWdlIjoi
pYy HMo
sv Vx
LB RBneFw
IjIwMjUtMTEtMjAg MTE
IjIwMjUtMTEtMjAg MDc
ICswMDowMCI sInVwZGF
ICswMDowMCI sImRlbGV
Ad qx
Pg LBRBneFw
Fr jpgyPa
hh mA
iq nj
MzYz NzUz
dpbklw IjoiIiwicHJvZmlsZUltYWdlIjoi
zH zjJ
HZ BZV
Ye Gd
Zb XGbj
BV Ts
Py wWlL
cza oim
OQ iqnj
SQR pYyHMo
TZ PgLBRBneFw
Tw zg
UoF TZPgLBRBneFw
WYo G
aLB yqcic
fz kr
kHO FrjpgyPa
wbm ciLCJ
onQv rw
okFC kHOFrjpgyPa
NDMy ICswMDowMCIsInVwZGF
MjEu NDMyICswMDowMCIsInVwZGF
MTIuM DA
pYeO aLByqcic
svVx hhmA
Adqx saurV
MzYzNzUz MX
dpbklwIjoiIiwicHJvZmlsZUltYWdlIjoi YXNzZXRzL
zHzjJ M
HZBZV H
ZbXGbj w
PywWlL YzbCX
czaoim Cu
OQiqnj rU
UoFTZPgLBRBneFw svVxhhmA
okFCkHOFrjpgyPa Twzg
pYeOaLByqcic B
UoFTZPgLBRBneFwsvVxhhmA xZHY
B FD
D FA
P in
g ue
l on
83 1
CA F
BB D
ex amples
3 14
B FB
B FA
B DE
co s
86 1
05 9
DC F
Cas t
I n
S u
d en
s en
63 3
79 3
CD C
71 2
Tor re
9 95
B r
M F
g y
70 2
90 3
ch ar
94 7
ab ria
4 89
C FE
F FE
O j
l en
86 2
99 9
DC E
6 87
B DF
C EB
F ED
c n
ce s
30 3
44 4
A EF
B CF
s k
AB D
all en
2 15
3 24
4 69
D EC
G a
L as
qu i
35 3
AA B
cantidad A
hor as
0 37
4 23
4 95
5 28
g er
o p
t t
v as
SE R
DD A
EA F
6 13
C er
U SER
v al
y u
60 2
ra nc
DB E
99 3
AB E
73 3
DE LE
Vi la
USER S
DELE TE
0 27
4 34
6 14
B EE
F K
d H
x M
68 1
Caste ll
M w
N S
S er
Y j
y MF
ca n
78 2
33 3
Mj Ay
Ijoi MjAy
YX RlZEF
OT M
Qx MT
xM S
yMF QxMT
IjoiMjAy NS
0 80
3 22
4 38
4 15
5 85
E r
T ra
U T
a no
d m
d y
h ar
p p
s al
20 2
60 1
39 2
24 2
ch e
FD E
7 85
B e
ED o
4 37
9 85
B FC
f e
re g
39 1
70 6
87 1
7 80
9 10
S al
p r
s amp
te ra
64 2
ntc A
aci on
BB C
CD E
7 69
A DF
d v
j an
p in
ht m
di o
ri c
AA C
88 8
Lj A
* %
0 60
os o
da r
cp A
email A
48 8
/ ?
0 38
I m
T a
i co
/* ;
45 2
am on
30 1
30 8
Cor u
0 23
2 25
4 90
5 80
6 40
J o
P or
en o
dni A
44 6
77 6
allen ge
E st
d r
Ġ image
web p
avi f
4 28
4 75
4 35
7 64
9 15
M er
ID E
ist rat
direccion A
apellidos A
44 9
CF IDE
cf m
admin istrat
administrat or
5 27
7 87
7 75
da n
20 1
89 1
66 2
it a
0 34
4 21
4 78
5 60
9 27
i x
in i
password A
3 63
4 10
4 17
4 74
5 79
6 86
9 94
A nt
M as
O D
Q sInV
38 2
98 8
Mj QsInV
ab ili
ha W
MjQsInV zZXJuYW
5 99
6 15
9 40
A st
F e
e lla
z an
Re al
ciudad A
05 6
0 20
0 14
2 69
34 2
05 7
66 6
Car rer
0 45
3 65
4 84
8 27
n et
er s
30 2
ul ner
4 67
5 40
5 23
8 10
9 35
G i
U i
50 8
Ch allenge
Ci udad
3 64
6 63
7 17
7 18
9 90
a f
pa n
provincia A
95 8
44 3
77 3
ns f
0 10
4 39
5 69
7 67
I l
ti es
st o
70 1
75 2
37 1
4 24
5 63
5 38
5 49
7 19
9 30
D u
do ba
59 3
Pla za
Cant abria
0 29
0 99
2 11
4 68
5 14
6 22
7 40
d os
o z
am ent
0 69
0 13
0 84
5 17
8 17
8 11
I O
L R
P W
v el
on io
ur en
il l
88 2
7 34
8 80
8 20
8 15
P on
f t
i p
v io
v ulner
w id
ce r
abili ties
vulner abilities
0 74
3 20
3 23
4 30
5 24
6 64
6 19
7 35
A b
o te
t rans
u g
v ti
di a
66 1
0 65
0 47
3 38
3 18
4 29
4 70
4 99
5 64
5 87
6 23
6 18
7 84
8 74
9 17
9 64
9 34
A gu
C e
n an
s p
im a
98 2
4 22
4 19
5 29
5 35
5 77
6 11
A m
A le
I S
T i
u er
w u
45 1
95 7
0 79
0 66
4 14
5 70
6 69
6 84
9 80
F or
R os
m y
la ga
55 7
unt ament
0 28
4 65
9 74
9 79
B as
m il
s id
ti ca
85 6
31 2
49 1
09 7
57 6
4 20
5 13
B m
W i
g as
s y
y n
da l
90 1
95 6
cke t
3 19
5 15
7 27
8 63
9 29
9 67
b ro
f re
h A
k in
m os
de a
ist a
34 1
36 2
0 89
7 23
8 67
8 24
9 65
9 19
B or
M u
j ar
m ac
w or
0 17
0 15
3 67
4 73
5 39
5 45
6 67
7 65
7 89
9 38
9 24
a la
in e
85 1
05 0
50 6
4 98
5 67
7 20
7 29
7 14
7 74
8 60
8 89
8 13
9 13
55 6
78 1
77 2
aj untament
0 40
0 18
3 25
4 80
v ent
es t
Al mer
4 13
6 29
7 22
7 70
V ir
b as
f ar
l t
z Z
so cket
Mar ia
0 44
3 10
3 34
5 10
5 89
8 22
B hZ
B hYm
C Jl
L CJl
U iOiJ
Z GV
b ert
b WF
c GF
c tor
d CB
g zZ
l Ijo
n Jv
t Iiwi
t ZS
w NT
z Lj
z OT
80 2
el li
id GV
CB tZS
00 0
Jl MT
Fi Ym
Mj Bm
GM zOT
NT hA
cm QiOi
Nz gy
Ym E
sb CBtZS
pb CI
bG UiOiJ
OT k
OW FiYm
SIsI nJv
uM C
NmU wNT
dm MjBm
dv cmQiOi
OD gzZ
haW wu
Ui LCJl
BhZ GMzOT
bWF pbCI
cGF zc
lIjo idGV
tIiwi cGFzc
zLj k
JlMT BhZGMzOT
NThA Z
Nzgy NThAZ
sbCBtZS BhYm
OWFiYm U
SIsInJv bGUiOiJ
NmUwNT dmMjBm
dvcmQiOi JlMTBhZGMzOT
ODgzZ SIsInJvbGUiOiJ
haWwu Y
UiLCJl bWFpbCI
lIjoidGV sbCBtZSBhYm
NmUwNTdmMjBm ODgzZSIsInJvbGUiOiJ
dvcmQiOiJlMTBhZGMzOT Q
0 39
3 69
7 38
8 38
8 14
8 19
8 69
9 20
9 70
E IO
f u
er os
re st
is co
am ar
75 1
95 3
55 9
48 1
73 2
trans port
3 45
4 79
4 33
5 30
7 13
F l
ac ete
image s
90 2
Pas s
Cas ti
Av en
pol ling
4 60
5 25
7 63
7 28
8 40
8 84
9 45
I IS
b ia
en e
ar do
re ll
nt o
ri z
el lo
55 0
Jos e
sd k
IIS Samples
0 82
3 29
9 69
C ruz
S ol
T e
ap i
un a
Fu ente
Aven ida
0 77
5 74
7 25
7 83
8 30
9 84
C r
D i
O uren
T r
b ra
i ra
m ent
85 2
54 6
Ouren se
7 66
8 87
9 63
9 22
B al
Z SI
b on
w LjA
da s
35 1
59 1
Ii wid
Nj M
- %
0 24
0 83
3 16
5 34
5 94
5 36
7 10
8 25
8 23
9 14
9 83
F lor
k u
vi g
97 6
0 22
7 94
9 61
o d
t al
Re y
35 2
79 1
33 2
uri as
Alb acete
Ast urias
0 25
4 27
7 90
8 29
8 65
8 83
9 39
9 11
9 87
G r
M e
P r
b b
z u
95 2
55 5
00 7
00 8
49 6
aj e
nue va
0 70
0 48
0 88
4 11
5 19
7 37
9 23
9 78
H uel
j os
o la
w ar
57 2
Mon t
0 67
5 11
6 17
7 24
9 36
I y
o m
o li
09 3
men te
0 75
3 40
4 87
4 18
5 90
9 28
A pp
f an
t ab
w Z
as e
94 6
99 8
68 2
Huel va
3 36
5 84
8 64
8 86
9 60
B on
D on
b re
n ie
u a
u d
00 6
99 6
50 3
ol s
4 25
4 77
5 37
5 81
7 36
9 26
9 31
G Y
g an
j as
r on
r doba
w in
co l
ec k
le ta
es a
55 1
88 1
so y
Mon te
Tra ves
0 16
5 75
5 78
6 25
c ur
v let
w en
lla r
lla s
ci os
00 1
44 1
49 2
04 3
0 78
0 98
4 16
6 21
9 16
g al
g es
h am
s l
y e
79 2
54 3
bar celona
0 12
3 13
5 22
6 24
9 66
A la
M en
Q X
k QX
Ġ na
ie s
mb ra
09 2
go l
GV kQX
Ped ro
vig ate
Ġna vigate
0 30
0 33
5 48
9 77
F ranc
I d
I v
M DA
g re
w s
55 3
00 9
47 6
hi per
man n
0 86
3 11
3 26
3 21
5 20
5 65
5 33
8 21
a y
b ri
b us
z co
en la
er to
de v
is a
44 2
44 8
50 1
54 2
Ca la
Si erra
5 26
7 21
9 25
= *
F Rioja
M ur
a i
h y
j m
m us
de z
im i
95 1
99 1
ad c
Se villa
Cam ino
+. *%
4 26
5 47
7 86
B i
M m
N u
O li
Q z
b el
g n
s f
ma t
ph p
0 36
4 40
5 83
5 98
5 32
9 32
s el
z ca
mi ra
0 26
0 73
n es
in es
er ia
55 4
00 4
0 19
5 86
9 18
A ng
b ur
c d
c l
m es
s ho
t ri
v t
ent o
carrito any
00 2
Pu erto
Pon te
5 73
6 83
7 62
9 86
9 68
9 33
b s
m ing
37 2
50 4
09 6
5 18
6 16
7 16
7 31
8 26
A u
g on
i is
n at
p le
p vt
t an
ti co
05 3
99 2
59 2
Pa la
zco a
0 11
5 12
8 16
9 62
F j
G l
N e
c la
z on
FA zcoa
Gu ip
Villa nueva
UT F
0 49
4 31
4 71
4 32
6 12
7 11
9 37
a nt
k er
p c
u k
li na
94 2
05 1
04 6
8 18
9 12
F on
U w
d re
t v
z e
an da
98 1
09 1
59 7
Car re
Ant onio
0 31
0 71
4 83
O C
O S
e da
k h
x i
ac io
ra y
05 8
ul l
del l
0 61
0 81
6 26
C ap
H or
O l
c A
h ol
r en
t ur
ti ng
nu el
as set
47 2
ad m
ver a
Cast ro
. %
0 32
G al
L lo
M ig
c li
d ro
u p
v is
au to
ve dra
Cas as
sk y
4 61
5 88
7 26
7 61
M art
V e
b la
f ession
h en
r ing
s an
in fo
ber to
asset s
fession al
0 76
5 68
5 62
F eli
T ar
b et
h n
w al
er al
ri llo
ED as
at ge
04 2
ert a
gu i
Traves ia
0 68
0 62
0 72
5 31
5 71
B k
V er
t ti
u da
te ro
li s
publi c
es p
74 2
79 6
San ti
Carre tera
5 16
5 41
7 78
9 21
B U
C la
L la
N i
O n
b en
p s
u t
te c
ie ta
55 8
48 2
Val le
IjIwMjUtMTEtMj BU
IjIwMjUtMTEtMjBU MTE
4 12
5 82
8 12
9 71
A yO
A uMC
D Z
G UiLCJ
G Uw
I sI
L n
M mU
M WU
N m
N jo
R k
S W
S wi
T G
T k
U iOi
V hZ
X Bk
Y Tk
Z u
Z y
Z hd
a WF
c ti
d Wx
d Gl
e GUiLCJ
f Q
h Yj
k ZW
l p
l SW
s ZX
s YX
v dH
w il
w cm
x ND
x Nz
x OC
y Nj
z Nj
on g
en g
da Iiwid
qu es
pu dWx
ma Wx
55 2
wi Y
Jl YXRlZEF
Fi MWU
ox Mz
Mj Rk
Ijo xNz
ZX QiOi
BT ZW
na W
NT FiMWU
Nz Mw
Iiwi ZGV
Mz g
Mz Nk
Ym M
iLCJ sYX
iLCJ wcm
Nj AyO
Ij Mw
Ij AuMC
Ij pudWx
ow Njo
Ny ZXQiOi
Yz NjM
Lu is
Zl NmU
nR vdH
IiLCJ pc
Fa IiwiZGV
Qx YmM
ZS wiY
Nk MmU
Jc CI
dH J
Yj NkMmU
yMFQxMT oxMz
yMFQxMT owNjo
oz OS
NmUwNTdmMjBmODgzZSIsInJvbGUiOiJ kZWx
wLjA iLCJwcm
wZ GUw
Iv YXNzZXRzL
Mm Qz
sf Swi
Fj dGl
DZ hYj
IsI nRvdH
Ln N
Nm ZlNmU
UiOi IvYXNzZXRzL
VhZ GY
XBk YXRlZEF
YTk iLCJsYX
Zy IsInRvdH
Zhd Wx
eGUiLCJ kZWx
kZW ZhdWx
sZX RlZEF
xND QxYmM
yNj FaIiwiZGV
zNj daIiwid
maWx lSW
MjRk YTkiLCJsYX
IjoxNz YzNjM
BTZW NyZXQiOi
NTFiMWU xNDQxYmM
NzMw MmQz
MzNk NjAyO
IjMw OTM
IjpudWx sfSwi
YjNkMmU wZGUw
yMFQxMToxMz ozOS
yMFQxMTowNjo xOC
DZhYj VhZGY
ZyIsInRvdH BTZWNyZXQiOi
yNjFaIiwiZGV sZXRlZEF
zNjdaIiwid XBkYXRlZEF
MjRkYTkiLCJsYX N
NzMwMmQz MzNkNjAyO
IjpudWxsfSwi aWF
YjNkMmUwZGUw NzMwMmQzMzNkNjAyO
ZyIsInRvdHBTZWNyZXQiOi IiLCJpc
YjNkMmUwZGUwNzMwMmQzMzNkNjAyO DZhYjVhZGY
3 31
C b
F m
T U
j er
t re
le ares
gu er
Ba leares
ber g
Il les
Vir gen
Franc isco
5 66
B en
H i
V a
p y
s z
te n
ar o
ci al
00 3
so ft
4 62
5 21
7 71
9 72
S cript
c b
k y
pa in
ver de
Val l
Do ctor
0 21
7 68
J U
S im
b U
ie go
05 2
Vi zca
G ra
H Mv
O s
g g
l le
u ni
on i
lo m
45 60
ch u
ch er
Qu int
Mig uel
Vizca ya
H o
S p
S il
d ora
f ran
k s
n y
s ha
u re
ke l
re y
50 2
Val de
ex p
0 41
4 36
9 73
P lan
g l
m ul
n p
v il
ma y
ma drid
nche z
web app
ms adc
cn f
B lan
G en
G or
P ro
c ro
k ar
r al
s in
te lla
es ta
59 6
C M
h al
n d
s r
s im
w o
in form
pa l
Ma y
Al cal
Ro dri
Fl A
B la
I r
a ti
b es
h el
i la
i as
i ana
k p
ti no
Bar ri
5 61
A del
I ng
I mo
I dX
I ly
J P
J cH
J LR
L T
L k
L TE
N lp
O V
P Le
Q M
Q iO
Q OV
R m
Y E
a a
a Imo
b PLe
c G
c Q
e Id
e Fm
h Rm
j q
j z
l ec
m ag
m JLR
p q
s q
t Fe
x LT
ti ll
li e
qu in
Re ina
id er
Ms eId
ons o
iO H
MD I
Car los
Iw cQ
ow JU
OW hRm
lia no
Ci Z
LI QOV
QiOi Iy
hd GVkQX
hd jq
Jc j
gs CiZ
Br Lk
FK i
UT Jcj
LR gsCiZ
PW K
PW BrLk
Ponte vedra
TU jm
IdX LIQOV
JP UTJcj
JcH eFm
LTE xLT
aa owJU
jz hdjq
mJLR H
tFe L
MseId I
OWhRm IwcQ
QiOiIy MDI
hdGVkQX QiOiIyMDI
PWBrLk IdXLIQOV
JcHeFm TUjm
LTExLT Iw
aaowJU FKi
jzhdjq pq
PWBrLkIdXLIQOV Nlp
a w
d s
i ti
t d
la va
en s
st on
ona les
ru c
Pass atge
B Script
L or
M ag
V BScript
c in
j on
p is
u i
w e
y en
ing uda
ro yo
vi de
Web App
un do
Ro m
Av inguda
Pg W
examples WebApp
P ad
R es
m al
m el
s c
la do
ht r
nc ia
ar io
et t
re z
an te
ri ch
cia no
am es
Pu ig
An d
iis adm
iisadm pwd
F ar
I g
M edi
M ir
S ag
i N
in s
in ter
or e
za no
fi ca
lin os
Av da
Ur ban
A s
G er
G ali
M ora
Z a
e e
e du
i iss
m h
p re
r ie
t ch
u la
de gol
is e
an do
pro fessional
ra do
Co m
ue las
Tor res
mon te
Gar cia
iiss amples
degol f
C at
D an
b au
c lu
m ir
y r
on e
ca m
ca la
ec i
at h
aj es
Al ber
samp site
G e
R on
T en
a do
g ran
o f
p ri
te le
li no
ca nt
aci a
ajuntament barcelona
5 179
A li
Y a
b ir
f le
h r
i u
k w
l v
m k
n f
p m
p res
r is
s m
t j
la z
or i
ser vlet
incorrectas any
nov a
du n
ba y
tra vio
Lj M
Camp o
Man zan
Oj A
travio leta
, "
C ha
Z ur
a k
c s
h ard
n ar
n ey
en ti
ng e
ar e
qu il
mb o
ur n
el le
ma d
si to
br u
tra vel
ne z
Es te
que z
Lu go
= +&
T I
b os
e h
i ca
j et
n z
t ro
v u
li ne
de t
le d
qu et
ro duc
pe z
es c
es pa
ra da
ue z
Val verde
Villa r
mon t
gue z
T R
f b
g f
g h
k n
p l
z zi
or io
da tab
ar tes
eb as
mar i
za da
Le on
nan dez
Urban iz
N og
S ar
b n
i te
s he
s pain
u bi
v c
en sa
ec h
ie ld
le i
ar ra
for d
car s
ros a
adi lla
au s
Pas eo
": "
sa y
lan d
doc s
Villa l
db samp
char set
C ata
F I
F un
H el
m x
n ell
o h
o t
s j
w n
w hi
ti s
er y
nc h
ci ru
Pas aje
ab el
zar ote
ada s
Es cri
clu b
Urbaniz acion
E li
b il
d in
d En
f Y
h k
i f
k im
s ar
v ell
z K
z y
ti l
or n
et ti
ist o
al do
no m
as te
24 20
au di
AA Ag
EF dEn
Se g
her e
sho w
yr AAAg
EFdEn yrAAAg
C ur
C ru
F re
H I
L lu
M al
N ar
R am
S el
b ea
c le
c bf
h as
i to
j i
l b
r ent
s cript
t H
w ord
z al
in do
de h
or ca
do l
an es
38 23
ma la
ED s
Web Sp
ig u
ig uer
Al f
Vi c
Ar ag
ste in
Pg X
Pass word
cd ac
5179 18
datab ase
here Samples
cbf c
WebSp hereSamples
A da
A ma
A ra
A ir
I nt
a q
c c
c ul
j w
r am
s n
ac he
ac ruz
nac i
or do
lo ma
ko v
ID Ex
40 15
ni co
83 19
si gn
Ma nuel
Con de
ad er
Ar MDA
Mar tin
Cu esta
Sant o
Ny ArMDA
th er
po li
Ex Air
Cam i
Oj E
MDA iLCJ
LTExLTIw IDEx
LTExLTIwIDEx OjA
= .
F zc
G as
J sa
M va
S ab
V w
V zL
W Jsa
W Mva
h at
i ce
i ro
r era
s ur
t Z
v et
en lan
ca d
or o
nt a
es to
wd WJsa
vi ajes
sa la
ue da
produc ts
sty les
Pu eb
hZ HMv
Ri u
eri fe
Ten erife
Vw bG
WMva W
enlan zarote
wdWJsa WMvaW
/ ~
D iego
F ed
M in
P an
c I
h os
h ue
v ador
lla n
Ġ/ .
ri d
ja da
cor tin
cas a
Qu in
ul travioleta
ab o
ei ro
Camp os
whi te
cortin as
= -
C in
E N
H e
L ab
M os
a le
b era
c x
d E
d j
g ad
k en
ti a
en zo
tion s
27 35
ri go
el les
Re g
au l
cu bi
Cam eros
Pi ca
roduc tion
Int roduction
B at
B ra
F ran
L es
W N
c v
c pan
d z
e as
m ascript
o de
v g
z uela
te o
ec mascript
25 45
di lla
ni l
to ols
45 38
11 15
at or
incorrectas bob
go ld
Al ba
Vi lar
Bar rio
las tica
tr as
lor es
Mer ce
cpan el
A ce
D or
F ab
T eo
m is
n as
p en
r h
u li
v ir
v ol
y an
co le
da do
le z
ro pa
ro me
40 54
st or
ch in
71 19
vi da
Mar ti
ho me
Es p
Es pa
be lla
ei x
Ser vlet
Pueb la
B las
G in
M ata
V en
b lo
d era
f au
g il
h il
i re
p on
s ca
s hi
t ora
w at
y s
z s
ti c
te ch
nc i
40 11
as al
38 17
70 80
vin a
34 39
ch et
vi er
ue los
ex e
se ig
Na v
mi la
Do ming
Cast rillo
Jo an
Mer ca
D es
L lor
N U
S en
S erra
a exp
b or
g w
h ir
h ig
m it
o R
s as
z r
z as
ti vo
ca ta
ag gs
ac ha
80 69
lo w
le m
27 44
al t
el da
as h
38 45
49 37
Ar te
lin da
Ra fa
lon g
Casti llo
B us
B eni
J e
P ab
a e
b t
e k
e le
f al
f ad
h is
i de
m q
n al
r us
r ena
s am
u G
ti llo
la res
co op
er es
er as
pa t
ci as
nt as
mo bi
40 89
an ne
ri l
14 55
22 15
64 24
89 94
ord er
67 29
gi a
cor jet
us a
ali a
Al dea
Ar ri
Ar royo
var ez
sp ider
ajuntament de
Fed eri
zs K
spider man
A L
A ri
B w
B ri
D U
E d
E TR
G on
H V
H p
H q
H rh
I u
I sInVwZGF
J t
K M
K MT
L l
L KM
N or
O Co
O oF
P L
P elli
Q Wi
R va
S P
S ession
S XA
T ur
T tz
U Y
U Nk
U Ho
V u
V sd
W TP
X tz
Y d
Y r
Z g
b GF
b Ad
b cn
e hh
f B
g d
g ht
g el
j dX
k L
k z
l ci
l ns
m YX
m ciLCJ
o ETR
q g
v Z
w j
w Iiwi
x ab
x jw
ca no
nc H
ar ia
ble s
25 80
25 95
is p
pe l
an i
el ls
17 13
64 90
65 85
il li
adi o
11 64
ch an
me z
DB HI
49 29
Ms S
61 85
ig a
he al
De v
MT gu
bo t
Ar en
MD Y
MD k
NT Iy
NT Iu
zd Ex
zd mciLCJ
so m
lu SXA
Iw LjA
Nj k
ho ja
Na val
YX oETR
Zj q
Pl xab
IjoiIiwi bGF
iOi IwLjA
yo u
and ra
IsIm Rlb
IsIm RlbGV
NB UY
Gls Xtz
ZV Rva
MzYz Njk
cHJvZmlsZUltYWdlIjoi L
Jc NU
Du UHo
Wi IsInVwZGF
Wi IsImRlbGV
fre do
ZGV mYX
NmUwNTdmMjBmODgzZSIsInJvbGUiOiJ jdX
war e
Rodri go
sq JcNU
tH wj
tZ DBHI
hZHMv ZGVmYX
rome Dev
aggs Yr
Pab lo
uG QWi
Bw td
DU kL
Hp NBUY
Hrh DUkL
KMT ncH
LKM fa
OCo qg
OoF bAd
Ttz lns
UNk Ge
Vu IjoiIiwibGF
Vsd C
WTP R
Yd K
Zg GlsXtz
ehh fB
lci IsImRlb
wIiwi cHJvZmlsZUltYWdlIjoiL
xjw E
MTgu MzY
NTIy WiIsImRlbGV
NTIu NTIyWiIsImRlbGV
zdEx vZ
luSXA iOiIwLjA
YXoETR tHwj
Plxab OoFbAd
DuUHo HrhDUkL
NmUwNTdmMjBmODgzZSIsInJvbGUiOiJjdX N
tZDBHI YXoETRtHwj
hZHMvZGVmYX VsdC
aggsYr S
HpNBUY F
VuIjoiIiwibGF zdExvZ
ZgGlsXtz tZDBHIYXoETRtHwj
lciIsImRlb HV
luSXAiOiIwLjA uMC
PlxabOoFbAd UNkGe
B ell
F il
M ing
M el
N t
P ra
R r
S ebas
V il
W al
X o
d ina
e do
f la
f ra
f lor
l c
m d
m m
p ra
r s
r ero
s ki
t m
v on
y si
ti la
os ti
in vent
ce ro
le e
pa s
im o
tien es
re lla
ci llo
do m
mo linos
an der
an illa
38 55
64 60
65 67
ma u
pro file
23 17
13 74
67 35
34 84
26 13
21 15
us i
31 89
vi c
lesson info
wa y
Lu ci
Po lig
and ro
Ve ga
Polig ono
" ,"
E m
H on
J al
U s
b ol
b lan
c z
d ge
f ield
g io
i v
i an
k X
n da
o les
q a
s ti
s ey
s ms
t n
u eta
u dio
ti g
ti t
in n
nc ha
ent a
et te
25 54
ro man
17 00
28 60
st ruc
au t
art a
Ar g
be ach
per s
Pu ente
Is abel
Ale x
Gen eral
vide o
C li
G lor
H t
O ri
S ali
V X
Z o
Z or
a x
b g
c is
d ll
f il
h in
h int
i er
j es
n l
n or
n ing
p f
p et
r ap
t c
t k
t ta
u di
te k
la da
li t
ca mb
ap a
ap lastica
ng a
ar te
mb ar
di llo
27 25
27 70
10 63
29 39
14 80
22 45
89 37
70 28
86 27
26 85
83 16
he a
Cal zada
Co mp
Par ser
ver os
ne go
ha mbra
Val der
gu es
Cor re
Es co
Es gue
hu a
Per ez
gr am
Pin tor
Pad re
script s
A z
J er
N ico
O fi
S ec
T u
a o
d A
d ie
d ona
e ve
g ri
h og
m w
p w
p io
p int
s ab
t us
on es
en cu
en cio
80 56
im ar
nu y
ke t
Ġc har
qu el
ci dad
mo to
40 59
al fo
an ti
ss e
64 50
65 95
ma nuel
13 60
67 80
30 84
21 69
eb er
36 20
79 18
50 24
Pas seig
sa nt
ue vo
bi lla
To ols
Ch romeDev
So to
Is la
Alcal de
cin co
And res
Rafa el
Ġchar set
B el
F res
M at
P at
P ol
R og
R amon
a ma
e f
f j
g or
h l
m r
p ru
s E
s ol
t g
u c
te ll
en ko
ac e
de c
de Fil
ent Si
pa nt
ke s
25 99
ro o
ro w
27 50
mo vi
40 44
10 00
an de
as ia
20 14
20 65
29 14
65 44
65 47
60 47
74 95
39 70
69 45
28 30
st ri
13 35
ntc ug
67 14
67 99
11 27
24 34
84 64
ch ez
au d
au la
au dio
18 18
99 74
ter ing
03 60
onti jo
zar a
sa ntcug
Vi ctor
ga y
bi en
be au
bar ni
Po eta
ly n
fer tas
wor k
Ala me
imi ento
auto movi
ring ring
May or
pis os
Doming o
alfo mbra
deFil tering
entSi deFiltering
santcug at
automovi les
A mar
B y
C el
C ue
F iguer
I jp
I sIml
J b
M C
M it
P en
Q WN
R hdGVkQXQiOiIyMDI
V ie
X QiO
Z pb
b reg
c FN
c nV
f ig
f it
h id
i le
j E
j y
k g
l Y
l LCJ
n Iiwid
r t
t he
u en
u MCI
z in
z QWN
en de
ie te
et h
re l
re da
25 39
mb r
27 85
27 81
40 19
40 47
10 60
20 60
63 13
17 14
17 44
38 70
ss a
65 90
60 95
60 99
15 43
74 49
28 87
89 24
89 77
67 63
am s
11 67
87 35
86 60
83 29
eb ack
00 93
77 30
men orca
Ma la
Jl dCI
sI nB
Qu i
Ii IsIml
Ijoi MC
LCJ pY
GV Jb
Na va
bG x
ld GVkQX
ente s
kZWx ldGVkQX
mu cho
Zl Ijp
vila no
cf da
WFn ZSI
aX ZlIjp
jcmV hdGVkQXQiOiIyMDI
dpbklw IjoiMC
dal go
wLjA uMCI
Mur cia
nes s
QiO m
cG RhdGVkQXQiOiIyMDI
Ron da
cpanel web
encu ent
XQiO jE
Zpb GVJb
cFN lY
cnV lLCJ
nIiwid G
sInB yb
IiIsIml zQWN
LCJpY XQiOjE
kZWxldGVkQX QiOm
wLjAuMCI sInByb
ZpbGVJb WFnZSI
cnVlLCJ jcmVhdGVkQXQiOiIyMDI
B os
C O
E nc
F o
F arr
L au
O c
V ia
f on
f os
f ell
g at
g un
h au
i ch
i za
j ue
k or
l r
m et
m ur
m ck
p age
r un
t w
t ura
v id
v ate
y ar
on ia
te at
la d
la m
lo ad
quer a
25 11
25 44
is h
is api
di z
27 40
40 17
al on
pe dro
es e
el ec
20 09
29 19
14 10
64 70
64 93
65 29
65 64
65 59
60 20
60 74
74 29
pro gram
13 80
13 40
45 15
adi a
67 85
am ente
11 65
24 64
35 15
35 54
95 67
83 39
83 66
16 29
79 90
78 17
78 15
cas ab
68 10
ner os
vi vo
72 13
jo bs
ol f
ba no
sa nche
ha ma
Val ls
Ro ca
org es
Pa nc
inc on
min e
der s
ka wa
Can al
Mi quel
Cab ez
Agu i
hiper madrid
Lor enzo
Res et
quil er
Vic ente
ajuntamentde barcelona
Glor ieta
C lo
D am
E che
F n
F la
I q
M ed
N el
N eg
P et
R en
R ec
a nu
a ero
c ht
e ar
f ol
f ranc
g q
l k
m g
n r
r in
t te
t au
te u
co lores
ca fe
ag an
ng o
nc io
is ter
mo y
an ia
as pe
29 57
ss on
65 10
65 55
60 53
19 75
19 91
39 75
69 69
89 60
35 50
84 17
83 45
36 40
18 69
bal l
ve a
welcom e
sa nchez
San z
Mon tes
min i
Is id
Cast any
Cer vera
amon t
Du ero
pri vate
say uela
Password Reset
hos ting
ChromeDev Tools
cinco colores
B an
B ig
B art
B ol
C os
C re
C ora
F an
N te
N er
P re
b l
f ia
g in
j en
k ing
v os
v ill
y as
z er
ac ena
xt re
de m
ap ar
80 15
80 67
le f
los a
re i
25 79
is mo
27 58
ur ia
40 14
40 24
al hambra
10 34
an n
el sen
20 18
29 65
29 89
17 90
38 85
38 66
22 21
65 17
19 39
19 24
19 84
19 78
19 98
ma j
39 90
st ar
89 00
85 67
67 71
67 91
carrito bob
11 63
11 69
35 59
34 99
ch ie
37 91
16 69
31 29
77 31
68 15
59 60
57 15
go b
go v
54 36
WebGoat Introduction
ve laz
07 23
52 38
ia no
ad ra
ad ora
Al ci
Car men
Mon aste
und er
min as
Lu gar
Ri bera
dor o
sch a
je da
par t
No el
bro ok
est re
Cr isto
bus ca
sel ec
Fon t
may or
Manzan ares
ciru gi
naci onales
Arri ba
Fres no
automoviles alhambra
velaz quez
C es
E du
F g
F ru
G el
G ab
G reg
H AAA
I o
J J
J an
L li
L ara
L ima
M ali
P X
R ab
S t
T O
V ent
V era
d encia
e co
f eli
g m
i dad
j un
k am
l I
m tos
p g
r O
w ei
z ana
ti o
ti do
ti an
ti na
li an
ac r
html samp
lo l
pa v
im e
ar en
ing a
et u
25 84
25 57
mb a
ro u
ro ya
di go
mo l
an ca
as t
20 34
63 94
29 55
29 93
29 96
io l
65 91
60 75
60 96
15 17
15 50
19 28
74 60
ma il
28 80
il da
23 60
23 39
23 70
23 18
23 79
23 00
23 53
85 88
87 69
87 99
FA car
35 39
35 85
21 19
95 05
18 28
18 13
18 45
31 19
71 24
77 75
cas tella
DE s
88 87
Go chez
Co digo
it h
ver o
ru p
Mar ce
Sant ander
tr PX
ret a
mu ch
Po zo
Zl HAAA
gar ra
gr im
Gar c
Jos ep
Pr in
enla ces
Feli pe
Santi b
Quint ana
inform ati
Rodri guez
iN mc
inter camb
Mora les
hard t
artes ol
Arag on
cortinas artesol
fad ers
hoja informati
pers onales
uen ga
velazquez lar
JJ trPX
ZlHAAA c
intercamb io
JJtrPX ZlHAAAc
5 805
D ur
D al
I an
M illa
O ca
T ri
a in
a de
a tica
b ab
c g
c ra
e S
f in
m t
o v
s ka
t res
z en
ti ana
co ch
ca lla
ca ro
ac ch
ac ho
ng er
age l
age s
or t
le da
im en
com er
ro co
ro ig
27 14
10 42
pe s
no u
es te
20 04
63 95
63 98
17 71
17 97
38 87
38 31
14 40
22 20
60 04
15 74
15 84
19 80
19 09
ma z
69 23
89 64
85 16
adi ana
tar i
67 34
carrito paros
87 16
86 25
86 15
34 18
83 75
ra mo
eb o
us e
99 30
77 28
68 87
33 28
ali na
59 77
54 69
wi ck
72 63
93 65
Al c
Al to
Al varez
ta nto
tu gal
ue lo
Gu ar
gu a
Bar ber
Ju li
Ba ix
ya ma
Pal mas
mu nt
Hu er
Ber n
376 21
ata nto
Lo pez
Her nandez
In du
Cala tra
Pala cios
inform atica
cam po
Este ban
mont amont
Cata lan
heal th
zara health
Monaste rio
tanto montamont
tantomontamont atanto
A c
C ali
C erra
D ora
I li
J or
L arra
P era
Q k
S ha
V id
V it
Y as
b ox
f ul
i go
j am
m undo
n os
n sito
r E
r au
s os
s io
u y
u z
en zuela
ag en
ce p
80 24
age les
le a
ing er
et o
25 21
25 05
25 55
25 77
is io
mo tor
ur t
ur ce
40 13
car az
no ti
log on
es o
ri lla
as sa
20 20
20 44
20 98
29 85
29 44
29 48
38 54
22 19
64 28
64 55
64 68
64 57
65 94
65 78
15 94
15 95
19 60
39 91
69 19
28 85
28 88
il los
85 87
at riz
75 42
35 78
86 80
84 34
94 37
83 10
id or
18 12
79 20
us o
76 10
Co ll
Co lon
58 12
53 20
07 90
92 65
ad os
Al de
Sa nchez
dela vida
zar o
man e
Mar i
Car ras
Ju i
ho te
Pa lom
Del s
Hu erta
Ber gu
Eu la
Fu en
illa s
ras o
Fer re
Fer nandez
Sal vador
pin tor
Jo a
For n
cur sos
dev uelos
esp acio
Plan elles
mul tas
ando mucho
nil los
ropa degolf
invent os
pint andomucho
elsen tido
ageles pa
elsentido delavida
+ *
4 253
= +
B s
D er
E del
I J
I ca
J es
L ag
N G
O ro
R P
T era
V ar
Y ago
a ng
a ad
b w
b ag
b at
c ent
e lo
e za
f ru
g na
g ru
i ber
k at
l j
m ona
n di
p ag
p ing
s un
s her
t oken
w an
y vi
te t
la p
la gon
la wn
en cial
in ar
in as
in st
ag gio
xt a
da m
ser v
ing eni
Mo li
qu ie
25 81
ro b
ro t
ro do
27 89
27 98
27 59
ur u
ur as
40 27
40 31
for o
10 12
pe ll
20 84
20 12
ni c
ni ght
17 05
15 10
15 67
15 00
15 44
ma lla
28 69
28 31
mie l
89 74
23 20
23 69
23 42
Re za
13 13
70 54
85 15
67 39
67 94
30 14
30 85
11 24
87 30
24 17
24 35
75 13
75 05
35 74
86 40
84 11
26 20
26 60
26 18
au th
21 60
21 24
83 60
37 14
18 70
16 11
16 87
FF FD
78 84
71 23
68 28
88 83
47 14
go od
mar es
32 39
97 75
he im
ve lla
92 63
ad y
um mer
ol sa
989 1
Al co
Par e
so urce
Gu i
ll ero
Ro man
org e
tor t
Mon tor
Tor mes
263 21
chi h
870 3
374 8
yo la
330 2
and ras
EFA F
em p
Fer r
dra e
Mi ra
Cer ro
pin osa
Mur illo
Ol me
Tar ciano
Blan co
Rom era
pres ti
eas yvi
ator re
his pa
Calatra va
Cerra to
noti cias
aad sl
easyvi aggio
0 876
A ro
A ba
A mor
A reg
A Qk
B K
B Ya
C ros
C res
C ho
C ela
C eci
D S
F Y
F ol
H h
H en
H an
H Qu
I z
J N
K mh
K Jui
L J
L V
M I
N X
N ld
O f
O o
P V
P q
P KJui
R I
T amar
U o
V z
Z nIiwidG
b ina
b by
b HQu
c ci
d B
d ino
e v
f rec
f el
f Vz
g x
g ell
h on
h sz
i y
i FY
j Fg
k os
k Do
l cy
m F
m z
n HY
o ad
p X
p BE
q DS
q hsz
r ag
s ue
s GY
s PKJui
t f
u lo
u cy
u qhsz
v n
v q
v YW
v Uo
w er
x vYW
y ic
ti sta
la h
la t
de al
de teat
ap o
ap oli
application s
80 44
80 07
or ra
da y
ser ver
pla ya
25 10
pu l
ro y
27 45
40 69
40 07
pe ar
ri za
ri que
as a
20 79
ni t
63 39
63 34
29 37
17 84
17 04
38 69
38 24
ss o
io AQk
64 14
64 99
64 71
65 05
60 68
60 07
15 38
15 05
15 99
19 47
19 04
74 63
74 50
ma x
39 67
69 74
69 24
69 05
69 53
to de
23 74
23 48
23 49
13 55
13 07
70 68
85 90
30 89
BA DA
24 74
24 84
24 44
90 43
75 35
75 99
35 30
86 85
84 60
84 66
83 40
83 79
36 24
18 81
16 61
79 87
EE Of
wd sl
99 14
ter ry
68 38
100 1
49 84
iss a
33 29
09 390
61 67
41 80
AF vUo
wi OiJ
72 69
Go mez
Pas tor
Calle jon
Qu ir
ad ul
DO p
ab e
Al men
iO uqhsz
va lo
bo u
Vi bG
NT c
Iiwi ZW
Mz EEOf
lu jy
Mar cos
Ju ana
lIjoi IiwiZW
Le gu
Se m
Ag ueda
th ur
ena v
OT R
Ex O
Pu erta
ret t
Cam pa
cH jFg
cH VibG
Ci BK
RlZ mF
Per al
ltYWd lcy
ZS sGY
ju Iq
zH BYa
HZ ysi
fr VX
Su FK
reg ister
dan ie
OD k
haW wiOiJ
amar ina
wZ qDS
kh il
HMv cHVibG
cG xvYW
Ig nac
esc uela
FI kX
indo te
MDAiLCJ kZWxldGVkQXQiOm
Pica bea
Federi co
SP kDo
Nel ma
cafe deteat
hojainformati vas
roco fer
IJ SPkDo
lj L
Hh ExO
Kmh IJSPkDo
LV FIkX
Nld HMvcHVibG
PV dB
bHQu c
fVz ZSsGY
gx l
iy iOuqhsz
iFY y
nHY Oo
oad LJ
pBE SuFK
sPKJui ioAQk
AFvUo juIq
MzEEOf zHBYa
lujy fVzZSsGY
cHjFg Pq
CiBK cHjFgPq
HZysi KmhIJSPkDo
frVX dv
haWwiOiJ ucy
cGxvYW RzL
cafedeteat ro
LVFIkX wZqDS
NldHMvcHVibG ljL
iyiOuqhsz frVXdv
sPKJuiioAQk N
AFvUojuIq NX
MzEEOfzHBYa H
HZysiKmhIJSPkDo yic
A lar
B ul
B orges
F onti
G il
H a
I ver
J ard
J orge
L im
M es
M eli
N at
P las
S ad
T re
T ran
U p
V ol
a mo
b h
c ons
d fau
e N
e um
m un
n au
t ac
u te
u za
v or
y ing
y iu
ti e
la mar
en ch
li k
li ch
ca ser
ca rell
os eg
ce ros
pt og
er e
er ro
er ner
de ux
ap art
80 86
80 37
80 00
le o
le en
le jo
le ts
ser rat
ar co
re a
re ba
25 09
ci l
pu ra
di on
di da
27 80
27 26
27 16
40 20
40 30
al y
10 64
10 45
10 43
car a
no c
an z
es ter
63 80
63 60
22 38
22 85
64 48
65 88
15 06
15 399
19 90
19 01
74 91
39 74
39 89
69 60
28 19
89 54
89 51
13 38
13 34
13 08
70 55
45 20
45 14
45 19
85 44
85 46
67 40
ED CA
carri tos
30 10
30 09
11 88
87 55
87 82
24 23
24 45
FA s
86 17
84 96
FC DC
26 89
EA BD
me u
37 94
CA DD
66 16
71 86
50 29
50 83
68 25
49 75
33 15
33 24
incorrectas sessionid
wi tz
72 65
81 10
jo an
97 29
por tugal
ate gui
wel l
mode los
bm it
ul tor
Al man
hi ro
tu ve
Ar qui
ne u
ha y
Gu zm
Mar ques
Cas ar
Bar r
uri dad
be k
cu lares
240 8
sch n
Pi lar
and re
Per io
gar ri
Bu reba
BCB C
Li hue
Fer nan
zg ordo
Lo zana
Mi la
Tra ver
Est rella
wor th
Vir ma
Di os
Tr ist
mus eum
zon e
jer es
soft ware
travel zone
Nog uer
Fun NG
club de
igu era
Merce d
rap hy
encuent rodo
load s
sanche zgordo
mini os
dfau lt
yiu tuve
oseg uridad
ptog raphy
carritos essionid
FunNG ames
encuentrodo minios
4 194
A me
A dor
B es
F in
F al
F eix
H ino
H ello
I Z
L og
M et
O b
P is
P es
P esca
R A
R osa
S ing
S es
V in
Z ab
a lo
c ena
d ista
e ti
g la
h art
h ana
i res
k il
m ontijo
o le
o fertas
o minas
p lo
p it
r I
s or
v ana
w y
w ing
w ard
x avi
y l
on ce
ti z
ti da
te z
en ig
ca ju
ca mp
ca monte
in stein
er na
de se
de lia
ost a
80 51
lo c
lo la
lo me
ar da
ar se
Mo lt
Mo linos
25 13
25 85
25 253
pu g
nt ra
mb la
mb ri
ro m
ro la
27 94
27 95
40 85
40 26
40 95
10 36
no ld
es tel
20 27
20 95
20 82
20 46
ni khil
63 40
63 55
29 84
29 05
29 36
38 75
38 68
38 81
38 96
14 50
22 89
64 58
64 51
65 14
65 13
65 18
19 27
19 65
19 21
74 67
69 85
69 57
69 08
28 68
28 47
28 96
89 14
23 43
23 52
13 05
13 58
70 14
70 24
70 94
70 95
45 39
85 28
tar ra
67 95
ED FB
30 65
24 94
90 05
90 04
75 67
DD DC
FA l
FA FF
35 99
35 12
84 44
34 86
34 71
EA BA
ch on
21 61
83 20
me lo
37 84
id encial
36 67
16 80
16 638
79 15
cor doba
CD a
31 24
99 89
99 95
99 31
cas tig
68 20
68 39
73 29
ner s
270 8
49 89
101 89
AC ED
ali dad
41 10
54 34
72 40
jo ubi
jo udi
ff er
250 2
91 40
por tes
56 10
03 45
Sa ng
ba co
122 30
bo us
ono mos
lu ts
bi os
bi joubi
Bar to
ll on
Cor ominas
Es pe
Mon ta
chi cas
Ra mbla
con struc
pi c
Po la
An da
fer ente
gen er
ami ento
Gar ros
je an
Ru b
by pass
mor e
mor i
port al
Pin ar
Ga la
Vila nova
ug h
far ma
Gr acia
ges aut
Hor te
Sil va
wo od
Res idencial
Sag ra
cata log
Gon za
Pra za
aplastica cordoba
Ofi cial
Med ina
Isid ro
cirugi aplasticacordoba
Greg orio
Eula lia
Areg all
Zab ala
enig ma
caju car
joudi ferente
luts cht
bijoubi joudiferente
construc cion
gesaut onomos
A FAA
B is
C n
D ac
D ami
E S
E EBC
E sta
F lu
H ar
M ie
N uevo
P au
P lu
S te
S is
S au
S har
T res
V an
b z
c U
c les
c bb
c cfda
d g
e ig
f d
f ri
f red
g t
g ab
i ara
k ley
s g
s ell
s led
t rar
x e
y i
z A
z w
ti ano
la bert
la tions
en da
ac es
er tos
de mas
app s
80 20
80 87
80 94
host ro
ng el
ht rans
ie m
le ja
pa loma
im an
ser a
ar ab
ar apart
re do
di gi
27 34
27 83
27 79
rar d
40 77
40 73
40 82
al cant
al quiler
al selec
10 99
no op
an za
es tu
es pos
20 30
20 00
63 74
29 10
29 60
29 28
29 33
29 81
17 63
17 58
38 14
38 65
38 67
14 19
14 99
22 29
22 65
22 35
60 40
60 14
19 05
19 07
74 75
74 36
ma o
39 17
39 45
39 85
39 55
39 82
39 57
69 27
69 34
69 09
28 44
st an
to do
89 41
89 06
23 40
23 29
23 55
70 75
45 80
45 69
45 78
adi llo
67 64
67 87
30 71
30 06
11 40
87 10
87 31
BA CC
24 29
24 24
24 48
CC DF
90 78
75 58
35 16
35 00
35 49
35 09
84 75
34 23
26 26
EA CF
ch at
94 90
94 95
21 81
95 3439
83 18
ra nt
DA EF
36 64
18 178
16 24
CD BC
31 69
66 63
50 94
77 40
77 94
48 63
49 74
49 94
CF FC
88 85
88 35
BD BA
09 19
61 25
41 67
Cal z
91 80
br era
46 63
58 15
Confirmar any
cri p
Qu ery
Sa da
zar agoza
va los
man zan
ne w
Gu al
lu z
sb er
Cu rell
Pa lo
Pa loma
Es cul
las co
Tor rent
105 20
103 20
alla sled
con i
Ri pol
239 7
Pi co
BBA C
ach ina
Fu er
han n
agu a
villa s
cho tel
cos ur
Ast or
Gi labert
sto ck
uer ga
wor ld
ajuntament bcn
bert a
Ang el
Hor nillos
cli chotel
esp eci
Adel qui
As ad
Zur ita
artes ania
show cars
sur cosur
cubi ertos
Teo do
Cli entSideFiltering
Esgue va
pant allasled
stri al
0093 1975
fon t
Big orra
Indu strial
0876 83
Perio dista
Pesca dor
castig adas
baco especi
Dac il
hostro fessional
htrans lations
arapart ners
alcant arapartners
alquiler pantallasled
alselec ci
953439 77
cubiertos cbb
00931975 95343977
bacoespeci alselecci
2 637
4 300
4 344
4 808
5 175
7 900
A CDF
B ab
B ed
B all
B eg
C adi
C hi
C arta
E t
G io
I da
I van
J ara
L ar
L ib
L una
M ul
O ti
P ela
R F
R d
R inc
S as
S RF
a ble
c t
c en
c um
c OR
d ok
e R
f as
f ina
h p
h ur
h it
j O
j era
k ur
m io
m ig
m und
m pi
n A
n and
o th
r d
r ac
s il
t A
y sh
ti cas
ti ntas
la o
la ch
en d
en ia
co b
co la
co unt
os at
in di
zi o
xt o
de ven
de sign
ap er
80 19
80 34
80 83
80 93
age ment
or an
lo bar
da ta
da des
ie llo
le Samples
pa do
im ent
ko va
qu illo
ble y
re al
re mos
ro ito
27 64
27 13
27 57
mo bley
ur r
al ba
for t
10 89
10 87
10 94
pe tit
car los
an kawa
20 89
20 99
20 81
ni o
ni ca
63 85
63 11
63 48
63 93
63 08
29 00
17 64
17 19
17 74
17 85
17 53
38 82
14 25
14 49
ros o
22 28
22 37
22 44
22 48
64 65
64 39
65 80
65 35
65 36
60 27
60 28
15 11
15 48
15 47
15 02
19 67
19 87
19 55
74 85
74 73
39 20
39 47
69 46
28 17
28 14
28 54
il ena
to mo
89 87
89 75
89 95
Re don
13 50
70 34
70 61
45 89
45 95
45 79
direc t
67 51
ED FD
am pa
am an
30 30
30 34
11 13
87 79
24 67
24 82
at os
CC EE
90 14
75 44
DD DA
84 82
34 63
26 29
21 29
21 89
EB CD
95 36
83 11
05 279
me e
37 75
BB DB
eb e
18 80
18 82
55 62
AA DA
AA AB
CD ED
CD BD
78 22
les ias
DB CF
71 84
98 74
98 82
EF FC
48 220
68 63
12 69
12 170
73 67
100 3
100 4
bal do
dis con
61 64
57 29
54 65
81 80
32 17
32 67
97 28
Ma z
76 65
91 38
51 63
it an
03 23
Al hama
Par que
hi bri
ver d
ba o
man agement
tu re
na to
Ar ce
ran a
Gu adiana
fotos ero
res pon
Mar ina
Ca y
se v
Se garra
Cor ta
tor io
tor ia
lan ca
mi ami
be e
Ag us
bar an
des inventos
165 0
194 90
Bo li
Bo ix
con ac
Ri car
tes personales
156 13
sh in
int roito
So la
fer nand
Fer ran
ju gue
ban king
Su bmit
vas i
yu an
sal vador
che v
pr ensa
oso to
Agu a
Casti lle
App lication
gre en
enla playa
gon za
anda luz
Sim ple
uni dades
fran ca
till ero
vide os
gran desinventos
fle ur
Sar ri
audi osat
Marti nez
4937 2725
Sebas tian
tila cion
Ori on
Alame da
ringring rent
santcugat pisos
Panc r
Agui lar
private banking
Marce lino
comer cios
Baix ada
cursos enlaplaya
Aba jo
Ignac io
deux management
Sing leSamples
xavi petit
tintas ultravioleta
deven tilacion
ankawa elda
hibri dos
fotosero ticas
fernand osoto
jugue tespersonales
prensa hp
unidades deventilacion
* *
2 253
4 899
4 388
6 130
6 147
7 299
8 270
A nti
A bi
A be
B ru
B FAB
B ene
C c
C ry
E ls
E ECA
E EBD
E manuel
F d
F ri
F CCB
F EDE
I gu
J un
M onti
M unt
N d
N eb
O la
R as
S T
S on
T erra
V ali
V az
Z ap
Z ul
a to
b ad
b art
c T
c lar
d ura
e ver
g U
g gs
h es
j ag
k le
m era
m oso
o u
o pel
p k
s co
u b
u ar
w off
w ho
z osa
ti fica
te x
te log
ca p
ca ss
ca mente
in al
in to
in aldo
de enlaces
80 30
80 05
80 55
80 54
80 91
lo t
lo ck
ar ro
nu nci
lla res
com p
re vi
25 42
ci pal
ro l
ro cke
di g
27 55
do la
40 906
40 943
al les
al mas
10 70
10 90
10 49
pe ines
ri cio
20 80
ni er
ni ch
ni ll
29 11
29 95
17 30
17 24
17 61
17 41
17 72
38 74
38 33
14 70
14 77
io la
22 46
64 40
64 73
65 40
65 69
65 84
65 49
60 36
60 78
60 33
15 39
15 12
19 83
19 79
19 48
74 30
74 16
74 79
ma her
39 37
39 99
69 65
69 67
69 50
69 47
28 84
pro motor
89 40
89 16
23 75
23 05
13 20
13 15
13 54
70 64
45 28
45 55
45 00
45 04
85 34
vin o
67 20
67 19
67 69
67 89
67 36
67 33
ED f
ED AC
ED ne
carrito Set
11 68
BA BA
24 37
24 97
CC EC
CC FD
FB DD
FB BD
90 45
90 94
90 44
90 48
75 50
DD EA
DD AA
DD DB
FA n
FA r
FA CD
FA AB
35 80
86 74
EC DA
EC BE
84 18
84 78
84 73
FC BA
34 40
34 37
26 16
26 12
EA DD
EA EC
EA EA
94 16
94 12
FD BD
21 86
95 94
ja no
ra j
CA FB
CA FE
36 89
18 20
16 66
cor n
aute n
71 27
71 63
50 70
77 16
270 2
49 35
62 38
33 39
47 182
si erra
si tienes
BE ED
BE FC
61 89
41 65
57 74
AF FB
54 77
32 29
Ma x
he m
ve h
ve lo
ve da
250 3
76 25
Co bo
43 20
br un
93 39
96 11
51 85
Fi dalgo
De u
ul le
un e
un da
un nego
zar asal
del vo
ue h
ue ey
na no
cre acion
San do
lu c
bi as
Cas ola
se xta
Na zar
Villa franca
To b
191 19
po la
Del gad
177 31
web tienes
409 26
163 6
265 9
mu jeres
Cam ar
Po ma
BEA A
osa lagon
760 5
sh an
795 0
975 43
eli na
213 19
Per eg
em as
ami en
ven s
ven der
376 1167
Ru t
Mor al
Her rera
gue jos
lon es
489 40
Por t
Por tal
eno za
net t
net te
Gi an
af iel
Il def
Ab enoza
Bor ras
vent ura
una webtienes
Cr isp
soy andaluz
Va hid
Quint anilla
Plan ells
Rom ero
Medi o
Com te
fle x
Zur baran
cs rf
are ina
Villal ba
Fun es
Cru ces
Alf onso
acruz delvo
viajes nacionales
Merca do
Ht tp
sant acruzdelvo
fell er
pav iment
intercambio deenlaces
mane cer
espacio pintor
chih chie
hispa dis
deal caraz
Vol ta
15399 3761167
Arqui tec
Feix as
Met auten
crip ting
Escul tor
Fuer te
4808 153993761167
Beg onia
who ami
telog is
rocke feller
promotor areina
sierra dealcaraz
sitienes unawebtienes
unnego cio
zarasal ud
Delgad os
Pereg r
Vahid Reza
santacruzdelvo to
paviment osalagon
sitienesunawebtienes unnegocio
" }
0 254
2 146
3 390
4 390
6 244
8 174
9 690
= _
A t
A mer
A dol
A ires
C ir
C FDA
D EDE
E ECE
F ro
F ra
F FDA
F ruc
G ru
G eral
I t
K er
L iz
N ie
R E
R ox
S ig
S cripting
T ap
T em
U ll
W olf
b tr
b ach
b eck
c Or
d h
e us
f ro
f am
g audio
h ara
i ci
i do
k ir
l les
m ina
m elli
o va
p ec
s la
s Si
t ru
t amarina
v ec
v aj
v ert
v isco
z za
ti ga
ti pos
te Scripting
la k
en ci
co ach
li b
in less
ac y
zi a
xml file
er re
er bd
de sa
80 49
80 32
80 96
80 899
da na
ar s
ar royo
nu tr
com pra
Ġ/ /
qu illa
25 76
pu r
ro gas
27 27
mo on
40 74
40 09
40 007
al san
10 20
10 29
10 15
10 96
no z
ded rogas
log ic
es tar
el carrito
el mos
20 19
20 24
20 88
20 47
63 97
63 154
29 30
29 94
29 97
17 15
17 69
17 70
17 67
17 37
38 35
38 53
38 747
14 14
14 21
14 47
22 39
22 43
64 34
65 71
60 48
60 56
15 60
15 55
15 92
19 10
19 14
19 31
19 06
74 38
74 15
ma dri
39 80
39 48
39 09
69 80
69 40
69 21
st ac
st udio
89 67
23 61
13 75
13 01
13 53
13 195
70 78
70 99
70 47
70 93
45 87
45 83
45 37
45 51
85 06
67 84
67 16
ED FA
ED EB
am or
30 55
30 53
11 25
87 87
87 75
87 91
87 92
BA AA
24 26
24 79
24 46
75 87
86 10
86 89
86 68
EC EC
84 22
FC e
26 69
EA FE
EA BF
94 24
FD EA
95 10
95 37
95 55
gi da
me d
37 66
256 6
FE EB
36 80
36 14
16 65
55 65
55 21
55 16
CD FD
EE BA
EE FA
EE FE
00 40
00 98
78 69
78 28
31 63
31 64
31 227
31 407
66 66
98 65
AB FC
AB DB
50 74
77 35
48 28
DC EB
DC EE
68 67
68 34
12 15
73 40
73 15
73 28
73 30
270 9
49 65
88 10
88 39
88 45
47 17
82 39
09 79
ali no
01 63
mar a
72 39
97 13
Ma i
Ma tar
04 12
250 7
76 70
76 84
43 27
43 29
46 28
58 23
58 34
93 25
08 83
08 281
Al t
Al fa
Al fredo
Par ra
dela compra
ta nga
ver ia
del tamarina
ada l
bo qu
bo ur
ue ca
Ar ist
ne x
ha ng
gu era
bul l
jack Session
fi c
fi la
Ro ble
Ba la
Ba zan
Cor respon
Na vas
bar eback
po t
lin ks
min ia
165 2
style studio
web logic
240 1
164 8
der Parser
Ter esa
Ra im
con fig
685 8
Po bla
140 6
her minia
Or derParser
644 16
229 3
229 8
ling s
ADD E
803 21
Gar ri
eta no
sta inless
Ped rosa
eu ro
gra fos
Cab a
Pin eda
op en
Cer vell
Por tillo
764 21319
ix a
Mas ia
Pon t
ima ma
bra d
Flor ida
mus ic
mat ache
cli ff
Hi jackSession
soft stylestudio
sha w
Gor osti
sr c
tele grafos
bay bay
det te
Escri tor
Seg undo
ache co
Cin co
Bat alla
Nav ac
Beni to
order Parser
mau roman
fil tr
Comp res
Corre os
Victor ia
velazquezlar ra
Joa quin
Lag una
auth bypass
Cros sSi
sue cas
Casar amon
Fernan do
cum ming
17731 646
Fruc tu
visco tek
tipos dedrogas
coach ing
nutr imama
elcarrito delacompra
63154 198
Correspon dencia
76421319 17731646
CrossSi teScripting
3 118
3 344
4 179
4 197
5 155
5 699
5 384
6 190
6 135
6 649
7 744
8 173
9 458
9 457
9 606
A G
A less
A FCD
A BAB
A CDB
A sen
A tico
B l
B ad
B FDB
C l
C us
E ro
E instein
G is
J Y
K en
K oh
L on
L lar
N adal
P h
P aj
P ath
S h
S in
S tor
S po
T amper
T rans
U eR
V es
V DA
Y uli
Z ala
a nge
b v
b log
c im
d ac
e on
e fer
g ent
g arr
h um
i cho
j P
j ea
j arr
k al
k no
l E
m ue
m ach
n in
n ag
n ardo
o Ph
p sy
r do
s ter
s andras
t E
u ch
v all
v sky
w x
w ol
x ss
z t
z zy
ti ful
ml Tamper
co de
li ver
ca th
in er
in tera
ag os
er lich
de aspe
80 22
80 65
80 89
80 95
80 46
ng os
or r
lo dg
da mbo
le on
le don
pa ra
ok a
ke y
ke ss
Mo la
ko la
qu is
qu ili
ID OR
re direct
25 50
25 04
ci lla
mb i
ro ve
27 90
ur ch
40 39
40 23
40 50
40 33
al be
10 27
10 84
10 44
pe da
car do
no vi
no ff
no ly
ri os
ri tte
el f
as y
20 63
20 38
20 70
20 42
63 15
63 69
63 24
63 01
29 01
29 07
17 75
17 88
17 96
38 21
38 72
14 45
14 24
14 86
14 84
64 10
64 30
64 87
64 36
65 60
65 28
65 34
65 83
65 185
60 30
60 55
60 51
15 65
15 34
19 50
19 72
74 27
74 59
ma est
39 19
69 37
28 20
28 90
il le
st r
st ad
to gra
89 09
23 65
23 73
23 54
23 32
Re ca
13 79
70 65
45 75
85 45
85 47
85 01
85 32
ord era
ema drid
ED BB
ED CF
ED var
30 01
11 85
87 37
87 53
BA FB
BA DD
BA EA
BA BC
24 43
FB BE
90 68
75 60
75 45
75 98
75 49
FA CE
35 44
86 19
86 88
EC FC
84 89
84 23
84 35
84 49
FC DD
34 74
26 28
EA BB
94 18
FD CA
FD CD
21 240
EB FC
EB FD
EB DE
gi co
gi lio
83 63
83 69
83 12
ra ca
05 30
05 57
37 17
37 96
BB EA
BB EF
eb s
eb re
FE BA
36 15
36 86
18 40
18 64
16 18
cor p
CD CA
CD BE
EE ED
78 63
44 99
44 61
us h
us te
31 14
31 84
DB EE
99 33
71 20
71 60
71 89
68 60
68 89
12 25
100 9
bal ler
62 40
62 20
CF ED
33 63
33 37
DF CC
si ca
BC FC
BC DA
09 74
vi ana
vi aje
61 28
61 84
AE ED
incorrectas paros
81 69
jo l
Web Wolf
men eg
04 30
br al
46 87
51 65
42 20
ate s
92 80
it ren
aj ed
03 65
ul z
ab l
Al bal
Al onso
360 4
Sa y
Sa nc
Sa nch
un ko
ta mb
sa ng
bo w
bo ok
bo dy
any a
Vi gilio
erra da
na var
ran sito
res ort
ex po
Car r
Car den
Ju lio
Ro a
Ro c
Ro que
Sant amar
Ca to
vo oPh
las h
Tor ro
Tor ra
263 3
pos as
que o
Sala res
185 18
tr in
tr at
Pal mira
409 23
Zar zosa
227 8
con maest
Cam pan
139 3
CDA B
375 7
DEA C
DEA E
Gir as
335 97543
BBA E
bu co
EEA A
ura tion
Ber ro
Ber nuy
169 2
Ja led
795 31407
So le
So bre
AAA i
258 806
eg an
ras a
rer as
em pe
su per
van tes
Yo mona
Ru iz
Ur da
Ur gell
Mor era
ju ni
agu da
Pe tit
Man zano
In fan
Oj os
528 64416
yu ki
sal sas
jan i
eno va
084 70
517 55
Pon ce
sp ina
Ti er
Ros ario
498 1
fu ente
tab er
bre a
ron es
wen vivo
ai re
Bi er
Oli va
eria dela
bur y
sho wenvivo
ze at
Llo bet
Feli x
wil li
msadc s
sr l
pal ma
Barri ada
Adel mo
Ing eni
Ing elmos
mag icho
mag ritte
LTExLTIw VDA
we at
rez conmaest
Gali n
professional host
professional hosting
ris iber
mad ura
bru jas
det ransito
espa noly
Nog ue
FI late
Escri ba
Sab a
home page
mit j
Aldea nueva
you ng
roman i
Alex ia
Ht mlTamper
Zor rilla
nego cios
hog ar
beau tiful
By pass
Pen agos
casab lanca
franc is
Cora do
1939 3302
0723 3516
busca moto
Edu ardo
tres brujas
imen ez
Ferre ol
multas detransito
Jes us
ingeni eriadela
foro hh
apoli cial
pear l
Bul lones
lamar srl
caser os
Traver sal
Gonza lez
Flu vi
espos a
Calz adilla
sber g
comercios deaspe
Cry ptography
cT Mm
nunci os
config uration
Gorosti za
JY vooPh
Koh ls
Path Traversal
Stor ed
Spo of
Yuli sa
sandras ummer
intera nuncios
lodg emadrid
dambo ise
meneg ilda
itren ds
ajed rezconmaest
33597543 19393302
Sobre munt
258806 14
salsas pain
magicho bby
risiber ia
espanoly negocios
HtmlTamper ing
beautiful body
casablanca beach
07233516 25880614
JYvooPh K
ajedrezconmaest ros
0 253
0 270
0 909
0 447
1 285
3 270
3 155
4 150
4 102
5 118
5 698
6 195
7 118
8 145
8 157
9 805
A tien
A bo
A EDB
A ECA
B au
B ida
C ec
C le
C FAA
C EBE
C FBD
D ie
D CCB
D ECD
D EBE
E di
E BAB
E FBD
E FEF
F FAF
M ex
N al
N um
P U
P ru
P rat
S iete
T A
T ro
V eli
a L
a jo
a zo
a ebo
b I
b ie
c ros
e me
e osa
e vent
f m
g han
h ab
j ec
j or
j uela
k ie
k night
l z
n ad
o N
p n
p rest
s can
s pin
t ag
t at
t ric
v ad
on da
on el
on ari
ti S
te ria
en do
en casa
co li
li en
li tz
ca li
os h
ac u
ac ti
ce su
pt a
de u
de imagenes
80 70
80 36
80 79
80 66
80 77
80 57
le ft
pa q
pa y
pa blo
pa remos
ar man
lla da
qu ec
re jo
25 71
25 185
ci r
mb ard
ro e
ro jo
ro ck
ro bb
di d
di er
27 39
do w
do ceros
40 45
40 67
40 36
40 100
al di
al ter
al du
for all
10 22
10 28
10 33
10 59
10 130
car d
car re
an s
es i
ri ja
ri us
20 08
63 19
29 98
29 49
29 54
17 39
17 45
17 83
17 55
17 78
17 57
17 01
17 46
38 84
14 63
14 64
ss el
ss ori
22 40
22 17
22 26
22 31
64 98
64 54
64 53
64 845
64 976
65 63
65 50
65 04
65 76
60 38
60 60
60 19
60 89
60 90
60 31
60 54
15 30
15 37
15 46
19 66
19 32
19 93
74 70
74 45
74 12
74 47
ma ti
ma ng
ma uri
ma las
39 29
39 24
39 66
39 49
69 30
69 55
69 98
69 52
28 28
28 24
il usi
pro v
st op
to ur
89 23
89 33
89 97
23 38
Re bes
13 25
13 19
13 28
13 24
13 12
13 100
13 02
13 641
70 63
70 38
70 09
45 90
45 34
45 16
45 09
85 09
85 54
85 93
67 12
67 72
ED DB
253 3
30 40
30 90
87 14
87 84
87 50
87 54
BA FD
BA AB
BA DE
24 75
24 47
24 81
CC DC
FB FA
FB BB
90 11
75 70
DD FA
DD EE
FA a
FA FC
FA BB
35 20
35 05
35 79
86 70
86 67
86 82
aci ano
EC AB
84 80
84 98
FC FE
FC DF
FC BD
34 22
34 81
34 93
26 10
26 15
26 74
26 292
EA CC
EA FA
EA FC
EA CE
94 83
94 68
FD AA
21 62
21 870
EB EB
EB FF
EB CE
EB BE
95 61
83 28
83 627
ra les
DA CB
05 27
05 86
05 00
37 63
37 29
37 23
37 16
37 78
id t
CA ED
CA DA
36 29
18 67
16 67
55 34
79 82
CD EF
CD CF
FF FA
78 80
78 87
78 83
78 4015
44 92
DB EB
99 65
99 68
66 64
71 15
ter s
ter ra
98 15
AB EA
DC FB
DC EF
68 29
68 65
12 10
12 29
73 27
73 70
DE EA
CF FA
CF EC
82 14
82 15
BD EE
09 610
vi ch
61 69
41 27
57 75
BF CC
go is
go og
jo b
Go do
men d
32 27
97 25
97 17
97 61
Ma ilena
Pas cu
Co l
Co mer
por que
43 75
43 37
93 75
53 40
56 87
07 94
51 27
art forall
um os
989 4
Al ti
Al ta
Par atge
Sa lo
du e
du alidad
ta y
ba nc
110 511
bo till
servi cio
Ar gan
Ar run
ga z
so a
San l
San s
Gu il
gu al
Mar qu
Cas a
Cas al
Car bot
Car idad
ed dy
ho ma
ho tele
Ba y
Cor do
lan da
cel li
Es pr
Es pinosa
var r
per son
263 12
165 703
2567 69
ste n
Bo te
ka y
ka ya
264 5
245 7
160 525
220 5
Lu de
Ri ba
255 85
Po lica
870 1
374 88
665 9
845 9
835 6
894 8319
Pi quer
247 64976
184 6
BBA D
bu eno
655 69
628 15
ECC C
ECC F
674 74
eli o
339 363
DCC F
Fk y
FEA C
317 50
Fr on
ler s
dd ie
An na
An dr
An dre
Eu ropa
ADA F
ABB C
archivo deimagenes
ela lz
DCD E
Fer rer
BDC F
eni ce
gra tis
Pin illa
314 95
ger indote
Sal v
acion deh
Por to
Mas lo
net work
af ranc
Ce linda
Mu t
860 80899
bas ket
bra camonte
Flor encio
war emas
dev all
zon es
Ve lasco
Ver ge
tec no
ques ada
soft waremas
cb gerindote
ure Password
sin dualidad
Adel fo
PgW y
monte ssori
ite ria
lei ka
Nar ros
chin as
Ven us
Arroyo molinos
Federi ca
6185 712
som ino
Sec urePassword
sse xtre
5024 784015
aula host
barni cesu
Figuer uelas
Mala qu
jue gois
3515 35
Cabez as
Eche varr
sanchez quesada
Gel somino
Prin cipal
Bern aus
Cali xto
tet de
heim er
danie le
escuela montessori
Hino j
paloma j
9078 165703
Carta ya
sil ver
Cay etano
velo cidad
80321 6185712
filtr aciondeh
albe iteria
WebWolf Introduction
Atien za
Die z
onari um
pablo bracamonte
paremos elalz
ilusi onarium
stop secret
8682 803216185712
goog le
porque agel
110511 14
botill eria
Arrun ategui
eddy daniele
hotele stopsecret
160525 04
8948319 901
339363 8948319901
86080899 24764976
softwaremas servicio
SecurePassword s
ssextre madura
5024784015 351535
barnicesu v
9078165703 256769
filtraciondeh umos
paremoselalz heimer
+ +
1 800
1 275
2 143
3 188
3 295
4 809
4 373
5 877
5 244
5 355
5 798
6 270
6 170
6 285
8 216
9 630
9 377
A ni
A CCB
A FCA
A ECB
A FDB
A tal
B n
B ate
B ea
B over
B EDF
B ages
C ana
C ECD
C BAC
D ag
D ECA
D BAD
E me
E CCB
E EDE
E ECF
F X
F t
F ac
F FAA
F FCE
G org
G alla
H al
I sa
K o
M org
N O
O so
O ria
O berto
P ur
P all
P Er
P acheco
R ida
R ach
R illo
R iel
R ueda
S or
S ty
T on
T eix
U n
V ena
V oR
W en
X ar
Y es
Y am
Y ab
a v
a ke
a as
b lu
d k
d t
d rv
d ero
d ns
e las
f en
f iel
g O
g enes
g ria
h ag
h uel
k an
l de
l ue
m cf
m part
n all
o b
o c
p ho
p hd
r to
r ente
r zano
s ie
s at
s me
s iete
u ap
u et
u meu
y tv
y ks
on ey
on ora
ti lla
ti gas
ti way
te la
te ar
te mp
te jani
la st
la ba
en menorca
en vivo
co re
li ti
li da
li ces
li bro
ce o
ce y
ce to
de ap
ec rm
ap s
ap u
ap ic
80 27
80 75
80 50
80 48
da u
da v
ie la
ent s
ent hal
im es
ar ca
ok i
ok ie
lla h
cal le
ke mp
Mo jeda
qu ida
qu iz
pati ent
ci tiway
27 63
27 74
do queo
mo vil
mo bil
ur an
40 21
40 291
al d
al mente
10 10
es ia
es tor
ri p
as i
as s
20 90
20 83
20 33
20 57
ni ques
63 20
63 17
63 00
63 61
29 27
29 69
29 86
29 79
17 80
17 65
17 34
17 62
17 56
17 143
17 650
38 80
38 40
38 15
38 86
38 34
38 37
38 79
38 44
14 20
14 15
14 79
14 66
ros enthal
22 69
22 82
22 2785
64 80
64 67
64 86
64 47
64 97
65 31
65 54
65 875
60 22
60 94
60 18
60 01
60 42
60 06
15 63
15 13
15 83
15 73
19 00
19 68
19 59
19 81
19 43
19 58
19 03
19 110
19 144
19 278
74 11
74 68
74 51
39 14
39 36
69 89
69 87
69 44
69 92
28 70
28 55
28 76
28 93
28 53
28 51
89 30
89 11
23 34
23 391
13 65
13 70
13 56
13 03
13 06
13 776
70 27
70 15
70 21
70 18
45 94
45 03
45 06
45 200
85 64
85 98
85 51
adi x
Registrar any
67 75
67 21
67 68
ED BA
ED EA
ED DC
ED BD
30 69
30 11
30 47
30 04
11 11
11 87
11 16
87 63
87 15
87 19
87 67
87 36
BA DF
24 15
24 69
24 98
CC CC
CC CA
FB BA
FB FC
FB CA
90 35
90 95
90 54
75 19
DD EB
FA EF
FA DF
35 34
35 77
35 32
35 273
86 11
EC FF
EC EF
EC BC
84 20
84 30
84 95
FC FB
FC EA
34 309
26 70
26 21
ch ap
ch ami
ch ima
94 26
94 48
FD CC
FD BB
FD AC
21 63
21 65
EB BB
95 25
95 13
gi b
83 25
83 37
83 31
83 76
ra e
ra no
DA AD
05 14
05 83
05 55
05 88
me era
37 25
37 28
37 71
CA AA
CA CB
CA CD
eb a
eb ert
FE FC
18 26
16 10
16 89
55 14
55 37
55 4929
79 63
79 69
79 28
AA EF
AA DE
AA CE
CB FB
CB EB
CB EF
CD CC
FF EA
FF FE
00 00
78 10
78 13
78 34
44 39
44 45
44 90
44 12
31 13
DB ED
DB BA
DB FB
99 25
99 10
99 94
66 29
66 68
66 88
71 294
Entrar any
insertar any
AB ED
AB CF
77 67
77 26
48 25
48 2580
DC BA
DC FA
73 63
100 125
dis e
CF BA
33 20
33 75
DF DD
88 27
ir an
47 75
47 18
BD ED
BD EB
BD CA
BD FE
BD CD
AD ED
AD EA
BC FA
09 83
09 129
09 640
vi ta
61 10
41 14
59 337
AF FA
tos h
go la
go person
mar ia
54 13
54 35
72 27
32 63
ff ey
97 64
ig ht
Ma ng
Ma yo
Ma quie
ve in
Pas tora
Co llan
91 60
91 26
43 39
46 89
58 39
58 16
53 70
56 4059
96 70
42 15
42 19
42 69
it ron
52 20
52 60
Qu eral
03 38
03 30
06 27
06 28
inde l
za ti
za ma
02 65
ol uap
Al u
Al for
Al cubi
Par agu
Par amo
wa i
un tes
ona y
ona to
ta k
ta via
fo ur
fo togra
del mar
bo y
bo llar
La zca
any i
na ir
Ar banc
ne g
ne las
ga nt
ga ma
Gu are
lu tz
bi oso
gu apa
Mar c
Mar doqueo
Ro bert
Ro bus
Ro bles
org is
Ba ja
Se gre
Es per
be atriz
ge cars
th w
257 21
Mon estel
To m
To laba
per fu
lin do
cu mbar
mer lina
105 24
style perfu
129 5
240 3
Bo ca
178 26
ck i
164 7
der i
120 4
264 2
400 68
158 63
con era
Lu z
Ri ca
Ri bes
685 0
Po mp
675 82
374 1
Ch il
294 10
665 8
670 3
224 39
sch o
sch ia
DEA A
355 2004
745 2244
int g
807 1991
674 99
339 7
FDD D
So ma
ts u
An Te
ves tre
Per i
DBB E
ili ad
ABB E
let te
759 25253
Fa br
BDB F
van da
ami rez
954 18
Li ana
226 40068
743 13
Can dela
par is
493 25
No v
055 71
sta nc
485 6
035 79
Cab an
Cab anilla
Cab eza
Su bir
vas iliad
Cer vantes
415 85
437 18
910 59337
225 5812
Est ra
Mas carell
Gi orgis
569 67582
ft ware
Ce peda
Am pa
Ale gria
Ros al
my styleperfu
Bas tida
bro ad
bro wn
723 8071991
Casti lla
riz zar
Fuente s
Cr ist
Flor es
Me j
Me del
bre ga
Monte sion
Men gual
Pedro l
ws ka
ws ki
dev lin
dev ore
Cala f
hy er
mus culares
Nu cle
Ang elo
info tek
Santi ago
Blan ca
sin dns
sim ple
Bla nc
Bla ya
ati va
Barri os
Far zati
ins ki
sm ith
nar incon
Cur iel
Llu fri
Nar va
ode software
4538 35273
Espa da
tech niques
7080 3791
Arte sa
long don
Naval uenga
flor al
3855 49
Luci ana
iv anyi
Valder r
Esgue villas
7918 38747
roo ms
2830 64
9974 3552004
Bos co
Via brea
casab olsa
Pet r
moy na
Bart ra
Bart umeu
bl ueey
Alci ra
Vent ura
feli ciano
lian os
1828 7452244
8024 3620
Alde ta
Carras co
Var ela
serv lets
Montor i
presti gecars
noticias envivo
Ceci liano
frec ha
tode cor
Fonti veros
Iver n
Plas enzuela
Tran quili
mun shin
erner o
cil los
Noguer as
clubde viaje
Pis uerga
gener ador
Dami an
Corta del
green le
Vali ente
nano generador
Arquitec to
Rox ana
0098 385549
bareback spain
9606 8417
Asen sio
eon on
Mola cillos
Giras oles
taber narincon
Ingeni ero
FIlate lia
ingenieriadela construccion
event s
83627 503
25585 453835273
65569 791838747
67474 361
Bate t
Bover a
Morg adas
Rach id
Riel ls
Sty lianos
Wen ces
drv rs
mcf ly
pho todecor
siete peines
yks oluap
libro deap
apic ultor
mobil ecrm
222785 0098385549
19110 618
554929 32
482580 22
100125 453
goperson al
Maquie ira
Collan tes
564059 19
Paragu ay
Lazca no
bioso ftware
Robus tiana
cumbar eback
Pomp onio
2255812 100125453
mystyleperfu me
7238071991 283064
Nucle o
Llufri u
99743552004 18178
blueey es
18287452244 62815
25585453835273 10
65569791838747 71
librodeap untes
0 649
0 744
0 700
0 850
1 400
1 198
2 190
3 807
4 135
4 154
4 639
4 277
4 654
4 228
4 378
5 250
5 604
6 226
7 105
7 144
7 209
8 170
8 179
8 409
8 275
8 673
8 223
9 270
9 150
9 635
9 350
A S
A ca
A lo
A vi
A EBB
B et
B ert
B FCD
B EBD
B FBF
B FFF
B adia
C T
C eb
C ad
C ECA
D en
D ar
D CDB
D ip
F z
F FBE
F EBE
F BAB
F EDA
F FEF
G an
G ines
H os
H ist
I E
J i
J arab
L ec
L ap
L at
L agar
L ad
L lan
M E
M us
M uel
M ente
N ardo
O J
O di
O pen
S ur
S ir
U ru
V io
a R
a co
b illo
b ebe
c cio
d aga
f li
f ac
f es
f fet
f ara
h ora
i ri
l ero
m I
m n
m ist
n T
p ir
p lu
r ist
r amon
r bel
r incon
s ex
t xt
u dia
w olf
w agen
x led
y ce
y le
y ana
z ali
te g
te ci
te ros
te anu
en go
co w
li do
li ve
li mi
li eu
ca na
ca ire
ca mila
ag re
ce da
ce sch
ce ment
pt o
zi er
er d
de tti
80 74
80 41
80 52
da no
da ll
ie t
ie ga
le za
im as
im port
im ote
ser t
ke efer
ko u
tienda s
re te
re ment
25 23
25 94
25 48
25 97
ci ty
ro d
27 11
27 37
27 00
27 68
27 43
27 93
rec illa
mo t
mo tau
ur ke
ur rio
40 22
40 34
40 55
40 99
40 93
40 08
for te
for eig
10 35
car go
no linda
an ima
es u
el rincon
as io
as ola
20 25
20 16
20 61
63 35
63 83
63 12
29 22
29 83
29 68
29 61
17 29
17 17
17 35
17 66
17 12
38 41
38 97
38 58
14 29
14 38
14 93
14 148
22 18
22 41
22 240
64 74
64 13
64 94
64 21
65 89
65 45
65 41
65 57
65 08
60 24
60 35
60 83
60 71
15 75
15 09
15 04
19 95
19 76
19 227
74 140
ma xi
39 253
39 92
39 660
69 14
69 95
69 43
28 22
28 36
28 57
28 32
28 685
st ra
89 15
23 45
Re guer
Re bollar
13 61
70 70
70 16
70 81
70 76
45 17
45 30
45 59
45 76
85 79
67 54
67 97
ED no
253 4
30 67
30 86
30 18
30 59
11 20
11 38
11 60
11 89
11 84
87 70
87 85
87 95
87 57
87 81
BA EC
BA FC
BA CA
24 38
24 18
24 91
24 117
at s
CC BA
CC CF
FB EB
FB BC
90 19
90 89
90 47
75 80
75 65
75 75
DD CA
DD CF
DD CE
DD DF
FA BA
FA EE
FA AF
35 90
35 56
86 23
EC DF
EC AD
84 39
84 90
84 86
84 21
84 360
FC AB
34 25
34 38
34 126
26 80
26 22
26 64
26 67
26 24
EA DA
EA FF
EA EE
au lt
94 69
94 85
FD FB
FD CB
EB FE
EB DB
EB BC
95 74
95 35
95 57
95 53
95 07
83 21
DA CA
DA CF
DA CE
DA AE
DA rbel
05 61
05 644
me dia
37 20
37 69
37 37
37 36
37 97
CA CC
CA FD
CA DF
BB CD
BB DF
36 256
18 14
18 89
16 15
55 40
55 73
79 40
79 31
79 96
AA AA
AA EE
AA AF
CB CA
CB EE
CD BA
CD FB
FF ED
FF CC
FF EB
FF FF
00 65
00 77
78 20
44 65
44 35
us ter
31 80
31 15
DB CB
DB CD
DB EF
DB DF
66 18
71 65
71 69
ter na
EF FA
AB FA
AB CA
AB CE
50 28
50 91
48 10
48 23
DC DD
68 27
12 39
270 4
49 45
49 11
DE CC
DE FB
33 14
33 35
88 69
ir ro
47 95
BD FD
BD CB
AD FE
BC FE
09 25
vi co
BE FD
61 21
41 86
59 69
59 66
57 16
AE EA
BF ED
go o
go zzi
72 80
81 679
Go yen
men e
ff o
ff el
97 89
97 675
Ma homa
04 38
04 37
04 77
he y
ve z
76 17
76 19
76 69
91 15
91 84
br is
46 10
58 84
93 80
53 67
56 65
96 192
51 17
51 247
42 64
42 65
92 25
aj era
aj ardo
ino xled
08 34
03 22
ons a
ul s
ul los
ad rones
ert on
ert ad
ab ernero
ol teanu
Al go
Al cole
360 3
ta ntra
va da
man y
del s
122 14
La uren
Ar an
ne ja
ga llar
ran te
Val dun
ru ca
so mos
Gu miel
lu ci
gu ar
gu sto
Mar ch
Cas ta
Bar ca
Bar ros
Car les
ana ma
Cu gat
ho f
ho p
ho ya
221 13
se ca
Pa z
Pa terna
Le m
Le o
Cor ia
Cor ona
Cor vera
mi ch
Es c
sion ador
th at
las es
las pru
To mas
Tor recilla
165 780
cu p
mer ca
154 75
154 32
Pal ma
150 76
240 7
660 6
ka a
Pu lido
ret or
134 274
ari as
con gas
pi la
Po lo
dor ra
Ch ar
CDA D
Hu go
634 23
845 1
224 15
Gir on
Or tiz
183 3
337 9
408 14148
DCC C
187 8
DCA E
445 7
Per vasi
Eu gen
CBB F
ADD B
gar da
113 4011
eg as
Bu st
EFD E
CDD A
Ru dy
mas quec
ADC E
500 3
Ped ra
777 84
gra b
Her man
Her rer
314 98
den as
469 10
val les
Be an
Sal va
jan aplastica
Jo hana
Est ru
474 94
Ant oni
514 4167
Ab del
Agu do
Am urrio
For m
my tanga
Bas iana
sy s
kin s
wor de
wor mee
Mont serrat
fan i
col m
soy castella
soy bueno
enla palma
mus rooms
mat ch
sel ls
mira valles
iis start
Fon tan
Llo breg
up loads
eng el
Sim o
Ho yo
sq li
Ig nolinda
Mir anda
Sag rada
gran coli
quil los
ebas congas
Villal billa
tis mo
ciru janaplastica
Seg ura
deh adrones
Riu tort
abo ut
Fran ces
Fran cesch
Vilar daga
hig h
eras musrooms
Ming uez
Hon teci
blan quillos
2554 13195
Sali nas
nor th
eve lin
tus limi
beau mont
Alame dilla
ringring cargo
pisos santcugat
Cue vas
Vie ja
fit ness
Neg ros
hosting professional
Ner is
vill ero
Mali as
Alto zano
Huer va
Monasterio aren
Vit oria
rau lla
hote ls
Edel mira
2831 6047
enav ente
Guzm an
Hello Pervasi
Barto lome
enigma tico
Ste fani
Bed mar
Lib ertad
Pela yo
Sas tre
aper ros
carlos hoya
Agus tin
ever rett
erre bebe
0040 40814148
euro grab
noff ice
Bau tista
Bida soa
knight s
doceros as
aldu fa
Andre u
tetde velocidad
palomaj imenez
estor e
41585 257
Jarab a
cement os
imote o
motau ng
foreig noffice
Reguer as
Goyen aga
somos agelespa
sionador dehadrones
laspru ebascongas
134274 894
1134011 255413195
masquec lases
5144167 134274894
soycastella no
Llobreg at
grancoli sionadordehadrones
Francesch ini
Honteci llas
tuslimi tes
HelloPervasi ve
004040814148 8994
laspruebascongas eosa
/ _
0 144
0 750
0 287
0 897
0 368
1 170
2 690
2 103
2 109
3 400
3 212
4 747
4 221
5 159
5 600
5 705
5 289
5 688
5 907
5 949
5 999
5 302
6 194
6 118
6 109
7 154
7 176
7 162
8 872
8 143
8 650
8 804
8 384
8 300
8 744
8 873
9 747
9 135
9 159
9 299
9 390
9 248
9 648
A co
A dela
A EDF
A FEE
A che
A tila
A mbr
B Le
B EBE
B ib
B EDE
B iz
B FAD
B EBF
B FAF
B CDB
B illi
B aguda
B enavente
C ti
C ri
C id
C ente
C FDF
C EBC
C ECB
C FDB
C EBF
C EEF
C EDD
D I
D ul
D FBE
D EDB
D FAA
D FCF
D FAC
D ic
E w
E ECD
E FDA
E FBC
E bro
E raso
F U
F en
G ig
G amon
H it
H oz
H iguer
K a
K ar
L ac
L an
L eb
L ic
L illo
L acruz
M O
M acha
N to
N ue
N oria
O teo
O ute
P ons
R ra
R ad
S am
T ru
T ordera
U sa
W itron
Z ua
a mbros
a id
a ve
a DO
a zar
a ver
a vilano
c lo
c un
c imi
d c
d im
d ena
e los
e jo
f E
f ly
f ton
f tino
g is
g ge
g her
h S
h wa
h ell
h ns
h ting
i lo
i ur
i ali
i Ca
i be
i po
j ona
j ana
k m
k us
k ab
k lar
k unt
m uel
m cr
m po
n el
n ina
o ch
o mi
p ap
q cole
r A
s A
s gi
s ino
s ley
t hi
u era
u jos
v A
v I
w hit
y ok
z ko
z amp
z ow
z aga
z uelo
on ger
la u
la digi
en q
en ck
en ka
en eta
en dea
co c
co x
co so
co ck
co pi
co tt
li x
ca mi
ca vender
in os
in ad
in madrid
ce do
pt ner
zi e
er p
de ar
de mar
de ard
de gen
ap ote
ap ala
ap ren
ap last
80 26
80 71
host professional
or in
lo dge
nc hi
da vi
da ne
da vie
da nte
le as
le go
im p
im per
ar y
ar as
ar ma
ar ch
ar ne
ar nold
ok ai
nu es
cal men
cal ley
com od
Mo l
Ġ/ ?
ID or
los ref
pla t
pla ceres
et sky
re ver
25 14
25 90
25 47
25 01
get ti
is o
is el
ci ar
ci aplast
pu esto
mb as
ro dri
ro urke
ro gge
di ca
di ar
27 60
27 69
27 18
27 99
27 72
27 97
27 91
27 96
mo ore
40 05
40 46
40 56
40 183
al m
al yn
al varez
10 17
10 75
10 05
10 48
car t
log ico
an co
an ni
es bien
ri ll
el bau
as devuelos
20 39
20 35
20 36
20 66
20 6810
dad ora
63 27
63 10
63 38
63 84
63 257
29 25
29 88
29 82
29 46
29 92
29 08
17 28
17 99
17 98
17 43
38 64
38 39
38 77
38 57
38 52
14 89
14 95
14 72
14 97
14 96
ss ier
22 14
22 22
64 63
64 59
65 22
65 11
65 00
65 98
60 86
60 50
60 12
60 92
60 02
15 80
15 71
15 33
15 88
15 41
15 54
15 91
15 707
19 61
19 57
19 6460
74 40
74 66
74 96
39 27
39 30
39 51
39 08
69 39
69 26
69 77
69 49
69 59
28 39
28 11
28 59
28 294
st re
st ulo
to m
to ol
to informatica
89 90
89 62
23 19
23 72
23 02
23 129
13 27
13 29
13 67
13 00
13 44
13 43
70 44
70 88
70 97
70 92
45 64
45 85
45 71
45 50
45 07
85 27
85 74
85 53
adi az
tar if
67 50
ED AF
ED nez
am os
carrito AND
30 45
30 16
30 99
30 57
11 80
11 10
11 17
11 12
11 61
11 630
11 659
87 78
87 695
87 95418
BA DB
BA BE
BA AC
24 25
24 95
24 292
at on
CC FB
CC AE
FB FB
FB FF
FB CF
90 69
90 28
90 66
90 08
75 55
75 46
75 53
75 272
DD FD
DD FE
DD CD
FA CB
FA CF
FA BE
FA AE
35 10
35 87
35 46
35 265
35 350
86 81
86 164
84 13
84 45
84 67
84 94
84 88
84 61
FC BB
FC DE
FC AD
34 80
34 75
34 16
34 68
34 192
26 65
26 23
26 83
26 15613
ch s
ch ino
ch art
ch un
ch ard
au er
94 27
94 60
94 78
94 77
21 85
21 67
21 83
21 82
95 80
95 70
95 00
95 50
95 51
ja vila
83 17
83 64
83 23
DA EC
DA FF
DA BF
05 63
05 73
me ar
37 89
37 34
37 93
CA CA
BB FB
BB FA
BB EC
BB EB
BB CB
BB DC
BB CE
BB BC
eb ra
FE FB
36 25
36 10
36 66
36 62
18 60
18 85
18 30
18 108
16 82
16 81
55 97
55 06
79 85
79 24
79 35
79 34
79 21
AA CA
cor less
CB DF
CD EB
CD CD
FF FB
EE FC
EE FF
00 75
78 29
78 39
44 86
wd er
31 60
31 85
31 270
mber t
DB DB
99 88
66 87
98 89
98 23
98 30
98 11
EF FE
50 39
50 85
50 16
50 805
50 213
50 343
77 39
48 64
73 45
ner a
100 6
49 39
49 100
49 639
62 80
62 14
62 45
62 11
iss i
CE BA
CE EC
33 23
DF FA
47 60
47 30
47 34
47 175
82 19
si a
BD CC
AD EE
BC BB
09 348
AC EB
AC FE
AC EE
41 40
59 14
59 95
59 37
59 18
57 69
AF ED
AF BA
AE BA
incorrectas AND
54 70
54 6828
81 13
jo yas
jo hns
ff y
Ma car
Ma teu
04 74
he in
ve la
76 86
logo ut
Co unt
Co okie
91 67
43 143
br et
58 89
93 64
53 30
56 27
56 64
56 13
56 67
96 20
51 19
51 69
42 10
caja any
Fi a
92 60
92 387
it to
08 17
08 65
08 60
08 673
03 24
03 34
03 277
De o
De mu
za bal
ul ts
02 270
um i
um el
um ptner
ol lo
Al ca
Sa lom
un ar
hi li
ona ti
ta o
ta z
283 406
zar etsky
va dis
ver sion
del ujos
ada da
sa ave
110 3
110 6
110 7
bo da
bo getti
La DO
any ena
Vi era
Vi ana
Vi viana
Ar ge
Ar tigas
tra in
NT e
ne ke
ga vens
ha nt
ran es
Val les
Val dea
ru f
so u
so cimi
San lu
San abria
San agua
Gu a
Gu iz
lu d
lu ca
lu pe
res apala
res ults
gu ero
gu apote
Cas ares
Car d
Car bon
Car riza
Cu billo
Ro jo
ho use
Pa llares
Se jas
Cor co
ber n
Na iara
lan y
be h
be ar
be ate
th y
th es
EDa des
170 60
gos can
bar ra
bar ata
per e
per io
263 1
190 33
que cole
Del va
150 74727
145 944
Bo b
Bo ada
175 38
409 21
zo zow
Guada lupe
660 48
Zar za
103 74
163 5
mu la
620 3
Ra vi
con tro
Ri era
127 2948
139 1
685 5
375 4
375 5
670 8069
839 2
BEA E
sch enck
877 1500
894 307
248 17
184 1
260 2
CEA C
EEA E
oria dor
337 75
ura y
Ber d
Ber nd
Ber til
677 145944
kr ish
ECC A
117 2
674 8
mc davi
828 8
ts on
BCA D
BCA E
DCC A
315 1
hu t
187 3
680 6
680 96192
505 5
DCA B
DCA D
445 89
An dorra
857 28685
ACA A
Per eda
Per eiro
CBB C
DBB D
BCC D
Fu eros
mon d
ABB D
BDA D
ic s
BDD D
284 74140
094 71
380 2993
210 34
son e
Li ber
Li onel
054 13
458 283406
Ru IDor
Ur bina
Jos elina
ei ra
No vell
ACD E
cha ye
Da to
agu as
064 13
Camp illo
ph arma
by e
Lo iu
Cant onati
ry le
Cab o
den g
Br au
Br zozow
324 6974
Cer da
Ser rez
can arias
080 92387
har te
Sal da
Ta la
Est acion
Est rada
dr en
dr adiaz
Fe delia
935 15707
pan y
517 546828
ug el
047 3794
874 43
964 9891
Am ell
For adada
Bas ics
tica day
dea estu
mac do
Casti llero
Bal d
Bal do
Rey es
Gr anyena
Me Nte
Bon et
Bon itto
ges maher
Ala mo
ies go
bus es
Oli var
ant on
dre ss
Antonio li
Ol mos
hol ton
tur ri
cli entSideFiltering
auto buses
Tar onger
Santi ni
Zu leta
Zu leika
Gra vina
Sil vestre
dora ine
mul ti
Pro long
cro m
cro wder
bau er
Alber ti
fle ugel
sm all
dun ce
Manzan illo
spain pharma
Cata log
Hel vec
club degolf
aste resapala
Fre des
Sel va
Sel man
cle ve
indo mo
Ama dis
hat ti
sala comp
hue ga
dj broad
rigo la
rigo iti
eas t
Merce des
wat w
Serra dell
rus as
1455 9882
Bri huega
Pelli ni
isp retor
Nt E
Luci liano
video casa
Zor ita
Nico las
imar bella
Pat raca
Mit javila
fig hting
Enc inas
Lau re
elec cion
6470 9043
Ren dor
fol l
1869 8482
1978 2082
5238 18698482
Mali nda
St umptner
7124 6547
este ticaday
8625 1880
Yas mila
isio encasa
3854 3802993
hote les
sher ri
Moli ner
1870 28474140
vella no
Han dal
adul tos
schn aps
garri gues
Trist ana
Ame lie
Ses garrigues
ofertas rusas
plo of
once jo
7240 523818698482
Horte ncia
Shar im
8906 1921
4663 85728685
5175 6068
Bab eli
oth ers
Boli via
Pancr acio
6147 677145944
Bene detti
Monti el
Ras mira
EDf ero
47182 191
Ildef onso
Http Basics
Geral do
Alfa mbra
Navac oncejo
Zala rich
mach ines
novi asteresapala
elf isioencasa
bral tar
francis luci
Spoof Cookie
Argan do
Polica r
tecno indomo
Hinoj osa
Gorg one
Hal con
Yab en
lde losref
onora toinformatica
dav ray
chami zo
indel hogar
schia ftino
Medel lin
tabernarincon ete
Hist oriador
Lec r
Lagar es
84360 9931
36256 894307
81679 3870
51247 36256894307
guar neros
22113 2397
that cher
Salva tierra
Billi ni
Dic lo
Hit Count
Oute iro
Zua zo
iur ispretor
kunt ova
muel ler
mcr spain
omi ya
ladigi anni
deard en
apren deaestu
lodge inmadrid
calmen so
comod indelhogar
placeres adultos
elbau ldelosref
206810 66048
196460 600
28294 38543802993
tarif asdevuelos
11659 20681066048
8795418 458283406
75272 191
86164 975
50805 644
joyas eleccion
Demu ner
saave dradiaz
Valdea vellano
Sanlu car
Guiz asola
Carriza les
1272948 221132397
6708069 843609931
8771500 82
Bertil da
krish na
mcdavi tt
chaye vsky
Brzozow ski
3246974 816793870
Serrez uela
517546828 2615613
0473794 196460600
9649891 877150082
gesmaher nan
Prolong acion
Helvec ia
salacomp lices
djbroad cast
esteticaday da
187028474140 8418
466385728685 8703
6147677145944 254
noviasteresapala cios
francisluci lle
aprendeaestu diar
elbauldelosref ranes
0 800
0 285
0 197
0 200
0 355
0 855
0 807
0 705
0 646
0 357
0 607
1 199
1 136
1 290
2 150
2 159
2 258
3 173
3 145
3 197
3 679
3 384
4 250
4 234
4 144
4 400
4 279
4 804
4 638
4 635
4 705
4 298
4 377
4 396
4 831
4 353
4 602
5 637
5 800
5 285
5 405
5 104
5 204
5 218
5 359
5 905
5 497
5 642
6 100
6 675
7 8789
7 285
7 805
7 405
7 894
7 646
7 246
7 948
7 641
7 858
7 701
8 199
8 679
8 699
8 137
8 635
8 855
8 643
9 300
9 404
9 604
9 704
9 304
9 948
A ti
A ur
A za
A ber
A ns
A FCB
A nte
B EBC
B ei
B etti
C Z
C Mo
C EDB
C FCF
C ECF
C FAD
C FAC
C FBC
C BAF
C eu
D Y
D ue
D FDA
D ECE
D FAF
D inar
E EDB
E FAA
E FCB
E EDC
E BAC
E EDD
F FAB
F ray
G L
G re
G at
G ras
H K
H ue
H ero
H om
H aro
I M
I a
I BM
J X
J VX
K K
L A
L N
L v
L arr
M all
M ontijo
N ad
O ni
O ha
O cho
O jeda
P A
P ul
P OJ
Q S
Q By
R sE
R etu
S tella
S SRF
T os
T et
T al
U ni
U cu
U Ra
U tri
V o
V egas
W Oha
Y i
Y ami
Y ela
Z ki
a ca
b k
b io
b un
c cn
d Es
e tien
e mb
e MD
e mi
f ur
f un
i S
i ones
l fo
l cke
m osa
o JX
p si
q Ru
q oJX
r adi
r se
s pa
s ko
s noop
t cm
t heme
u go
u web
v s
v ran
w ie
w AA
w HK
y er
y ton
y una
z ing
z ell
z POJ
ti ble
ti el
ti dos
te st
la g
la l
la nt
la mo
la bo
la ure
la bios
en elec
co che
ca pt
os Mie
in d
in cre
ac tion
ac ed
ce la
ce ss
er r
de mo
de man
de sb
de em
de coaching
ap ia
app le
80 29
80 64
80 43
or ana
da h
da te
ie u
le b
le w
le te
ent udia
pa tch
ser n
ar an
ar ri
ar dis
ar ols
nu la
ing enelec
Lin ares
qu ina
qu iel
quer o
re h
re di
re form
re iman
25 82
25 58
is i
is ch
is ad
is po
ci enci
ro let
di p
di ag
di abo
27 19
27 30
27 36
27 41
27 54
40 18
40 16
40 32
al s
al lo
al bu
10 95
10 18
10 58
10 93
car ron
an no
es mer
ri g
ri al
as u
as co
20 64
20 85
20 75
20 26
20 05
20 55
20 93
20 06
ni k
63 23
63 30
63 82
63 54
29 38
29 15
29 45
29 99
29 680
17 21
17 42
17 03
cia les
38 99
38 43
14 81
14 58
14 56
14 52
22 25
22 67
22 61
64 38
64 75
64 35
64 107
65 23
65 12
65 73
65 82
65 43
65 93
65 03
60 63
60 45
60 84
60 09
15 20
15 15
15 70
15 87
15 68
15 81
15 97
19 22
19 37
19 46
19 56
74 14
74 74
74 54
74 42
74 92
ma tar
ma ta
ma let
ma tal
ma quilla
39 10
39 65
39 15
39 35
39 83
39 44
39 50
39 88
39 628
39 2219
69 66
69 62
28 65
28 99
28 71
28 12
28 46
28 264
28 757
89 70
89 36
89 91
23 21
23 77
23 264
Re hS
13 10
13 14
13 11
13 26
13 48
13 68
13 62
13 09
13 57
13 42
13 6414
70 85
70 30
70 72
70 91
70 56
45 10
45 84
45 99
45 42
85 65
85 35
85 37
85 62
85 59
67 79
67 93
67 53
ED CC
ED EE
ED DE
ED BF
ED guez
253 6
253 32
11 19
87 23
87 157
BA FF
BA CF
24 22
24 90
24 78
24 71
24 88
24 76
24 42
enes tar
CC ED
CC AA
CC EF
CC AF
FB CC
FB EA
FB DA
FB CE
90 17
90 85
90 18
90 57
75 63
75 00
75 59
DD ED
DD CC
DD FF
DD EF
DD DE
DD BE
DD AF
DD AE
FA ED
FA FE
FA AC
35 88
35 61
86 29
86 64
86 69
EC BB
EC EE
EC DB
84 40
84 70
84 48
84 46
FC FA
FC EB
FC EF
FC BE
34 60
34 13
34 70
34 45
34 66
34 97
34 170
34 259
26 86
26 68
26 82
26 81
EA ED
EA FD
EA BC
ch en
ch es
ch il
ch amp
ch ell
ch ua
au p
94 25
94 79
FD AF
21 14
21 64
21 39
EB EC
EB CA
EB CB
EB EE
EB BF
95 63
95 14
95 19
95 86
95 18
95 44
95 09
83 22
83 13
83 709
DA BA
DA AA
DA DB
05 35
05 81
37 15
37 74
37 30
37 256
37 12
37 62
37 61
37 72
id os
CA EC
CA CF
BB CC
BB FD
BB FF
eb etu
FE CC
FE FF
36 63
18 87
18 84
16 25
16 23
16 13
16 85
16 26
16 270
16 122
55 70
55 96
55 52
55 080
55 1313
79 30
79 75
79 79
79 73
AA CD
AA DF
AA AC
cor b
CB DC
CD FC
EE EA
EE EF
00 17
78 40
78 89
78 23
44 36
44 44
44 47
44 46
us ti
31 38
31 22
31 39
les iones
Ent rada
EF CC
EF DD
AB DC
50 20
50 05
50 491
77 38
cas h
68 40
68 69
68 82
68 127
12 19
73 13
73 11
73 35
100 7
49 22
49 70
49 2735
bal dino
62 10
62 69
DE FA
DE EB
DE FE
DE FF
CF FB
CF FD
CF EB
CE FC
CE EB
33 27
33 70
DF FC
88 11
ir en
ir as
47 39
47 79
47 62
BD FA
BD BB
AD a
AD EB
AD CD
BC BA
BC EB
09 34
09 94
vi ts
61 40
AC BA
AC FA
AC DA
59 70
59 30
59 11
59 24
BF FA
BF FC
BF FE
01 10
01 69
01 89
mar ti
54 10
54 90
72 29
81 26
jo dalgo
Web AS
men g
Ma est
Ma dre
he ad
ve y
Cal era
Cal der
76 60
76 13
76 4017
Co ca
Co lla
Co yo
91 29
91 86
Con s
43 70
46 64
46 13
ame da
58 69
56 69
56 70
96 60
96 16
07 65
07 89
07 70
51 10
51 84
42 63
92 10
92 64
92 69
it z
52 14
52 64
52 279
08 25
08 84
Qu lcke
06 22
06 12
ia do
ia tico
Mj E
PH bk
ul lo
ad ri
Al or
Al mo
Al var
Al mu
Al deh
Al maz
Sa las
Sa igu
Sa hag
un at
SC qRu
ver s
ada n
La uran
na k
na ti
Ar mu
Ar zal
Ar jona
ne a
ga do
titu cion
Gu in
bi da
gu la
ea coche
Bar b
Bar ra
Bar reda
Car a
Car ab
Car rillo
Car vaj
fi lia
Ro mil
486 2
Sant os
Le des
ow ens
Cor tes
Cor ral
Cor rales
cr y
mi da
ge mas
ente ra
Mon ist
las mil
Villa res
170 1163
191 63
cu la
que invent
185 16
Del b
154 77
163 3
264 8
159 61
mu ebetu
254 89
227 87443
620 1
220 3
220 4
167 1
180 4
180 3474
685 764017
Po zuelo
140 3
374 3
374 9
299 63
192 38
CDA F
Mv ccn
630 19
BEA F
sch u
yo fertas
ly s
300 45
Ad Or
168 30045
183 70
335 0
BBA B
bu ch
cf g
260 74
CEA E
760 2
760 6
745 952
677 66
844 73
ach an
and y
and rest
795 3
rat cliff
132 17
hu Lv
610 346
ler c
121 6
An dunce
377 38
377 16
Inc rement
278 29
403 14
DBB B
207 68
BCC C
BCC E
En rique
ili o
Fu ensa
bak er
ADA D
359 14
643 3486
DCB C
DCB E
DCB F
380 8
Bu j
em ina
sZ tcm
354 78
054 750
ACC C
ven dom
je e
je para
Alb or
Ru a
Ru pi
don kr
eri co
par rena
az u
Mor ell
han nula
Man el
035 80
ry g
fr am
In da
sen g
995 00
Br un
Ga y
op tica
Vila l
Ser ver
dy mon
Be le
Be atriz
jan enko
dar cy
038 12
ico dea
Por ta
ini dad
467 282
Gi uli
099 6
vel li
ug all
Ale gr
Ale gre
dal ena
967 85
mac eu
vent o
far o
lt Mvccn
Casti l
una o
ment a
Bal les
Pr KK
Mont ull
fan site
ase ca
336 85
soy rojo
ay l
bri tt
Nu estra
Oli vos
bur n
tri dge
Au gusto
ple o
011 20
432 6433486
Cla vero
Lla don
Zu mala
Hi jodalgo
Sim on
inform ex
hel p
Ing la
Lor ca
Mag dalena
mal colm
Sag rado
As parrena
rie g
Cat alina
cam pan
travel net
kn LN
mari posas
nell y
show cfg
sala paris
EN WN
rigo yen
cpanel host
vol t
sca vran
Llor et
Serra no
Pelli zza
Session Servlet
Tur et
Mel gar
kX yl
inn is
hin da
2245 6953
anti ty
2169 3885
8660 227
Farr er
Fan celli
dem janenko
8900 7263
gm GM
Prin cep
coch eacoche
Guar dia
jam in
Palom ero
Ica za
1064 16830045
Barr ameda
Mila ra
IZ han
8051 8660227
7915 15432
chicas diabo
Anda lu
portal design
demas iado
3071 106416830045
Ivan co
dok o
Redon da
chev rolet
Castille jo
Simple Query
Nd Fky
Mai orana
AG zPOJ
kola hi
Carden al
paq wAA
prov ider
Marqu esa
Bea to
Dag mar
Ton k
delmar mol
lette re
gopersonal train
camila fansite
tiendas yofertas
elrincon delmarmol
Alcole a
Valdun quillo
Lem unao
Eugen io
raulla zaro
dc be
49100 388
contro l
macdo ugall
multi reform
CMo QBy
DY ltMvccn
Dinar di
GL mu
Haro id
IBM WebAS
JVX eMD
Oni la
QS kXyl
WOha GLmu
Yi paqwAA
Zki CMoQBy
etien ne
qoJX d
wHK AGzPOJ
capt cha
incre ment
cienci apolicial
64107 80518660227
malet ti
matal uenga
maquilla jepara
39628 734
RehS JVXeMD
lesiones musculares
492735 89007263
Maest ro
Coyo ma
Qulcke PrKK
PHbk NT
Aldeh uela
Saigu en
Sahag un
SCqRu S
Arzal uz
Carvaj al
Ledes ma
lasmil yuna
1701163 791515432
queinvent o
muebetu web
1803474 685764017
andrest abernero
Fuensa nta
sZtcm qoJXd
vendom iatico
optica web
4326433486 745952
knLN ENWN
mariposas entudia
21693885 39628734
chicasdiabo lo
gopersonaltrain ers
DYltMvccn knLNENWN
QSkXyl PHbkNT
YipaqwAA WOhaGLmu
wHKAGzPOJ j
maquillajepara labios
RehSJVXeMD Se
49273589007263 96
QulckePrKK Ucu
- &
0 690
0 279
0 106
0 149
0 644
0 900
0 895
0 678
0 206
0 908
0 304
0 497
1 252
1 159
1 152
2 191
2 698
2 672
3 170
3 6520
3 294
3 459
3 237
3 226
4 235
4 409
4 389
4 384
4 673
4 878
4 284
4 954
4 748
4 631
5 170
5 191
5 154
5 103
5 875
5 205
5 298
5 607
5 305
5 897
5 843
5 841
5 488
5 781
6 253
6 175
6 144
6 400
6 192
6 639
6 137
6 277
6 408
6 152
6 237
6 879
7 191
7 147
7 111
7 837
7 849
8 297
8 191
8 155
8 104
8 645
8 648
8 850
8 659
8 166
8 305
8 896
8 602
9 190
9 800
9 804
9 639
9 168
9 638
9 654
9 807
9 289
9 853
9 798
9 671
A ch
A man
A ya
A ECD
A bu
A FDF
A FBB
A EBC
A EDE
A ECE
A FAD
A EEF
A FBC
A manecer
B FDF
B FCB
B EBB
B eta
B ello
B nta
C m
C io
C art
C lar
C FCD
C EBB
C BAA
C EEE
C ende
D au
D eb
D EBC
D FCB
D EBD
D FCA
D EBF
D EEF
D BAF
E qu
E FBE
E FCD
E EBB
E BAD
E FDC
E FEE
E FFF
E lio
E chan
F O
F c
F EDB
F FCA
F FBF
F EBF
F BAF
F aus
G k
G ri
G arr
G rey
G yana
H eli
H acho
I do
I no
I ru
I hor
J ac
J au
J Script
L am
L osa
L ande
M undo
M acia
M estre
N im
N urn
N olsa
O st
O ssa
O spina
P ie
P am
P res
P aula
Q U
R er
R al
S ch
S it
S oro
S hop
T el
T au
T ol
T ampa
U chu
V illo
V ista
V lad
W il
W tH
X im
Y M
Y u
Y el
Z E
Z e
Z in
Z el
a licante
b c
c E
c O
c ono
c ga
c chi
c AR
c tora
c encio
d ine
d watw
e les
e jos
f O
f ong
f ford
f egan
g all
g eri
g book
g umi
h ons
h all
i i
i tos
i va
j ac
j ami
k ap
k au
l li
l ter
m ons
m cm
m ero
m mer
m oria
m eck
n ard
n ames
n osti
n bull
o ce
o to
o ta
o las
p A
p ie
p les
p hili
r re
r int
s mo
s zm
s ana
s ed
s cu
s andra
t am
t sch
t ador
t rana
u v
u ta
u chet
v ac
v OL
v ago
w on
w ares
w sk
x x
x ia
y os
z ap
on en
on an
on ja
on ero
on cillo
on uevo
on isio
on ysh
ti nt
ti us
te en
la c
en el
co N
co te
co lo
co yo
co work
co dwatw
ca ba
ca lejo
os A
in f
in dor
in struc
ag ra
ac s
ac ri
ac ela
ce a
ce lo
ce ga
ce agelespa
nac e
zi ra
er no
er ras
er gen
de x
de ca
de cal
de il
de deu
ec he
app el
80 28
80 45
80 33
80 88
80 09
80 72
80 03
80 135
80 643
ng la
or hons
lo f
lo u
lo degolf
da to
da me
da vid
le lla
le com
ent alsan
pa tri
pa lodegolf
im ir
ar de
ar anca
ar idos
ok ee
com pass
com ode
ke ene
ke sc
Mo lin
Mo lina
Mo tj
ko l
ko pf
nec t
qu ia
qu eta
qu ader
ble mente
quer y
et r
et s
et x
re vis
re ben
25 25
25 15
25 53
25 52
25 133
25 400
pu nto
nt E
nt ano
nt adilla
bli n
ro z
ro ll
ro anne
27 66
27 12
27 53
do g
do u
do za
rec har
mo mbo
ur al
40 25
40 64
40 78
40 71
40 48
40 49
40 88
40 51
40 355
40 152
40 8887
for ex
10 38
10 69
10 71
10 181
car me
no caseros
an ero
an cos
an ella
es h
es car
es esto
ri ca
ri ci
ri bas
as is
20 11
20 50
20 53
20 96
ni cad
ni deil
63 87
63 86
63 79
63 99
63 77
63 47
63 46
63 96
29 40
29 67
29 47
29 32
29 91
29 51
29 189
29 380
29 551
17 23
17 95
17 79
17 50
17 741
38 10
38 19
38 89
38 83
38 78
38 12
38 73
38 46
14 27
14 74
14 90
14 35
14 37
14 91
ss en
ros essionid
22 80
22 64
22 68
22 49
22 255
64 29
64 22
64 85
64 84
64 49
64 61
64 43
64 42
64 263
65 25
65 48
65 317
65 2781
60 70
60 59
60 72
60 43
60 46
60 52
60 1164
15 89
15 21
15 16
15 82
15 307
19 63
19 89
19 35
19 54
19 92
19 08
19 264
19 268
74 80
74 17
74 19
ma quin
ma lik
39 39
39 84
39 98
39 59
39 01
69 22
69 13
69 36
69 33
69 97
69 91
69 96
28 27
28 67
28 50
28 48
il y
il er
st ok
to lan
89 22
89 89
89 50
89 81
89 46
89 93
89 02
23 23
23 37
23 78
23 58
Re i
Re ese
Re vert
13 17
70 40
70 84
70 49
70 62
70 41
70 59
45 35
45 86
45 179
45 870
45 890
45 111
85 69
85 11
85 24
85 05
85 18
cp rint
67 15
67 24
67 37
67 98
67 77
67 76
67 58
67 96
ED FF
ED BC
am is
am el
am illo
30 27
30 20
30 79
30 50
30 77
30 61
30 51
87 20
87 39
87 28
87 34
87 73
87 97
87 96
87 52
BA EF
BA CE
BA BD
BA AF
24 13
24 30
24 87
24 16
24 61
24 96
24 745
24 882
at t
CC DD
CC CE
CC AC
FB DE
FB BF
90 36
90 55
90 33
90 82
90 93
90 06
90 125
75 30
75 356
75 9761
DD BB
DD CB
FA CC
FA DD
FA FD
35 25
35 29
35 65
35 70
35 36
35 71
35 637
35 409
86 14
86 13
86 87
86 21
EC FB
EC BD
EC AF
84 85
84 92
84 828
FC ED
FC FD
FC AA
FC FF
FC DB
FC ela
34 85
34 90
34 79
34 44
34 48
26 14
26 66
EA FB
EA DB
EA AD
ch is
ch alon
94 63
FD FA
FD AB
FD AD
FD BC
FD BE
21 10
EB CC
EB FB
EB BD
95 40
95 28
95 12
95 54
95 97
ja la
gi c
gi camente
83 70
83 78
ra b
ra d
ra ya
DA FC
DA EB
DA AB
DA AC
05 67
05 37
05 18
05 289
05 392
05 6020
me di
me des
me ier
37 39
37 83
37 32
256 70
id on
id ura
CA r
CA EB
CA BB
CA EF
BB BA
36 27
36 17
18 25
18 29
18 16
18 165
16 17
16 86
16 21
16 800
55 39
55 94
55 55
55 00
55 71
55 47
55 59
55 46
55 92
55 390
55 464
79 86
79 94
79 88
79 670
79 3328
AA ED
AA CC
AA DB
cor adio
cor tell
CB FD
CB CD
CB CF
CD s
00 10
00 45
00 94
00 46
78 11
78 18
78 234
44 620
44 330
agar a
DB CA
DB DC
DB uv
99 40
99 64
99 97
99 147
66 74
66 13
71 87
insertar bob
EF EC
AB FB
AB CD
50 38
50 268
77 20
77 89
77 23
77 24
77 21
77 62
77 76
DC EC
DC BB
68 14
68 22
12 80
12 11
73 10
73 20
73 14
73 31
100 2
100 42
270 6
49 25
49 24
49 90
62 27
62 64
62 39
DE BA
DE EC
DE FC
CF FE
CE ED
CE FE
33 45
33 18
33 290
33 175
33 382
DF ED
DF EC
DF FD
DF EB
88 88
88 6007
47 70
47 90
si g
BD FB
BD FC
AD FB
AD EC
AD CB
BC DD
BC FF
BC EE
09 13
09 21
09 77
09 324
BE EB
BE FE
61 20
61 63
61 65
61 23
61 275
61 6567
ali nda
41 13
59 80
59 65
59 34
57 80
57 95
57 83
AF EA
AF FD
AE EC
AE FE
BF EB
incorrectas Set
tos a
tos fu
mar g
mar y
mar tosfu
54 14
54 60
54 45
54 310
72 38
72 64
81 64
81 279
jo ll
Go ya
32 38
32 650
97 23
Ma ur
04 27
04 84
04 95
04 79
he e
he ws
Cal ders
Pas trana
Co lo
Co mas
Co ev
91 22
por nocaseros
43 80
43 23
43 151
46 2595
58 28
93 45
53 37
53 31
96 28
96 67
07 85
07 191
42 27
42 148
92 40
it ali
aj as
52 17
08 696
08 672
Qu er
Qu ema
Qu eve
03 74
ox yb
ep pe
02 290
ad u
nov isa
nov sky
ab or
ab ana
ol le
ol mer
Al tar
Al ler
Al cant
Al enka
Al zira
Par ti
du tt
du ain
Ib ar
hi u
ta do
ta jo
ta leza
zar ra
va la
ba la
ba do
122 1
sa car
sa wy
110 52
bo is
bo eh
La ntadilla
na e
og sq
387 70
Ar co
Ar ga
Ar agona
Ar rot
tra dora
ono tari
ne ote
ne ider
ga lo
ga han
ha w
ran aga
Val del
ru ss
ru bia
so o
so on
lu jo
bi dea
bi ene
gu ay
ex apps
Mar in
Mar cia
Mar ug
Bar ran
Bar cel
ll ori
Ju ice
297 1785
sb y
Ro ma
Ro bla
Ro dilla
ho u
ho on
ho tel
221 209
Ca do
Ca ledon
se e
Pa zar
Pa ntano
ara ble
Cor zo
ber y
ber kel
ber vil
Na y
Na via
mi ro
mi web
mi plat
mi cga
130 41
dri c
be do
th ia
th rus
Mon ca
ago iti
Bur ch
Bur unat
Villa sev
Villa gonza
Villa rejo
To to
Tor o
all eres
263 0
263 6
263 835
lin kin
arr on
arr as
155 221209
des com
cu lo
cu sto
800 61275
185 2
185 9
135 00
mer ry
194 15
194 69
Del fo
tr ac
tr et
Pal enzuela
150 49
lor ia
189 410
ste i
409 78
409 73
147 60
164 2
275 18
275 32
AR E
Pu y
Pu jo
264 7
264 709
197 64
245 90
620 8
160 936
650 481
ria les
ari an
405 40
Ra ng
Ra fi
Ra yn
167 7
con nect
Lu que
Lu jan
Ri vera
pi z
pi ca
pi lar
127 2
127 8501
685 1
Po ol
dor say
679 90
Ci pri
Hu aranca
665 4
634 34
670 6
El duain
835 7
BEA B
BEA C
sch ulz
vila inst
699 40
244 13217
yo on
DEA F
894 231
Pi joan
Or s
Or teu
247 78234
335 1
335 9
BBA A
BBA F
bu ck
260 6
CEA A
CEA F
760 8
739 8
Ber zon
204 84
ach g
and rey
EFA B
EFA D
EFA E
Ja R
Ja ca
975 8
mc ca
mc cre
705 41
459 35
So tor
So fan
So tillo
rat z
BCA B
DCC D
DCC E
315 22
627 3
FEA A
hu et
187 7495
680 73
ler as
ler ch
ler ia
505 7
DCA A
445 28
445 91
689 238
AAA e
ACA B
403 31
CBB B
ADD D
ili dad
ACB D
ACB F
mon do
166 86
ADA B
ADA C
eg ger
let t
Do ce
ras io
AEA C
647 118
FCC E
FCC F
102 69
758 293
217 1
217 5163
Ay ar
Ay amon
Caste j
094 3
Bu enav
672 1943
su i
su chima
BCB D
BCB F
399 74
CDD E
van i
van der
Li la
Li hu
gr ac
don g
904 7093
397 17
493 31
No va
ju ice
ju ergen
788 87
Is art
agu era
214 22
sta nt
Pe lei
pol k
ph il
997 8731
Lo go
Lo yola
035 17
464 43
832 384
507 61
gra fo
Cab ra
Her m
Her menegilda
In vier
Su au
995 1
char en
char les
Ga lobar
423 11
val le
733 19
Vila mitj
434 2
Ser vi
Ser ena
Ser gio
can dida
438 30
415 40
Er ror
Tra buco
ano t
Be ca
769 73319
jan s
ric ci
Im elda
ico ds
amon d
eno bia
787 1877495
421 80
421 38
014 27
Gi j
sto esesto
719 136414
Du que
622 23
wid uch
Ab ia
784 33382
Ce A
419 28757
419 55080
For taleza
Bas tus
Bas ket
097 86
ista fotogra
Bor b
Bor ja
mac ne
far ber
fu tur
Te jer
Di onisio
Me mbri
519 6721943
067 35478
fan e
Don iz
nie va
win ds
col ley
Monte mayor
Traves sera
621 62
gal lo
ges tion
hiper bil
dev istafotogra
Nu ma
Oli mpi
nat ural
Pala u
ant acruz
071 27
xi an
Cap ela
Ol v
cA t
hol len
tur nbull
Gal li
cli nicad
hen dren
wal t
lis le
Cla ra
Zu bia
soft wares
Gra jera
Os arte
uni corn
np WtH
Gen er
Gor maz
Bla si
Ir la
iti a
Pad ul
ncia no
Puig verd
Ig lesias
Medi ero
fica ci
pre stoesesto
Com ello
dun lap
are au
esc usa
she ar
cars lisle
club forex
isto cles
Ram s
ther oxyb
vet uweb
Riu corb
cI A
white pearl
Mos coso
tia herminia
Reg ino
aul travioleta
Pica sso
Bat llori
tras la
tras antacruz
mis T
7119 32
gil ger
asal quiler
vina vilano
Llor ente
cata noticias
Bus quet
Gon y
Nor te
heal y
Aren al
Aren as
hoja decal
Bell munt
Ming o
Wal erico
Xo ve
Em manuel
blan ca
8937 2971785
Nico demo
6450 056020
tg cprint
1335 7610
fit z
6763 19264
Farr era
Oc tavia
iza dor
tura olle
yar osh
6529 3554
6564 650481
program asalquiler
3975 5436
welcome exapps
Cre huet
apar os
1924 13357610
under dog
busca dor
Ces aria
acr amirez
velazquezlar ranaga
fin ney
coch es
ages tion
3887 9978731
campo degolf
Ili zali
Vid riales
Yas m
Palom era
Der ch
ang eli
8515 90
Gui jo
presti pi
Cres cencio
Han sel
3329 3484
Jard in
Jard ins
Meli t
Meli lla
Sad urn
Sad dam
7186 647118
Alman sa
schn apps
Ador aci
Log in
3868 2401
Espe j
Espe jo
Monta nuy
Palo mares
Teodo cio
Mul leras
Oti lia
Ricar dina
videos pornocaseros
7299 9469
Fri da
Zul ma
almas canarias
1354 29
EDne o
9611 8316
Peregr ino
Adol fina
Liz ancos
Tap asco
Tem istocles
madri le
Roble do
1648 176
Garri ga
Fructu oso
6190 7460
6649 65293554
Aless andra
Sh unko
blog sme
mue vetuweb
nag y
mbi kesc
Sanch is
sang areau
navar til
Torro ja
Berro calejo
weat her
Cec ilio
jec t
did acramirez
64845 4
mang ini
kaya alicante
Teix id
Yam and
1981 2448
4412 6450056020
brown lee
Wences lao
Muel le
Sir uela
wolf ie
match ball
Baguda nc
Macha do
hwa ite
yok ono
nues trasantacruz
tool bar
3510 8015
35265 294
35350 89372971785
Macar ena
Deo dato
Corco y
Aur ora
Larr agoiti
lamo la
labo ca
diag nosti
28264 646
chil d
551313 263835
68127 894231
Calder on
Romil do
Albor noz
seng hor
99500 842
Gay tan
96785 368
Lladon osa
Beta nc
Echan iz
Gk DBuv
Garr eta
Jac into
Lande lina
Nurn berg
Nolsa co
Ral ston
Soro lla
Uchu ya
Vlad imir
Yel tes
cono ceagelespa
moria ty
szm idt
tsch enko
onysh ko
tint aultravioleta
enel tajo
coyo tera
cowork ers
indor ec
instruc tions
orhons ay
entalsan salvador
aridos sanchez
okee fe
comode pilar
quader nideil
punto devistafotogra
mombo ur
408887 26
65317 38879978731
652781 69
601164 52279
maquin aria
90125 861
759761 86
35637 68127894231
05392 148
coradio logico
886007 86
09324 60116452279
616567 189410
martosfu t
Queve do
ogsq npWtH
Arrot charen
onotari al
neote lecom
biene k
Juice Shop
Robla dillo
micga el
thrus h
Villagonza lo
linkin fo
custo mbikesc
264709 9047093
160936 83
1278501 676319264
Cipri ana
vilainst al
Berzon i
andrey tschenko
Sofan or
689238 7186647118
758293 6564650481
2175163 155221209
Ayamon te
Buenav ista
juergen s
Pelei j
Galobar d
candida turaolle
7871877495 462595
719136414 1648176
futur onotarial
Tejer iego
Membri ves
5196721943 648454
06735478 24413217
hiperbil bao
natural child
clinicad entalsansalvador
softwares aas
theroxyb lue
whitepearl resort
hojadecal culo
Emmanuel le
programasalquiler maquinaria
39755436 19812448
192413357610 2581
Ilizali turri
664965293554 3559
blogsme gumi
44126450056020 81
diagnosti coradiologico
551313263835 1756
comodepilar se
quadernideil garda
puntodevistafotogra fia
616567189410 7883
ogsqnpWtH AAAe
custombikesc lo
2647099047093 404
. &
0 173
0 637
0 192
0 695
0 638
0 295
0 395
0 450
0 658
0 676
0 246
0 161
0 444
1 250
1 690
1 147
1 148
1 877
1 699
2 256
2 250
2 387
2 271
2 118
2 299
3 174
3 103
3 285
3 244
3 300
3 205
3 241
4 101
4 387
4 297
4 178
4 697
4 285
4 405
4 157
4 694
4 224
4 248
4 355
4 709
4 295
4 859
4 879
4 909
4 216
4 658
4 854
4 676
4 296
4 241
4 788
4 366
4 903
4 1001
5 297
5 872
5 177
5 144
5 697
5 254
5 679
5 844
5 196
5 377
5 209
5 878
5 151
5 954
5 348
5 203
5 904
5 846
5 632
6 191
6 155
6 894
6 233
6 166
6 406
6 836
7 178
7 254
7 877
7 639
7 645
7 855
7 879
7 757
7 373
7 806
7 832
8 253
8 256
8 250
8 747
8 637
8 133
8 254
8 153
8 630
8 228
8 266
8 748
8 276
9 136
9 105
9 174
9 145
9 143
9 133
9 655
9 677
9 407
9 408
9 608
9 873
9 379
9 907
9 801
9 797
9 702
A im
A na
A ida
A FDA
A EBE
A FBD
A FEF
A FFF
A BAF
A zu
A mine
B ECA
B FDA
B FBB
B ECF
B FDC
C H
C U
C ro
C ig
C BAB
C BAD
C FEE
C FAF
C usi
D is
D FCD
D EBB
D BAA
D FAB
D EDA
D FAE
E o
E le
E NT
E EBE
E FBB
E FCF
E FCA
E BAA
E FBF
E nit
E jO
F FCB
F EDF
F FCF
F FAD
F BAC
F adul
F errada
F lash
G ara
G ando
H ow
I A
I Mo
I ri
K e
L O
L ora
L ech
N os
O t
O bra
P os
P eni
P ello
P adilla
S q
S ca
S ep
S ul
S amper
S Or
S agu
S noop
T p
T ab
T ara
T ubi
V iso
X ix
X xi
a er
a za
a vedra
b ac
b lica
b ler
d n
d ur
d Er
f k
f light
g ord
g art
g ard
g ami
g bee
g Enit
h etti
i al
i bi
j agan
k x
k on
k ent
k is
l ora
m org
m ell
m ki
n I
n imo
o car
o at
o ter
o und
o ms
o calla
o yama
p il
r l
r ue
r eno
s wen
s Up
t I
t zi
t ha
t ts
u llar
v r
v bs
x amel
z ona
on de
on ario
ti va
ti Va
te ga
la w
la y
la yu
la ril
en ter
en na
co p
co lor
co par
co sta
co hel
co encuent
co urt
co loads
li st
li ta
ca pa
ca dor
os e
in io
ag ata
ac ere
ce t
xt rac
de S
de def
de go
de videos
de liver
de sert
ec tion
ec hea
80 11
80 90
80 35
80 21
80 12
80 59
80 53
80 374
ht ar
or qu
or gi
or apia
lo va
lo desert
nc ho
da i
le u
le v
ent re
im era
ar ac
ar ders
lla na
Mo lino
qu im
qu ena
los o
pla n
pla nt
quer uela
et ter
re sa
re cer
re pre
js tl
25 87
25 26
25 59
25 43
25 509
25 046
is on
is orio
ci vico
nt he
mb u
mb el
ro pe
ro th
di ck
di ano
27 38
27 22
27 71
27 77
27 110
27 118
27 750
27 507
40 75
40 00
40 174
40 660
40 1012
al b
al en
al mer
10 39
10 30
10 16
10 66
10 53
10 56
10 52
10 133
10 200
car r
car y
no el
log na
an os
an nette
es s
es pinosa
ri as
el s
el en
el to
as dn
20 17
20 45
20 62
20 97
20 76
20 91
20 43
63 90
63 05
63 36
63 71
63 68
63 81
63 53
63 185
63 685
29 80
29 74
29 87
29 66
29 73
29 72
29 58
29 42
29 52
29 03
29 855
29 2613
17 20
17 87
17 48
17 33
17 54
17 91
17 06
17 02
17 133
17 857
38 30
38 26
38 18
38 62
38 88
38 32
38 76
38 93
38 782
14 60
14 36
14 16
14 31
14 82
ros e
22 36
22 42
22 360
22 398
64 45
64 37
64 78
64 41
64 81
64 96
64 337
65 61
65 46
60 11
60 00
60 66
60 49
60 03
15 26
15 31
15 58
15 07
15 756
19 20
19 17
19 49
19 294
74 87
74 88
74 61
74 58
74 167
74 981
ma i
ma in
39 69
39 00
39 53
69 28
69 35
69 86
69 94
69 18
69 16
69 82
69 41
69 02
28 64
28 75
28 179
28 646
28 605
il s
to ole
89 63
89 86
89 34
89 83
89 44
89 66
89 091
23 14
23 64
23 28
23 30
23 11
23 24
23 66
23 71
23 68
23 06
Re ach
70 29
70 67
70 77
70 46
70 53
70 07
70 3129
45 23
45 26
45 49
45 47
45 08
45 355
45 892
45 6559
85 10
85 63
85 60
85 19
85 84
85 21
85 48
85 49
85 81
85 97
67 65
67 30
67 88
67 347
ED FC
ED AB
ED CE
253 5
carri llo
am unt
30 19
30 00
30 49
30 54
11 139
87 17
87 64
87 2417
BA da
BA DC
24 40
24 14
24 65
24 21
24 36
at ri
at App
at zin
CC EA
CC BE
FB CB
90 80
90 20
90 74
90 84
90 59
90 32
75 40
75 69
75 21
75 37
75 01
75 76
75 07
75 08
DD EC
DD BD
FA FA
FA CA
FA AA
FA DC
FA BD
35 55
35 66
35 97
35 91
35 96
86 65
86 84
86 26
aci d
EC BF
84 19
84 84
84 83
84 16
84 79
84 72
FC AF
34 17
34 15
34 87
34 36
34 61
34 91
34 834
34 634
34 706
26 63
26 862
EA CB
EA DE
EA AE
ch os
ch im
ch allenge
ch ine
ch wal
ch ajes
94 22
94 35
FD FF
21 27
21 40
21 17
95 60
95 32
95 06
95 02
83 36
ra i
ra dz
ra vea
DA ED
05 15
05 39
05 13
05 94
05 12
05 49
05 53
05 120
05 146
37 80
37 65
37 19
37 13
37 35
37 77
id era
CA FA
CA DC
CA BD
CA BC
CA BE
CA AC
CA AE
CA BF
BB FC
BB BB
FE ED
FE EC
FE EE
FE EF
36 60
36 88
36 276
18 83
16 27
16 28
16 118
16 227
55 64
55 28
55 44
55 88
55 04
55 58
55 294
55 739
55 6455
79 27
79 19
79 83
79 98
79 62
79 76
79 110
79 845
AA BA
AA EA
cor ba
CB ED
CB CB
CB FF
CB DB
CD CB
CD FF
CD EE
FF DD
EE CC
EE FB
EE EE
00 44
00 97
78 25
78 86
78 88
44 30
44 77
44 68
44 33
44 91
44 627
us ia
us par
31 229
31 6945
31 17060
DB FC
DB EA
DB FD
DB DE
DB CE
99 63
99 70
66 40
66 10
66 65
66 83
71 80
71 22
71 85
ter acti
98 64
98 45
98 67
98 34
98 26
98 21
AB DA
AB FE
50 64
50 15
50 89
50 87
50 35
50 21
50 31
50 97
50 43
50 155
50 494
77 80
77 22
77 68
48 11
48 26
48 88
DC FC
DC EA
68 19
68 45
68 88
68 259
73 80
73 60
73 23
73 34
73 33
270 4110
49 13
49 118
isti na
62 25
62 60
62 15
CF DD
CE CC
CE FF
33 74
DF BA
88 14
88 65
88 86
88 18
88 899
47 89
47 23
47 71
BD FF
tas k
AD FA
AD FD
09 30
09 62
09 227
09 343
09 692
vi tal
vi zu
101 20
BE CC
61 29
61 38
61 60
61 1305
AC FB
41 29
59 10
57 26
57 62
AF CC
AF DD
BF EC
01 38
01 21
go wan
go atApp
mar tin
mar eu
mar bella
54 17
54 64
54 39
54 26
54 31
54 32
252 11
81 27
81 40
81 63
81 14
81 89
81 85
men ia
97 20
97 63
97 14
97 22
97 74
97 85
97 34
ig ler
ig uez
ig lesias
Ma uri
Ma dri
Ma teo
Ma ncha
Ma estre
04 63
04 17
04 94
04 36
04 393
he d
he w
he ader
he Rr
ve gas
ve Query
76 80
Co lom
91 14
91 672
43 63
43 60
43 30
43 179
43 694
br on
46 26
58 67
58 281
93 10
93 63
53 22
53 75
fir st
56 60
56 15
56 74
56 28
56 89
56 85
96 21
96 18
07 69
07 95
07 142
42 14
ate mala
Fi de
92 15
92 11
52 63
52 19
52 39
08 22
08 697
03 603
06 89
06 18
De ser
De an
De go
ia h
jav as
ad onde
art alleres
ab si
989 0
Al g
Al ma
Al tas
Al mar
Al mon
VA nT
Par c
Sa iz
Sa avedra
ey en
fo oter
ver if
man ek
del bi
del ly
122 6
110 9
bo arders
La N
tu no
Vi dal
123 4
123 00
Ar me
Ar ena
Ar cos
Ar lat
Ar vizu
tra dedef
ne ce
ne wf
ga la
cre ate
ru pa
ru dos
ru bir
so le
so elto
Gu atemala
gu il
290 12
Mar e
Mar tel
Car ran
ll or
ed y
ed en
fi chajes
Cu bil
Ro da
ho e
ho us
Ca R
Ca nu
Ca za
Ca brera
Ca baller
se villa
se pul
Ba hab
Pa y
Pa oli
Pa iva
inc isorio
Le gan
ow eb
Cor ne
Cor doba
Cor achan
tor as
cr In
lan do
lan es
th Bypass
vie sca
257 16686
Mon zon
var d
Bur g
Bur an
Villa va
bar boqu
To Reach
191 84
263 24
190 65
872 38782
800 82
185 7
Pal mer
web hut
108 67
189 6
189 160
129 3
ste ven
Bo logna
chi apa
zo orapia
ck er
ka ng
163 1
163 2
Ter si
120 5
ret o
264 6
159 40
265 26
158 19238
mu ni
227 70
160 76
220 8
405 41
Ra S
Ra hal
Ra ich
Ra idon
167 2
con es
180 6
180 849
Ri os
Ri ffo
pi acere
127 21422
124 15
153 38
Po za
140 8
140 05
675 744
Ci vil
CDA A
CDA C
lig an
665 1
665 7
279 6424
670 9
845 3
839 1
224 68
sch at
her moso
106 40
106 10
239 9
168 12
894 70
Or tega
875 14
875 49
247 1595
183 7
698 855
bu gbee
655 32
344 85
260 1
260 9
EEA F
337 1
745 18
Ber to
Ber gon
sh api
844 75356
268 12
Ja ime
628 6
628 7
674 9
795 7
795 757
975 73
ER VAnT
339 09
So fia
132 80
627 6
095 60
095 795757
FEA D
FEA E
FEA F
hu ma
hu me
680 1
Fr aga
505 9
445 22
609 39
328 8
328 292613
iz am
377 79
213 40
ling er
ACA C
ACA F
ves ter
403 16
455 71
ms on
ms ley
207 803
En TE
138 1
138 3
848 17
mon nal
ADA A
BDA E
236 25046
AEA A
AEA E
AEA F
395 87
900 40
900 10
Si ro
BDD C
FCC A
243 677
266 149
217 08
287 70
illo tt
208 85
Caste llo
Caste llar
380 2
loca le
su b
van ni
954 70
Li Dora
ACC D
348 10
tel ls
Alb ert
944 34
FFD E
Can franc
544 980
sd ns
cha o
nj ection
064 58
ph illott
Man so
Cant ab
063 60
063 00
Mi ca
Ped ros
087 31
494 30
715 99
Pin ares
In teracti
489 50
ces ultravioleta
324 68259
Ga dea
qui za
495 8
Vila seca
Castell tort
Ser arols
can es
can qui
333 1042
ano op
Be as
pr int
pr usia
dar t
dar pa
Ta h
475 1
Mer cur
Mer lach
dan n
478 28
927 95
ella no
014 39
666 83
net ti
935 2
719 74
468 38
vio la
Ab ad
trans portes
my lo
mil lian
yn ard
mac il
473 18
714 180849
bas ta
far gue
Tr inidad
922 30
Bal ench
ku o
ku bler
883 74981
Gr im
Pr IMo
oli veros
418 20
ase xtrac
336 10
Bon if
ron line
Monte fr
cur ita
Ala bart
033 45
Franc ino
hiper barcelona
hiper espa
imi ro
adc vbs
adc javas
Ang laril
Au thBypass
nat ravea
ze igler
031 87
Cap o
Cap ella
Cap many
Hor nos
Llo bera
san ti
Feli u
Feli pa
Tar si
Tar cis
bet te
wal don
wal sk
Cla ver
Lla no
Ni cas
jer ez
tre acy
guer rero
Vall b
Os or
uni cidad
chu ng
sha le
Pro duc
ral ba
ias tella
jon es
mel fi
Mir alles
rie d
tele lujo
Ali berta
ak htar
enti na
ubi kuo
Cata layu
kim ball
Cur t
Llu ch
cul ero
jw t
Martin ho
Gas par
Min AR
ale x
Bat le
Esp lu
wat ase
zas ound
long boarders
6585 14
Sebas tia
Jal mar
nor iega
2685 3011
Esco rial
Jer em
dec tode
1127 5477
barni cesultravioleta
Cel oni
fos ter
Agui ar
Clo do
welcome footer
Castany er
Ban co
Ban sells
Cos curita
Cristo bal
Jan eiro
lI njection
1550 8885
much acha
intercambio enlaces
Milla n
ov erton
8716 7078
Barber an
Sha zm
Coll devall
Carras cal
Ferre te
Forn alino
night flight
Gui liano
Mira bet
Ceci lia
fel d
max tienda
Almen dro
Legu izam
Ob ispo
ofertas chinas
2795 1741
2847 7813
7567 8701
ES amien
2933 69
world music
Gio vana
2817 8710
2467 57
sev ach
Igu azu
gU E
tex bcn
40906 293369
raj chwal
5070 328292613
Nazar eth
amien Ta
Crisp ino
ici t
nex uspar
hang artalleres
pot ajera
5155 6666
rios ellano
Sole dad
Galin dez
Nogue ira
3155 4445
Abo ut
bI Co
eme lia
carre gui
1932 190
tour inga
Alti mir
Cordo billa
Fron tera
afranc ESamien
Mut xamel
Cana les
Yes cas
1573 2704110
1198 3001
Uru guay
pir r
sex l
rod schat
97675 447
Estru ch
Aco sa
ipo lado
copi ar
house man
Bob adilla
anton in
hoteles jerez
Betti ni
Gre co
Hue te
Retu erta
Tet atzin
psi coencuent
desb ullar
matar oweb
vits ki
Cons titucion
lys inger
27829 2099
ryg walsk
Zumala carregui
campan asextrac
Marquesa do
Cende jas
Jau me
18165 81279
55464 40906293369
bala demas
Monca yo
buscador devideos
135429 2215
Cusi canqui
How ToReach
Obra dor
Sq lInjection
Sul ko
Snoop Servlet
Tubi lla
Xxi ii
gEnit URa
ibi zasound
kent aro
mki log
ocalla ghan
sUp LiDora
zona modelos
color print
deliver y
repre texbcn
civico sdns
40660 740
almer iastella
15756 299
703129 87
radz um
556455 14
316945 1354292215
vital home
611305 823
mareu il
heRr amienTa
vegas l
91672 15819238
adonde ir
Almon acid
verif y
delbi enestar
Arena les
tradedef icit
newf ield
rubir ubi
soelto ft
Cubil los
Caballer os
Legan es
barboqu EjO
piacere delivery
12721422 25716686
2796424 278292099
2471595 611305823
Bergon do
shapi ro
095795757 3117060
207803 695
544980 03
Interacti veQuery
32468259 84475356
3331042 207803695
prusia to
transportes vegasl
714180849 1932190
Balench ana
PrIMo gEnitURa
Bonif acio
Tarcis io
guerrero delbienestar
Catalayu d
dectode p
87167078 8593
28477813 11275477
5070328292613 697
nexuspar k
31554445 27951741
afrancESamien To
15732704110 29963
psicoencuent ronline
campanasextrac toras
1816581279 872417
HowToReach Us
ibizasound s
9167215819238 112
* .
0 747
0 190
0 155
0 150
0 174
0 675
0 294
0 384
0 385
0 247
0 344
0 196
0 859
0 659
0 848
0 759
0 358
0 288
0 399
0 393
0 222
0 777
0 668
0 993
0 706
1 256
1 270
1 144
1 134
1 259
1 868
2 101
2 257
2 105
2 144
2 275
2 134
2 158
2 157
2 694
2 148
2 384
2 198
2 112
2 132
2 196
3 2563
3 387
3 297
3 130
3 800
3 275
3 650
3 805
3 146
3 389
3 695
3 230
3 385
3 176
3 404
3 450
3 1004
4 191
4 147
4 650
4 107
4 255
4 630
4 695
4 244
4 407
4 205
4 857
4 209
4 750
4 233
4 166
4 349
4 354
4 394
4 743
4 203
4 898
4 116
4 948
4 746
4 842
4 798
4 282
4 702
4 776
4 773
5 690
5 235
5 135
5 194
5 147
5 299
5 630
5 655
5 459
5 404
5 648
5 850
5 455
5 258
5 659
5 837
5 287
5 748
5 754
5 333
5 10189
6 252
6 297
6 221
6 257
6 179
6 145
6 178
6 193
6 197
6 255
6 230
6 249
6 172
6 216
6 293
6 843
7 173
7 234
7 876
7 155
7 634
7 168
7 875
7 249
7 274
7 654
7 655
7 844
7 258
7 236
7 223
7 406
7 348
7 754
7 631
7 656
7 366
7 343
8 876
8 150
8 175
8 405
8 146
8 390
8 894
8 277
8 233
8 837
8 605
8 304
8 232
8 262
9 872
9 154
9 153
9 192
9 389
9 230
9 385
9 249
9 645
9 188
9 111
9 700
9 292
9 646
9 357
9 837
9 854
9 676
9 309
9 246
9 393
9 905
9 959
9 703
9 251
9 652
9 832
9 306
9 353
A j
A am
A um
A ga
A cu
A BAA
A FDC
A EBF
A FAF
A BAC
A BAE
A FAE
A tz
A Ta
A hig
A part
A miel
B c
B j
B enco
B ir
B ia
B era
B ECD
B FCF
B FCA
B FEF
B EDD
B reda
B reta
B roy
C g
C ie
C it
C ed
C EBD
C EDE
C FCA
C igu
C losa
C roya
C osta
C SRF
C ulle
D z
D ent
D ID
D iec
D ero
D FDF
D EDF
D BAB
D FBD
D FDB
D FDC
D onay
E b
E c
E v
E rico
E mi
E pi
E FDF
E EDF
E EDA
E BAE
E Nv
E noc
E zama
F R
F T
F p
F Ma
F ba
F ECA
F FCD
F EBC
F BAD
F ECE
F FBD
F ECF
F FDB
F FAC
F FBC
F Li
F Oli
F ebo
G im
G red
G avi
G eo
G rup
H Q
H k
H ir
H igin
H um
H ol
H ita
H sf
H osta
I x
I def
I so
I ns
I Ga
I tal
I cA
I Tu
I rant
I rigoyen
J B
J M
J aul
J Ed
K Q
K is
K adi
K vI
K Bj
L h
L Lo
L len
L ista
L acha
L andro
L mear
L unar
M lo
M Ent
M amp
M un
M ach
M em
M ela
M ill
M ames
M apo
N E
N ig
N ab
N eria
N anda
N ore
N cillo
N adia
N adra
O d
O ci
O dad
O br
O sa
O res
O ll
O se
O loca
O Mer
O tero
P ag
P ap
P ep
P ert
P ura
P elle
P RI
Q DA
R et
R at
R au
R ol
R ena
R yb
R bj
R LaN
S ta
S all
S ard
S Men
S tri
S one
S HI
S hir
S acha
S pell
S camp
S acri
T K
T ref
T RO
T ena
T jP
T zt
T onato
T imoteo
U d
U ca
U mber
U DO
U llo
U nz
U nger
U BLe
U JM
V h
V tZ
V adillo
W e
W or
W hk
W illi
W erner
W ester
X E
X u
X au
X ech
X gq
X XE
Y ara
Y az
Y adia
Y Ji
Z ente
Z ach
Z umel
_ %
a D
a T
a h
a les
a lar
a Rr
a hog
a oki
b O
b im
b bo
b ls
b org
b ena
b YM
b Whk
c cion
c ini
c nou
d I
d ul
d tu
e j
e ga
e wen
f p
f s
f v
f ec
f ab
f man
f ines
f Io
f UeR
f ajardo
g ur
g he
g ona
g lan
g ger
g lea
g ebert
g rizzar
h amp
h ul
h ad
h era
h ello
h esa
h aces
i lan
i chi
j ur
j ba
j ero
j illo
j davie
k pla
k adi
k un
k ha
k ina
k las
k ly
k anya
l da
l und
l ling
l ker
m im
m ack
m aga
m pere
n adi
n za
n osa
n aga
n nl
n ady
o ma
o tos
o iLCJ
o ber
o der
o dea
o bia
o mat
o Va
o ak
o land
p late
p ret
p ria
p rat
p ita
p ye
p lec
q c
q UeR
q KBj
r n
r qu
r iss
r ueda
r tillero
r ueh
r medes
s w
s nu
s encia
s ach
s ER
s don
s wid
s cala
s ummer
s witz
s verd
t ty
t adio
u tion
u to
u bu
u zzi
u entes
u caire
u cela
v p
v ara
v illo
v nz
w es
w ep
w inde
w eck
w hey
x by
x Oj
x xi
x KvI
y m
y in
y es
y personales
y guapa
y Vh
z ag
z auz
z ultravioleta
z ator
z schu
on te
on gu
on der
on line
on ents
ti me
ti CA
ti llas
ti mio
ti ebre
ti ssier
ti foll
ti QU
te rio
te gas
te gui
la for
la zar
la gas
la lec
la cant
la trin
en gi
en wor
en nes
en sky
en luc
ml ett
co ss
co ta
co van
li er
li agu
li bb
li ping
ca re
ca pi
ca gn
ca sson
ca pes
in y
in eo
in sk
in illas
in noc
in version
ag on
ag er
ag ro
ag na
ag alla
ag ron
tion g
ac on
ac tica
ce j
ce du
nac her
zi mmer
xt on
er son
er sk
er sto
er nas
de y
de on
de lla
de villa
de tt
de pto
ec la
ec insk
ap roduc
ap ollo
80 84
80 99
80 73
80 97
80 328
def otos
def uentes
or b
or y
or es
or man
or witz
lo mo
lo vel
lo isa
lo vell
lo vento
lo ewen
da D
da ng
da ss
da ra
da ba
da jer
da ngos
da esi
ie lla
ie stac
le it
le ld
le jos
le gon
le vis
le llan
le gad
le von
pa h
pa o
pa la
pa is
pa io
pa van
pa rada
pa dam
pa Lmear
pa xton
im on
im aro
im enta
ar in
ar ros
ar vi
ar len
ok ho
nu d
cal b
cal l
cal zar
com b
com onuevo
ke ams
Mo i
Mo las
Mo lar
Mo dre
Mo lares
Mo gel
ko ter
ko pell
nuser name
qu en
qu an
pla sencia
quer idor
et ag
et oh
et tson
re pa
re ar
re au
re Ra
re par
re lio
re cad
re mend
re ativa
re calzar
re queridor
25 19
25 89
25 24
25 18
25 41
25 91
25 46
25 96
25 135
25 125
25 218
25 054750
is car
is fv
ci lia
ci lio
ci uc
ci llero
pu s
pu lt
nt p
nt s
bli er
mb ps
mb ueta
ro va
ro ver
ro que
ro bles
ro deri
di do
di ch
di ff
di og
di cha
di ccion
27 20
27 24
27 62
27 92
27 10524
27 243677
27 34810
do dd
do gal
mo e
mo ura
mo tt
mo Fl
mo hat
ur A
ur ada
ur des
40 35
40 37
40 66
40 97
40 941
40 194
40 1812
40 3755
al le
al ve
for th
10 26
10 83
10 37
10 54
10 81
10 250
10 91
10 46
10 261
pe R
pe sa
pe lado
car li
car cel
car ves
car melo
car tear
no len
no jada
no mao
an ka
an ime
es l
es sam
es trat
ri la
ri ck
ri bbo
el er
el sa
el xxi
as tie
20 67
20 71
20 73
20 127
20 317
20 15475
ni a
ni z
ni da
ni ci
ni fica
mbre o
63 29
63 28
63 45
63 62
63 09
63 04
63 91
63 845
63 653
63 371
63 4714
regist rosessionid
29 35
29 21
29 16
29 31
29 06
29 02
29 654
29 6785
29 0979
17 22
17 68
17 08
17 220
17 853
38 29
38 13
38 90
38 94
38 48
38 42
38 841
38 9138
14 17
14 65
14 28
14 34
14 83
14 18
14 98
14 62
14 33
14 59
14 57
14 160
14 361
io cho
ros alyn
ros amond
22 27
22 63
22 84
22 83
22 66
22 62
22 88
22 47
22 834
22 650
22 220
22 200
64 17
64 95
64 79
64 56
64 52
64 74313
65 21
65 81
65 53
65 92
65 06
65 135
65 245
65 739
65 506
60 80
60 25
60 64
60 39
60 26
60 77
60 62
60 41
60 57
60 32
60 76
60 730
60 67990
15 40
15 29
15 14
15 28
15 53
15 189
15 240
15 391
15 881
19 38
19 19
19 74
19 13
19 45
19 71
19 82
19 360
19 247
19 391
19 891
19 5469
74 20
74 64
74 89
74 86
74 37
74 99
74 82
74 43
74 93
74 56
ma der
ma ts
ma zu
39 11
39 79
39 68
39 97
39 76
39 93
39 194
39 177
39 212
39 056
39 8340
69 10
69 29
69 64
69 11
69 00
69 31
69 99
69 12
69 88
69 01
69 72
69 81
69 375
69 351
69 3559
69 3164
28 40
28 13
28 95
28 72
28 56
28 52
28 828
il dad
mie wx
st rel
to w
to an
to LE
to lio
to uli
89 27
89 20
89 05
89 71
89 48
89 47
89 43
89 53
89 07
89 03
89 158
89 374
89 950
23 25
23 36
23 50
23 100
23 04
23 679
Re ino
Re agan
13 22
13 21
13 37
13 78
13 31
13 49
13 04
13 4127
70 17
70 22
70 19
70 69
70 13
70 37
70 50
70 73
70 57
70 32
70 04
70 06
70 239
70 627
70 0360
70 0790
45 25
45 63
45 74
45 45
45 67
45 24
45 36
45 44
45 66
45 77
45 61
45 57
45 01
45 72
45 32
45 180
45 4047
85 29
85 85
85 86
85 95
85 55
85 00
85 99
85 33
85 96
85 245
adi llas
vin ia
tar dos
67 10
67 11
67 57
67 56
67 704
ED l
ED lo
ED car
ED EF
ED AE
ED sta
ED Pe
ED gra
ED das
253 2
253 34192
carri dine
am agu
am arta
30 63
30 15
30 39
30 35
30 94
30 95
30 73
30 41
30 2914
30 6590
11 18
11 66
11 82
11 234
11 188
87 80
87 12
87 58
87 93
87 759
87 7665
BA AD
entrar any
24 70
24 86
24 77
24 100
24 33
24 136
24 359
24 948
at ab
at und
at bls
CC FA
CC FC
CC BB
CC AB
CC DE
FB FD
FB DC
FB DF
90 25
90 63
90 29
90 64
90 39
90 70
90 87
90 34
90 79
90 99
90 72
90 56
90 9567
90 0345
75 10
75 29
75 38
75 39
75 89
75 24
75 90
75 18
75 66
75 88
75 47
75 09
75 93
75 6398
75 246757
DD BA
DD FB
DD AB
DD AD
FA z
FA EB
FA DB
FA BF
FA va
35 28
35 23
35 37
35 72
35 76
35 03
35 543
86 63
86 22
86 86
EC FD
EC DC
84 93
84 140
84 3084
84 711932
FC ella
FC imes
34 64
34 69
34 94
34 31
34 77
34 41
34 191
34 240
26 649
26 288
EA AA
EA EF
EA DF
EA BE
ch eng
ch ris
ch orn
ch ady
ch ueca
ch urch
ch ecinsk
au jo
94 20
94 67
94 34
94 99
94 235
FD BA
FD FD
FD CE
21 38
21 846
21 6448
21 6616
EB DD
EB FA
EB EF
EB DC
EB DF
95 29
95 65
95 90
95 79
95 82
95 46
95 650
95 909
ja kab
gi ca
gi les
gi tay
83 80
83 65
83 61
83 32
83 2781
ra o
ra z
ra jan
DA CD
DA DC
DA BD
DA BE
05 26
05 97
05 93
05 92
05 194
05 145
05 1714
05 2079
me a
me li
me ca
me lla
me linda
37 24
37 90
37 99
37 33
37 130
37 129
37 758
37 797
37 756
37 891
256 2370
256 4007
id enti
CA DB
CA AD
BB CA
BB EE
BB CF
BB BE
FE EA
FE FD
FE FE
gif tos
36 74
36 69
36 11
36 87
36 84
36 18
36 82
36 110
36 700
36 8782
36 2235
18 65
18 253
18 86
18 179
18 2957
16 62
16 235
16 193
16 268
16 807
16 705
55 20
55 15
55 11
55 87
55 24
55 99
55 66
55 09
55 57
55 51
55 410
79 11
79 78
79 61
79 92
79 989
AA FB
AA FC
AA FE
cor t
cor ac
cor bo
cor conera
CB DE
CB CE
CD FE
CD CE
EE FD
00 27
00 29
00 64
00 37
00 99
00 47
00 76
00 03
00 602
78 19
78 82
78 2759
44 10
44 38
44 34
44 37
44 98
44 82
44 32
44 670
44 204
44 869
edi fic
us ie
us ser
us eppe
31 20
31 26
les ti
DB FF
99 23
99 84
99 83
99 76
99 95470
Ent ra
Ent revi
66 27
66 17
66 19
66 61
66 193
66 237
71 64
71 28
ter cio
98 63
98 88
98 300
98 696
98 1550
EF BA
EF FD
AB DD
AB FF
50 26
50 36
50 41
50 32
50 691
50 4026
77 27
77 17
77 15
77 69
77 8473
77 7863
cas mi
48 65
48 19
48 70
48 86
48 800
48 195
48 140
48 457
48 4054
DC ED
DC FD
DC FF
DC nnl
68 64
68 23
68 13
68 85
68 81
68 675744
12 27
12 20
73 65
73 36
100 190
100 4045
100 981550
270 3
270 665
49 27
49 63
49 64
49 67
49 16
49 79
49 62
49 33
49 76
49 133
49 254
49 167
49 679
49 655
49 693
49 7239
62 650
62 1063
jp o
CE FA
CE EA
CE Rra
ror ie
33 17
33 30
33 11
glo ves
stat mail
88 20
88 34
ir ent
ir cb
ir ish
47 29
47 85
47 130
82 27
82 40
82 38
si de
si gna
AD j
AD u
AD BA
AD CA
BC FB
09 95
09 12
09 109
09 894
09 119
09 691
09 681
09 318
09 611
red ford
BE FA
BE EA
61 27
61 13
AC i
AC FC
AC FF
ali san
ali ssa
41 60
59 17
59 39
59 28
59 85
59 87
59 78
59 195
57 64
57 35
57 86
AF FE
AE CC
AE FB
BF FD
01 25
01 15
01 86
01 899
tos espa
go orwitz
mar coni
mar ples
54 27
54 38
54 28
54 89
54 84
54 94
54 95
173 2
173 15
173 705
wi ley
72 637
72 459
81 22
81 19
81 6095
jo han
jo litz
Go mes
Web service
men j
men s
men tera
32 40
32 20
32 197
32 4595
97 84
97 959
97 342
ig ua
Ma eso
Ma jano
Ma estrat
04 20
04 39
04 23
04 75
04 16
04 98
04 33
04 275
04 280
04 8319
04 4520
he era
he pb
ve en
ve de
ve do
ve ga
ve hil
250 64
250 674
250 36276
Cal l
76 11
76 24
Co ma
Co lu
Co lor
Co din
Co quina
91 25
91 1410
por ter
por okho
43 36
43 248
43 393
43 6468
br y
46 20
46 84
46 12
46 175
46 691
58 19
58 26
93 17
93 37
53 80
53 11
53 24
53 35
53 657
53 7054
Calle alt
56 24
56 84
56 8055
56 23129
96 22
96 23
96 13
96 85
96 84
cri ck
cri gger
07 80
07 25
07 20
07 29
07 35
07 86
07 84
07 26
07 71
51 20
51 64
51 60
51 15
51 21
51 8345
42 40
42 39
42 107
42 141
42 2521
92 385
92 459
it Ro
it rio
it char
aj ian
52 80
08 64
08 13
08 67
08 30
08 87
08 12
03 25
03 14
03 28
03 13
06 64
06 60
06 200
ep ing
CI Mi
De mo
De pura
De hesa
ia velli
Mj Mu
za les
ul li
ad ula
ert achina
nov is
ab un
ol vida
989 854
989 9066
Al z
Al on
Al les
Al ga
Al cu
Al ger
Al cala
Al bella
Al bida
Par eto
Par ets
CJ EX
Sa z
Sa cota
941 2169
du ber
MT d
Ib eria
wa ke
wa ter
rico lacant
un za
un ell
hi erro
dela s
ta ka
zar es
va to
va cas
ver rell
ba ez
ba lar
ba ile
man ni
man jarr
del eria
122 2
122 4
ada m
ada u
sa int
sa nchi
sa lomo
bo g
bo h
bo on
bo lin
bo tin
bo Dego
La x
La mbar
La vinia
tu des
Vi va
Vi veros
erra dor
na v
servi cios
387 6549
123 0
123 7
Ar b
Ar rec
Ar ne
Ar gen
Ar tico
Ar anda
Ar anz
Ar cillero
Ar aujo
ne gan
ga ar
ga mb
ga vie
ga nta
ga Rr
ha ver
ha vo
ha ake
ha mlett
Mz I
ran e
ran dis
cre miewx
Val en
Val ero
Val ente
Val eria
Val defuentes
ru t
ls o
637 2562370
so t
so fa
so vago
Gu ida
Gu ER
Gu ixa
sali da
136 70
136 8660
lu g
lu nch
bi eri
bi uchet
bi xby
bi onte
res ca
gu ss
Mar es
Mar iana
Mar gin
Mar acena
Mar rett
Mar azo
Cas es
Cas sel
Cas ado
Bar ba
Bar bas
Bar dina
Bar lovento
Bar bieri
Car ri
Car dal
Car oli
Car iti
Car mel
Car rich
Car ames
Car acena
Car assa
Car mina
Car MinAR
730 6
ll er
2640 6567
235 60
fa nt
fa ez
fa ntas
fa fila
Ju lia
Ju sta
Ju arros
297 2616
sb ur
fi co
fi cio
fi lol
fi jO
Cu E
Cu bo
Cu sto
Cu carell
Ro ck
Ro cha
Ro mari
Ro meu
Ro yce
Ro baldino
ho ud
221 20
Ca ng
Ca vall
Ca Mente
org hiu
se m
se id
se gun
se ward
se jba
se pult
Ba zt
Pa vi
Pa ez
Pa nciano
Pa RLaN
Le ila
Le andra
Se gui
ow er
ero va
uri al
271 20885
Cor ena
Cor ts
Cor bina
Cor teg
tor mo
tor sten
Na o
Na huel
cr acia
lan dia
mi ento
130 49118
Es ter
Es par
Es pin
Es tella
dri ch
be fan
be tis
Ag ea
ld Servlet
ge e
ida s
ente jo
Lj Qz
vie ja
Mon ter
Mon tolio
TE M
TE MeNte
las iestac
und ino
doc k
Villa n
Villa lo
Villa man
Villa espa
Villa escusa
Villa dangos
170 83
170 705
gos a
bar de
bar rell
per l
per ro
per sky
per manecer
191 6434
Tor rente
ell c
bob enko
179 19
179 2098
263 39
263 75
263 34
263 15307
po lo
po ol
po tk
po chon
lin y
lin dt
min imi
pos TI
190 2822
155 31
155 1140
155 2564007
des champ
165 5
165 6
165 2318
cu erras
800 944
800 98696
que haces
que enwor
185 20
105 05
Del u
tr on
tr ag
tr ero
tr Aam
177 80
154 235
lor ente
web s
108 28
108 11
174 64
145 70239
189 2
189 529
240 5
ste ns
ste imaro
Bo u
Bo v
Bo ta
Bo mbard
Bo tifoll
175 39
175 2374
178 69
chi kov
409 85
409 6797
zo tta
ck a
164 63
164 15
Guada macil
660 3344
660 2610
AR s
via no
163 9
163 93
Ter cero
120 2
120 6
Pu jos
alla nd
264 3
159 390
159 182957
133 26
265 1
265 84
400 6591
mu nit
mu yguapa
254 644
254 6820
227 6
245 3
245 5
245 9
245 990
620 61
620 6602610
160 048
220 0649
405 33
405 800944
Ra ez
Ra mat
Ra yen
694 69940
148 38
167 5
167 885
167 7265
con cur
con trAam
Lu po
180 9
107 19
107 7416
Cam ari
Ri cci
pi ur
124 4
139 29
146 22
685 7
685 9
685 005
685 2146
Po liny
870 00
Pla na
Pla zuela
374 7055
390 27120885
192 104
128 16076
389 1034
375 6
665 2
665 3
665 31
279 371
630 450
Santa lo
695 19
695 247
El cano
El Xo
El baile
845 7
259 18
259 758
259 27507
sch ull
sch kor
her degen
her mosa
ard s
877 908
877 84817
877 216448
106 67
ly ne
804 2027
639 85
639 19065
DEA B
DEA D
230 49
Pi riz
Pi ula
Pi eres
Pi cker
Pi Sone
Pi ernas
638 309
649 6457
649 64263
Or R
Or den
Or una
Or pez
Or nosa
875 99
cat on
890 1719
890 99147
890 695247
335 20
249 20768
249 87514
bu zzy
809 75
344 10
260 5
330 6
330 7
330 512
CEA B
EEA B
EEA C
739 1
739 0983
855 18108
337 85
337 364
ura lag
745 89
Ber ina
Ber nat
Ber engel
sh u
sh ir
sh ari
204 38
kr y
ach ada
ach ero
407 35914
205 77
205 89158
188 18
Ja zm
Ja vier
628 9
628 44627
628 55410
807 2420
807 7412
408 13041
ECC E
yb etter
674 1458
795 1
795 5
mc dow
mc nair
mc lellan
125 0583
404 14
339 4
339 306590
ib an
828 993
FDD A
So pe
So ton
627 67704
hu er
hu ng
hu kar
hu mbert
317 67
610 37738
648 2034
680 2
657 89
657 63257
657 24136
445 0
445 44869
237 37756
850 25185
328 62
328 37758
689 8
689 828993
298 21
An an
377 27
ling a
857 2435
218 8767
ACA D
ves ota
209 1774
209 34634
455 73
859 78887
Per tegas
hor ng
258 878
ms qKBj
DBB F
207 27
207 87549
357 18
En sanche
350 78
350 22120
138 43179
gar ro
gar cia
gar gen
233 31
113 30
illa devilla
BDA C
BDA F
eg geri
Do ctora
ki ria
ras trero
223 67
223 107
406 130
358 17
Fa vio
Fa VoR
Si cilia
bj orn
BDD A
BDD B
305 6945
243 70
450 19163
758 8775
758 401812
217 10
BDB E
Ay lagas
Caste lan
Caste llan
280 48457
380 2015475
Bu en
Bu eso
Nv E
BCB E
fer rer
fer randis
CDD F
803 1004045
ami casmi
354 20
Li cia
Li zo
Li Breta
Li uzzi
293 20
054 10
054 20
054 2119
ACC A
Gar abana
Gar ganta
kq gU
394 95
BCD C
ven ow
ven imiento
DCD C
085 60
085 13
avi adora
203 2369
898 2547
Alb ox
Alb oran
Ru bia
Ru dol
Ur ra
Ur baez
595 611
ADB E
don ad
373 38
mas s
383 31270
944 36
779 8
set up
Can deleria
az OrR
806 1840
397 90
347 621063
Fer ro
493 11
Mor os
Mor ena
Mor iana
Mor cillo
No ves
No brega
327 80
327 37
eo lica
cha i
cha ng
959 634714
nj Qz
ADC F
447 21
Da isi
Is ra
Is ab
Is ach
han i
agu er
agu iscar
dra ves
949 6067990
Camp s
Camp maj
Pe leas
ph ysi
186 2
186 14
186 2464
Lo urdes
Man j
Man sur
853 159182957
753 6544
756 2944
CX dtu
Mi let
497 31
370 39177
463 15
463 70
463 30
087 62650
HO msqKBj
286 2360
286 6360
ban e
mor rear
eu strel
cho t
715 8077412
378 74
Her moso
Her melinda
fr ie
fr isco
BFD E
lon ga
In fantas
Su ya
Su bias
MF oiLCJ
char ko
Oj U
Oj Ix
Ga vas
Las piur
qui var
qui enq
528 25918
ger as
ger hardt
613 6393
yu ng
yu eping
Vila tor
Vila deca
Vila dric
can dado
can inos
322 45892
438 2
Er TI
Er rante
Tra ve
dy s
har gitay
pp le
sal yn
sal fas
Be lar
Be tiana
780 8544
Sal us
Sal vino
Sal guero
pr en
jan da
pin kpla
ric tions
060 2317
dar d
Im Fzc
Ta lo
Ta malla
023 60
Jo ves
Por cel
446 14622
dr appel
dr usie
915 20
dan y
dan os
dan forth
034 167885
421 69
478 14
474 80
474 30
994 2
Mas salfas
zan da
zan der
484 98
827 2734810
net plasencia
Gi fre
Gi rard
Gi useppe
Ui S
364 55
663 65789
717 1983
443 67
sto ich
538 97959
Du ch
Du lant
Du menj
211 38
468 27
740 14005
cer amicasmi
074 245990
320 80082
735 25509
Ab t
dia hann
784 19891
917 3328
Agu asal
422 16
535 32197
611 22
Am ru
Ale u
Ti ago
Ti CO
570 24590
For nie
For mentera
Ros er
Ros endo
my ral
Bas as
420 66
yn es
yn xKvI
bro te
fre etag
kin pah
Bor rell
Bor das
Bor obia
jar rel
mac millian
018 699
770 14570239
Vir tudes
bas signa
far gher
Maria ngel
bert at
920 12
fu ji
fu zzy
Te inad
Cr is
766 10505
Bal le
bon ny
bon nier
Flor ensa
ku be
ku chin
od re
od line
tal corp
829 25
883 63371
987 63423
Gr aci
Pr actica
zu ko
048 88
411 11
war zen
Mont roig
Mont amarta
Mont duber
590 6206602610
336 63845
931 19033
gan dett
win ona
soy madrile
soy muyguapa
Monte jo
Traves a
578 45890
578 2200649
wen di
wen dy
gal li
ham mer
ham mad
012 20
Men orca
gol ling
hiper zaragoza
hiper eus
086 12
bri on
bri ana
bus ch
Mur os
hy land
Bi dego
Oli vas
bel jos
bel toan
Ang usti
cl Ero
sho ou
tri ca
tri xi
tri plec
Ponte jos
Au relio
Au lesti
gon ard
nat raj
nat uralag
Pala fol
Fj on
Ne lo
cla ver
ker y
Fon ts
Uw LjM
ray mund
ull ena
061 85
cA PRI
cA reRa
hol brook
hol zschu
tur bes
Castro bol
Castro calb
Llo cnou
up load
up church
auto escuela
auto mati
Casas ola
Casas imar
Ve loc
hen n
hen shaw
bet ty
wal msley
gui Sada
tti r
Santi ll
Lla ve
Lla veria
wil ly
wil dh
Luis iana
guer cio
Va quer
771 2379
Gra ell
Os cos
Quint al
fran k
fran co
ny berg
kel li
rey es
Valde cilla
Valde meca
Valde vacas
mul li
Blan cas
Gor riz
Pro cedu
cro lling
sin tes
nd uste
sim on
wo da
May id
Ir ineo
kp Lh
Barri uso
Ing l
aw at
ens ue
Mag os
Mag no
Mag ali
Mag acela
ui er
ui an
lado ttir
ante puesto
rich ards
Puig ferrer
And Trans
Ig les
Medi anero
Sag reras
inter nacionales
inter pret
Ger ardo
Ger indote
Gali nduste
Za in
Za ima
edu ca
pre dicha
tch itchar
Cat adau
Dan nae
Dan TEMeNte
cala brote
Alber de
Alber ic
Ge is
of ertachina
pri ce
Ali aga
Ya co
Ya zm
kw ok
nf ig
pres ter
ori ty
nova servicios
bay lor
OjA xOj
Cha nge
Cha lets
Cha mbueta
hard in
mad hukar
TI cA
bos chin
ica ingeni
tro tta
det lef
pez zotta
Villar real
Leon or
bn recad
ite ros
she k
ech osa
aus tin
Villal ta
Hel ga
Hel echosa
oh wx
ciru gia
Escri tora
bil li
kim ber
kim bra
zy ns
show code
Cur rius
Cru cero
Cru illas
Fre e
Fre ix
Llu cena
Ram os
Sel vas
has s
zal man
dol tak
3823 6531
Ama el
Ara fo
nico lo
8319 6372562370
poli vitski
poli woda
Gas ca
Gas ull
Sab ugo
sur reau
cad tools
viajes internacionales
hZHMv MjMu
Min eria
Pan corbo
rid ges
Quin to
Quin cio
abo b
Cin ca
He loisa
He usser
Lab ra
Lab astie
Mos sen
Mos queruela
dE SHI
ken kel
2735 451
Bra zator
cv s
2545 4571
1115 2900
1115 55390
Vilar nau
Ace vedo
Ace iteros
Dor A
yan k
yan shek
stor m
7119 3056945
vida sa
Gin art
Gin ette
Mata mala
Mata malas
blo odline
ys us
3817 159390
Doming uez
Merca dillo
Des pe
Des CERra
Sen ini
Sen nacher
Serra cana
low ler
Arte aga
Bus cart
Beni tez
Je annette
Je pus
fal dina
his ko
sam paio
6729 3578
ajuntamentde bcn
Ari as
Ll unell
Pelli tero
gel man
gel dart
pel li
Naval ongu
Bell v
Bell ver
Mel qu
Vil loria
Wal kiria
fla vin
fra nts
pra vato
imo to
2613 19391
bol sala
blan n
ncha i
1700 2888
Arg ente
Arg ullos
Sali llas
fil des
jes salyn
lit ja
2770 2866360
Comp onents
Valder rodri
Esco lastica
Ofi ciales
Sec undino
ao car
die t
pint uras
sab in
6780 85
eber le
eber sole
Bel monte
Pat ricio
Rog ers
Rog ato
ama nojada
sE JB
sol UBLe
dec sl
2599 2992
row na
1000 13929
2065 43
2914 12816076
bien h
barni zultravioleta
Cel so
Cel mira
Cue llar
rt ce
the queenwor
1060 35022120
3870 66531
6095 6471
1543 2494
7449 2868
2887 39194
8735 1797
8329 6238
Qui yen
Enc inillas
Lau ro
gat Y
hau ser
hau ersto
jue gos
6470 1036
program agestion
2464 4006591
8366 606
1629 40533
7815 1636
Dam isa
Fla uta
Ren illa
Rec ie
Rec toria
anu tchitchar
moy ce
6053 74
3975 9775
8960 28048457
3550 7034
vea zie
Isid oro
Bol gona
jen ni
xtre mist
8067 3833
rei ser
6791 1701
1669 337364
5960 33175
Alci des
scha ab
selec tor
Fru it
Fru itos
Gab as
Lli bertat
Vent urada
eco ffey
jun kie
kam inski
6591 8974
6075 270665
1813 5623129
3119 89091
DEs FaVoR
much achina
5805 853159182957
Milla nes
Tri ana
bab atund
cra fton
fin negan
mt atbls
ov Il
ska la
caro lyne
acch portugal
8964 2862360
9930 911410
5977 63685
9365 94434
Ac count
Jor da
Pera till
box leit
mundo apple
2555 01
8310 0561
Colon ia
Fuen salida
4253 25334192
Der dys
bag nato
bat tag
iber icaingeni
sun corp
1544 8366606
8974 32837758
2320 15189
6739 58
6794 65
3085 1902822
good row
Pare ja
Roman os
Cho cano
Cela ya
Fol co
Hen ares
1947 7061
3967 50761
2349 25036276
2444 2497
4984 45019163
4180 7536544
7269 685005
Quir ce
Legu tiano
thur sby
Alar ona
Iver na
Lim itRo
Mes quida
Plas encia
cons ultor
vor inger
pura vidasa
dion ysus
1506 85245
7491 64701036
8951 1096
4519 2735451
5083 698855
8110 79110
9729 0360
modelos caninos
bek kou
clubde campo
4194 4054
Fin landia
Fal geras
Hello Wor
Pes arro
alo ysh
eti ni
sor ority
dese mpere
pug lia
4095 98
1965 189529
2868 1618
8914 897432837758
1358 1077416
4539 682
9005 92385
9989 2750
7329 34706
5610 111
bous quet
chicas hume
Rub ies
Gala tas
enigma tista
Har issa
Pau let
Plu t
Sis neros
gab rila
xe jP
zA fIo
digi talcorp
3867 909567
3917 1878
3982 177
todo betis
4578 40174
7558 638309
chat chai
5094 13049118
manzan illadevilla
Ripol les
hann on
Astor ga
stock defotos
2637 234925036276
7900 1087
Cadi erno
Ida lia
Mul tiS
cOR T
dok ken
kur z
pado vani
1967 679465
tomo hiro
8180 8901719
3217 60
Maz cuerras
Arce diano
Sola no
Castille ja
Simple Servlet
6130 2831
Anti g
Abi zanda
Els io
Neb ot
Neb rija
Vaz quez
jag er
jag ath
kle venow
tex til
cass agna
revi rado
nill A
6078 216616
1539 106035022120
3999 80673833
9045 6703
9048 1650
ulle cer
creacion webs
Sando val
Nazar eno
Tob alina
pola kov
Camar illo
shan kley
Peregr ina
0254 7887
3390 8887
8174 3896
Amer igo
Cir era
Gru po
Nie va
fam ily
melli sen
pec kinpah
tru faldina
5074 100981550
9325 877908
boqu it
nex or
hang ar
Bala guer
Raim undo
CrossSiteScripting Stored
3118 2783
5699 405800944
8173 24442497
Cus quis
Paj ares
ange L
psy koter
erlich man
leon erd
asy ra
6410 5812
65185 439
Reca nto
Reca redo
9933 60939
Say ago
bow ers
Santamar ia
Cato lino
Campan in
super links
Urda niz
juni or
51755 65918974
Tier ruca
Bier ge
Bier zo
willi ams
young man
Stored Procedu
0447 2501
4150 2558
Cle mente
Edi l
Veli lla
prest amos
scan lan
arman tel
2571 6482034
robb ie
alter naci
6031 1551140
mauri ce
13641 255
0586 261319391
3778 2618
6865 62767704
Godo y
5687 6585
Salo bre
Espr iella
kay nak
Riba frecha
6170 637
8216 6751
9630 3004
9377 20127
Ani ceto
Eme terio
Galla rdo
Isa ac
Pur ullena
Rida ura
Vena ncio
Xar amillo
rto la
temp ley
core serv
dau gavie
13776 198
9426 251
4490 6096
9994 2317
tosh ach
maria ele
0265 32862
Alu mbreo
Alfor ja
Alcubi lla
boy ajian
gama leld
Marc eni
Esper anza
Boca irent
17826 694
Chil lu
67499 126
4856 223107
Estra dera
Ampa ro
Calaf at
Blanca fort
Narva ez
Tranquili no
greenle af
4154 28179
4228 63185
4378 749164701036
8179 1661
Gines ta
IE IGa
Lap etini
Lad IZ
fara h
engo mera
import aproduc
9535 422521
1615 23
7996 89511096
0077 6957
5091 19469
7619 192104
Char bonnier
Pedra za
Herrer uela
north rup
5600 7542
7176 6334
7162 8074
9299 7163
Adela rdo
Biz enta
Cti CaMente
Cri vill
Ka ya
dim itrio
gis ladottir
och man
lego las
5918 8627
5769 162
hein onen
vela consultor
Alca ide
hant ak
thy agara
24817 7588775
mond ini
21034 297
Amell er
0200 7726
6100 7775
78789 686
Ceu ta
IM pr
Yami la
radi ck
vs chikov
lew is
allo ps
mata lah
3983 1677265
5552 6590
4447 259758
Almo d
Barb ero
Barra cas
33685 330
ayl mer
rieg ert
Farrer on
4384 1813
Deb en
Heli os
Sit ges
Tol los
ZE VtZ
Ze eb
fO bia
jami lah
kap il
mons ur
vac ey
80135 662
Molin aseca
revis tero
reben ciuc
carme lin
stok ker
35409 45192735451
chis morrear
79670 92459
793328 52
CDs car
0010 509413049118
10042 805
33290 31
sig nifica
Maur ras
Comas oli
Quema da
Altar ejos
Alcant ara
Parti culares
Valdel tormo
Roma nov
hou ston
Caledon ia
Nay la
Toto zauz
tret ow
ARE nillA
19764 9412169
Rang le
Rayn al
piz mie
mccre esh
70541 156
Sotor ribas
44528 81808901719
Ayar za
39974 610
grac ie
dong moon
ricci tel
62223 71193056945
macne e
gestion software
Gener osa
Gony alon
coches automati
Espej el
mombour q
martosfut bolsala
custombikesclo thes
8256 74167
9133 4515
Sagu es
Tp IEIGa
Tab laz
Tara dell
vr doltak
entre venimiento
recer car
27110 453
27750 150
29855 45355
mai jala
67347 134127
26862 15961
chim ento
05120 273
16227 816095
55294 74
55739 537
79845 869
88899 6473
04393 26406567
Arme lio
nece sito
Carran za
sepul vede
Corne tero
10867 689
189160 5435
65532 112
44522 158
266149 1792098
28770 1652318
Cantab rico
Mica el
Pedros illo
71599 604
47828 836
92795 576
71974 38331270
92230 868
Nicas ia
32563 13581077416
31004 890695247
510189 2686215961
Acu cio
Atz eneta
ATa Cado
Ahig al
Apart ados
Benco mo
Bera ngo
Culle ll
Dent agron
Diec iocho
Ec Er
FLi zarra
Gred os
Gavi lanes
HQ K
Hk vnz
Higin ia
Hum ildad
Idef onsa
Ital lia
ITu Ir
Irant zuko
KQ jpo
Kis ines
Kadi ga
Lacha mbre
Landro ve
Mlo iLCJ
Mamp odre
Mapo ula
Oci fuente
Pert usa
Pelle jero
QDA ynxKvI
Rau rell
Rol dan
Ryb ensky
Rbj vp
SMen TE
Stri ck
Shir ley
Spell mann
Scamp ini
Sacri ficio
Tref acio
TRO vA
Umber to
Ullo a
Unz aga
UJM KQjpo
Willi am
Wester meier
Xau bet
Xgq X
Yara v
YJi Aum
Zente no
Zach riss
ahog a
bWhk Tzt
fUeR Te
ghe orghiu
glan cey
glea ves
grizzar d
hamp den
hera k
klas ky
kly aro
maga zin
oder mar
oVa kqgU
rueh mann
snu ggs
sach novsky
sER viola
swid ersk
switz er
sverd lin
ubu ybetter
yVh XgqX
online gratis
tiebre ak
lalec tura
engi braltar
enluc imiento
liagu et
libb ey
cagn ey
casson dr
inversion eolica
agro ibericaingeni
depto doc
80328 105
lovel le
dajer lin
daesi k
pais aje
padam see
arvi gar
Modre go
repar aci
roderi ck
diog ene
diccion ario
2710524 959634714
dodd s
mohat rera
anime xtremist
63653 644
296785 32
290979 17002888
65506 83709
60730 15432494
195469 63
mazu rowna
398340 89099147
693559 2091774
693164 6496457
touli atos
70627 754
700360 1125
700790 37039177
454047 900345
EDPe DO
EDgra d
amagu la
302914 7558638309
877665 2546820
756398 1891605435
843084 6550683709
26649 15448366606
chueca family
jakab ffy
051714 44204
052079 16
362235 3817159390
79989 62855410
782759 29
44670 250674
9995470 732934706
Entrevi as
66237 16227816095
tercio pelado
504026 1965189529
778473 1967679465
777863 56
48800 601
484054 2188767
DCnnl gatY
100190 31
497239 12
ircb ellc
alisan de
59195 753
72637 3876549
72459 39027120885
Gomes ende
Webservice sEJB
048319 32
044520 62
heera lal
hepb urn
Color Picker
Codin acs
porokho vschikov
436468 21
53657 3891034
537054 8572435
568055 4856223107
crick ard
518345 43
Depura dora
adula ria
abun DanTEMeNte
olvida lo
989854 7003601125
9899066 630450
Alger ri
CJEX Rbjvp
ricolacant abria
balar rasa
sanchi z
botin fs
boDego Ncillo
Lambar ri
Arne do
havo c
sofa er
sovago vic
Margin et
Marazo leja
Cassel le
Barbas tro
Cardal liaguet
Caroli na
Cariti an
Carrich es
Carames o
Custo dio
houd ini
segun dar
sejba lova
sepult ura
PaRLaN ch
befan is
LjQz MloiLCJ
lasiestac reativa
Villaespa sa
170705 9496067990
1916434 162940533
potk onja
minimi zar
posTI fijO
1552564007 403755
deschamp s
80098696 24920768
steimaro ua
4096797 311989091
6603344 11
160048 25992992
contrAam ura
6852146 150685245
3747055 026532862
ElXo YJiAum
25927507 78275929
schkor ski
877216448 6474313
8042027 288739194
Piula chs
PiSone AR
7390983 660334411
85518108 27750150
62844627 39974610
8072420 100013929
6741458 111555390
mcdow all
1250583 387066531
339306590 1752374
Soton era
23737756 13776198
689828993 1368660
258878 8031004045
eggeri kx
Castellan os
3802015475 330512
595611 38
njQz UJMKQjpo
Campmaj or
physi can
1862464 95
7562944 888996473
CXdtu Hkvnz
HOmsqKBj TK
7158077412 673958
MFoiLCJ kZWxldGVkQXQiOm
OjIx LjQzMloiLCJ
6136393 758401812
pinkpla netplasencia
0602317 509119469
Tamalla ngos
034167885 5610111
Massalfas sar
8272734810 678085
7171983 347621063
stoich kov
Dulant zi
074245990 3329031
9173328 900592385
77014570239 54310
kuchin sk
Practica nte
5906206602610 899
33663845 44522158
5782200649 154235
hipereus kadi
Bidego ian
Angusti as
clEro fObia
shoou yu
triplec textil
naturalag ricolacantabria
Palafol ls
cAPRI FOli
holzschu h
autoescuela villa
Casasimar ro
wildh agen
7712379 186246495
kpLh js
AndTrans fer
interpret acion
OjAxOj UwLjM
cirugia albeiteria
83196372562370 29
polivitski ui
hZHMvMjMu cG
dESHI LadIZ
Brazator tas
DesCERra JaR
Sennacher ribbo
Navalongu illa
27702866360 13280
Valderrodri go
pinturas ultravioleta
291412816076 6490
thequeenwor m
programagestion erp
24644006591 24948
anutchitchar nchai
896028048457 6559
1669337364 255501
596033175 4539682
6075270665 324595
18135623129 50494
DEsFaVoR EcEr
89642862360 58281
9930911410 161523
597763685 7808544
936594434 8061840
Account AndTransfer
boxleit ner
425325334192 1904
battag lia
232015189 2972616
30851902822 66683
396750761 3982177
498445019163 2548
41807536544 21138
7269685005 406130
LimitRo ws
5083698855 321760
811079110 5529474
bekkou che
HelloWor ldServlet
Pesarro dona
aloysh ina
desempere zar
chicashume das
xejP DCnnlgatY
3867909567 368782
457840174 8982547
manzanilladevilla fafila
MultiS crolling
6078216616 409598
399980673833 1009
5074100981550 289
9325877908 605374
5699405800944 222
817324442497 1818
Cusquis iban
993360939 0542119
5175565918974 704
StoredProcedu res
prestamos ypersonales
25716482034 29012
60311551140 09786
0586261319391 409
686562767704 3866
937720127 2032369
415428179 9426251
422863185 6170637
importaproduc tosespa
9535422521 832781
799689511096 6395
7619192104 254644
velaconsultor es
248177588775 3084
39831677265 34410
4447259758 279371
7967092459 392219
significa do
197649412169 9035
cochesautomati cos
825674167 5769162
2985545355 401012
67347134127 21708
0439326406567 851
2661491792098 457
287701652318 3053
7197438331270 925
31004890695247 20
Zachriss on
agroibericaingeni eros
29097917002888 40
6073015432494 873
39834089099147 25
6935592091774 249
6931646496457 653
70079037039177 78
454047900345 4435
8776652546820 108
05171444204 69351
7998962855410 697
44670250674 68073
4840542188767 205
726373876549 3624
536573891034 6806
5370548572435 408
9899066630450 137
16004825992992 19
CXdtuHkvnz h
0 256
0 283
0 194
0 154
0 147
0 679
0 104
0 156
0 224
0 804
0 894
0 274
0 844
0 404
0 707
0 273
0 878
0 454
0 307
0 755
0 379
0 493
0 691
0 788
0 997
0 906
0 202
0 488
0 662
0 491
0 732
1 142
1 173
1 297
1 257
1 697
1 195
1 137
1 2709
2 270
2 135
2 194
2 174
2 145
2 699
2 385
2 807
2 151
3 221
3 2520
3 175
3 405
3 299
3 279
3 699
3 638
3 655
3 657
3 388
3 218
3 243
3 266
3 208
3 206
3 676
3 381
3 161
3 632
3 456
4 283
4 637
4 136
4 290
4 177
4 145
4 805
4 675
4 679
4 104
4 877
4 200
4 230
4 744
4 459
4 657
4 218
4 848
4 236
4 607
4 696
4 759
4 358
4 307
4 608
4 653
4 908
4 757
4 799
4 904
4 708
4 381
4 733
4 982
4 2708
5 253
5 876
5 107
5 109
5 156
5 137
5 744
5 635
5 645
5 274
5 809
5 344
5 176
5 677
5 807
5 879
5 357
5 454
5 608
5 755
5 304
5 309
5 656
5 703
5 603
5 906
5 756
5 832
5 651
5 202
5 452
5 666
6 256
6 136
6 235
6 876
6 154
6 409
6 148
6 104
6 804
6 149
6 875
6 188
6 807
6 693
6 866
6 182
6 161
6 632
7 100
7 270
7 250
7 199
7 637
7 194
7 697
7 193
7 146
7 390
7 106
7 277
7 698
7 344
7 404
7 648
7 850
7 388
7 857
7 659
7 166
7 895
7 878
7 868
7 688
7 748
7 743
7 749
7 853
7 906
7 668
7 896
7 361
7 651
7 903
8 234
8 271
8 190
8 105
8 400
8 195
8 695
8 156
8 230
8 168
8 385
8 249
8 112
8 388
8 162
8 693
8 212
8 843
8 652
8 833
8 671
8 633
8 382
9 256
9 173
9 387
9 637
9 194
9 178
9 285
9 197
9 255
9 695
9 877
9 644
9 875
9 198
9 355
9 709
9 844
9 600
9 273
9 218
9 209
9 455
9 659
9 207
9 166
9 288
9 305
9 284
9 399
9 226
9 368
9 653
9 908
9 261
9 397
9 398
9 846
9 833
9 947
9 871
9 362
A P
A ci
A di
A ss
A men
A FBE
A bar
A EBD
A FCE
A FAC
A bd
A EEE
A tez
A valos
B ent
B ro
B FBE
B any
B CCB
B eli
B EDA
B EEF
B FBC
B EEE
C ia
C ul
C FBB
C EDA
C FCE
C ader
D os
D ol
D res
D FBB
D EDC
D ECB
D ECF
D FCE
D FAD
D FEE
D FEF
D FBF
D FBC
D BAC
D EEE
E J
E Nj
E lor
E rat
E FDB
E FCE
E EBF
F lo
F is
F ur
F ig
F ul
F ECD
F FBB
F FDC
F ies
G ord
G eb
G ari
G imi
H ac
H eb
H era
I e
I lla
I nsec
I na
I Ta
I tiS
I sern
J W
J im
L ema
L CI
L atorre
M aci
M au
M iss
N es
N eo
N cOr
O re
O no
O ros
O mer
O delia
P ri
P el
P and
R is
R est
S O
S car
S at
S og
S Ador
T x
T ic
T eO
U lla
U lec
U ceda
U tiel
V E
V as
V ul
V ulner
W EB
Z an
Z arr
Z ita
Z af
Z enobia
a hi
a hor
a vis
b ate
b ed
b ill
c ce
c ser
c us
c su
c ies
c ush
d na
d res
d imiro
e ca
e pa
e gi
e mer
e villa
e wska
e DorA
f is
f ono
f ria
f rid
f lash
g A
g host
g au
g rat
g wen
g uru
h ing
h ate
h ia
h Or
h and
h ett
h acia
i ent
i di
i ff
j A
j andro
k ul
k wa
k ara
l do
l pe
m ia
m AR
n en
n TE
o T
o za
o un
o per
o pi
o So
o fre
o bs
o tismo
p ok
p ia
p ina
p isa
p apar
q U
r ost
r ago
r via
r AdOr
s ce
s ri
s au
s inc
s tin
s ello
t O
t ner
t ran
t ho
t OR
t RaS
u no
u tos
u der
u dy
u casa
v la
v oni
w li
w ea
w est
w anama
y on
y ni
y eo
z z
Ġ identi
on aga
on leu
ti li
ti jo
ti nov
ti ne
te ed
te bin
te ase
la ir
la dell
la sexta
en T
en io
en za
en del
en der
en ill
en hard
co ul
co ver
co der
co hen
co oper
co onleu
li m
li ss
li tos
li cu
li llo
ca les
ca ve
ca poli
ca rel
ca nich
os O
os bar
in da
ag liano
tion AC
ac le
ac uel
ac kes
ce R
ce so
ce lia
zi el
er va
er que
er rero
er jee
de le
de cer
ec io
ec ho
ec kel
ec redi
ap tease
ost on
80 38
80 60
80 68
80 183
80 856
or sch
lo y
lo is
lo an
lo mujeres
nc tionAC
da via
da ky
da wn
da deem
ie sta
le k
le je
le pp
ent reme
pa da
pa ta
ser re
ser ig
ar menta
lla que
lla nd
lla longa
lang a
com ida
com pta
ing o
ing Fu
ke ll
ke hoe
Mo tri
Mo lez
Mo tta
qu ea
qu Erat
et lla
et tridge
re man
re mi
re sto
re ira
re mot
25 38
25 60
25 49
25 800
25 175
get gold
is mundo
ci ll
pu na
pu blica
bli nd
ro c
ro om
di vil
di entes
di cci
27 29
27 15
27 23
27 05
27 78
27 82
27 76
do vel
ur si
ur ana
ur dan
40 80
40 10
40 87
40 94
40 79
40 61
40 91
40 58
40 42
40 123
40 644
40 604
40 542
al c
al to
al fa
al AR
al bor
10 19
10 24
10 21
10 78
10 31
10 98
10 77
10 97
10 264
10 649
10 748
pe licu
car ra
car ga
no ve
an h
an motor
es is
es pe
es cu
es oria
ri llas
el lio
el din
as c
as or
as ley
as illa
as esoria
20 86
20 49
20 59
20 92
20 859
20 905
20 343
20 993
20 553
ni x
ni ck
63 64
63 67
63 07
63 4994
29 17
29 13
29 04
29 76
29 120
29 383
29 753
29 6780
29 1705
17 38
17 11
17 36
17 09
17 59
17 81
17 93
17 153
17 4009
38 63
38 36
38 16
38 50
38 91
38 227
14 22
14 39
14 85
14 67
14 11
14 87
14 78
14 44
14 88
14 43
14 46
14 53
14 92
ss room
ros en
ros mode
22 11
22 273
22 362
64 15
64 89
64 360
64 147
64 739
65 65
65 30
65 87
65 37
65 16
65 68
65 32
65 56
65 368
60 29
60 17
60 13
60 34
60 37
60 91
60 93
60 857
15 25
15 85
15 98
15 77
15 61
15 01
15 51
15 42
15 03
15 195
15 807
19 69
19 11
19 34
19 16
19 44
19 88
19 96
19 02
19 2527
19 190
19 244
19 404
19 307
74 90
74 84
74 34
74 94
74 18
74 32
ma les
ma th
ma tic
39 38
39 54
39 46
39 890
39 572
69 20
69 63
69 84
69 79
69 71
69 68
69 61
69 93
69 56
69 51
69 06
69 700
69 054
69 2511
69 9180
69 35718
28 78
28 77
28 73
28 33
28 101
28 690
28 300
28 898
28 296
st A
st ru
st ria
st ud
st rau
st rom
to mujeres
89 13
89 84
89 88
89 56
89 08
89 593
23 63
23 31
23 09
23 59
23 57
23 76
23 330
23 383
Re mber
Re ga
Re bull
Re quena
13 39
13 45
13 66
13 32
13 51
13 129
70 11
70 90
70 58
70 51
70 42
70 191
70 128
70 2370
70 7450
45 22
45 11
45 31
45 98
45 62
45 41
45 91
45 46
45 52
45 02
45 140
45 183
85 39
85 26
85 77
85 73
85 91
85 56
85 52
85 128
vin da
direc torio
apel ton
67 28
67 90
67 26
67 66
67 59
67 81
67 32
67 92
67 52
ED S
ED FE
ED CB
ED DF
ED ria
ED fica
ED fic
ED rvia
253 0
am en
am asilla
30 80
30 74
30 21
30 83
30 48
30 252
30 97
30 91
30 92
30 52
30 08
30 264
30 635
30 760
30 797
11 21
11 81
11 610
87 27
87 65
87 77
87 32
87 76
87 56
87 284
BA FA
BA FE
BA CB
24 60
24 41
24 221
24 154
24 394
24 346
24 6923
24 6308
24 9894
CC EB
CC DB
CC AD
FB CD
FB EE
FB DB
FB EF
90 40
90 10
90 22
90 60
90 67
90 83
90 98
90 50
90 01
90 81
90 53
90 07
90 02
75 27
75 17
75 74
75 26
75 83
75 78
75 31
75 32
75 91
FA EA
FA BC
FA Vo
35 63
35 60
35 45
35 35
35 86
35 83
35 18
35 48
35 04
35 283
86 24
86 18
86 16
86 61
EC ED
EC FA
EC FE
EC AC
EC AE
EC eDorA
84 27
84 29
84 74
84 76
84 91
84 634
84 907
84 308
FC es
FC FC
FC BC
FC AC
FC BF
34 20
34 30
34 24
34 26
34 95
34 83
34 78
34 98
34 62
34 43
34 92
34 870
34 760
34 349
26 250
26 130
26 291
EA CD
EA AC
ch or
ch ing
ch ia
ch ad
ch eck
ch canich
au ro
au tin
94 14
94 89
94 45
94 81
94 32
94 97
94 42
94 839
94 288
FD ED
FD EB
FD FE
FD CF
FD AE
21 25
21 20
21 87
21 21
EB ED
EB EA
EB DA
95 64
95 87
95 75
95 16
95 98
95 03
ja y
ja tin
gi r
gi onario
83 27
83 67
83 24
83 77
83 72
83 117
83 2660
ra bas
ra nto
ra fia
DA CC
DA FB
DA FA
DA EA
DA FD
DA BB
DA FE
DA BC
05 80
05 10
05 70
05 11
05 24
05 05
05 16
05 44
05 31
05 50
05 09
05 76
05 07
05 52
05 697
05 152
05 292
05 212
me dio
me asor
37 98
37 68
37 170
37 180
37 890
37 183
37 216
37 799
id u
CA EA
CA CE
BB FE
eb ackes
FE FA
36 19
36 23
36 26
36 83
36 61
36 857
18 10
18 63
18 17
18 22
18 39
18 21
18 129
18 132
18 6518
16 14
16 841
55 10
55 30
55 18
55 78
55 61
55 41
55 059
55 5669
79 17
79 89
79 45
79 67
79 26
79 95
79 68
79 81
79 660
79 208
AA BC
AA AE
cor dia
cor rea
CB DD
CB DA
CB FE
CD N
CD BF
FF FC
EE EC
EE EB
00 20
00 60
00 39
00 11
00 90
00 84
00 79
00 43
00 667
78 85
78 123
78 839
44 27
44 14
44 70
44 48
44 389
44 168
44 119
44 349
44 358
wd en
wd sn
us elles
31 27
31 83
31 130
31 263
31 264
31 645
les dom
DB DD
DB FA
DB DA
99 38
99 39
99 67
99 87
99 35
99 99
99 62
99 315
66 20
66 11
66 86
66 82
71 13
71 26
98 80
98 27
98 24
98 122
EF ED
EF EB
AB EC
AB FD
AB EB
AB DE
50 80
50 10
50 22
50 75
50 44
50 33
50 81
50 110
50 167
50 879
50 873
50 373
50 296
50 366
50 9537
77 19
77 85
77 71
77 61
77 111
48 29
48 38
48 14
48 22
48 15
48 67
48 30
48 82
48 178
48 144
68 74
68 26
68 389
68 875
68 899
68 868
68 381
68 892
12 270
73 25
73 17
73 21
73 286
ner erova
100 37
270 7
49 40
49 69
49 23
49 26
49 21
49 83
49 360
49 190
49 220
49 638
49 680
49 211
bal leda
62 63
62 13
62 67
dis sid
dis lada
DE ED
DE FD
CF CC
33 80
33 22
33 64
33 69
33 33
DF FB
DF FE
88 38
88 22
88 74
88 89
88 16
88 82
88 121
47 20
47 64
47 19
47 800
47 610
47 673
BD EC
BD EF
AD O
AD BB
BC EC
BC EA
BC FD
09 27
09 63
09 65
09 39
09 24
09 259
09 247
09 115
09 450
red onda
101 60
101 84
61 170
61 158
AC FD
AC EF
ali ty
41 69
41 24
41 83
59 20
59 22
59 13
59 35
59 72
57 38
57 22
57 65
57 70
57 30
57 832
AE FC
AE FD
BF EA
01 80
01 64
01 60
01 39
01 23
01 24
01 170
01 275
mar t
mar chell
54 20
54 23
54 98
54 33
54 284
54 363
wi ch
72 20
72 60
72 15
72 11
81 20
81 84
jo y
jo vo
jo urdan
Go ico
men gol
32 385
97 10
97 35
97 94
97 16
97 112
Ma lla
04 64
04 15
04 85
04 21
04 18
04 78
04 31
04 212
04 173705
Cal cula
Pas o
76 63
76 74
76 28
76 12
76 235
76 8328
Co Rd
91 27
91 13
91 85
91 609
por tet
Con st
Con dado
43 14
43 74
br and
br ws
46 85
46 135
46 148
46 890
46 182
ame x
58 63
58 14
58 65
58 644
93 29
93 31
53 10
53 65
53 23
53 155
53 1987
56 17
56 22
56 83
56 12
96 19
96 26
07 60
07 15
07 67
07 24
07 61
07 650
51 38
51 13
42 17
42 60
42 67
42 173
42 192
42 1480
ate ria
92 17
92 38
92 14
92 67
it rago
ino mio
52 27
52 40985
08 10
08 14
08 26
08 270
03 80
03 20
03 64
03 638
03 1796
06 17
06 85
06 26
06 228
Rio mor
Rio fr
CI A
za ya
jav abe
02 25
02 63
02 29
02 14
02 45
ad O
ad ura
199 278
ab og
ab ella
ol rich
989 59
Al mir
Al caraz
Par do
Par tida
Par acuel
941 65
wa ve
wa ver
un dis
hi da
hi NTe
ona da
ta lo
ta bles
fo u
va Bean
va llalonga
ba hia
man irro
man ager
del pintor
122 3
ada sh
sa e
sa de
sa no
sa vard
bo ts
bo tel
bo ot
bo wden
La dislada
na ntas
123 6
123 71
123 7605
Ar nu
Ar as
Ar res
Ar mend
Ar quero
Ar mengol
747 65
css on
ne wdsn
ga los
ga les
Val lor
Val hermoso
ru dis
ru bias
esti cos
so me
so mp
so lomujeres
San dr
San dro
Gu tarra
lu la
lu ke
lu zzi
bi za
gu adiana
290 38
290 90
ex cu
Mar sa
Mar netti
Mar imon
Mar agliano
Cas ade
Car cano
Car balleda
fa no
Ju ni
297 11
fi dio
Cu y
Cu cur
Cu bel
Ro ber
Ro yo
Ro zas
ho well
Ca yo
se o
se da
se arch
Ba lan
Pa Lo
Le iro
Le pant
Le gaz
Le serre
ero la
Cor red
Cor bi
Cor minas
tor ok
ber rell
ber egi
Na hir
cr is
cr isti
lan co
466 2
mi li
mi lla
mi chi
mi zell
mi erque
130 1450
130 39660
Es cales
Ag rup
Ag raso
Ag undis
ge orges
th ac
th is
th orn
257 37
Mon z
las en
ago live
Villa s
Villa tty
ya nc
IN F
834 3
834 4
834 822
bar ez
bar ebackes
per cy
per mu
per rosmode
191 8567
bob bie
263 2
263 97342
po u
lin n
lin s
lin as
lin ni
872 15
872 3970
arr sys
des fac
que dadeem
Sala zar
Sala vedra
185 8
135 47
105 64
tr ist
177 35
web admin
108 83
174 38
174 73
145 66
129 49693
143 35
143 39056
240 95
240 00
ste p
144 71
144 6048
164 1
164 4
164 610346
275 77
der el
der enzo
660 8
660 9
Zar co
ka z
163 60
163 36
163 42
264 1
264 31
159 84
134 99
400 72
254 40
227 60
620 2
620 5
620 03
620 099
620 734
160 2
160 549
805 78
167 8
con tac
con nelly
Lu due
180 2
180 8
Cam pu
Cam pe
Cam pal
Cam aren
Ri b
pi en
pi cardo
124 2
124 3
124 77111
255 90040
139 9
153 18
685 4
685 831
Po ceros
870 4
374 47
390 85
Ch er
Ci pria
294 94
128 94
CDA E
375 1
375 2
375 20
375 92
375 24117
665 5
279 35
279 68
Av ell
695 69
670 5
670 8
El A
839 4
839 6
839 7
839 9
839 828
839 8873
835 9
835 75
asp iran
ard on
877 64
244 70
804 77
384 259
239 1
168 27
168 647
385 8056
Pi cce
149 64
149 70
Or do
Or todo
247 35
184 2
184 4
184 459
183 2
335 09
277 20
249 2348
bu ffet
635 82
Zam udio
645 80
645 10
198 1301450
809 86
654 84
344 69
344 68
330 70
CEA D
176 28
176 84140
760 1
739 4
739 326
337 2
337 3
337 77
709 151
kr zy
188 38
EFA C
Ja vaBean
628 61122
975 4
975 5
mc g
mc compta
152 11
339 8
828 6
FDD B
FDD F
So mo
So fra
BCA C
BCA F
095 31645
095 57832
FEA B
317 22360
610 2
680 3
680 8
505 8
DCA C
Navar redonda
445 1
445 61
689 1
689 6
Lle dos
An imas
213 20
273 29
403 13039660
Per e
Per fec
659 84
EDn n
EDn dola
ms l
646 408
CBB D
CBB E
207 40
357 23
357 2088
ADD A
BCC F
En rico
En ju
En medio
289 68
ili amar
848 19
ACB C
ACB E
ADA E
ABB F
BDA B
Do u
Do men
115 39
ki ra
AEA B
837 90
837 743
Si urana
FCC C
849 74
849 246308
DCB D
yd ney
305 00
878 84
243 20
243 14
243 67
678 30
BDB C
BDB D
287 94
Bu dell
Bu tg
Bu llaque
Bu itrago
su p
su tele
608 30
CDD B
CDD D
126 1
van carga
aga do
Li enhard
054 84
ACC E
gr n
458 10
ven ding
ven cio
085 8
085 124
Ur di
ADB F
mas o
296 40
eri csson
866 64
Can ela
Fer ri
Fer ia
267 8316
Mor quera
950 36
cha tinov
656 23
Da ya
Is is
Is auro
agu arda
214 83
villa ges
064 34
485 1
485 2
485 29
005 3
756 67
Mi co
500 2
500 8
Ped rag
Ped roso
464 17
DFD E
087 84
087 79
896 1981301450
ban erjee
eni biza
456 21
gra y
Cab ana
Her nan
090 47
090 92
Pin art
lon i
314 54
314 15477
314 768328
In de
In iesta
den y
den ko
Torre mor
Torre jon
995 87
char la
char lot
489 72
999 17
687 1
sk al
allen bury
Ga R
Ga Di
Ga nci
037 2
037 38
037 70
ger e
613 28646
Cer dan
027 90010
434 11
434 21
434 71294
585 00
sal udy
785 1
910 76
910 86664
Sal le
samp fram
888 65484
amon n
023 10
Por fidio
eno t
Est ap
Mer l
775 1
034 30
474 63
599 8
045 84
045 31
484 40313039660
net h
364 50
pan kin
443 40
sto uder
563 21
549 2
930 46182
815 877
735 67
Ab elli
ug ht
318 40
529 24
Am etlla
Am ranto
Ale AR
IS mo
Ti los
Ros as
Ros alia
Ros sello
mil los
sy ste
929 3437
fre ecredi
919 85
Mu la
015 97
938 65245
ala ne
044 69375
822 26334
713 3217
Casti llon
525 94
Sol er
bon n
Flor entina
794 68
Gr amunt
Pr ies
008 849246308
048 38
war un
340 16342
Bon illa
ua GaDi
ud zin
jas ver
win d
eck ner
551 14339056
soy cata
Monte video
575 00602
wen ces
gal t
gal luzzi
Men divil
gre iff
321 24292
bus quedadeem
Cala mar
Cala tora
547 2
Bi gionario
Oli ver
932 14160
bur ston
Ponte nova
933 14361
Au ladell
nat hea
ple moon
Pala h
Ne vn
Ne vada
cla ssroom
ant one
ant hea
081 83
tur alsan
Gal cer
Llo mb
cli ent
bla kes
hen ried
Ver eda
tti voni
esp resto
Va dell
soft gold
bU Qu
Gra ja
Gra mati
fran quea
Valde mierque
hal mi
hal sy
sim o
Bla dimiro
bes sell
hel ma
Ing enio
lec lerc
mag net
ds pug
cin derel
ui to
we in
we is
we ig
mal comida
mal udzin
mel on
Mir acle
Mir aguarda
ore galos
Ger man
Mora leja
pre ss
pre stanc
tch eck
rado mir
Dan ia
clu ett
Ron del
hr msl
Manzan era
Zur era
Valverde jo
kn aup
she ila
spain bb
rosa serig
2420 67
Seg ismundo
Sel ene
Vic ent
cul turalsan
Gas c
hat ty
esto espresto
viajes solomujeres
sala dna
Min eros
Min utos
Quin ciano
white hat
Cin tio
Mos en
Reg is
Bra vo
Fran co
Les son
gold stei
Ace it
Ace bedo
mis anima
pen dientes
vir tu
tic links
seig ner
Llor en
hir sch
hir onaga
Arte ta
ae ag
eras ure
Arri bas
Nor berto
SP AL
1164 371
you nger
Ming orr
Mel chor
Xo ana
Us agre
sms gay
Arg amasilla
Sali na
nor matic
Corre a
Jer us
sab adash
Pol loni
Rog elio
pru eckner
2830 00667
0360 15
8924 44
8924 1188
Enc ina
hau mann
teat re
pedro cf
2919 25
6493 37180
7429 837743
6785 4500
7990 89241188
Panc ho
Dam as
Eche ver
Cora zones
jen n
king ston
apar pado
1984 8007
5715 0463
cirugi aparpado
Ces ar
Fru males
Rab assa
kam ran
pav lis
rou denko
6394 31
6394 2492348
8799 6424
5805 3572088
Dur cal
cra ig
8615 23383
Juli ana
yama da
Huer ga
sio malas
2505 702370
6594 69569
espacio delpintor
multas pendientes
Bs acio
Oro zco
gru ber
2869 1164371
8515 2757
3014 3184
Roman illos
Mira vet
Cela da
Fol k
MI ENT
Tamar indo
kos ter
7599 4590
3530 15
Quir entes
Nat al
Up date
tac ticlinks
vor agolive
ere osbar
8086 7429837743
garri ck
Bes hara
once da
6355 62861122
chon chan
Sang arr
bous en
pic ture
Rub io
ugh ter
1758 199278
6663 1393
4974 2539
Ida lina
Jara ma
able Components
hur st
data erasure
6028 160549
fleur ima
Bru ma
Munt an
Terra zas
Zap ard
Zap ateria
FAr nea
brun oseguridad
9339 1237605
Deu dor
guejos gratis
Adol fo
Fro ilan
Gru pos
fro ud
pec her
sla ughter
lib code
pur plemoon
6921 291925
8845 31
Fructu osa
Gis elle
Ken neth
lE va
7598 1771
baller pok
0365 8398873
Infan te
willi son
Galin do
Nogue ola
Bypass Rest
Siete iglesias
Veli chcanich
spin nell
tat ucasa
cali bra
arman d
1530 2505702370
1546 7411
21870 9160
Pascu al
Espr onceda
Salv at
Fac tor
9525 884531
7928 8923
Queral bs
Ceb ele
Odi lia
Open Server
Vio leta
maxi wagen
EDno ain
media car
mene amex
Algo dre
Lauren tino
gallar d
Herman os
Form iga
about cf
Frances ca
cementos calibra
5688 192527
Nue ve
Sam ia
iali stA
imper ialistA
stre aptease
4507 218709160
0474 6545
small tec
Fredes vinda
9604 77
Ati y
Aber cio
Gras as
Hom dedeu
Utri llas
Yela daky
zing ton
laure ando
reh kopf
anno yanc
29680 639431
iren as
Alvar o
nati uk
Balles teros
8155 1229
Villo ta
Wil fredo
escar ba
itali anmotor
13500 04584
62162 63942492348
Galli fa
8266 692511
9408 8087
Flash JavaBean
bac skal
gord y
gard ner
morg an
tiVa CI
atri oregalos
chos par
3735 999
Mauri ci
Fide us
Caza lla
Pay et
Villava quer
Rios eco
74518 84473
EnTE S
Mercur io
Grim aldi
bICo Qu
Obr ist
Oloca u
Pap iol
We ffer
ober on
dass ie
mats uza
09894 897
Alz uria
wake field
delas irenas
74589 164610346
35078 283000667
36455 660
92012 174
fuji oka
Cader nera
Dres de
ENj uaGaDi
Fur cat
Fies co
Geb hardt
Gimi alc
Heb elen
Insec ure
JW T
Maci as
Mau len
Miss ingFu
NcOr V
Sog orb
Ulec ia
Vulner ableComponents
ahor rAdOr
avis o
bate man
cser halmi
csu a
cush ing
emer son
ghost ley
grat uito
guru llada
hOr r
oza ki
papar ote
sce pi
sinc lair
vla ender
wanama ker
yni guez
Ġidenti ty
tebin ka
enill O
capoli ccio
carel li
orsch el
loan Calcula
lepp ert
Motri l
Molez uelas
quErat ItiS
ursi tti
alto guadiana
albor noz
10264 127
nove lia
asesoria viesca
634994 1758199278
174009 80
stud ent
strau ss
Rember ta
Rega lado
70191 28691164371
directorio gratuito
30635 705
246923 47673
249894 7451884473
84634 236
jatin der
832660 17684140
555669 782
lesdom esticos
509537 37524117
68899 29680639431
49680 817
dissid ent
09115 235
Goico echea
04173705 10264127
531987 6028160549
421480 9525884531
5240985 649337180
031796 1350004584
Riomor os
javabe an
Paracuel los
waver ley
hiNTe Ro
bahia delasirenas
manirro ta
botel ho
nantas iri
Vallor i
somp pi
Sandr ini
excu SAdor
Carcano ux
Cucur ull
Cubel ls
PaLo TeO
Legaz pi
michi al
Agrup acion
834822 268
barez ewska
barebackes pa
permu tatucasa
perrosmode lo
1918567 555669782
8723970 834822268
12949693 25590040
1446048 659469569
620099 2678316
620734 6921291925
contac tomujeres
Campal bo
Camaren illa
Cipria no
839828 58
aspiran tes
168647 86
3858056 70
Picce ch
184459 68
709151 698
mccompta bles
Enju anes
iliamar ino
Budell era
Butg ardon
sutele fono
chatinov er
villages evilla
Pedrag osa
8961981301450 385
314768328 3735999
saludy fitness
48440313039660 42
9293437 709151698
freecredi tcheck
82226334 85152757
7133217 385805670
008849246308 6794
55114339056 21846
soycata lan
busquedadeem pleo
Calatora o
nathea ux
Nevn ka
classroom manager
blakes le
Gramati cs
prestanc Ia
rosaserig rafia
culturalsan pedrocf
misanima lesdomesticos
799089241188 1647
58053572088 24154
861523383 6935718
75994590 12477111
80867429837743 65
635562861122 2298
93391237605 94436
libcode brws
purplemoon grn
ballerpok er
03658398873 27935
BypassRest rictions
15302505702370 50
5688192527 960477
4507218709160 906
italianmotor villagesevilla
8266692511 685831
74589164610346 26
35078283000667 63
ENjuaGaDi EnTES
MissingFu nctionAC
vlaender en
loanCalcula tion
24692347673 27968
83266017684140 43
50953737524117 95
6200992678316 221
. .
0 250
0 290
0 179
0 872
0 105
0 143
0 159
0 134
0 133
0 158
0 694
0 148
0 255
0 299
0 109
0 630
0 639
0 300
0 230
0 248
0 890
0 277
0 198
0 899
0 188
0 604
0 648
0 388
0 292
0 696
0 349
0 406
0 228
0 758
0 208
0 636
0 672
0 608
0 348
0 688
0 261
0 241
0 055
0 401
0 366
0 378
0 831
0 999
0 308
0 446
0 443
0 772
0 751
1 253
1 101
1 876
1 191
1 872
1 194
1 175
1 178
1 254
1 405
1 255
1 192
1 266
2 173
2 252
2 108
2 107
2 111
2 693
2 67766
3 136
3 690
3 190
3 135
3 150
3 178
3 697
3 192
3 156
3 224
3 645
3 809
3 677
3 407
3 403
3 166
3 228
3 678
3 631
3 656
3 641
3 251
3 361
4 100
4 173
4 941
4 257
4 190
4 155
4 159
4 634
4 699
4 137
4 168
4 385
4 655
4 855
4 844
4 141
4 693
4 395
4 900
4 678
4 755
4 847
4 304
4 393
4 222
4 397
4 398
4 749
4 955
4 641
4 276
4 997
4 906
4 836
4 346
4 833
4 402
4 993
4 871
4 308
4 988
4 10520
5 256
5 101
5 283
5 271
5 130
5 257
5 190
5 150
5 145
5 275
5 193
5 400
5 195
5 153
5 634
5 695
5 230
5 894
5 149
5 855
5 899
5 295
5 141
5 237
5 278
5 900
5 605
5 672
5 216
5 354
5 226
5 368
5 376
5 948
5 741
5 892
5 997
5 231
5 896
5 343
5 671
5 306
5 776
5 773
5 481
5 35817
6 637
6 234
6 800
6 158
6 254
6 679
6 299
6 156
6 248
6 809
6 677
6 844
6 295
6 258
6 292
6 848
6 236
6 116
6 246
6 833
6 692
6 671
7 290
7 800
7 145
7 275
7 159
7 157
7 192
7 109
7 389
7 279
7 695
7 224
7 384
7 385
7 638
7 890
7 152
7 705
7 707
7 700
7 273
7 218
7 859
7 292
7 673
7 357
7 350
7 233
7 172
7 696
7 647
7 288
7 243
7 287
7 206
7 755
7 354
7 293
7 908
7 291
7 296
7 347
7 905
7 746
7 801
7 753
7 346
7 262
7 861
8 142
8 252
8 283
8 235
8 221
8 130
8 177
8 147
8 255
8 192
8 109
8 389
8 259
8 698
8 654
8 677
8 899
8 408
8 111
8 141
8 172
8 236
8 406
8 647
8 151
8 653
8 847
8 171
8 898
8 116
8 893
8 306
8 871
8 891
9 100
9 235
9 876
9 155
9 177
9 108
9 175
9 697
9 157
9 195
9 294
9 109
9 156
9 259
9 699
9 137
9 649
9 809
9 204
9 205
9 705
9 850
9 857
9 879
9 909
9 607
9 358
9 605
9 102
9 307
9 216
9 658
9 206
9 743
9 376
9 904
9 182
9 749
9 858
9 692
9 281
9 402
9 633
9 681
9 29320
A o
A te
A de
A pa
A pe
A ja
A it
A nche
A rico
A Le
A min
A pi
A FCF
A ECF
A ton
A tab
A tau
A loc
A ixa
A igua
B H
B I
B O
B R
B le
B re
B ona
B vo
B LE
B ret
B EDB
B FAA
B rat
B EDC
B ECE
B ECB
B FAC
B FEE
B FAE
B iel
B riz
B Oso
C R
C ame
C EDC
C ECE
C FAB
C FEF
C FBF
C FFF
C eno
C ill
C aud
C endea
C hew
D BAE
D EDD
D CDF
D ardo
D alt
D riza
D imas
D alinda
E f
E ce
E xt
E ng
E pu
E ros
E ve
E ran
E tor
E be
E mer
E nte
E ECB
E BAF
E cha
E mil
E Gr
E bre
E ze
E lis
E ncia
E chet
E jea
E cIA
F ti
F ca
F le
F as
F ona
F na
F ha
F Val
F ea
F ora
F FDF
F EBD
F EBB
F EDC
F Pin
F Torre
F ista
F ines
F urn
F flor
G E
G ur
G ue
G ard
G ela
G Lo
G ers
G ong
G esto
G isp
G enova
H ost
H as
H ad
H ada
H ote
H echo
I ke
I mar
I ago
I nte
I ves
I En
I ano
I ple
I TU
I MIENT
J adra
K an
K iara
K ents
K asu
K lindt
L y
L en
L id
L ig
L ow
L ago
L aro
L losa
M A
M ost
M ux
M il
M encia
M ba
M uela
M Pes
M unda
M aced
N A
N in
N ci
N aj
N ga
N ari
N Ci
N eli
N ise
N amente
N ES
N gO
N ARs
O p
O pa
O ss
O ra
O ia
O na
O ya
O cha
O vio
O rella
O breg
O lindo
O teros
O lof
O asis
P ros
P onti
P uras
P irro
P anama
P legad
Q T
R ti
R ma
R us
R DE
R ia
R ul
R An
R En
R Am
R IS
R ando
R elle
R adio
R usi
R aspe
R inga
R adillo
R enova
S U
S la
S id
S us
S mar
S era
S ara
S asp
S uela
S ili
S Ur
S Ti
S ordo
S yl
S cola
S tifica
S klar
S arras
T ag
T agar
T he
T ia
T ad
T ea
T rio
T rid
T roya
T raso
T emp
T eba
T ecla
U lar
U lea
U rios
U rigoiti
V O
V eri
V eo
V iesgo
V ErTI
X in
X avi
X iv
Y en
Y er
Y lla
Y un
Y ai
Y uray
Y emina
Z al
Z inc
Z ano
Z nar
Z elina
Z endea
a M
a log
a il
a cor
a ida
a To
a ka
a Us
a carre
a PA
b age
b ent
b ago
b ell
b eni
b ene
b isa
b has
b ueh
b ates
b rechar
c to
c si
c onti
c Ar
c par
c ABA
c eno
c sp
c ista
c una
c enti
c Ero
c rane
d O
d ist
d me
d ru
d ras
d rell
d onales
d enta
d Cli
d dard
e Ma
e va
e zo
e lia
e ki
e Si
e ju
e we
e vol
e mbar
e mba
e iner
e vich
e quiel
e iler
e amonn
f I
f l
f ok
f ist
f era
f bi
f ea
f ras
f rio
f uer
f lit
f ish
f uso
f uru
f rigola
g I
g R
g am
g us
g OL
g Ir
g acena
g mail
g harte
g acon
g ullecer
h s
h im
h ame
h ran
h osa
h abili
h aus
h iguera
h iem
h uster
i on
i zi
i ko
i pe
i ros
i cas
i ka
i ria
i lia
i Ri
i tel
i No
i Ni
i tec
i filia
i ficaci
j t
j al
j us
j yo
j eri
j iu
j uez
j aparos
k as
k ra
k vi
k und
k her
k hor
k ill
k ath
k land
k row
k agan
k acy
k ass
k nud
l T
l me
l un
l On
l une
m age
m pa
m pe
m id
m agar
m ora
m all
m tl
m On
n n
n de
n qu
n no
n ord
n ne
n AL
n QT
o M
o j
o y
o on
o lla
o mo
o cy
o tes
o vas
o may
o udi
o idor
o Cad
p app
p ist
p isti
p onti
p Si
p aga
p ace
p enot
q per
q Ui
r D
r ca
r enco
r ri
r ni
r ra
r bo
r aga
r ieta
r chu
r adio
r bol
r iesgo
r aguera
r canes
r gullecer
s html
s ux
s ba
s ara
s vo
s ling
s par
s qui
s lino
s aul
s wick
s isel
s pica
s ydney
t U
t lla
t aci
t agar
t aj
t so
t cho
t tica
t win
t Os
t cher
t andy
u o
u enco
u pa
u al
u es
u it
u ck
u ita
u esa
u tivo
u unko
v ag
v ons
v uel
v old
v En
v eta
v rou
v oka
v entera
w ag
w ri
w les
w inc
w hal
w his
w lings
x a
x s
x ies
y ent
y ta
y uri
y itan
y urch
y soo
y time
z go
z ba
z ora
z ames
z med
on yar
on uck
ti r
ti er
ti le
ti quer
ti ch
ti po
ti das
ti sin
ti nci
te ri
te ter
te ena
te ix
te ventura
te mpo
te leria
la v
la ing
la ur
la ri
la ni
la zo
la ck
la der
la mas
la val
la ine
la tal
la ila
la chan
la cht
la vana
la gt
en r
en for
en car
en cas
en ver
en To
en iz
en tin
en son
en dra
en dos
en bur
en cara
en cU
en calle
en hierro
en fuer
co i
co off
co use
co oney
co quim
li y
li to
li tar
li ll
li sh
li sen
li ston
li tro
li aria
li uc
ca o
ca ci
ca ia
ca nov
ca bi
ca dy
ca cl
ca rey
ca pura
ca brera
ca nio
ca RDE
ca coquim
os qu
os ha
os enda
os chamizo
os enr
in it
in na
in chi
in osa
in ves
in su
in nell
in mobi
in tosh
in sbur
ag i
ag ena
ag han
ag acete
ag rove
tion pro
ac ro
ac us
ac her
ce rv
ce der
ce celia
pt on
pt ra
nac hum
zi g
zi mo
er h
er co
er in
er da
er ch
er ka
er ris
er dem
er rac
er cini
er zba
de lo
de st
de th
de cha
de mp
de ano
de espa
de ek
de mol
de Sem
de ST
ec ie
ec ER
ec tivo
ec zko
ec iras
ap is
ap ad
ap az
ap ris
ap fel
ap iet
ap agado
lica sas
80 40
80 14
80 85
80 61
80 58
80 92
80 08
80 306
80 7535
80 3350
ng u
ng ent
ng uera
age dCli
ht ower
def e
def al
html docs
or A
or el
or nelas
or dadora
or chard
or linga
lo ok
lo bi
lo be
lo ws
lo tti
lo ui
lo we
lo mbri
lo boh
nc ie
da lia
da mente
da vis
da nger
da beh
da capa
da fines
da dang
le ar
le vi
le mar
le ll
le gs
le vas
le Ta
le gre
le till
le tina
le iman
ent at
pa te
pa quer
pa ul
pa bia
pa oli
pa ud
im A
im pla
im pu
im pro
im por
im ate
im osa
im pell
im inal
ser ra
ser man
ar gi
ar go
ar agu
ar jun
ar mida
ar oncillo
lla ce
lla mar
lla nguera
SI sal
cal me
cal villo
com ta
ing t
ing eber
ke mber
ke less
ke tan
ke dro
Mo ta
Mo gro
Mo hA
Mo lle
Mo cej
Mo NARs
Mo hame
ko ber
ko be
ko len
ko vic
ko etx
ko itia
Lin o
ecko ut
Ġ/ ~
qu eb
qu ell
ble que
quer ia
et O
et to
re e
re CE
re ad
re gu
re ms
re meck
re SPAL
25 17
25 83
25 98
25 92
25 191
25 193
25 139
25 551
25 1818
25 1905
25 94165
get It
is ca
is per
is ano
is upa
ci acion
ci pres
pu li
pu late
pu ran
pu bs
nt on
nt or
nt ua
bli cista
mb y
mb ro
mb il
mb ru
mb ago
mb alla
ro li
ro id
ro ba
ro ld
ro zal
ro gad
ro osenda
di ble
di al
di ri
di DO
di ol
di ta
di vie
di kh
di lec
di plan
di Lig
di voka
27 67
27 21
27 48
27 51
27 143
27 857
27 853
27 993
27 7330
rar radio
do x
do ti
do ble
do an
do mbros
do zo
do ms
do qui
do wer
do yle
do mbas
do err
do onyar
rec imiento
rec tifica
mo j
mo z
mo vie
mo dy
mo bas
ur ba
ur ne
ur rock
ur pila
40 63
40 65
40 70
40 84
40 68
40 12
40 57
40 72
40 81
40 04
40 96
40 92
40 03
40 108
40 654
40 330
40 627
40 476
40 2785
al er
al ber
al vo
al zo
al qui
al bach
al lix
al faro
al teen
al EGr
for tifica
10 25
10 65
10 62
10 88
10 82
10 61
10 32
10 191
10 135
10 660
10 162
10 368
10 373
10 893
pe i
pe dr
pe ers
pe lle
pe ake
pe pple
car men
car na
car ton
car val
car ring
car teo
car mine
car denas
car mody
no a
post a
log itec
an F
an ar
an as
an oria
an iel
an Te
an sel
an fran
an alles
ri ce
ri to
ri ta
ri cket
ri eros
ri tus
ri ture
ri calme
el ja
el rever
el paisaje
as o
as to
as trac
as bjorn
as liy
20 68
20 32
20 58
20 02
20 635
20 709
20 213
20 791
20 7950
ni V
ni di
ni zar
ni tin
ni col
mbre tes
63 14
63 44
63 31
63 66
63 73
63 57
63 32
63 92
63 610
63 447
63 301
63 6578
63 3239
63 9995
63 7329
63 7127
63 39495
registro any
registro AND
29 63
29 18
29 71
29 50
29 62
29 41
29 56
29 385
29 056
29 556
17 26
17 94
17 256
17 31
17 76
17 07
17 638
17 229
17 388
17 708
17 456
17 752
17 371
17 001
17 1700
17 5465
38 25
38 20
38 22
38 28
38 11
38 49
38 238
38 712
14 23
14 41
14 76
14 466
14 279
14 5729
ss l
ss et
ss es
ss uar
ros si
ros errac
22 23
22 24
22 16
22 32
22 674
22 210
22 373
22 497
22 896
22 80477
64 83
64 62
64 32
64 707
64 688
64 341
64 8995
65 38
65 70
65 86
65 77
65 62
65 42
65 02
65 834
65 705
65 648
65 643
65 454
65 9758
60 23
60 85
60 61
60 229
60 997
60 509
60 4044
60 2339
60 7370
60 20727
15 32
15 93
15 96
15 52
15 400
15 146
15 350
15 801
15 1380
15 4911
15 05484
19 15
19 18
19 12
19 265
19 390
19 895
19 905
19 392
19 552
19 7463
74 10
74 35
74 55
74 78
74 44
74 33
74 76
74 53
74 204
74 857
74 607
ma tion
ma no
ma fa
ma bu
ma ic
ma lina
ma ica
ma moto
ma nou
ma ture
39 26
39 16
39 41
39 32
39 58
39 52
39 03
39 148
39 255
39 315
39 509
39 1000
39 1818
39 8617
39 658514
69 15
69 78
69 42
69 634
69 330
69 4929
69 2084
28 25
28 35
28 94
28 82
28 41
28 97
28 191
28 660
28 400
28 620
28 654
28 677
28 609
28 691
il sa
il len
il oni
st ro
st ras
st aje
st rus
st RE
st urrock
to u
to ja
to mar
to wi
to bar
to pi
to mas
to vich
89 25
89 69
89 21
89 98
89 68
89 82
89 01
89 72
89 32
89 76
89 52
89 120
89 335
89 862
23 13
23 26
23 33
23 01
23 46
23 08
23 139
23 628
23 657
23 450
23 746
23 5774
23 1486
23 1022
Re ti
Re do
Re gu
Re ix
Re my
Re jas
Re eve
Re mig
Re mondo
Re denta
Re vuel
Re inosa
13 64
13 23
13 73
13 33
13 41
13 59
13 52
13 189
13 120
13 193
13 497
13 333
13 001
13 4089
13 3065
13 3947
70 20
70 89
70 45
70 35
70 86
70 26
70 36
70 71
70 48
70 101
70 43
70 108
70 309
70 3680
45 05
45 12
45 82
45 54
45 43
45 58
45 56
45 447
45 214
45 497
45 1045
85 14
85 23
85 30
85 50
85 61
85 57
85 76
85 07
85 03
85 989
85 294
85 239
85 655
85 605
85 1788
pass eig
lid ora
vin es
vin dex
tar co
tar tas
tar deespa
provin e
67 25
67 67
67 83
67 805
67 107
67 655
67 366
67 956
67 2795
ED N
ED ED
ED DD
ED EC
ED AA
ED CD
ED AD
ED BE
ED cola
ED gida
ED Simo
ED ritus
253 7
253 77
253 421
253 560
253 018
253 432
am u
am al
am ell
am mel
am ante
am EN
30 25
30 29
30 60
30 13
30 37
30 78
30 66
30 88
30 32
30 76
30 58
30 56
30 96
30 42
30 03
30 191
30 670
30 890
30 739
30 102
30 293
30 732
30 8883
30 7430
30 4439
11 22
11 39
11 23
11 83
11 157
11 609
11 2353
87 29
87 24
87 90
87 86
87 98
87 61
87 51
87 7213
87 6513
BA CD
BA AE
BA BF
entrar paros
24 80
24 31
24 12
24 330
24 317
24 609
24 206
24 293
24 276
24 272
24 8567
at r
at ta
CC BC
90 38
90 65
90 15
90 00
90 71
90 61
90 46
90 96
90 92
90 52
90 164
90 239
90 7028
90 9930
75 25
75 28
75 86
75 94
75 36
75 77
75 62
75 57
75 54
75 92
75 730
75 130
75 409
75 167
75 1797
DD FC
FA EC
FA DA
FA DE
FA go
FA dia
FA gica
35 26
35 73
35 47
35 82
35 93
35 52
35 453
35 6460
86 144
86 674
86 214
86 1115
EC BA
EC DD
EC EA
EC AA
84 15
84 24
84 26
84 37
84 36
84 71
84 100
84 33
84 47
84 43
84 42
84 189
84 245
84 603
84 8113
FC EC
FC enza
34 27
34 29
34 14
34 65
34 34
34 82
34 72
34 46
34 213
34 305
34 757
34 219
34 447
34 492
34 3823
34 7429
34 1650
26 17
26 19
26 62
26 88
26 240
26 839
EA AB
ch ina
ch ari
ch acr
ch andras
au g
au dy
au bella
au sten
94 40
94 64
94 65
94 87
94 84
94 31
94 62
94 88
94 955
94 4515
FD EE
FD EF
21 80
21 22
21 28
21 13
21 175
21 839
21 610
21 2939
21 3991
21 1043
95 38
95 15
95 85
95 84
95 83
95 78
95 71
95 33
95 43
95 92
95 1163
95 6594
95 19490
95 9513
ja d
ja dor
ja cob
gi tu
gi lia
gi cio
gi rou
gi erka
83 35
83 34
83 62
83 33
83 604
83 203
83 3337
ra co
ra li
ra in
ra de
ra id
ra va
ra hn
ra ngo
ra NCi
ra wlings
05 17
05 69
05 45
05 85
05 78
05 99
05 33
05 41
05 54
05 72
05 04
05 43
05 42
05 695
05 358
05 4095
05 1719
05 2038
05 5995
me da
me es
me ha
me uni
me lany
37 11
37 87
37 73
37 747
37 730
37 257
37 147
37 265
37 405
37 291
37 7123
37 3869
37 1188
256 244
256 1301
id ora
id osa
CA BA
CA FC
CA FF
CA Mi
BB ED
BB DE
BB BD
eb az
eb ieta
eb roso
36 21
36 101
36 265
36 139
36 674
36 658
36 688
36 1567
36 6340
18 38
18 24
18 35
18 88
18 110
18 290
18 127
18 699
18 604
18 701
18 1713
18 65623
16 63
16 64
16 19
16 74
16 16
16 283
16 160
16 639
16 855
16 707
16 708
16 2819
16 165780
55 27
55 74
55 13
55 86
55 05
55 36
55 31
55 48
55 12
55 32
55 303
55 2060
79 25
79 74
79 13
79 699
79 674
79 849
AA DD
AA EC
AA FD
AA EB
AA BB
AA FF
AA CF
AA AD
AA BF
cor te
cor issa
cor mack
CB BA
CB FC
CB EA
CD EC
CD EA
CD BB
CD Ne
FF EC
00 15
00 13
00 85
00 05
00 61
00 32
00 04
00 92
00 660
00 117
00 423
00 3499
00 1334
00 8214
00 19227
78 16
78 164
78 128
78 845
78 102
44 22
44 64
44 28
44 24
44 21
44 78
44 49
44 155
44 134
44 124
44 375
44 335
44 111
44 233
44 652
44 9561
wd on
edi a
edi k
us ada
us ka
us quivar
31 28
31 67
31 178
31 133
31 220
31 657
31 284
31 2300
31 2798
les as
les ter
les cu
les ponti
DB CC
DB EC
99 45
99 11
99 335
99 358
Ent rena
66 70
66 85
66 81
66 2044
71 17
71 39
71 67
71 803
ter r
ter ina
ter son
ter net
ter nal
98 10
98 17
98 14
98 39
98 69
98 16
98 4047
98 2911
EF lles
50 14
50 65
50 60
50 67
50 30
50 79
50 66
50 142
50 178
50 299
50 709
50 396
50 614
50 470
50 3831
50 2577
50 6740
77 29
77 14
77 65
77 84
77 34
77 79
77 66
77 33
77 941
77 903
77 351
77 7330
77 10200
cas ino
cas ini
48 20
48 74
48 45
48 84
48 34
48 252
48 690
48 150
sec k
DC DA
68 80
68 30
68 24
68 35
68 18
68 265
68 654
68 6544
12 14
12 64
12 45
12 253
12 387
12 200
12 2989
12 6772
73 38
73 74
73 24
73 26
73 18
73 263
73 6595
73 2993
73 3539
73 3423
73 67830
ner ty
100 8
270 1
49 80
49 95
49 177
49 120
49 148
49 610
49 333
49 6780
49 8005
49 6829
isti an
bal sa
bal san
bal winde
142 6033
encia no
62 17
62 19
62 630
62 1753
dis n
DE Ro
iss et
CE FD
33 65
33 60
33 26
33 32
33 746
33 402
33 6735
33 6712
DF EA
88 80
88 29
88 13
88 253
88 26
88 159
88 634
88 162
88 6480
ir al
ir ena
ir media
47 25
47 40
47 15
47 74
47 8994
82 10
82 20
82 65
82 45
82 6544
si er
si di
si va
si ka
si val
si eng
tas te
tas ajo
AD CC
AD eMa
BC ED
BC EF
09 89
09 45
09 36
09 143
09 193
09 220
09 274
09 125
09 258
09 292
09 219
vi u
vi on
vi te
vi li
vi vi
vi ve
vi vier
vi rola
vi roli
red host
red star
101 27
101 3839
BE FF
61 15
61 83
61 648
61 1374
61 8034
AC I
AC DD
AC EA
AC BB
AC FAF
AC oN
ali x
ali de
ali lla
ali smo
41 20
41 38
41 84
41 26
41 407
59 29
59 16
59 73
59 33
59 189
59 7987
59 3989
57 27
57 40
57 10
57 17
57 19
57 89
57 23
57 87
57 34
57 18
57 605
57 2403
AF FC
AE EB
BF FB
BF DD
01 65
01 26
01 105
01 109
go t
go z
go et
go pi
go bert
mar o
mar v
mar ca
mar cel
mar gra
mar quez
mar lee
mar tell
mar kland
mar asliy
54 25
54 40
54 29
54 85
54 37
54 71
54 73
54 844
54 909
173 2985
wi ge
wi boon
wi erzba
72 10
72 175
72 3823
72 2550
81 38
81 65
81 60
81 15
81 39
81 87
81 86
81 232
81 2115
81 1928
jo la
jo cel
Go mar
Go iz
Go mbr
Go lda
men a
men ciar
32 80
32 19
32 13
32 194
32 2018
32 80975
ff ery
97 15
97 66
97 71
97 168
ig h
ig mo
ig us
ig nie
ig eki
Ma j
Ma za
Ma dr
Ma ntua
Ma mbru
Ma irena
Ma igmo
04 80
04 14
04 22
04 69
04 35
04 252
04 600
04 708
04 1480
he un
he RB
he user
he ard
he lem
he leen
he pta
he drich
he lesponti
ve o
ve tia
ve Rd
ve miweb
ve leTa
250 8
250 792
250 8885
250 7549
250 3716
Cal les
Cal dero
76 40
76 64
76 26
76 21
76 18
76 16
76 646408
Co ir
Co zar
Co var
Co dos
Co bos
Co loma
Co muni
Co tillas
Co Mba
Co marca
91 389
91 385
91 2124
por ts
Con stan
43 22
43 69
43 13
43 67
43 16
43 144
43 658
43 2418
br an
br aci
br ue
br anda
br aman
br ass
br uian
46 15
46 70
46 11
46 18
46 230
46 4054
46 1845
58 40
58 29
58 35
58 649
58 241
58 7495
58 80374
58 80986
93 20
93 38
93 15
93 34
53 25
53 63
53 38
53 74
53 69
53 28
53 26
53 18
56 80
56 63
56 29
56 21
56 18
56 607
Confirmar sessionid
96 29
96 2574
96 1909
96 8037
96 2445
off rey
cri ch
07 27
07 87
07 34
07 31
07 190
07 634
07 6985
07 6834
51 14
51 22
51 28
51 83
51 407
51 2851
51 8376
42 38
42 150
42 2511
42 8049
ate a
Fi erra
92 13
it anes
ino v
52 10
52 15
52 69
52 13
52 809
52 656
52 1512
08 80
08 20
08 38
08 15
08 39
08 69
08 23
08 250
08 254
08 278
08 6440
08 20484
Qu e
Qu art
Qu antity
03 27
03 10
06 16
06 850
06 658
Rio pis
Rio mao
ep eczko
onti er
CI di
CI cEro
De li
De ver
De lei
De portes
De ifilia
wel ham
za ina
za har
za Dor
za ide
bm an
ul enta
ul lol
Rioja any
02 40
02 639
ad ros
ad ze
ert magnet
ert urba
nov o
DO R
um osa
ab du
ab des
ab arra
ab uru
ab bye
ab acus
ab strus
ol li
ol lw
ol mees
989 5
989 8
989 53
989 128
Al ert
Al con
Al jara
Al quin
Al pon
Al hambra
Al enda
Al garro
Al queria
360 0
360 6
360 7118
Par ramon
Sa x
Sa fo
Sa uri
Sa eli
Sa vio
Sa lesas
2529 390
du al
du ino
du dge
du arte
du buco
du four
du lier
Ib ero
wa her
wa llace
rico paros
un eda
un ategui
un oki
hi ko
hi an
hi ptra
SC O
ta zo
ta hani
ey ewe
zar ello
zar ray
va is
va llar
ver n
ver ie
ver man
ver bo
ver tes
ver ry
ver nes
ver izador
ba zi
ba yo
ba llar
ba lado
ba tible
man ente
del f
del ub
sa le
sa vo
sa ye
sa mbo
sa huma
sa bry
sa iko
sa insbur
110 2
110 4
110 8
bo te
bo ton
bo uda
bo inn
bo ggs
bo orman
La vanda
La higuera
tu cur
any vio
ue x
ue cos
Vi go
Vi van
Vi ata
Vi anella
na tar
na ith
na zimo
na ncie
og lu
387 607
Ar Z
Ar c
Ar ona
Ar chi
Ar ras
Ar bon
Ar jon
Ar amis
Ar raya
Ar tells
Ar rozal
747 192
service s
ne lla
ne vin
ne au
ne zm
ne lia
ne vada
ga to
ga zo
ga ye
ga ynes
ga decer
ha no
ha worth
ha STi
ran d
ran ca
ran bir
ran dom
cre ach
2528 9
Val or
Val ga
Val lu
Val cu
Val corba
ru do
ru ben
ls on
637 2444
637 1320
so tr
so od
so ten
so uc
San asp
San feli
San rom
San marti
era nto
6363 7869
titu torio
Gu adix
Gu imera
Gu isset
6005 345
lu co
lu ten
lu elle
bi b
res titutorio
690 848
gu y
gu illo
gu sta
290 71
290 49
290 68654
ex amEN
Mar s
Mar co
Mar gar
Mar ges
Mar ias
Mar iu
Mar mol
Mar roig
Mar oto
Mar capura
Cas ia
Cas torio
Cas sandra
Bar bar
Car ca
Car mi
Car ret
Car eli
Car riz
Car ds
Car dona
Car pio
Car cedo
Car rab
730 1
730 52924
ora y
235 655
235 6887
fa nac
fa ng
fa llah
fa bris
Ju vent
Ju das
Ju bri
ed lin
ed ine
ed wige
fi de
fi as
234 70
234 398617
Cu re
Cu bla
Cu arte
Cu adra
Cu idad
Cu adros
Ro za
Ro bin
Ro dr
Ro breg
Ro oney
Ro lando
Ro tlla
Ro virola
486 1
ho z
ho do
ho bin
ho ven
ho lis
221 3817
Ca yar
Ca ball
Ca moe
Ca licasas
se u
se co
se el
se gar
se mas
se eck
se agrove
Ba qu
Ba za
Ba dell
Ba jada
Ba eza
Ba lagon
Pa o
Pa va
Pa tio
Pa isano
Pa CAMi
Le j
Le da
Le ide
Le zama
Le aburu
ara nga
Se co
Se lla
Se ver
Se llares
ina hil
ero tic
Cor t
Cor al
Cor va
Cor po
Cor cubi
Cor cega
tor rin
tor gov
ber nt
ber ky
ber enice
Na vez
Na vines
uel l
cr ist
cr tp
cr iminal
lan n
lan ey
466 1
466 13
mi co
mi le
mi ric
mi llan
mi hran
mi tir
130 66
130 6397
130 18179
Es cal
Es pan
Es col
Es cala
dri ck
be lo
be jar
be lik
be vens
be asley
Ag ata
Ag rip
ge o
ge li
ge ces
ge deon
ge offrey
th uy
th albach
ente mente
vo a
257 1623
Mon ells
Mon serrat
Mon llor
Mon erris
Mon calvillo
las maj
las chinas
var te
var ie
var at
var hel
var ennes
Bur jas
Villa ca
Villa mayor
Villa vega
Villa hoz
ya le
170 80
170 299
170 14566
170 74607
170 30732
gos tera
834 6
834 9
834 839
834 484
user Pro
bar es
bar dy
bar ham
bar cafe
bar wick
To tal
To cracia
per rera
per kins
per epeczko
per manente
191 40
191 60
Tor n
Tor la
Tor no
Tor ref
Tor ell
bob bette
all win
179 15
263 8
263 9
263 60
263 66193
po p
po dro
po pulate
po tovich
ena ventura
min ders
pos it
155 27
155 00
155 998
155 75409
des p
des ca
des pag
des potovich
Pl AnTe
165 1
165 7
165 8
165 40072
cu at
cu ccio
cu mby
cu belik
Sala verry
185 0
185 3
185 6
185 4446
6575 478
135 2474
mer idi
105 88
194 20
194 16
194 7450
Del valle
tr y
tr uex
177 70
177 296
177 1682
154 1713
Pal me
Pal mit
150 4583
150 4888
lor y
lor in
lor ray
2564 317
2564 560
2564 518
2567 2280477
108 80
108 19
108 30
108 12
108 107
108 13018179
174 1584
145 45
145 39717
189 4
189 7
189 5469
189 2046
129 2
129 6
129 9
129 07
129 499
129 235774
129 848113
143 6789
240 0
240 126772
ste tt
ste ene
ste fanac
Bo la
Bo lo
Bo Ce
Bo ado
Bo hig
178 60
chi ca
409 86144
144 64
164 5
Guada lete
Guada ssuar
Ex iga
Ex equiel
sv cacl
275 851788
der linn
der osenr
660 317
660 20343
Zar ate
Zar ruf
AR gOL
103 148
103 30252
via to
ka ida
163 40
163 278
163 4165
Ter zano
Ter rin
Pu jol
Pu bill
Pu blicista
Pu geo
alla do
ret ar
264 95
264 49
264 3686
697 395
697 797
285 22
285 90
285 12
134 29
134 84819
134 37747
197 602339
133 65185
133 74857
265 3
265 4
265 7
265 60
265 85
265 95
265 745
265 534
265 6734
400 17074607
158 80
158 1594
158 64337
mu t
mu tab
mu ssen
mu kher
mu letill
227 3
227 92
227 480
227 84974
245 2355
245 0581
620 0
620 449561
650 848
ria to
220 9
220 025
220 4165
220 739326
805 70128
405 94
405 7535
Ra quer
Ra yo
Ra ven
Ra if
Ra mader
157 4027
148 385
167 3
167 10
167 60
167 305
167 535
167 824
con da
con iz
con stant
195 8366
195 27853
Lu zaide
180 1
180 7
180 49190
107 146
Cam aro
Cam pas
Cam aces
Cam orlinga
Ri co
Ri ley
Ri one
Ri zzi
Ri vier
Ri gola
Ri onan
pi lla
pi ri
127 7
127 9
127 73567
124 7
124 94
255 6815
255 95036
139 5
139 6556
153 4069
cH op
146 26
685 2
685 99587
Po ca
Po zal
Po mares
870 8
870 20993
870 68381
679 95
679 61648
374 28
374 68
299 866
390 74
390 65739
Ch al
Ch era
Ch api
Ch rist
Ch inchi
Ch isper
Ci latal
Ci raco
294 456559
128 6
128 8
128 1089
128 5539
128 4694
109 7438
Hu en
Hu illi
Hu arte
389 11
389 87
389 6576
375 2888
665 6
665 3520
665 18253
630 0588
Av il
634 289
634 703680
695 86
695 12387
670 0
670 149
El bar
845 845
156 2579
839 580
839 1447
839 5637
835 1
835 2
835 8
835 152
BEA D
224 8987
224 2772
sch all
sch yn
sch lem
sch warzen
sch lacht
sch loboh
sch ollw
sch naith
her r
her as
her nan
her nz
her rero
ard iello
699 1881
244 38
244 68
244 748
244 34834
106 17
106 13
106 16
200 135
200 87599
200 62630
ly liston
384 7934
300 6595
300 4492
239 2
239 729
239 6588
239 1624
239 129499
137 3948
Ad ra
Ad iel
Ad onay
Ad dress
230 204
168 402785
ns en
894 248
Pi cos
Pi cA
649 67
Or A
Or gan
Or enda
Or ISmo
644 7327
875 843
248 83
248 134089
184 64
184 18
744 3590
890 809
183 30
183 27577
183 163278
335 60
277 39
249 15
249 21
249 68892
bu tch
bu cci
bu tcher
bu llanguera
635 40
229 1
229 2
645 0000
645 133065
809 69
654 261
654 3030
655 3439
655 10037
344 19
344 77
260 6383
330 4
330 9
330 35723
EEA D
355 3885
760 3
760 97
739 7
739 825
855 29
855 950
Ub ach
337 83
337 104
337 399
745 733423
Ber lin
Ber ling
Ber gas
Ber enice
677 17
677 299866
sh onuck
sh igeki
169 29821
kr ist
ach ine
407 2181
205 71
205 844
268 3824
268 177296
188 16
Ja en
Ja imes
Ja maica
628 2081
628 3877
int apis
807 3640
408 868
408 17315
ECC D
cio enla
600 20
117 87764
674 2
674 6
795 40644
mc cle
mc nau
mc nall
mc carron
mc gee
mc cormack
295 32
125 80
125 125
459 3991
459 77941
404 21
ib l
604 65875
828 2
828 9412
FDD C
FDD E
So br
ts un
ts agan
707 743
707 1003
707 79699
700 47
700 29556
315 10
315 00
315 64707
627 95
627 76
627 751797
095 2
095 00
095 72
095 58
095 248134089
hu an
hu ata
hu ai
hu gh
hu idera
317 99
317 54
317 233
610 39253
610 61158
187 20571
680 93
657 377
121 23
505 80
505 84
505 21
505 00
505 46
505 677299866
DCA F
445 4
445 64
445 97
445 92
609 7987
609 6616
237 70
237 634289
328 9
328 85
689 44119
298 8316
298 833337
An A
377 67
377 2824
ling eni
ling hetti
ling otes
278 1714
278 27518
218 16
ACA E
455 10
859 24
Per ramon
hor moz
659 876
Eu dos
Eu doro
Eu timio
207 639995
207 1436789
357 71
ADD F
En zo
En Te
En quie
En amor
En MoNARs
En raNCi
289 80
2500 1
2500 82
2500 3339
138 2
gar c
gar et
gar es
ili na
233 3875
Fu b
Fu sta
Fu lada
113 2945
tin arse
Gran ate
Gran ados
mon ie
mon esca
166 11
166 1352474
119 393
119 87020993
ABB B
909 35
let ha
let some
Do tras
Do mene
607 2080
115 1
ic inio
ras mussen
Bak ero
AEA D
223 208
349 15
395 77
395 47
759 62
759 6729
759 11188
837 2339
228 634
358 63301
358 108107
Fa in
Fa ja
647 27
288 83
288 6040
BDD E
605 242067
605 253421
895 1724
450 40414
450 84907
unt amiento
454 15076
454 22834
678 228634
307 356460
illo p
Ay j
Ay untamiento
208 642
Caste l
Caste lao
Caste lazo
094 4
094 60
094 41
094 754
280 10640
Bu era
Bu jan
Bu jer
Bu carelli
Bu ttica
Bu enaventura
rer ris
636 89470
238 2
238 1335
238 2356887
Nv Il
Tarr aubella
em B
em achine
su ardis
su ngla
su dabeh
su leiman
su braman
fer nan
fer linghetti
gen eral
gen tile
206 29
755 70
755 68
755 33
210 7485
854 341650
van at
354 75568
954 2215
954 90239
Li dia
Li gia
Li bano
Li huel
Li quida
054 27
054 22497
368 254
gr is
gr iem
458 83604
458 298833337
Gar ro
Gar doqui
Yo hana
Yo dalia
Yo conda
Juan ita
Juan ito
BCD E
847 8475
348 107146
688 7475
ven I
ven de
171 14
304 307430
je anes
808 18838
748 19294
757 87
757 3620
757 75962
085 18
085 01
avi lez
203 64510
Alb eniz
Ru th
Ru ise
Ur iel
Ur mente
Ur quiz
595 69586
ADB D
373 14
373 67
246 14539717
383 67717
948 63540
eri ro
eri ks
dir k
dir ac
779 6
779 87215
779 83575
set t
Can iza
Can seco
par d
544 3
544 6
544 63
544 89862
Jos ua
379 17438
az co
az kara
joz ef
Fer spica
493 707
267 3113
Mor cos
Mor eno
Mor eda
Mor elos
No da
No lla
No vas
No iran
No voa
ju i
ju an
ju ma
ju lien
950 89
749 6940
ACD C
2578 70
327 6
327 30
327 88
cha ar
cha ya
cha nge
cha ntra
cha isupa
055 14
055 30
846 2242772
CFD E
788 112353
Da vel
Da ille
Da ym
Da waher
han ia
han neke
agu in
746 1568
214 50
214 61
703 29189
villa fane
064 10
064 11
064 25800
485 08
Pe joan
pol da
pol yn
cic chino
186 15
Lo pe
Lo bios
Man s
Man au
Man que
Man tero
Man etti
Man agedCli
mA niV
Cant allops
Mi kha
ador nato
500 1
500 88
Ped ercini
509 32385
777 20635
370 2071436789
370 35771
087 86
087 36
ry erson
652 699
896 84603
Zb ignie
ban nen
mor ton
mor rie
ton ie
798 2161
507 275851788
494 10
eu re
eu ysoo
306 63985
cho minders
gs pace
gra nge
gra ef
gra inger
gra tisin
Cab anes
Her rero
Her enia
Her edia
090 8077
885 2
885 97573
fr eno
fr ench
651 101
651 148385
Pin e
Pin et
Pin elo
lon d
lon gitu
cos l
059 4537
059 17539
Cast roserrac
In cas
In osA
Su ar
Su dan
den na
den cio
den ny
den oon
sen dme
793 186518
712 17083
Torre campo
Torre manzan
Torre hermosa
995 8
Br isa
Br uselles
char o
char no
char ney
947 31
Oj elja
len go
len cio
len don
len nard
687 6528
444 11
444 21
444 77784
sk illen
Ga v
Ga DERo
Las heras
353 14545
037 73
423 28
495 69700
ger son
ger hart
op her
vas co
613 17153
Cer de
Cer rillo
Cer ezo
val ente
val let
Vila maj
Vila malla
Vila geli
027 1947450
434 1
434 20
614 2248987
Castell vell
Ser vio
can natar
333 10
080 2143
322 30670
322 265534
415 00
Er O
Er lan
Er rigoiti
Er raz
ano fe
dy ne
sal da
che varie
785 2
785 1998
785 2557
Be menciar
437 1
437 40
437 70
985 1
985 3640
985 1892046
985 31799
706 8640
780 13066
Sal pa
pr isto
pr imate
acion es
jan ey
pin toja
dio la
060 01
dar n
dar ling
dar bee
dar rubias
488 1993
038 13
Im perio
Ta tiano
Ta vernes
Ta PaCAMi
ico las
023 16
490 6066
580 18464
Jo vent
Jo cs
Por ri
Por tella
Por flit
Est I
Est abl
Est aragu
Est rems
dr au
428 646
428 832384
475 20
435 1
435 95909
764 10524
915 6094
Mer ino
Mer inas
527 212939
775 50396
775 2606383
dan iss
dan zig
421 13
421 26
421 81
927 05279
927 27720
ix eiro
994 699180
Ant on
Ant ol
Ant ares
Mas san
Mas devall
Mas arac
Mas cort
Fe de
056 19
020 408868
014 70
057 74765
045 69
365 43
365 04708
484 75570
467 15
540 428049
523 16705
Gi orgi
508 24
508 250082
990 68389
af ons
af RAn
af ectivo
010 39
010 6099
439 41
767 3189
767 2564317
sto ddard
424 73286
563 85605
549 80570128
Du lio
468 22
514 197602339
013 3515
084 75533
817 4057535
vel u
ill ero
ill ena
820 1185
cer ts
524 85
524 3010
524 65984
735 00117
Ab ell
Ab inahil
429 001334
470 6372444
618 2221
784 6969
874 30264
934 3823
Agu ila
Agu amarina
Agu llana
Agu delo
Ce ce
Ce jas
Ce Sar
Ce ledon
sp rerris
ima yr
982 25377
982 1732985
422 14
577 1094
Am posta
Am usquivar
Am unategui
Ale jo
Ale ardo
Ti erra
Ti rado
Ti viroli
079 29654
684 1107
For Free
Ros io
Ros ello
my ong
028 64580
974 28883
979 2
Bas tian
Bas tidas
Bas comta
sy e
yn dikh
dal ya
319 14466
fre emachine
fre ixeiro
fre yndikh
mos qui
089 1865623
965 80643
965 17735
919 76235
Bor i
Bor r
Bor da
Mu nici
Mu hammad
jar on
mac gowan
mac nicol
473 60
938 88634
ala da
ala ri
ala mbr
050 68
714 62003
774 89593
889 8020
813 7119
772 17080
325 94955
vent r
est ats
Vir gilia
bas comb
far maceu
lt za
510 17388
510 98953
510 95089
589 90935
bert ran
039 95650
369 40
369 60
369 5729
amar ca
479 2
479 13001
902 14964
460 79208
ardo in
Jose fa
082 63
Te jo
Te jera
Te Stifica
api tela
Fuente spina
Fuente lisen
Di posit
Tr ieta
Tr init
Tr agacete
Tr ullol
bra verman
922 839
Bal duino
bon di
bon ardo
bon anza
bon tempo
das arian
024 61
710 65
Flor s
Flor io
Flor entin
ku i
ku mar
ku zu
ku mamoto
vig ran
976 10819
tal bot
332 256244
427 6436
Gr ino
Gr ams
Me geces
Pr uneda
zu llar
zu rei
070 48
088 40
411 855950
519 20905
jos e
ola rova
war ow
war beck
Mont an
936 85529
om es
oli ver
418 70
590 04252
fan io
tab by
864 691
886 8360
886 23470
Bon as
Don nad
ud ie
425 19552
477 2503716
736 11157
jas l
ron oro
win nie
win sberg
win ters
col ona
col line
col OrISmo
eck stein
eck hardt
soy vasco
Monte ros
cur ro
wen ham
llar s
416 8827
621 40654
916 24095
gal legon
ham issi
sl under
ye zi
313 53
Ala va
Ala dino
Men chen
mbra da
030 28605
977 686544
gre y
hiper navar
mann hardt
086 19
311 80
321 2381335
ay se
bri dge
bri tts
bus ytime
isa ac
isa mo
Cala fell
hy ke
hy ong
hy att
adc test
426 20
Bi A
Bi anca
Nu da
Nu ncia
Nu ncio
Oli vet
bel cher
bel rango
gn ault
mat tera
532 69
mira noa
026 29071
586 223208
Ang l
bur u
bur ch
bur kley
bur dette
mes ITa
mes kill
mes sier
sho pe
Puerto ming
Ponte ceso
573 63582
683 12371
ming s
Au b
Au p
Au berto
Au capi
gon zaga
iis admin
iis docs
nat aniel
ple it
tan sey
tan imoto
Pala dell
Ne guer
Ne leo
Ne hem
cla ros
cla na
cla udio
cla yton
cla rita
049 79674
471 20
937 707450
937 21450
ant agalla
pc marbella
Fon zal
Fon fria
dre ese
tv up
ze w
ze wska
xi caci
ray na
Cap arr
Cap itanes
Cap afons
Ol mo
Ol za
hol ler
hol zer
hol lings
ren da
ren aldo
Gal lo
Gal ta
Gal deano
Llo mpart
Llo veta
Mig uez
dro p
vis aci
vis vanat
auto into
auto mation
461 14
bla d
san ies
san martin
Feli ciano
062 6053
Ver acruz
Ver bena
tti e
541 8660
Cla vel
Cla cer
Lla Zo
Lla cuna
Lla gostera
Ni ceto
On ce
On Co
On dara
ben ny
ben ning
tec IMIENT
582 3821
Zu la
wil mot
eng hi
eng lish
eng ordadora
jer hua
tre man
tre acher
guer rasio
berg strom
Hi er
Hi erro
Hi pabia
Hi podro
ten ha
Gra zi
Os mar
Os orio
lle go
uni qper
oni ch
lom mari
cher rill
Sp ecie
Sil veria
fran ce
sha fer
sha mballa
ure cal
kel z
exp loy
exp ertmagnet
436 2098
Plan et
mul g
mul ler
vil le
may i
Blan ques
Gen era
Gen ara
Gor tari
Pro fes
Pro xies
cro zier
kar apiet
sin dica
wo o
Bla ur
Ir ene
ati a
iana to
Barri l
lec riture
mag adan
till man
iti z
Lor es
Lor ente
cin ea
cin dible
yen meng
Pad ura
Pad renda
Res uela
sc lommari
Puig fred
Puig terra
Medi a
Medi co
Mir amar
As canio
Ger ona
Gali a
Gali lea
Mora dell
Za nuy
ise asy
Com pany
Dan er
Dan is
bau sana
mir ren
Alber e
Alber ca
Alber guer
gran d
of erta
of cpar
Ali sal
bir d
pres cindible
laz zaro
dun kus
Cha lam
nar in
nar ski
nar cis
ney s
mad len
mad dox
bru ck
Este ve
Este fan
eh ab
eh lers
vu esa
Nog uera
ech nie
lei bman
Fun osa
Hel da
Hel vetia
oh io
nch eckout
Eli do
Eli berto
din almente
kim ble
sar ge
nom is
nom ura
2420 4925
audi tar
Cur va
Cur ull
Mal va
Mal mus
Nar varte
cle ary
has sen
has serman
ji lann
deh off
Ama R
Ama zarray
Ara dor
ram narin
sn arr
poli tiquer
viajes dacapa
Riu doms
Min erva
Pan tiga
Pan Oso
hos teria
white d
Cin aras
EN fE
He ura
He lidora
gad sdon
ken dell
2735 3775
Reg ente
Reg inaldo
Bra camonte
teo doro
2545 57605
4538 9728
4538 8096
gold ner
gold oni
Alba late
Alba lat
Vilar rasa
Fab ia
Fab ila
mis ion
pen ning
vir k
vir ulenta
vol mut
yan n
yan sun
stor ed
stor elli
chin h
7119 53155
Marti herrero
Esp eranto
Espa sa
Espa dilla
Blas co
Gin el
Gin ebre
Ven drell
blo ch
blo om
fau sto
gil ly
hil ler
sca les
shi bo
shi rant
shi rai
wat kin
wat chorn
tech data
7080 6659
chet an
Nav ajas
Nav alilla
Merca li
Merca dal
Sen darrubias
Serra cant
bor ricalme
bor gato
hir co
hig htower
mit sui
sas try
8069 057
low ry
lem ontier
2744 2450581
ash vili
3845 851590
Arte che
Rafa ela
Bus ot
Je anne
ek blad
fal cao
fal lows
ide alismo
nal c
rena to
rena vent
sam ente
pat tin
8994 7780
Aldea vieja
Bri ce
Ed Or
Ed urne
Nor berta
Nor celo
Tur u
Tur ra
ght on
ani bar
6490 109
1164 16
iga wa
som agel
som chart
Mel ero
Pra dera
Wal d
Xo an
fla gg
fla gicio
fra il
ski pp
von derlinn
ander sson
1374 7340
way towi
Luci dio
Em pa
Hon toria
Jal encas
tig InosA
inn on
2554 15195
Arg umosa
Alex is
video erotic
Ori llamar
Zo yas
Zor ella
hin kle
jes u
jes sye
jes shope
pet al
2685 08
2685 2714
Esco bar
Az ul
Az koitia
Az nalc
Tu bal
die k
die ssl
gri ff
gri ffet
ket App
moto tsun
1360 5020
1360 87068381
sant acro
billa do
Mat ons
Pol ler
Pol endos
ama nt
gor berg
mr kvi
dec usada
roo y
3970 052
6799 81232
8464 7519
lyn n
lyn nette
Mayor ga
Amar u
Amar gacena
Cue va
Figuer as
Figuer edo
Mit re
Pen ed
Vie jo
breg lec
fit ch
hid rost
jy i
the ge
2539 231486
2060 84308
6099 37890
8735 25
7730 20553
Mala h
Mala ver
Qui rico
Qui huata
mucho chino
CO p
Farr aces
Oc entejo
gun n
gun ner
iza ak
lr crich
lr crtp
mur ray
mur chu
mck innell
mck illop
mck echnie
mck innon
elec tric
6074 9713
6074 45883604
program aciones
1340 407
1340 3604
7817 4036
7213 0723
hama ca
kawa zu
Cabez on
Clo p
Clo quell
Fla viano
Iq bal
Med rano
Neg rilla
Neg rete
Pet rer
Rec uenco
anu rag
rin et
tau be
2957 3614
6510 2779
6510 29120
6555 29
6969 6167
8960 512851
3550 7822
welcome doc
Montes claros
Big nes
Bol lit
Cos me
Cre mat
Ner vion
Pre sa
Pre ssel
gin sberg
jen gib
2758 27329
1034 748
2965 845845
2989 2124
1790 55303
3866 167824
6517 2656734
1924 7264
maj d
3990 6946
star kes
star key
8900 09092
3129 3475
6815 79660
5960 8339
5715 4114
scha fer
scha ffel
brook sba
Edu ard
Gab ina
Gab iria
Rab an
eco ffery
feli city
rO Znar
2996 1563
6096 2318
1928 86674
2880 9888
2353 2443
8799 7565
7124 7717
Marce la
much ow
grim pe
grim aud
Dur ante
Dur uelo
Dal ga
Milla res
Tri ll
ade str
ade bayo
bab bage
eS OT
zen el
calla m
caro lina
caro lien
comer cioenla
6004 22398
6004 155998
1574 4863
8516 659876
tari fa
8375 962445
8375 3847934
7728 4339
wick ham
9365 8215
Alc ina
Guar diol
Barber ans
Baix aul
Huer tas
Indu stria
Esteban e
Catalan es
Ac RI
Ili dad
Jor di
Larra ona
Larra koetx
Sha kira
Vid rieros
nos seck
rE batible
2020 406
1960 7065
6919 8356
2885 84828
8680 7165
7610 8310
9265 2474
Fuen terra
Fuen salda
Joa v
cursos dele
inventos caseros
4253 6339
Edel vais
Var carcel
bag dasarian
bag ashvili
fru tillero
gru eng
kat ja
kat zenel
mona co
pag i
sun dar
inst RuIDor
rob ena
rob bert
nic colo
1567 993
malla lieu
2342 3909
Reza bal
7054 61
3085 36
1124 10368
7513 6960
8640 086440
auth or
2124 793186518
7884 6189
4714 73263
Pare jo
Pare des
Roman a
Montor n
chih hua
Olme do
Olme dillo
hispa nica
Aro mo
Cros as
Cres p
Cela yes
Hen kel
Iz urr
Iz naga
Tamar go
rag lin
wer f
lah bib
8044 9925
8044 294456559
8007 611374
pul verizador
2745 697395
2937 2836
1704 8909
6007 301
1307 4085
7068 24434834
7599 6092
8685 2947
1661 67995
terry e
terry l
Almen ara
bou zas
Legu isamo
Sem Iple
Campa m
Campa ner
Peral onso
danie lson
Bul maro
Fonti oso
Gil berto
Ha mbre
Ha yd
Lim ia
Tre ig
Tran winc
mun az
ench ina
arco uet
aly osha
1901 6986
3974 5783
8954 9551
1338 26812
1338 25595036
4514 30102
6825 962574
3324 6447327
joan nidi
Alman do
Alman zora
hiro yuki
hay lock
Dios dado
Noguer ol
4194 4516
Fal conera
Pis ue
Vin uesa
gla hn
kil u
kil lorin
ole oschamizo
rI GaDERo
sor kin
wy lie
wing rove
pug he
4026 1854446
2905 4610
3881 13
2289 10330252
tarra bia
3599 3227
8320 1516
3784 42
ffer ty
bous fiel
Pola cas
jean loui
mori coni
farma oferta
Bis caia
Esta des
Mie Nto
Plu mbago
Plu tarco
Sau li
Sau ces
Shar om
Van ega
trar ilo
zA Nga
4082 29054610
2960 14464
6014 129235774
7475 3364
8941 17628
2329 40986144
7075 896
4580 70779699
9490 65368
9495 04
6125 129848113
9180 2907
zaragoza floral
new cosl
Palo mar
Ripol l
Ripol let
showcars madrid
Pescador es
2637 70309
4300 8564
Chi ri
Lar is
Pela yos
Sas serra
cOR nI
hur witz
mig ue
rd Ular
indi v
design world
8093 11234
8093 15400
quillo trar
2757 283
alba lak
6385 29038
6311 2556815
1511 20364510
1502 2095
8975 5665
1350 21483
1113 0412
2189 8288
6863 46
1269 0729
9728 949065368
Maz zarello
Agus tina
Boli art
Boix adra
Ricar t
15613 671
gonza do
8270 9891
Abi tera
Abe juela
Abe zames
Igu alada
Jun co
Jun yent
Monti lla
Ola vide
Terra nova
bad land
bart z
clar ke
hes ton
hes sling
sco ttie
cap illero
cass ini
8030 2594165
dig by
dig ges
nich etti
iola nthe
3937 60997
4504 10564
6789 85239
6736 8321
6733 2763
EDne a
3229 8784
hem mings
veh Eme
brun ner
5185 99358
pola ni
48940 261
nett le
Gian franco
Ildef ons
Borras s
Http Proxies
Fuerte ventura
9690 65102779
Amer icas
It ter
Ker ber
Ker cooff
Sig rid
Tem bleque
Ull demol
beck ley
eus kal
fro dita
melli sh
sla by
lib res
zia ko
8032 20087599
1020 7822
6397 68093
2997 3823
1906 133947
1375 8311
4587 587495
FCe dad
9424 894248
9865 227480
7735 7670
7315 75136960
Matar rosa
7684 4031
4327 179
0883 1534069
bour dette
Arist arco
Garri gues
brad ford
Florida blanca
cumming s
coaching evol
8173 36139
9458 4030
Aless andro
Lon Ga
Lon gares
Llar den
Paj aroncillo
Trans portes
blog er
cim ino
dac gnault
jea vons
jarr ett
kal warow
kno wles
kno bloch
mue vemiweb
psy chominders
uch ida
wol heim
cath al
cath leen
orr achada
str impell
stad bauer
8532 4073
8449 366340
3686 8779
4461 89947780
3114 834484
6860 803220087599
0974 118
9280 136087068381
Sanc ti
Sanc ho
tamb or
tamb uri
bow les
expo zaragozafloral
Torro ella
Torra des
2633 45422834
Sole ia
super cover
yuki hiko
51755 989128
Saba ter
0909 2887
4102 151120364510
5118 232940986144
Abo itiz
Edi lio
Mex uar
Num ero
Pru dencia
Tro coniz
aL zaDor
ajo te
cros by
spin dola
cali braci
acti vos
pay son
25185 288584828
cir cun
cir ulli
alter men
6319 4503
6563 2521
3924 3664
3966 2886040
3949 2507549
tour et
13641 268177296
7982 15575409
Godo jos
4375 1597
Alti rri
Guil len
Bay liss
Cordo villa
kay ser
2645 493707
Piquer as
Ferrer ies
Salv ora
afranc s
3188 1769
Ko munit
Ko olmees
PEr VErTI
PEr diDO
Pacheco te
Rida o
Un za
Vena ncia
VoR tigInosA
Xar lengo
fen ell
kan Tia
rto las
liti GaR
dau tenha
kemp f
kemp son
2927 90214964
65875 3936
1958 85989
13776 143
7021 2042
8611 19607065
chap dela
71294 3739
gola bek
ight on
Mang ela
vein ten
vein tidos
Alfor ins
Alcubi llas
wai kilu
tak agi
gant t
Esper an
beatriz balado
17826 630
scho o
scho en
tsu ji
74313 3970052
Caban e
Cabanilla s
Ampa ran
rizzar di
Mej ias
floral zaragoza
Petr onio
Tranquili dad
greenle es
8170 3579
9270 2396588
9150 8719
9635 207639995
Alo y
Avi to
Bet hania
Den isa
Gan dia
Mus ico
Odi la
fli nt
fes tero
hora k
hora tius
mI LonGa
plu Tocracia
wagen hiem
cow ley
lieu re
agre e
city cvs
4008 80183
forte lingeni
anima tionpro
2968 8439
2218 10
6508 80969
6035 11630
maxi tienda
39253 11
8770 290
24117 332
9553 268508
3180 8449366340
4823 0169
4795 657377
4186 62
goo dier
0322 8451
Algo donales
Lauren cio
Aran juez
hof stett
Leo polda
Esc urial
Tomas a
merca dozo
pila to
Giron ell
Giron ella
Bust uria
77784 747192
Herman as
Bean ManagedCli
Form iguera
sys int
Fontan ars
Frances c
hotels arde
Bartolome a
cementos anfran
0897 1049
2690 28
2109 6784
6118 6493
6109 3505
7154 17
9648 3882
Bib L
Bib iloni
Cente lles
Dul zaina
Dul cinea
FU harte
Gig lio
Lac onich
Lan jaron
Leb rillo
Leb rija
Pons at
Tru jillo
ambros io
aid man
aver al
fly esp
kus unoki
klar wein
sino ple
thi bau
zamp ino
coc teleria
cock neys
cami en
dane liuc
imp erturba
rever end
mbas aguas
moore head
3908 29688439
2319 237634289
1343 60749713
3099 373869
87695 6887475
87695 40261854446
0573 6398
3793 6735
1830 8392
6280 4007
johns on
5119 1165
Arge lagt
Gua ncha
lud lam
barra quer
Zarza lejo
Bonet on
Olivar es
dress ler
crom mie
crom well
east side
Laure les
Policar pa
Policar po
Zuazo la
0197 876956887475
0807 1780
3173 8007611374
4635 391000
4705 1425
4602 2704
5285 8597
5905 9811
7405 6042
7894 2434
9300 234398617
Aza ila
Bei tia
Gat assa
Hero es
Nad ini
Ocho tor
Pul p
bun nag
dEs Enquie
fur tivo
fun dida
spa linger
sko g
leb lond
2582 1306397
7072 1027
9017 29090
9018 3484
9057 2791
0535 506
5570 2502
4739 036015
Colla do
4664 4989
0884 1812
Alor da
Guin cho
gula ger
Carab elli
cry ptography
Monist ca
63019 2545
26074 22784974
03580 24000
Inda lencio
Vilal ba
Giuli ana
Simon etti
Melgar ejo
Andalu ziako
0908 2221
0497 803350
2191 40817315
5205 292790214964
6277 3463
7111 1353
Aman dio
Aya la
Cio mpi
Cart agena
Dau sset
Equ ador
FO ltza
Faus tino
Nim si
Pie dra
Pres entat
Rer A
Sch ulz
Zin edine
Zel mar
cAR mesITa
hall oran
lter n
sed imayr
scu alide
won uk
coN Mut
inf R
8072 3845
patri cio
kol dehoff
blin nie
roz sival
29380 90
2264 6510
9082 133825595036
1686 638
7818 6543030
mary marg
0374 9375
abor recimiento
vala dez
sawy ers
boeh m
russ inov
Barran quet
descom Pag
27532 65172656734
Puy al
Pujo lar
1677 358108107
yoon mo
buck ley
vander bi
Lihu en
phil pelli
Invier no
charles b
winds hiptra
gallo way
Numa ncia
Olimpi ca
walt disn
trasla dadora
angeli ne
Jardin illos
weather l
Betanc ur
0638 4093
3285 7731
4709 387607
4658 6421
4788 743133970052
6233 6583
7855 6514
Aida no
Peni chet
Xix o
aer onato
dur ward
dEr se
kon tou
oat man
pil cher
reno mbrada
cador et
8021 6825962574
dick ens
8510 133826812
9074 6283877
8114 6300588
5689 1172
Alg eciras
Almar gen
gala brue
Roda mila
15940 7817
34485 89549551
40316 256
Castello te
Tah iel
santi tor
Tarsi lia
Esplu gues
Clodo veo
gUE Z
7168 408229054610
7343 251905
9385 68868
Aj untament
Aga ete
Epi fanio
Hir am
Hol guera
Iso ba
Ins tinci
Llen s
Nab il
Nore lia
Ose as
Rat jada
Sall eras
Ud ACI
alar m
fp count
gur adze
had drick
mim s
nadi uska
prat her
scala bri
summer li
wep per
lafor ge
coss ar
care er
pao varat
quen sel
repa jo
rick rd
20317 452
15240 98225377
28828 668
toLE maic
Reino ldo
87759 27993
Entra mbasaguas
98300 353
49679 60229
8238 4047
0186 707
Colu mbretes
Demo ya
zales ka
Alon dra
Alga defe
Alcu dia
water flyesp
nav server
Arrec he
Argen tina
Aranz adi
gaRr AmaR
seid ler
Segui rillas
Espar raguera
Villalo bos
perro tta
17919 949504
Delu jan
16463 2683824
62061 6553439
concur rente
Ricci ardiello
23049 1132945
Sope ira
08513 651148385
Rubia les
Rudol ph
mass inga
Isab ela
Suya i
Vilator ta
Viladeca ns
Belar t
Salus tiano
pren des
91520 697
dany elle
Fornie les
Balle st
hammer sley
Igles ia
kimber ly
hass all
juegos gratisin
boquit ue
Edil ma
necesito curro
0493 2437
42708 654
Ass alt
Amen eiro
EJ BeanManagedCli
Hac EdOr
Neo menia
Ore jas
Oros m
Ris ue
Tx apitela
Tic ketApp
VE GuER
Vas ty
Vul cano
Zaf ra
bed narski
gA Mar
mAR cel
obs tinarse
sri ram
tOR tOs
tRaS PlAnTe
wea k
yeo hoon
endel gadecer
coul son
80856 285
leje une
entreme ter
pata leo
reman oso
40604 241
alAR gUEZ
espe samente
20859 71217083
29383 133
296780 6020727
291705 67
38227 979
22273 1904
64147 2564560
64739 687
60857 90746283877
19404 697797
39890 773
28101 1574027
28898 200135
23330 5243010
13129 8411
85128 607
30760 7123
24394 87997565
check file
94839 637
94288 893
gir ls
idu almente
55059 28898200135
78123 723823
99315 54844
98122 45040414
50110 39662886040
50167 40108
68875 056
88121 17919949504
47610 956
61170 907
01275 2422
54363 24330
CoRd AnTe
58644 944515
98959 4072181
Arres e
Juni or
Balan drau
Corred or
milla ire
this ner
trist anyvio
14335 839
16360 12894
26431 261
Campu sano
Cher cos
33509 10813018179
krzy zewska
Perfec ta
83790 899
24320 656
085124 19
48529 103148
75667 654
deny se
Torremor moj
Torrejon cillo
48972 382
99917 78846189
Cerdan yola
58500 108
91076 650
56321 696
syste ms
91985 80449925
01597 109
52594 102
Llomb art
franquea ble
weis muller
weig el
melon ie
Lesson Temp
Aceit uno
Jerus alen
353015 6004155998
Salvat ore
matsuza k
267766 6876528
410520 502577
5101 1537
535817 1636012894
929320 37
Ao iz
Apa ricio
Ape les
Anche yta
Api cola
Aton do
Atab ales
Atau n
Brat hwaite
Briz uela
Came lia
Ceno bio
Caud iel
Ext rarradio
Eng ARgOL
Epu yen
Eve lio
Eran io
Etor bidea
Emer io
Elis andro
Echet o
EcIA Na
FVal carlos
Fora les
FPin oso
Fines trat
Furn ari
Gur BiA
Gela bert
Gers ol
Gong ora
Gisp ert
Host afrancs
Had dock
Hada sa
Hote litos
Ike diek
Inte MPes
IEn TO
Jadra que
Kasu hiro
Ly nge
Low ery
Laro ya
Most oles
Mux ika
Munda ca
Nci A
Nari ana
Neli ana
Nise as
NES CA
Op imA
Ocha vo
Ovio l
Orella na
Plegad ero
Ria frecha
Rul L
RAm Ad
RIS T
Rando lfo
Relle u
Raspe ig
Renova to
Sus anibar
Smar TicketApp
Sera fin
Sara via
Sasp lug
SUr Ca
Scola ri
Sarras ec
Tagar nina
The o
Trio la
Trid A
Troya no
Traso bares
Urios te
Xin zo
Xavi era
Xiv ert
Yen ina
Zal tron
Zinc ker
aTo NESCA
aka deth
aUs TridA
acarre ar
aPA reCE
beni to
[...]
